{
  "version": "1.0",
  "truncation": null,
  "padding": null,
  "added_tokens": [
    {
      "id": 0,
      "content": "[PAD]",
      "single_word": false,
      "lstrip": false,
      "rstrip": false,
      "normalized": false,
      "special": true
    },
    {
      "id": 1,
      "content": "[BOS]",
      "single_word": false,
      "lstrip": false,
      "rstrip": false,
      "normalized": false,
      "special": true
    },
    {
      "id": 2,
      "content": "[EOS]",
      "single_word": false,
      "lstrip": false,
      "rstrip": false,
      "normalized": false,
      "special": true
    },
    {
      "id": 3,
      "content": "[MASK]",
      "single_word": false,
      "lstrip": false,
      "rstrip": false,
      "normalized": false,
      "special": true
    },
    {
      "id": 4,
      "content": "[SEP]",
      "single_word": false,
      "lstrip": false,
      "rstrip": false,
      "normalized": false,
      "special": true
    },
    {
      "id": 5,
      "content": "[CLS]",
      "single_word": false,
      "lstrip": false,
      "rstrip": false,
      "normalized": false,
      "special": true
    },
    {
      "id": 6,
      "content": "[UNK]",
      "single_word": false,
      "lstrip": false,
      "rstrip": false,
      "normalized": false,
      "special": true
    }
  ],
  "normalizer": {
    "type": "NFKC"
  },
  "pre_tokenizer": {
    "type": "Sequence",
    "pretokenizers": [
      {
        "type": "UnicodeScripts"
      },
      {
        "type": "Digits",
        "individual_digits": false
      },
      {
        "type": "Metaspace",
        "replacement": "▁",
        "add_prefix_space": true
      }
    ]
  },
  "post_processor": null,
  "decoder": {
    "type": "Metaspace",
    "replacement": "▁",
    "add_prefix_space": true
  },
  "model": {
    "type": "Unigram",
    "unk_id": 6,
    "vocab": [
      [
        "[PAD]",
        0.0
      ],
      [
        "[BOS]",
        0.0
      ],
      [
        "[EOS]",
        0.0
      ],
      [
        "[MASK]",
        0.0
      ],
      [
        "[SEP]",
        0.0
      ],
      [
        "[CLS]",
        0.0
      ],
      [
        "[UNK]",
        0.0
      ],
      [
        "▁",
        -1.7328834757185874
      ],
      [
        "ৰ",
        -3.2973834944258087
      ],
      [
        "।",
        -3.4501167429856974
      ],
      [
        ",",
        -4.070639866728046
      ],
      [
        "▁আৰু",
        -4.236926476871464
      ],
      [
        "ত",
        -4.322693393676023
      ],
      [
        "ক",
        -4.743114613398401
      ],
      [
        "'",
        -4.919366319466812
      ],
      [
        "-",
        -4.983290551119719
      ],
      [
        "ে",
        -5.093303342397924
      ],
      [
        "▁কৰা",
        -5.129438747484626
      ],
      [
        "▁হয়",
        -5.145866358048092
      ],
      [
        "ই",
        -5.297675699108915
      ],
      [
        "▁কৰে",
        -5.336301385461871
      ],
      [
        "▁এই",
        -5.338077479302031
      ],
      [
        "(",
        -5.446045255829533
      ],
      [
        "▁তেওঁ",
        -5.562078272903083
      ],
      [
        ")",
        -5.603339575423973
      ],
      [
        "▁পৰা",
        -5.6129034088530165
      ],
      [
        "▁বাবে",
        -5.8135581775306715
      ],
      [
        "ন",
        -5.819973551376014
      ],
      [
        "▁বা",
        -5.820494312298495
      ],
      [
        "▁চনত",
        -5.823578964269167
      ],
      [
        "▁কৰিছিল",
        -5.860188306573095
      ],
      [
        "’",
        -5.914053228783825
      ],
      [
        "▁আছিল",
        -5.9255523517475535
      ],
      [
        "লৈ",
        -5.96708860453994
      ],
      [
        "ী",
        -5.967456400690393
      ],
      [
        "\"",
        -5.9977543280769705
      ],
      [
        "▁হৈছে",
        -6.002479964190334
      ],
      [
        "▁কৰি",
        -6.010019328791012
      ],
      [
        "▁হৈছিল",
        -6.077822453051027
      ],
      [
        "▁হ",
        -6.1389883927753655
      ],
      [
        "▁তেওঁৰ",
        -6.183196763070022
      ],
      [
        "▁৷",
        -6.207393519163265
      ],
      [
        "▁চনৰ",
        -6.207753933096454
      ],
      [
        "ম",
        -6.208477963988614
      ],
      [
        "া",
        -6.215849287085565
      ],
      [
        "ল",
        -6.231674159129154
      ],
      [
        "▁এক",
        -6.281095571576676
      ],
      [
        "ও",
        -6.286567501991637
      ],
      [
        "ো",
        -6.339589630488204
      ],
      [
        "▁ইয়াৰ",
        -6.350618402239496
      ],
      [
        "ছ",
        -6.366587231412
      ],
      [
        "▁হিচাপে",
        -6.377146543541713
      ],
      [
        "▁এটা",
        -6.37755708232587
      ],
      [
        "▁ল",
        -6.379777633391672
      ],
      [
        "য়ে",
        -6.401395651288457
      ],
      [
        "▁:",
        -6.450525584780545
      ],
      [
        "ি",
        -6.45287238633785
      ],
      [
        "▁.",
        -6.462008474223353
      ],
      [
        "▁বুলি",
        -6.522553225969414
      ],
      [
        "▁হৈ",
        -6.530016649960725
      ],
      [
        "▁লাভ",
        -6.549510146519866
      ],
      [
        "▁আছে",
        -6.572273945878118
      ],
      [
        "ৰে",
        -6.5730243041560374
      ],
      [
        "ব",
        -6.596642606976404
      ],
      [
        "▁যায়",
        -6.61094717379825
      ],
      [
        "চ",
        -6.62555134294621
      ],
      [
        "▁অ",
        -6.636550504204791
      ],
      [
        "▁ভাৰতীয়",
        -6.674796457674557
      ],
      [
        "▁সৈতে",
        -6.6782885113346016
      ],
      [
        "টো",
        -6.729060634792628
      ],
      [
        "১",
        -6.745241091276213
      ],
      [
        "▁ব",
        -6.752247484505739
      ],
      [
        "িত",
        -6.7746253979424775
      ],
      [
        "▁আ",
        -6.798336556017047
      ],
      [
        "▁বঁটা",
        -6.798524906567566
      ],
      [
        "▁প্ৰথম",
        -6.812424055656576
      ],
      [
        "ট",
        -6.81466030256772
      ],
      [
        "▁হোৱা",
        -6.826244912330189
      ],
      [
        "▁যে",
        -6.840525683367552
      ],
      [
        "০",
        -6.842076864752846
      ],
      [
        "২",
        -6.851794910423088
      ],
      [
        "▁অসমীয়া",
        -6.859881489060729
      ],
      [
        "কৈ",
        -6.867896484011341
      ],
      [
        "▁কৰিবলৈ",
        -6.877752208002763
      ],
      [
        "না",
        -6.880084450996037
      ],
      [
        "▁থকা",
        -6.880626059949101
      ],
      [
        "▁পিছত",
        -6.880734738473757
      ],
      [
        "তা",
        -6.886224867531693
      ],
      [
        "৩",
        -6.922743614720671
      ],
      [
        "৫",
        -6.923102726346764
      ],
      [
        "▁নাম",
        -6.936318107404528
      ],
      [
        "▁ব্যৱহাৰ",
        -6.9489688427673
      ],
      [
        "হ",
        -6.957098592288425
      ],
      [
        "▁এ",
        -6.957710817345349
      ],
      [
        "জ",
        -6.9676909693843445
      ],
      [
        "▁বিভিন্ন",
        -6.968178826358455
      ],
      [
        "▁সেই",
        -6.977141108038603
      ],
      [
        "য়",
        -6.978914698071975
      ],
      [
        "ভাৱে",
        -6.980318068924042
      ],
      [
        "সমূহ",
        -6.982437264666613
      ],
      [
        "▁আদি",
        -6.996095153281631
      ],
      [
        "▁কৰিব",
        -7.013467089351028
      ],
      [
        "▁ভাৰতৰ",
        -7.0145750983157065
      ],
      [
        "▁এখন",
        -7.015025610280508
      ],
      [
        "প",
        -7.018744332809051
      ],
      [
        "▁জন্ম",
        -7.041360007662119
      ],
      [
        "৭",
        -7.0622575610228395
      ],
      [
        "সকলৰ",
        -7.063348276083147
      ],
      [
        "৬",
        -7.085363977711099
      ],
      [
        "৮",
        -7.0853930557869
      ],
      [
        "লি",
        -7.086089227805655
      ],
      [
        "হে",
        -7.089466286757755
      ],
      [
        "▁দিয়া",
        -7.091161292434785
      ],
      [
        "৪",
        -7.092715760798278
      ],
      [
        "▁আন",
        -7.098503580233935
      ],
      [
        "▁কোনো",
        -7.106572004643075
      ],
      [
        "▁কৰাৰ",
        -7.1120884829165085
      ],
      [
        "▁কৰিছে",
        -7.113728550356042
      ],
      [
        "সকলে",
        -7.115870321168114
      ],
      [
        "ৰা",
        -7.142299002557859
      ],
      [
        "▁দ্বাৰা",
        -7.148755829929202
      ],
      [
        "▁এজন",
        -7.154182270565016
      ],
      [
        "▁সময়ত",
        -7.154685959969687
      ],
      [
        "▁ভিতৰত",
        -7.165485502023593
      ],
      [
        "▁অসম",
        -7.170854062419039
      ],
      [
        "নি",
        -7.189851866392619
      ],
      [
        "▁কাম",
        -7.199781162470092
      ],
      [
        "▁বি",
        -7.202300098030266
      ],
      [
        "▁পোৱা",
        -7.211285858630543
      ],
      [
        "▁অসমৰ",
        -7.215495885960815
      ],
      [
        "লা",
        -7.218668308121485
      ],
      [
        "▁আৰম্ভ",
        -7.220447902841935
      ],
      [
        "্",
        -7.220514971764123
      ],
      [
        "▁এগৰাকী",
        -7.221451231059438
      ],
      [
        "ং",
        -7.224957410818121
      ],
      [
        "▁লগত",
        -7.226293073111611
      ],
      [
        "▁চলচ্চিত্ৰ",
        -7.226900197217342
      ],
      [
        "▁নামৰ",
        -7.229477757437639
      ],
      [
        "কে",
        -7.232260294932134
      ],
      [
        "৯",
        -7.2356032536682875
      ],
      [
        "▁ওপৰত",
        -7.247270191823921
      ],
      [
        "▁প্ৰকাশ",
        -7.251487057616426
      ],
      [
        "▁প্ৰায়",
        -7.265993861573488
      ],
      [
        "ীয়া",
        -7.273070152315816
      ],
      [
        "▁কিন্তু",
        -7.277952842364536
      ],
      [
        "গ",
        -7.2851112434615555
      ],
      [
        "তে",
        -7.301809889865677
      ],
      [
        "বোৰ",
        -7.309449492790463
      ],
      [
        "লে",
        -7.322969420180874
      ],
      [
        "িক",
        -7.328460232005055
      ],
      [
        "টি",
        -7.3415937136533564
      ],
      [
        "▁),",
        -7.351311982626058
      ],
      [
        "ড",
        -7.351454353011208
      ],
      [
        "▁লগতে",
        -7.352335810258204
      ],
      [
        "▁তেওঁক",
        -7.3525518138485015
      ],
      [
        "েই",
        -7.357208014658948
      ],
      [
        "▁পাৰে",
        -7.372454094398114
      ],
      [
        "▁দেখা",
        -7.3742463294564615
      ],
      [
        "▁প্ৰতি",
        -7.3787529633753675
      ],
      [
        "▁মাজত",
        -7.382176971973527
      ],
      [
        "▁থাকে",
        -7.3873679655019675
      ],
      [
        "▁প্ৰদান",
        -7.388362998233756
      ],
      [
        "তকৈ",
        -7.388533957971708
      ],
      [
        "▁কথা",
        -7.38877311406608
      ],
      [
        "▁বিশেষ",
        -7.389027969193181
      ],
      [
        "▁সাহিত্য",
        -7.394788871433898
      ],
      [
        "▁‘",
        -7.3982618173329975
      ],
      [
        "ণ",
        -7.403455023708384
      ],
      [
        "কা",
        -7.417120838109643
      ],
      [
        "▁উত্তৰ",
        -7.417496521981262
      ],
      [
        "মা",
        -7.420407545861471
      ],
      [
        "স",
        -7.4250710044621755
      ],
      [
        "ীয়",
        -7.4313860380308
      ],
      [
        "▁তেওঁলোকৰ",
        -7.443545212626805
      ],
      [
        "খন",
        -7.456630115663266
      ],
      [
        "েৰে",
        -7.459558611153527
      ],
      [
        "▁নিজৰ",
        -7.460554258744629
      ],
      [
        "▁বছৰ",
        -7.4644075110179315
      ],
      [
        "্য",
        -7.466765588399603
      ],
      [
        "▁শিক্ষা",
        -7.4756128796566195
      ],
      [
        "▁দিয়ে",
        -7.479949895793892
      ],
      [
        "শ",
        -7.491020911888649
      ],
      [
        "বি",
        -7.497886280418054
      ],
      [
        ";",
        -7.49837008573877
      ],
      [
        "▁ইয়াক",
        -7.501931664179441
      ],
      [
        "বা",
        -7.50850772622511
      ],
      [
        "▁মূল",
        -7.511739146363487
      ],
      [
        "▁যদিও",
        -7.51724777755466
      ],
      [
        "▁প্ৰ",
        -7.528188988458373
      ],
      [
        "▁গ্ৰহণ",
        -7.53006216784949
      ],
      [
        "▁যি",
        -7.537998445234193
      ],
      [
        "▁২০০",
        -7.544803566679233
      ],
      [
        "দ",
        -7.548871862063558
      ],
      [
        "▁তাৰ",
        -7.555770541482483
      ],
      [
        "▁ভাষা",
        -7.566080459506923
      ],
      [
        "ৱ",
        -7.571678120811454
      ],
      [
        "▁ৰাষ্ট্ৰীয়",
        -7.576349960978238
      ],
      [
        "চি",
        -7.577173092659258
      ],
      [
        "▁সকলো",
        -7.578801869077507
      ],
      [
        "▁দৰে",
        -7.58377645193843
      ],
      [
        "▁ভাৰত",
        -7.592628938320193
      ],
      [
        "সমূহৰ",
        -7.593381507167695
      ],
      [
        "বলৈ",
        -7.595869523683499
      ],
      [
        "ৰি",
        -7.596725191930089
      ],
      [
        "▁অভিনয়",
        -7.59794185675546
      ],
      [
        "▁স",
        -7.621010257838176
      ],
      [
        "▁ছবি",
        -7.627690506553616
      ],
      [
        "▁তেখেতে",
        -7.632269558833681
      ],
      [
        "▁চি",
        -7.639324283423182
      ],
      [
        "াৰ",
        -7.641660895508011
      ],
      [
        "ঁ",
        -7.6442796915672595
      ],
      [
        "▁জীৱন",
        -7.646993284962855
      ],
      [
        "ভ",
        -7.657146425880377
      ],
      [
        "টা",
        -7.662684797455432
      ],
      [
        "▁কোৱা",
        -7.665267516326239
      ],
      [
        "▁টা",
        -7.665680769618161
      ],
      [
        "▁বহু",
        -7.665938829445164
      ],
      [
        "▁অধিক",
        -7.668189965149976
      ],
      [
        "▁মহিলা",
        -7.6723600006794666
      ],
      [
        "▁সৃষ্টি",
        -7.680409075430418
      ],
      [
        "▁১৯৭",
        -7.68144941292519
      ],
      [
        "▁তথা",
        -7.681526855613109
      ],
      [
        "ৰো",
        -7.692374335177961
      ],
      [
        "ছিল",
        -7.696698943170986
      ],
      [
        "▁মে",
        -7.711276645523434
      ],
      [
        "ু",
        -7.725197226364029
      ],
      [
        "▁কিছুমান",
        -7.730060478970856
      ],
      [
        "▁পাছত",
        -7.73280971988018
      ],
      [
        "▁মৃত্যু",
        -7.73896413703949
      ],
      [
        "কো",
        -7.746046390503846
      ],
      [
        "▁দক্ষিণ",
        -7.746263545438813
      ],
      [
        "▁১৯৮",
        -7.7583000353865135
      ],
      [
        "▁দি",
        -7.764318826386496
      ],
      [
        "▁সাধাৰণতে",
        -7.770591859295454
      ],
      [
        "নে",
        -7.770963962958225
      ],
      [
        "▁অংশ",
        -7.773471362044365
      ],
      [
        "▁মতে",
        -7.777950383605088
      ],
      [
        "ফ",
        -7.781547651594845
      ],
      [
        "▁হোৱাৰ",
        -7.78443126225797
      ],
      [
        "▁সু",
        -7.784530350379926
      ],
      [
        "▁ক্ষেত্ৰত",
        -7.785059667179802
      ],
      [
        "য়া",
        -7.786567479472019
      ],
      [
        "▁১৯৫",
        -7.786658272894272
      ],
      [
        "খ",
        -7.7870890517450615
      ],
      [
        "▁বৰ্তমান",
        -7.796040671817389
      ],
      [
        "ছে",
        -7.802175047488413
      ],
      [
        "▁আই",
        -7.804607722043249
      ],
      [
        "▁১৯৯",
        -7.807178953915239
      ],
      [
        "▁গ",
        -7.8157278227255205
      ],
      [
        "▁অৱস্থিত",
        -7.815862092208636
      ],
      [
        "▁য",
        -7.816256593857355
      ],
      [
        "▁লোক",
        -7.8169012645475835
      ],
      [
        "▁নহয়",
        -7.817539246821909
      ],
      [
        "▁১৯৬",
        -7.837564651114585
      ],
      [
        "▁নতুন",
        -7.842591951835374
      ],
      [
        "▁অনুসৰি",
        -7.843030212816521
      ],
      [
        "▁উপ",
        -7.843806677351912
      ],
      [
        "▁প",
        -7.844222388922931
      ],
      [
        "▁প্ৰধান",
        -7.84553335112008
      ],
      [
        "▁জন",
        -7.8545861046260725
      ],
      [
        "▁যেনে",
        -7.854870102377728
      ],
      [
        "▁জিলাৰ",
        -7.855603559337162
      ],
      [
        "▁ইয়াত",
        -7.859189181696225
      ],
      [
        "▁নিৰ্মাণ",
        -7.86134182186734
      ],
      [
        "▁১৯৪",
        -7.863656976678181
      ],
      [
        "তি",
        -7.863868304540484
      ],
      [
        "▁লে",
        -7.864268304763801
      ],
      [
        "▁ফলত",
        -7.869695302739935
      ],
      [
        "মান",
        -7.877117018643521
      ],
      [
        "▁গীত",
        -7.886173901811691
      ],
      [
        "▁ভাষাৰ",
        -7.887392689221308
      ],
      [
        "▁কম",
        -7.887767484763961
      ],
      [
        "▁সংগীত",
        -7.899271896308443
      ],
      [
        "▁ধৰি",
        -7.899455880965627
      ],
      [
        "▁উল্লেখ",
        -7.90652005485507
      ],
      [
        "তো",
        -7.908959079831687
      ],
      [
        "▁সৰু",
        -7.911827653431862
      ],
      [
        "থ",
        -7.9236493030528035
      ],
      [
        "▁এনে",
        -7.924576071286931
      ],
      [
        "▁গ্ৰন্থ",
        -7.925531343325574
      ],
      [
        "ৰী",
        -7.936176904657139
      ],
      [
        "▁১৯৩",
        -7.938939261097021
      ],
      [
        "▁পাৰি",
        -7.939896791068966
      ],
      [
        "▁উচ্চ",
        -7.940963937263216
      ],
      [
        "টোৰ",
        -7.9431163170710875
      ],
      [
        "▁জড়িত",
        -7.943409033920289
      ],
      [
        "▁বিজ্ঞান",
        -7.945496981935352
      ],
      [
        "চা",
        -7.94600550257348
      ],
      [
        "▁দুটা",
        -7.946512210552846
      ],
      [
        "ৰু",
        -7.94786655457009
      ],
      [
        "▁ড",
        -7.949279052810141
      ],
      [
        "লৈকে",
        -7.950703521226075
      ],
      [
        "▁অৱ",
        -7.951911335385446
      ],
      [
        "▁দ্বিতীয়",
        -7.952142659537934
      ],
      [
        "▁ডি",
        -7.9536841745641045
      ],
      [
        "▁তেওঁলোকে",
        -7.9550334770577065
      ],
      [
        "▁হিন্দু",
        -7.960190049807716
      ],
      [
        "▁ৰচনা",
        -7.9605179132014285
      ],
      [
        "▁স্থান",
        -7.963000492381255
      ],
      [
        "▁কৰিলে",
        -7.963511546496933
      ],
      [
        "▁লয়",
        -7.964317164951473
      ],
      [
        "কাৰ",
        -7.968988114028477
      ],
      [
        "জন",
        -7.97243310767192
      ],
      [
        "▁সংখ্যা",
        -7.973146663532732
      ],
      [
        "সকলক",
        -7.975445190113125
      ],
      [
        "▁বিষয়ে",
        -7.978412936740252
      ],
      [
        "▁যাৰ",
        -7.981562802444992
      ],
      [
        "▁সদস্য",
        -7.9825337641499114
      ],
      [
        "▁নাই",
        -7.982584318081525
      ],
      [
        "▁ৰজা",
        -7.989534003352564
      ],
      [
        "ঃ",
        -7.990600900444414
      ],
      [
        "কাৰী",
        -7.990664699039483
      ],
      [
        "▁পি",
        -7.992622754835094
      ],
      [
        "▁ৰূপ",
        -7.995989671426588
      ],
      [
        "জা",
        -7.996118708802977
      ],
      [
        "মি",
        -7.996751320711325
      ],
      [
        "ষ্ট",
        -7.997172030222377
      ],
      [
        "িং",
        -8.00158619513174
      ],
      [
        "হা",
        -8.002036797069476
      ],
      [
        "▁মুখ্য",
        -8.002579016897563
      ],
      [
        "তাৰ",
        -8.00307198124516
      ],
      [
        "▁নি",
        -8.0036813864142
      ],
      [
        "▁ধৰ্ম",
        -8.009050399219728
      ],
      [
        "▁তেখেতৰ",
        -8.021420564902854
      ],
      [
        "▁নামেৰে",
        -8.02442830823788
      ],
      [
        "▁অনুষ্ঠিত",
        -8.024730954320049
      ],
      [
        "▁ম",
        -8.030170199785506
      ],
      [
        "▁অতি",
        -8.035776908419813
      ],
      [
        "▁“",
        -8.037693446461542
      ],
      [
        "লী",
        -8.04099110315994
      ],
      [
        "▁কিছু",
        -8.041328870768966
      ],
      [
        "ৱে",
        -8.045082201119097
      ],
      [
        "▁কে",
        -8.045782572275103
      ],
      [
        "▁নৃত্য",
        -8.047579644386719
      ],
      [
        "▁অন্যান্য",
        -8.049847665955479
      ],
      [
        "▁%",
        -8.050847512891549
      ],
      [
        "▁পায়",
        -8.051481696587661
      ],
      [
        "▁পৰে",
        -8.05160260574905
      ],
      [
        "▁১০",
        -8.058229347911155
      ],
      [
        "নৰ",
        -8.061399067418435
      ],
      [
        "▁পালন",
        -8.062783090556774
      ],
      [
        "পা",
        -8.06502912708695
      ],
      [
        "▁পুত্ৰ",
        -8.06603738792219
      ],
      [
        "▁এটি",
        -8.070348057921901
      ],
      [
        "প্ৰ",
        -8.071552243427831
      ],
      [
        "▁বিশ্বাস",
        -8.080699903733176
      ],
      [
        "▁বিশ্ববিদ্যালয়ৰ",
        -8.081838910584224
      ],
      [
        "▁বিশ্ব",
        -8.086899945839999
      ],
      [
        "হি",
        -8.088546756407354
      ],
      [
        "▁বৰ",
        -8.091331676668418
      ],
      [
        "াই",
        -8.091850788436657
      ],
      [
        "▁দ্য",
        -8.093096171768725
      ],
      [
        "▁কা",
        -8.094645104177456
      ],
      [
        "▁জনা",
        -8.095238495235666
      ],
      [
        "▁অৰ্থ",
        -8.095248865584123
      ],
      [
        "▁লগে",
        -8.096107658015999
      ],
      [
        "সকল",
        -8.09619660564678
      ],
      [
        "▁স্থাপন",
        -8.096707458484364
      ],
      [
        "▁ইংৰাজী",
        -8.100711650815732
      ],
      [
        "▁চে",
        -8.104375221861188
      ],
      [
        "নী",
        -8.104931068591915
      ],
      [
        "▁ডিগ্ৰী",
        -8.1055666845341
      ],
      [
        "▁তাৰিখে",
        -8.11099596270788
      ],
      [
        "দা",
        -8.111227490077829
      ],
      [
        "▁ব্যক্তি",
        -8.111742260876046
      ],
      [
        "▁পূব",
        -8.11421580363601
      ],
      [
        "▁সাধাৰণ",
        -8.117060034574116
      ],
      [
        "▁পুনৰ",
        -8.12099616663798
      ],
      [
        "▁উল্লেখযোগ্য",
        -8.12248769142741
      ],
      [
        "▁পিতৃ",
        -8.122559455016509
      ],
      [
        "▁বৰুৱা",
        -8.127059950069457
      ],
      [
        "▁দেৱী",
        -8.12807102276144
      ],
      [
        "জি",
        -8.131403909595011
      ],
      [
        "ভি",
        -8.1347431100984
      ],
      [
        "▁দিছিল",
        -8.141589101964936
      ],
      [
        "▁শব্দ",
        -8.152783684679836
      ],
      [
        "▁মাহত",
        -8.153522984935108
      ],
      [
        "▁কু",
        -8.158320631200104
      ],
      [
        "▁নাছিল",
        -8.159059329528898
      ],
      [
        "চন",
        -8.159355402102765
      ],
      [
        "পুৰ",
        -8.160174194008215
      ],
      [
        "▁শ্ৰেষ্ঠ",
        -8.160537816029553
      ],
      [
        "▁গুৱাহাটী",
        -8.160687317544117
      ],
      [
        "▁তথ্য",
        -8.166837555197038
      ],
      [
        "▁চন্দ্ৰ",
        -8.167555278610182
      ],
      [
        "▁গঠন",
        -8.17141808123247
      ],
      [
        "▁অন্যতম",
        -8.174540852670745
      ],
      [
        "▁সন্মান",
        -8.183033853865904
      ],
      [
        "▁শিশু",
        -8.186146545960389
      ],
      [
        "ৰাম",
        -8.189258496806861
      ],
      [
        "▁কি",
        -8.190235404165762
      ],
      [
        "▁জিলা",
        -8.194035883156372
      ],
      [
        "▁প্ৰতিষ্ঠা",
        -8.197825200802699
      ],
      [
        "▁সামাজিক",
        -8.203929237516974
      ],
      [
        "পি",
        -8.207100659283874
      ],
      [
        "ৱা",
        -8.208587895567582
      ],
      [
        "▁জনপ্ৰিয়",
        -8.20897428815037
      ],
      [
        "অ",
        -8.210280794624397
      ],
      [
        "▁আইন",
        -8.215533854115488
      ],
      [
        "ডি",
        -8.216088446788273
      ],
      [
        "▁মুক্তি",
        -8.221687711105155
      ],
      [
        "▁অন্তৰ্ভুক্ত",
        -8.224651798016009
      ],
      [
        "উ",
        -8.231335770914228
      ],
      [
        "ধ",
        -8.232022714940788
      ],
      [
        "▁সময়",
        -8.235027312588937
      ],
      [
        "▁১৫",
        -8.235106427764283
      ],
      [
        "▁মুঠ",
        -8.243446693802875
      ],
      [
        "▁কাৰণ",
        -8.243643655398682
      ],
      [
        "▁কবি",
        -8.243981001760314
      ],
      [
        "▁শ",
        -8.244870659995005
      ],
      [
        "▁ভাষাত",
        -8.249691922780013
      ],
      [
        "▁বহুতো",
        -8.25365371872152
      ],
      [
        "▁আহোম",
        -8.260454181885382
      ],
      [
        "▁পৰিচালক",
        -8.26454111653901
      ],
      [
        "▁গৱেষণা",
        -8.26542583760775
      ],
      [
        "ৈ",
        -8.266818516270412
      ],
      [
        "▁আটাই",
        -8.267858315015758
      ],
      [
        "▁ব্যৱস্থা",
        -8.273066312514858
      ],
      [
        "▁মাতৃ",
        -8.275953752551336
      ],
      [
        "▁দেশ",
        -8.27969570123081
      ],
      [
        "▁ৰাজ্য",
        -8.280305670383928
      ],
      [
        "▁ব্ৰিটিছ",
        -8.28439309137331
      ],
      [
        "▁কবিতা",
        -8.286689764156243
      ],
      [
        "▁অঞ্চল",
        -8.287275239713455
      ],
      [
        "▁পশ্চিম",
        -8.292219877100365
      ],
      [
        "▁উ",
        -8.292439051123765
      ],
      [
        "খা",
        -8.292999453452396
      ],
      [
        "▁আহিছে",
        -8.294511514589935
      ],
      [
        "ভা",
        -8.29678118648469
      ],
      [
        "িয়া",
        -8.297977063483739
      ],
      [
        "▁কেৱল",
        -8.29818216343097
      ],
      [
        "▁যোগ",
        -8.301612878088768
      ],
      [
        "▁অধ্যয়ন",
        -8.302308972317277
      ],
      [
        "▁তেতিয়া",
        -8.303169604714647
      ],
      [
        "▁কাহিনী",
        -8.307048370184937
      ],
      [
        "▁ডাঙৰ",
        -8.312451978404852
      ],
      [
        "▁ৰাজ",
        -8.312472422881418
      ],
      [
        "▁মি",
        -8.313026314295952
      ],
      [
        "▁/",
        -8.314209155261477
      ],
      [
        "▁পৰিচালনা",
        -8.316793886272297
      ],
      [
        "▁কলা",
        -8.322645487903095
      ],
      [
        "বাৰ",
        -8.32394784278808
      ],
      [
        "মূলক",
        -8.326974694425148
      ],
      [
        "▁জ",
        -8.32757271240984
      ],
      [
        "▁)।",
        -8.330348767599038
      ],
      [
        "▁চিকিৎসা",
        -8.334621484949773
      ],
      [
        "▁অন্য",
        -8.336809295913532
      ],
      [
        "▁মু",
        -8.3377443214298
      ],
      [
        "▁লোৱা",
        -8.338215681184082
      ],
      [
        "▁জৰিয়তে",
        -8.338557011287868
      ],
      [
        "▁মানুহৰ",
        -8.34599869685601
      ],
      [
        "কি",
        -8.346003101270178
      ],
      [
        "▁বে",
        -8.349963820841953
      ],
      [
        "▁সমাজ",
        -8.350226217601598
      ],
      [
        "▁বেছি",
        -8.35219415531116
      ],
      [
        "▁বৰ্ণনা",
        -8.353173301663752
      ],
      [
        "▁অৰ্থাৎ",
        -8.36153724290683
      ],
      [
        "▁শেষ",
        -8.363249165669941
      ],
      [
        "ষ",
        -8.363464106133545
      ],
      [
        "▁চৰকাৰে",
        -8.367975086414644
      ],
      [
        "▁শক্তি",
        -8.36837420749098
      ],
      [
        "▁সহায়",
        -8.369847351740805
      ],
      [
        "▁জি",
        -8.374040292738924
      ],
      [
        "▁মহাবিদ্যালয়",
        -8.374809911105157
      ],
      [
        "▁উপৰিও",
        -8.378116784534239
      ],
      [
        "▁১২",
        -8.379482361625843
      ],
      [
        "▁পূজা",
        -8.382822105586314
      ],
      [
        "▁এছ",
        -8.386094232930091
      ],
      [
        "▁চ",
        -8.388511530784351
      ],
      [
        "▁কয়",
        -8.392060394595326
      ],
      [
        "▁ৰাজ্যৰ",
        -8.395613435114878
      ],
      [
        "▁মা",
        -8.396231083835866
      ],
      [
        "▁২০১১",
        -8.398283611458151
      ],
      [
        "▁দিৱস",
        -8.400570546485593
      ],
      [
        "▁অঞ্চলত",
        -8.40108237276435
      ],
      [
        "▁অৱশ্যে",
        -8.401876331926903
      ],
      [
        "▁এম",
        -8.403522785446352
      ],
      [
        "▁কুমাৰ",
        -8.405305506346334
      ],
      [
        "ৌ",
        -8.405748313587829
      ],
      [
        "▁দল",
        -8.407350195166789
      ],
      [
        "▁খাদ্য",
        -8.40915031487793
      ],
      [
        "▁চৰকাৰৰ",
        -8.41005447264423
      ],
      [
        "▁বিৰুদ্ধে",
        -8.414034247241704
      ],
      [
        "▁উৎসৱ",
        -8.414970328310279
      ],
      [
        "▁ভাগ",
        -8.416195674205426
      ],
      [
        "▁শতিকাৰ",
        -8.420251859062267
      ],
      [
        "▁লাগে",
        -8.423071246792802
      ],
      [
        "▁প্ৰভাৱ",
        -8.423165703882987
      ],
      [
        "▁বৃদ্ধি",
        -8.423918856595513
      ],
      [
        "▁জে",
        -8.42496534775492
      ],
      [
        "▁জানুৱাৰী",
        -8.426905151507537
      ],
      [
        "ণ্ড",
        -8.42793244267876
      ],
      [
        "▁সন্তান",
        -8.431266752160742
      ],
      [
        "▁দিন",
        -8.431355545100008
      ],
      [
        "চে",
        -8.431564332511673
      ],
      [
        "গা",
        -8.432066718510232
      ],
      [
        "▁অভিনেত্ৰী",
        -8.434679538905806
      ],
      [
        "▁চৰকাৰী",
        -8.434819533076293
      ],
      [
        "▁আহে",
        -8.43558578123055
      ],
      [
        "▁সম্পূৰ্ণ",
        -8.435816536312412
      ],
      [
        "▁১৯২",
        -8.437414939723848
      ],
      [
        "▁সংযোগ",
        -8.440889496746589
      ],
      [
        "▁ৰাজনৈতিক",
        -8.441131301855542
      ],
      [
        "▁গুৰুত্বপূৰ্ণ",
        -8.444042416018181
      ],
      [
        "সমূহত",
        -8.444430017308036
      ],
      [
        "গত",
        -8.447677370417576
      ],
      [
        "▁খন",
        -8.447886493361082
      ],
      [
        "▁লিখা",
        -8.448138869576471
      ],
      [
        "▁পানী",
        -8.448736110864441
      ],
      [
        "বৰ",
        -8.450944911155707
      ],
      [
        "▁তেখেত",
        -8.452821440974617
      ],
      [
        "▁বিবাহ",
        -8.453313928431403
      ],
      [
        "▁বিদ্যালয়",
        -8.453979925682358
      ],
      [
        "তঃ",
        -8.45406330596552
      ],
      [
        "▁জাতীয়",
        -8.454102136578332
      ],
      [
        "েল",
        -8.454875929535184
      ],
      [
        "▁একে",
        -8.454932817722106
      ],
      [
        "▁সম্পাদক",
        -8.456630132212869
      ],
      [
        "মে",
        -8.457891980916106
      ],
      [
        "▁গণ্য",
        -8.458206157296365
      ],
      [
        "▁অধিকাৰ",
        -8.458362506718576
      ],
      [
        "▁সেৱা",
        -8.46077880736942
      ],
      [
        "যুক্ত",
        -8.462216850316555
      ],
      [
        "▁সাহিত্যিক",
        -8.462926685752183
      ],
      [
        "▁১৪",
        -8.468401873271837
      ],
      [
        "▁হিন্দী",
        -8.474729122965684
      ],
      [
        "▁২০",
        -8.480327288565476
      ],
      [
        "▁১৬",
        -8.480586312535621
      ],
      [
        "▁পুৰুষ",
        -8.481294784526536
      ],
      [
        "▁আমেৰিকা",
        -8.483839990944148
      ],
      [
        "▁আধুনিক",
        -8.48427896471813
      ],
      [
        "▁পৰি",
        -8.488488208196614
      ],
      [
        "▁স্বাধীনতা",
        -8.489113109146327
      ],
      [
        "▁মানৱ",
        -8.489215236140229
      ],
      [
        "ৰপৰা",
        -8.489454860925965
      ],
      [
        "েন",
        -8.490915944722747
      ],
      [
        "▁লেখক",
        -8.492395677527206
      ],
      [
        "নাথ",
        -8.493771005746144
      ],
      [
        "▁১১",
        -8.495668216612074
      ],
      [
        "ঙ",
        -8.49624634786462
      ],
      [
        "▁জীৱনৰ",
        -8.496703680993466
      ],
      [
        "▁২০১২",
        -8.498275195221922
      ],
      [
        "▁ফুল",
        -8.498890608239616
      ],
      [
        "▁যেতিয়া",
        -8.49995347492193
      ],
      [
        "্যা",
        -8.500048292828408
      ],
      [
        "▁প্ৰকাশিত",
        -8.507690927586548
      ],
      [
        "▁পা",
        -8.510072346624783
      ],
      [
        "▁অনুষ্ঠান",
        -8.511024765854982
      ],
      [
        "▁প্ৰদৰ্শন",
        -8.511221009543096
      ],
      [
        "ক্ষ",
        -8.51221020443327
      ],
      [
        "▁মহিলাৰ",
        -8.51895415895792
      ],
      [
        "▁কেন্দ্ৰ",
        -8.519123216353396
      ],
      [
        "▁নিৰ্বাচিত",
        -8.52181858805152
      ],
      [
        "▁মহা",
        -8.522265364024875
      ],
      [
        "▁এণ্ড",
        -8.522861787233893
      ],
      [
        "▁অভিনেতা",
        -8.523822511929954
      ],
      [
        "▁প্ৰাচীন",
        -8.529257993917366
      ],
      [
        "▁ৰখা",
        -8.531095683277169
      ],
      [
        "▁আহি",
        -8.53119917985638
      ],
      [
        "ছা",
        -8.532306396617756
      ],
      [
        "▁ঘোষণা",
        -8.535071624104813
      ],
      [
        "▁উপন্যাস",
        -8.538730829763239
      ],
      [
        "▁শ্ৰী",
        -8.539206500502805
      ],
      [
        "▁লা",
        -8.540985837111837
      ],
      [
        "ণ্ট",
        -8.541506598955856
      ],
      [
        "▁ভাৰতত",
        -8.542228645613156
      ],
      [
        "▁যোৱা",
        -8.545228965417023
      ],
      [
        "▁গৈছিল",
        -8.546149283321553
      ],
      [
        "ূ",
        -8.548936568913767
      ],
      [
        "▁প্ৰতিষ্ঠান",
        -8.549453720975677
      ],
      [
        "▁পে",
        -8.551446903975156
      ],
      [
        "▁দুই",
        -8.553179458339832
      ],
      [
        "▁পথ",
        -8.553218508156041
      ],
      [
        "▁পৰৱৰ্তী",
        -8.55337529652336
      ],
      [
        "▁ঠাইত",
        -8.556234356666991
      ],
      [
        "▁সময়ৰ",
        -8.559235264688091
      ],
      [
        "▁দেৱ",
        -8.561541436173306
      ],
      [
        "▁বিজয়ী",
        -8.562522831523985
      ],
      [
        "▁ৰাম",
        -8.563253268373579
      ],
      [
        "▁পিছলৈ",
        -8.563731038265265
      ],
      [
        "▁চিত্ৰ",
        -8.56441291314371
      ],
      [
        "টোৱে",
        -8.564860402472135
      ],
      [
        "কু",
        -8.565656846045394
      ],
      [
        "এ",
        -8.566187302824542
      ],
      [
        "▁ছাত্ৰ",
        -8.566600149966558
      ],
      [
        "ঙ্গ",
        -8.569703204360124
      ],
      [
        "▁ধৰণৰ",
        -8.57090463458033
      ],
      [
        "বোৰৰ",
        -8.57162071806125
      ],
      [
        "▁এতিয়া",
        -8.573465402805086
      ],
      [
        "▁অফ",
        -8.573619513092472
      ],
      [
        "▁প্ৰস্তুত",
        -8.574593124144887
      ],
      [
        "▁আনহাতে",
        -8.577355889382815
      ],
      [
        "ঘৰ",
        -8.577903223062677
      ],
      [
        "▁সক্ষম",
        -8.580634740186124
      ],
      [
        "▁মন্দিৰ",
        -8.581628627475261
      ],
      [
        "িকা",
        -8.583022229485056
      ],
      [
        "▁প্ৰবন্ধ",
        -8.585143648318152
      ],
      [
        "▁ৰোগ",
        -8.585158410382615
      ],
      [
        "মেন",
        -8.588369213671914
      ],
      [
        "▁তৃতীয়",
        -8.58848760800901
      ],
      [
        "▁যৌন",
        -8.588762625689792
      ],
      [
        "▁দেশৰ",
        -8.58953794748491
      ],
      [
        "▁মন",
        -8.590058583068037
      ],
      [
        "▁”",
        -8.590301779216418
      ],
      [
        "্ব",
        -8.590857850300583
      ],
      [
        "▁ভূমিকা",
        -8.591031715018552
      ],
      [
        "বাদ",
        -8.593715298747641
      ],
      [
        "▁সমগ্ৰ",
        -8.594779238445003
      ],
      [
        "▁নাৰী",
        -8.595841405266032
      ],
      [
        "▁তিনি",
        -8.596579345547834
      ],
      [
        "▁স্থানীয়",
        -8.597709463108774
      ],
      [
        "বে",
        -8.599055465505021
      ],
      [
        "▁সা",
        -8.60228862586882
      ],
      [
        "▁নাটক",
        -8.602716842222662
      ],
      [
        "▁তৈয়াৰ",
        -8.603301106132946
      ],
      [
        "▁১৩",
        -8.60494856017516
      ],
      [
        "▁বিয়া",
        -8.605592267088326
      ],
      [
        "জী",
        -8.607457844480237
      ],
      [
        "▁পদাৰ্থ",
        -8.614911515656342
      ],
      [
        "▁অহা",
        -8.618424278339514
      ],
      [
        "▁নিয়ম",
        -8.618691890908615
      ],
      [
        "েশ্বৰ",
        -8.61877484946534
      ],
      [
        "▁চৰিত্ৰ",
        -8.619242398988584
      ],
      [
        "ন্ত",
        -8.626036213637768
      ],
      [
        "▁স্বীকৃতি",
        -8.627402458466214
      ],
      [
        "▁স্নাতক",
        -8.632499937609786
      ],
      [
        "▁যিয়ে",
        -8.633285993767755
      ],
      [
        "▁যোগদান",
        -8.63338744241406
      ],
      [
        "▁চু",
        -8.633966337350959
      ],
      [
        "চাৰ",
        -8.634854231724674
      ],
      [
        "ীয়ে",
        -8.638224588161268
      ],
      [
        "▁২০১০",
        -8.638995785694975
      ],
      [
        "▁ভ",
        -8.63942432901423
      ],
      [
        "▁ভাল",
        -8.641191536383971
      ],
      [
        "▁বিশ্ববিদ্যালয়",
        -8.643927201190577
      ],
      [
        "▁২০১৩",
        -8.644511007981448
      ],
      [
        "▁শিল্পী",
        -8.645263507164046
      ],
      [
        "ান",
        -8.646357607203075
      ],
      [
        "▁এন",
        -8.648700913502605
      ],
      [
        "▁পাৰ",
        -8.649721547382283
      ],
      [
        "▁চা",
        -8.651896023494153
      ],
      [
        "▁কন্যা",
        -8.652458377220892
      ],
      [
        "▁চাৰি",
        -8.654000203914734
      ],
      [
        "শি",
        -8.654439975414682
      ],
      [
        "▁সংগ্ৰহ",
        -8.655677441895701
      ],
      [
        "▁হা",
        -8.657564036158515
      ],
      [
        "▁বাস",
        -8.659733242094486
      ],
      [
        "জে",
        -8.659972955794274
      ],
      [
        "▁কৰ্ম",
        -8.660698134649724
      ],
      [
        "▁আল",
        -8.661119467180324
      ],
      [
        "জু",
        -8.661686461522763
      ],
      [
        "▁গল্প",
        -8.663703958167849
      ],
      [
        "▁হাতত",
        -8.66410090436317
      ],
      [
        "▁অঞ্চলৰ",
        -8.665243968151737
      ],
      [
        "আ",
        -8.6664497329134
      ],
      [
        "▁',",
        -8.66883229871011
      ],
      [
        "▁ইণ্ডিয়া",
        -8.668965583395515
      ],
      [
        "▁দেৱতা",
        -8.671123441465642
      ],
      [
        "▁গৈছে",
        -8.67170257958649
      ],
      [
        "হু",
        -8.673003145618544
      ],
      [
        "▁পৰাই",
        -8.674077688976569
      ],
      [
        "▁নীতি",
        -8.675133172267163
      ],
      [
        "▁প্ৰচলিত",
        -8.675648641716151
      ],
      [
        "▁সৰ্ব",
        -8.676208262844447
      ],
      [
        "ৰাজ",
        -8.677121104540024
      ],
      [
        "▁গুৰু",
        -8.679257263425981
      ],
      [
        "মু",
        -8.681548826113072
      ],
      [
        "▁জয়",
        -8.682080131943739
      ],
      [
        "োৱা",
        -8.682690151499846
      ],
      [
        "▁২০১৪",
        -8.684369761982293
      ],
      [
        "▁ঠাই",
        -8.685929348861787
      ],
      [
        "▁পদক",
        -8.687797321268988
      ],
      [
        "▁পুৰণি",
        -8.68803850472991
      ],
      [
        "দি",
        -8.68866289520282
      ],
      [
        "▁ৰা",
        -8.688917124079854
      ],
      [
        "▁পত্নী",
        -8.690845548420445
      ],
      [
        "▁অৰ্জন",
        -8.693254057669296
      ],
      [
        "▁সম্পৰ্ক",
        -8.693329861998517
      ],
      [
        "▁অনা",
        -8.694463076922553
      ],
      [
        "থা",
        -8.694738583005108
      ],
      [
        "▁২০১৯",
        -8.695922174638817
      ],
      [
        "▁নদী",
        -8.698026671040976
      ],
      [
        "▁গা",
        -8.698101499847901
      ],
      [
        "▁যথেষ্ট",
        -8.699032548242156
      ],
      [
        "▁ছা",
        -8.699556816067117
      ],
      [
        "িয়ান",
        -8.699564579282377
      ],
      [
        "▁দু",
        -8.700411902272497
      ],
      [
        "▁মৃত্যুৰ",
        -8.701004542039254
      ],
      [
        "▁ফ",
        -8.702173205867695
      ],
      [
        "▁খ",
        -8.702483267889825
      ],
      [
        "▁৩০",
        -8.702821351178589
      ],
      [
        "▁খেল",
        -8.702922017171645
      ],
      [
        "▁ঘটনা",
        -8.704646117095852
      ],
      [
        "▁বিষয়",
        -8.705605828093422
      ],
      [
        "ঞ্জ",
        -8.705680887508745
      ],
      [
        "বিদ",
        -8.706118872060266
      ],
      [
        "▁জ্ঞান",
        -8.706737162579284
      ],
      [
        "▁দা",
        -8.707476400512466
      ],
      [
        "▁এবিধ",
        -8.708656274489162
      ],
      [
        "▁শিৱ",
        -8.710779920888278
      ],
      [
        "▁গৰাকী",
        -8.711347058067982
      ],
      [
        "▁এল",
        -8.71216547347035
      ],
      [
        "▁সলনি",
        -8.71243566359716
      ],
      [
        "লু",
        -8.712840545868275
      ],
      [
        "▁তিনিটা",
        -8.715220572068578
      ],
      [
        "▁অংশগ্ৰহণ",
        -8.717415773962045
      ],
      [
        "▁লক্ষ্য",
        -8.718506863186327
      ],
      [
        "▁অধ্যাপক",
        -8.719197451637601
      ],
      [
        "▁আৰ",
        -8.719700721855911
      ],
      [
        "▁ধাৰণা",
        -8.722519787532725
      ],
      [
        "স্ত",
        -8.723481833117587
      ],
      [
        "▁পৰম্পৰাগত",
        -8.723755462872447
      ],
      [
        "▁ধৰা",
        -8.723891281359329
      ],
      [
        "▁পৰিয়ালৰ",
        -8.725140035901873
      ],
      [
        "▁আক্ৰমণ",
        -8.727600592802753
      ],
      [
        "▁ইত্যাদি",
        -8.729053485493644
      ],
      [
        "▁অসমত",
        -8.731395505253131
      ],
      [
        "▁যুদ্ধ",
        -8.733125276004172
      ],
      [
        "কৰণ",
        -8.733477363133797
      ],
      [
        "▁আগবঢ়োৱা",
        -8.734401088083372
      ],
      [
        "▁বিষয়া",
        -8.735452651314434
      ],
      [
        "▁অনুবাদ",
        -8.73563105432215
      ],
      [
        "ায়",
        -8.73882733148993
      ],
      [
        "▁মিটাৰ",
        -8.738978820353388
      ],
      [
        "▁বিশ্বৰ",
        -8.739746069947344
      ],
      [
        "▁গছ",
        -8.741244192605183
      ],
      [
        "▁ব্যক্তিগত",
        -8.741684116257574
      ],
      [
        "স্",
        -8.742641584077633
      ],
      [
        "▁পাইছিল",
        -8.743362933615582
      ],
      [
        "ভাবে",
        -8.744256265671105
      ],
      [
        "▁স্কুল",
        -8.744325180063134
      ],
      [
        "▁কেন্দ্ৰীয়",
        -8.745181783182563
      ],
      [
        "▁ৰূপে",
        -8.745228792487975
      ],
      [
        "▁স্বাস্থ্য",
        -8.74860397875581
      ],
      [
        "▁ইতিহাস",
        -8.750296177907469
      ],
      [
        "▁লগ",
        -8.750459225202874
      ],
      [
        "▁দাস",
        -8.75048237987042
      ],
      [
        "▁২০১৫",
        -8.750782579862223
      ],
      [
        "▁প্ৰাথমিক",
        -8.751396480193147
      ],
      [
        "▁মাৰ্চ",
        -8.752935651181861
      ],
      [
        "▁অন্তৰ্গত",
        -8.753001700635998
      ],
      [
        "▁সেয়ে",
        -8.753720667415
      ],
      [
        "▁আমেৰিকান",
        -8.754417440198809
      ],
      [
        "খিনি",
        -8.754475751471634
      ],
      [
        "▁১৯১",
        -8.754518944490252
      ],
      [
        "ত্ব",
        -8.754800361006964
      ],
      [
        "▁১৭",
        -8.75503908251292
      ],
      [
        "▁আদিৰ",
        -8.756207601164675
      ],
      [
        "▁সংস্কৃত",
        -8.7575527556708
      ],
      [
        "▁পৃথক",
        -8.759218183543027
      ],
      [
        "▁বঙালী",
        -8.762193403839738
      ],
      [
        "▁অধীনত",
        -8.762296883442723
      ],
      [
        "খনৰ",
        -8.76303942428597
      ],
      [
        "▁আন্তঃৰাষ্ট্ৰীয়",
        -8.765179261518124
      ],
      [
        "▁সহ",
        -8.76552318128096
      ],
      [
        "▁দিব",
        -8.766346865297715
      ],
      [
        "▁মানুহ",
        -8.7664512805704
      ],
      [
        "▁দায়িত্ব",
        -8.766961439679452
      ],
      [
        "▁সিদ্ধান্ত",
        -8.768691446836872
      ],
      [
        "▁মধ্য",
        -8.771312118048874
      ],
      [
        "▁চলচ্চিত্ৰৰ",
        -8.77132675057856
      ],
      [
        "শা",
        -8.77231415599833
      ],
      [
        "▁লৈছিল",
        -8.772404501325573
      ],
      [
        "▁চাহ",
        -8.773083844620878
      ],
      [
        "▁দীঘল",
        -8.774339529647456
      ],
      [
        "▁বছৰৰ",
        -8.776542533426008
      ],
      [
        "▁গোট",
        -8.776634198223464
      ],
      [
        "▁বিখ্যাত",
        -8.77819432729719
      ],
      [
        "▁মান",
        -8.780091079224047
      ],
      [
        "▁পদ",
        -8.78071462986037
      ],
      [
        "▁২০১৮",
        -8.782277479096408
      ],
      [
        "▁পৰিচয়",
        -8.7830604622242
      ],
      [
        "▁ইন",
        -8.783446502938709
      ],
      [
        "▁গুৰুত্ব",
        -8.784805423478616
      ],
      [
        "গৰাকী",
        -8.785092848139126
      ],
      [
        "▁২০১৬",
        -8.785497156780789
      ],
      [
        "▁সম",
        -8.785559258063369
      ],
      [
        "▁আগতে",
        -8.786447271940581
      ],
      [
        "▁খেলুৱৈ",
        -8.78789397905997
      ],
      [
        "▁হত্যা",
        -8.787902213527566
      ],
      [
        "নাম",
        -8.789164507096093
      ],
      [
        "▁সাংস্কৃতিক",
        -8.789511447939855
      ],
      [
        "▁পদ্ধতি",
        -8.793582923314545
      ],
      [
        "য়াৰ",
        -8.79439528285851
      ],
      [
        "য",
        -8.794528138134421
      ],
      [
        "▁যিটো",
        -8.79455610683414
      ],
      [
        "▁১৯",
        -8.796228230677764
      ],
      [
        "▁২০১",
        -8.79643899982064
      ],
      [
        "▁বোলা",
        -8.79841434371442
      ],
      [
        "▁পৃথিৱীৰ",
        -8.798473123242989
      ],
      [
        "▁মাহ",
        -8.798642794137635
      ],
      [
        "▁অনু",
        -8.799246144533658
      ],
      [
        "টে",
        -8.803277386976246
      ],
      [
        "ন্দ",
        -8.803594756710616
      ],
      [
        "▁কৃষি",
        -8.804189938772094
      ],
      [
        "ৰণ",
        -8.8060325555163
      ],
      [
        "সা",
        -8.808058763443018
      ],
      [
        "▁কেইবাটাও",
        -8.809957878851552
      ],
      [
        "▁বৰা",
        -8.810360469456008
      ],
      [
        "নাৰ",
        -8.810638951834106
      ],
      [
        "▁তাত",
        -8.811378150535552
      ],
      [
        "▁উৎপাদন",
        -8.81314928140824
      ],
      [
        "▁ধৰ্মীয়",
        -8.814212597309456
      ],
      [
        "▁নগৰ",
        -8.814320429901667
      ],
      [
        "▁হাৰ",
        -8.817477553646363
      ],
      [
        "ৰূপে",
        -8.817861548772221
      ],
      [
        "থি",
        -8.81842427296862
      ],
      [
        "▁ছবিৰ",
        -8.823440851995024
      ],
      [
        "ঠ",
        -8.824376750713105
      ],
      [
        "▁০০০",
        -8.825048090434478
      ],
      [
        "▁বিকাশ",
        -8.828631812078275
      ],
      [
        "▁ডে",
        -8.829663383709978
      ],
      [
        "▁ফা",
        -8.82969526331307
      ],
      [
        "▁ভি",
        -8.830023461055918
      ],
      [
        "▁মুকলি",
        -8.830836213982586
      ],
      [
        "▁ঘৰ",
        -8.833726012609562
      ],
      [
        "▁নে",
        -8.83557543528864
      ],
      [
        "▁২০০৯",
        -8.838535518414409
      ],
      [
        "▁জীৱ",
        -8.840341857429934
      ],
      [
        "▁শৰ্মা",
        -8.840841792857908
      ],
      [
        "▁দলৰ",
        -8.841338449988733
      ],
      [
        "▁এৰি",
        -8.843723353681714
      ],
      [
        "ফা",
        -8.845209067393043
      ],
      [
        "▁সুবিধা",
        -8.845686390371213
      ],
      [
        "▁শিক্ষক",
        -8.846132975739001
      ],
      [
        "▁ফল",
        -8.846244484314123
      ],
      [
        "▁প্ৰথমে",
        -8.846282023784248
      ],
      [
        "▁২৫",
        -8.848083802017108
      ],
      [
        "▁কাল",
        -8.848127717779048
      ],
      [
        "▁ৰূপত",
        -8.849766578634958
      ],
      [
        "▁সংকলন",
        -8.850414663266365
      ],
      [
        "▁ছি",
        -8.850867927710564
      ],
      [
        "▁ওচৰত",
        -8.852500382981933
      ],
      [
        "▁২০২০",
        -8.853862771579248
      ],
      [
        "▁কাৰ্য",
        -8.854856830981005
      ],
      [
        "▁প্ৰৱেশ",
        -8.856232311485893
      ],
      [
        "▁সভাপতি",
        -8.85634880699412
      ],
      [
        "▁প্ৰয়োগ",
        -8.856454707775963
      ],
      [
        "▁মাধ্যমিক",
        -8.85759072245464
      ],
      [
        "▁প্ৰশিক্ষণ",
        -8.85818642650315
      ],
      [
        "▁গুণ",
        -8.85960314209688
      ],
      [
        "▁ধন",
        -8.859952532878548
      ],
      [
        "▁পৰীক্ষা",
        -8.860059321935475
      ],
      [
        "বাদী",
        -8.862195919600227
      ],
      [
        "▁হাত",
        -8.862701687139523
      ],
      [
        "▁উদ্ভিদ",
        -8.862898696686635
      ],
      [
        "▁আলোচনা",
        -8.86340458529041
      ],
      [
        "▁অভি",
        -8.86391042491642
      ],
      [
        "িন",
        -8.864903791080927
      ],
      [
        "▁গৈ",
        -8.865556210915427
      ],
      [
        "িনী",
        -8.868514641521106
      ],
      [
        "▁দত্ত",
        -8.868651197212571
      ],
      [
        "ঙা",
        -8.871346585378372
      ],
      [
        "দ্ৰ",
        -8.874245469007814
      ],
      [
        "ক্স",
        -8.874928797402594
      ],
      [
        "▁দিনা",
        -8.875784219887947
      ],
      [
        "▁বন",
        -8.87605319565186
      ],
      [
        "ধৰ",
        -8.877111979792655
      ],
      [
        "▁বৌদ্ধ",
        -8.87988178531581
      ],
      [
        "▁ধৰ্মৰ",
        -8.880407274064796
      ],
      [
        "▁সত্য",
        -8.88178911739619
      ],
      [
        "▁ইউ",
        -8.883889151545825
      ],
      [
        "কৌ",
        -8.884131207735686
      ],
      [
        "▁ছোৱালী",
        -8.884248243538696
      ],
      [
        "▁বৃহৎ",
        -8.884565161299072
      ],
      [
        "▁মাহৰ",
        -8.884907172827795
      ],
      [
        "▁মূল্য",
        -8.884955640226961
      ],
      [
        "▁তদুপৰ",
        -8.885530001764279
      ],
      [
        "ব্য",
        -8.885976817655024
      ],
      [
        "▁ৰাজধানী",
        -8.886320570363512
      ],
      [
        "▁বয়সত",
        -8.886978698262258
      ],
      [
        "▁১৮",
        -8.887158510539994
      ],
      [
        "▁কাৰণে",
        -8.888198914679815
      ],
      [
        "ঞ্চ",
        -8.889438742326934
      ],
      [
        "▁জুন",
        -8.890216820228176
      ],
      [
        "▁কেতিয়াবা",
        -8.890831094237019
      ],
      [
        "পাৰ",
        -8.891334183252592
      ],
      [
        "▁কৃষ্ণ",
        -8.893859738130649
      ],
      [
        "▁প্ৰয়োজন",
        -8.894628191072776
      ],
      [
        "লাৰ",
        -8.895403310243278
      ],
      [
        "▁–",
        -8.895843300017898
      ],
      [
        "▁বিভাগৰ",
        -8.898700855035447
      ],
      [
        "▁বেংক",
        -8.900471031366084
      ],
      [
        "পূৰ্ণ",
        -8.900704326878403
      ],
      [
        "ংগ",
        -8.903504187183243
      ],
      [
        "প্ৰাপ্ত",
        -8.904777372530962
      ],
      [
        "▁যিকোনো",
        -8.905222756489248
      ],
      [
        "▁জনাজাত",
        -8.905399168090252
      ],
      [
        "▁লোকৰ",
        -8.905711890050373
      ],
      [
        "িষ্ট",
        -8.905714640793496
      ],
      [
        "▁প্ৰাৰম্ভিক",
        -8.907041575076889
      ],
      [
        "▁কামৰূপ",
        -8.911184795843884
      ],
      [
        "টোক",
        -8.911342908224329
      ],
      [
        "▁বেল",
        -8.911408174867127
      ],
      [
        "▁এপ্ৰিল",
        -8.91216989869153
      ],
      [
        "ংক",
        -8.913855901754442
      ],
      [
        "▁মাত্ৰ",
        -8.915413301888153
      ],
      [
        "মন",
        -8.916771671487586
      ],
      [
        "▁ক্ষমতা",
        -8.918607189562902
      ],
      [
        "▁চহৰ",
        -8.919045533204407
      ],
      [
        "▁অৱস্থাত",
        -8.919526396460004
      ],
      [
        "▁প্ৰায়ে",
        -8.920389781159372
      ],
      [
        "▁সংস্থা",
        -8.920412893740007
      ],
      [
        "ৰ্ট",
        -8.920944361414998
      ],
      [
        "▁উদ্দেশ্য",
        -8.921558936955588
      ],
      [
        "পু",
        -8.923697569097431
      ],
      [
        "▁বস্তু",
        -8.924853982566315
      ],
      [
        "▁সম্পৰ্কে",
        -8.925042633073506
      ],
      [
        "▁যদি",
        -8.926041635380178
      ],
      [
        "ৰূপ",
        -8.927325141328353
      ],
      [
        "▁সাহিত্যৰ",
        -8.927340726467822
      ],
      [
        "▁নিৰ্মিত",
        -8.929136678789074
      ],
      [
        "▁পাই",
        -8.929911411294679
      ],
      [
        "ভাৰতীয়",
        -8.930179205601515
      ],
      [
        "▁দ",
        -8.930231173836258
      ],
      [
        "▁বল",
        -8.93051452117193
      ],
      [
        "▁আগ",
        -8.932116595280988
      ],
      [
        "▁সভাৰ",
        -8.933409061129026
      ],
      [
        "▁আগষ্ট",
        -8.93400320465702
      ],
      [
        "ব্ৰ",
        -8.934828937343495
      ],
      [
        "▁দাবী",
        -8.935090305459397
      ],
      [
        "▁২০০৪",
        -8.939032373224983
      ],
      [
        "ক্ট",
        -8.939396288758967
      ],
      [
        "▁চেষ্টা",
        -8.939615221919146
      ],
      [
        "পাল",
        -8.941011672216508
      ],
      [
        "▁ডিব্ৰুগড়",
        -8.94414100029027
      ],
      [
        "▁গান",
        -8.944717264697275
      ],
      [
        "▁সুৰ",
        -8.944729308185536
      ],
      [
        "▁বিভাগ",
        -8.944913874965923
      ],
      [
        "ছি",
        -8.94499717135161
      ],
      [
        "গো",
        -8.946940546880494
      ],
      [
        "▁জা",
        -8.947518654633193
      ],
      [
        "▁লোকে",
        -8.948429533254142
      ],
      [
        "▁শাসন",
        -8.948958390573548
      ],
      [
        "▁তলত",
        -8.949258187625652
      ],
      [
        "▁ৰং",
        -8.949283062381635
      ],
      [
        "▁দুখন",
        -8.951197189484926
      ],
      [
        "▁গু",
        -8.951816110783785
      ],
      [
        "▁°",
        -8.954580815172811
      ],
      [
        "▁চৰিত্ৰত",
        -8.95491475045423
      ],
      [
        "জনক",
        -8.956414815342999
      ],
      [
        "▁তালিকা",
        -8.957734559642873
      ],
      [
        "▁বিহু",
        -8.95801799874758
      ],
      [
        "তম",
        -8.960030798766063
      ],
      [
        "▁আমি",
        -8.960037594340484
      ],
      [
        "▁ছে",
        -8.960075651300404
      ],
      [
        "ভাৰ",
        -8.960485654783133
      ],
      [
        "চু",
        -8.960500064407512
      ],
      [
        "▁ভূ",
        -8.960607634020981
      ],
      [
        "▁প্ৰতীক",
        -8.961407530018436
      ],
      [
        "▁’’",
        -8.96173686973675
      ],
      [
        "▁২১",
        -8.96204001439677
      ],
      [
        "▁সৰ্বোচ্চ",
        -8.96224744917462
      ],
      [
        "▁সম্পৰ্কীয়",
        -8.964057653636667
      ],
      [
        "ৎ",
        -8.967780701881598
      ],
      [
        "▁নিৰ্দিষ্ট",
        -8.968036194851852
      ],
      [
        "▁ডিচেম্বৰ",
        -8.96842387580773
      ],
      [
        "▁জুলাই",
        -8.969588110864809
      ],
      [
        "▁ঐতিহাসিক",
        -8.971913934866189
      ],
      [
        "ছন",
        -8.974038063253147
      ],
      [
        "▁২৪",
        -8.974111432702472
      ],
      [
        "▁ভ্ৰমণ",
        -8.975920967009808
      ],
      [
        "▁পাঁচ",
        -8.975990701600093
      ],
      [
        "▁সংস্কৰণ",
        -8.976784608455992
      ],
      [
        "▁বিজ্ঞানৰ",
        -8.97879333528442
      ],
      [
        "▁প্ৰেম",
        -8.978925376287213
      ],
      [
        "বুলিও",
        -8.979476960774083
      ],
      [
        "▁পৰিচিত",
        -8.979608945600308
      ],
      [
        "ুৱা",
        -8.979887320822492
      ],
      [
        "াল",
        -8.981239120552823
      ],
      [
        "ভাগ",
        -8.981363736732547
      ],
      [
        "▁অক্টোবৰ",
        -8.981745123378257
      ],
      [
        "▁গান্ধী",
        -8.98220121134099
      ],
      [
        "স্থ",
        -8.983773478815316
      ],
      [
        "▁যাক",
        -8.984804785931344
      ],
      [
        "▁টি",
        -8.98616065034923
      ],
      [
        "▁বৈশিষ্ট্য",
        -8.987647799474487
      ],
      [
        "▁২০০৫",
        -8.98782363304755
      ],
      [
        "ম্ব",
        -8.98792033461298
      ],
      [
        "▁তেওঁলোকক",
        -8.988046047795516
      ],
      [
        "বু",
        -8.988539178003737
      ],
      [
        "▁প্ৰজাতি",
        -8.989230261752304
      ],
      [
        "▁মাছ",
        -8.98968946765859
      ],
      [
        "▁।\"",
        -8.98998816669744
      ],
      [
        "▁গতি",
        -8.990545265219978
      ],
      [
        "তু",
        -8.992060291540481
      ],
      [
        "▁কালত",
        -8.993175105993185
      ],
      [
        "▁দিয়াৰ",
        -8.99367925209194
      ],
      [
        "▁তেওঁলোক",
        -8.99462250103482
      ],
      [
        "▁২০০০",
        -8.994703407728153
      ],
      [
        "▁ডা",
        -8.995163468231176
      ],
      [
        "িছ",
        -8.996475058105617
      ],
      [
        "ডা",
        -8.997003458534
      ],
      [
        "▁বিজ্ঞানী",
        -8.997082824207656
      ],
      [
        "▁১৮৮",
        -8.997434660196834
      ],
      [
        "▁সংস্কৃতি",
        -8.997779814352683
      ],
      [
        "▁প্ৰকাৰৰ",
        -8.998317046159716
      ],
      [
        "▁পুথি",
        -8.9990862204053
      ],
      [
        "▁১৮৯",
        -8.999455581283865
      ],
      [
        "স্ক",
        -8.99995694415696
      ],
      [
        "▁তুলি",
        -9.000284390677557
      ],
      [
        "▁দুয়ো",
        -9.000332899532355
      ],
      [
        "▁পুৰস্কাৰ",
        -9.000500824179511
      ],
      [
        "▁বন্ধ",
        -9.00181710334714
      ],
      [
        "পে",
        -9.005278655289308
      ],
      [
        "▁সি",
        -9.006075754864703
      ],
      [
        "▁মানুহে",
        -9.006751184729891
      ],
      [
        "মী",
        -9.006833279098576
      ],
      [
        "▁কল",
        -9.007189661071111
      ],
      [
        "ড়",
        -9.007218534634138
      ],
      [
        "▁থিয়েটাৰ",
        -9.007512121304092
      ],
      [
        "▁চলি",
        -9.007579216113914
      ],
      [
        "পাত",
        -9.00859751682186
      ],
      [
        "▁আন্দোলনৰ",
        -9.008965258777554
      ],
      [
        "সমূহে",
        -9.009470353697871
      ],
      [
        "▁দিবলৈ",
        -9.010154254723062
      ],
      [
        "▁দখল",
        -9.01053457137283
      ],
      [
        "▁অথবা",
        -9.010637514692906
      ],
      [
        "▁পৰিয়াল",
        -9.011014230189485
      ],
      [
        "েণ্ট",
        -9.011275722987225
      ],
      [
        "গি",
        -9.011456157973743
      ],
      [
        "▁শব্দৰ",
        -9.013772439518739
      ],
      [
        "▁গো",
        -9.014750876384458
      ],
      [
        "▁নদীৰ",
        -9.015616172062144
      ],
      [
        "▁বিপৰীতে",
        -9.016294440958998
      ],
      [
        "▁উদাহৰণ",
        -9.016588800671435
      ],
      [
        "▁উৎস",
        -9.017164530208753
      ],
      [
        "▁গাঁৱৰ",
        -9.017843704461415
      ],
      [
        "▁সভা",
        -9.018731609227112
      ],
      [
        "বাৰী",
        -9.01915060169865
      ],
      [
        "▁লিংগ",
        -9.019728809855362
      ],
      [
        "▁গঠিত",
        -9.020322101906727
      ],
      [
        "▁মাটি",
        -9.020944977684824
      ],
      [
        "▁বৰ্তমানৰ",
        -9.021367524756126
      ],
      [
        "দু",
        -9.022005614540948
      ],
      [
        "▁ৰাষ্ট্ৰপতি",
        -9.02261998681101
      ],
      [
        "▁যোৰহাট",
        -9.02265014113182
      ],
      [
        "▁মুছলমান",
        -9.022721673684309
      ],
      [
        "▁কাপোৰ",
        -9.023773924365976
      ],
      [
        "▁প্ৰকাশন",
        -9.023845021694495
      ],
      [
        "▁কোম্পানী",
        -9.025603217717716
      ],
      [
        "▁২০০১",
        -9.025873988499258
      ],
      [
        "▁১৯০",
        -9.026404046661334
      ],
      [
        "▁নাট",
        -9.026611002885444
      ],
      [
        "▁কলেজ",
        -9.026692007672366
      ],
      [
        "▁২০২১",
        -9.02682009552685
      ],
      [
        "পতি",
        -9.02712939221954
      ],
      [
        "▁পু",
        -9.028197624892874
      ],
      [
        "▁ডেকা",
        -9.028940146719922
      ],
      [
        "▁বৰ্গ",
        -9.02925073682706
      ],
      [
        "▁প্ৰচাৰ",
        -9.03027538235373
      ],
      [
        "▁টকা",
        -9.032027874555556
      ],
      [
        "▁যাত্ৰা",
        -9.03585987126824
      ],
      [
        "ন্ন",
        -9.035913664679365
      ],
      [
        "▁ৰক্ষা",
        -9.037452229886629
      ],
      [
        "বিধ",
        -9.038471898043017
      ],
      [
        "▁অপ",
        -9.039649178287206
      ],
      [
        "▁আন্তৰ্জাতিক",
        -9.040247890547437
      ],
      [
        "▁অধ্যক্ষ",
        -9.040248456960258
      ],
      [
        "▁একমাত্ৰ",
        -9.04073053474302
      ],
      [
        "দৰ",
        -9.040789926354007
      ],
      [
        "কাল",
        -9.041189670885947
      ],
      [
        "▁২০০৭",
        -9.042015872595886
      ],
      [
        "▁জল",
        -9.042409819863973
      ],
      [
        "বিজ্ঞান",
        -9.043983771135078
      ],
      [
        "েশ",
        -9.044810083720218
      ],
      [
        "▁বিষয়ত",
        -9.045988308630697
      ],
      [
        "▁পৰিৱেশ",
        -9.046482197380865
      ],
      [
        "▁বেলেগ",
        -9.046518527552047
      ],
      [
        "▁নিজে",
        -9.047556618010177
      ],
      [
        "▁ভে",
        -9.048852168622254
      ],
      [
        "▁নং",
        -9.049991746335973
      ],
      [
        "াক",
        -9.051172960255572
      ],
      [
        "ৰাই",
        -9.0512280682313
      ],
      [
        "ৰচিত",
        -9.05212480665697
      ],
      [
        "▁কিতাপ",
        -9.052822281531473
      ],
      [
        "ত্ত",
        -9.05320874351433
      ],
      [
        "▁সমস্যা",
        -9.05711889921286
      ],
      [
        "▁সামগ্ৰী",
        -9.058020467150566
      ],
      [
        "ত্ৰ",
        -9.058032465462308
      ],
      [
        "▁চতুৰ্থ",
        -9.060209598338286
      ],
      [
        "▁প্ৰাণী",
        -9.06101325683973
      ],
      [
        "▁আন্দোলন",
        -9.061458195199481
      ],
      [
        "দান",
        -9.061618744983543
      ],
      [
        "পৰা",
        -9.062964015152968
      ],
      [
        "▁পৰিছিল",
        -9.065353172919323
      ],
      [
        "▁হল",
        -9.06537106029086
      ],
      [
        "▁উৎপত্তি",
        -9.06659293902064
      ],
      [
        "▁প্ৰস্তাৱ",
        -9.066593350580021
      ],
      [
        "▁মন্ত্ৰী",
        -9.066692899004899
      ],
      [
        "▁পৰম্পৰা",
        -9.066835987025591
      ],
      [
        "▁বেছিভাগ",
        -9.066849050566145
      ],
      [
        "▁পৰিচালিত",
        -9.067696980576862
      ],
      [
        "▁বিচাৰি",
        -9.068666042407333
      ],
      [
        "▁সম্পাদনা",
        -9.06947035200784
      ],
      [
        "▁ৰাণী",
        -9.070513774412516
      ],
      [
        "▁চিন্তা",
        -9.071011371434366
      ],
      [
        "▁স্বামী",
        -9.071012198889667
      ],
      [
        "▁ৰঙা",
        -9.072341791317559
      ],
      [
        "▁নেতা",
        -9.07254335377636
      ],
      [
        "▁সংগঠন",
        -9.073305563585322
      ],
      [
        "▁সত্ৰ",
        -9.073393005320435
      ],
      [
        "▁ছবিখনৰ",
        -9.074663002058962
      ],
      [
        "▁আৱিষ্কাৰ",
        -9.07525594718237
      ],
      [
        "▁অৰ্থনৈতিক",
        -9.078503838371406
      ],
      [
        "▁বগা",
        -9.079028253646376
      ],
      [
        "হী",
        -9.079143043646289
      ],
      [
        "▁প্ৰাকৃতিক",
        -9.079562646477912
      ],
      [
        "▁মাজৰ",
        -9.081208295631756
      ],
      [
        "▁খণ্ড",
        -9.081605717986287
      ],
      [
        "▁বৈ",
        -9.083398828838178
      ],
      [
        "▁সময়তে",
        -9.083525670190916
      ],
      [
        "▁২৬",
        -9.084118248021262
      ],
      [
        "▁থাকিব",
        -9.084416024274184
      ],
      [
        "মুখ",
        -9.084706827554939
      ],
      [
        "▁কিলোমিটাৰ",
        -9.084912419474211
      ],
      [
        "▁প্ৰমাণ",
        -9.085219816966903
      ],
      [
        "▁চৰাই",
        -9.086238522657323
      ],
      [
        "▁চক্ৰ",
        -9.086272893295817
      ],
      [
        "▁ৰাজহুৱা",
        -9.087166769059296
      ],
      [
        "▁উদ্যোগ",
        -9.087201387557705
      ],
      [
        "াব",
        -9.087372201068177
      ],
      [
        "▁নিয়ন্ত্ৰণ",
        -9.088180386339868
      ],
      [
        "▁বিষ",
        -9.088683691063718
      ],
      [
        "হাৰ",
        -9.088696835243985
      ],
      [
        "লো",
        -9.088790027730578
      ],
      [
        "▁বৈজ্ঞানিক",
        -9.089156309935163
      ],
      [
        "▁আৰ্",
        -9.089827810161296
      ],
      [
        "▁গোৱা",
        -9.090024530489728
      ],
      [
        "ল্ড",
        -9.090615865995066
      ],
      [
        "বদ্ধ",
        -9.091232595202339
      ],
      [
        "▁স্নাতকোত্তৰ",
        -9.091509777981198
      ],
      [
        "▁ব্যৱহৃত",
        -9.092554365158456
      ],
      [
        "াম",
        -9.095155803800992
      ],
      [
        "লাই",
        -9.095836489493772
      ],
      [
        "ৰ্ণ",
        -9.096336763310452
      ],
      [
        "ফি",
        -9.096880271154633
      ],
      [
        "▁ফেব্ৰুৱাৰী",
        -9.097170119164806
      ],
      [
        "ন্ধ",
        -9.097733060978639
      ],
      [
        "▁দৰ্শন",
        -9.097780730057224
      ],
      [
        "ন্স",
        -9.098473239081637
      ],
      [
        "▁জাতি",
        -9.099031578300082
      ],
      [
        "ৰিয়া",
        -9.099247444164831
      ],
      [
        "▁শাখা",
        -9.099607595528688
      ],
      [
        "▁দিল্লী",
        -9.099834088723117
      ],
      [
        "▁বাতৰি",
        -9.100488785707025
      ],
      [
        "শ্ব",
        -9.10097164076987
      ],
      [
        "▁বিষ্ণু",
        -9.103579067259759
      ],
      [
        "জাৰ",
        -9.105963616019633
      ],
      [
        "▁শব্দটো",
        -9.107230738874454
      ],
      [
        "▁আনন্দ",
        -9.107918487675175
      ],
      [
        "য়েই",
        -9.109239830141965
      ],
      [
        "▁ফুকন",
        -9.110298573570073
      ],
      [
        "▁২২",
        -9.112410852842551
      ],
      [
        "বোৰে",
        -9.112948113908502
      ],
      [
        "▁বৰুৱাৰ",
        -9.113080712727601
      ],
      [
        "মতে",
        -9.11364237399405
      ],
      [
        "▁প্ৰক্ৰিয়া",
        -9.11396886541078
      ],
      [
        "▁সমাজৰ",
        -9.114673976778072
      ],
      [
        "▁গড়",
        -9.114971466989461
      ],
      [
        "বী",
        -9.115174453232807
      ],
      [
        "▁জাপান",
        -9.115454820231419
      ],
      [
        "▁বুৰঞ্জী",
        -9.115669471443317
      ],
      [
        "▁চৰকাৰ",
        -9.117374896213494
      ],
      [
        "য়ো",
        -9.117849764871366
      ],
      [
        "▁নিজ",
        -9.118940662110239
      ],
      [
        "▁গুৱাহাটীৰ",
        -9.11935314754727
      ],
      [
        "নু",
        -9.119528625553412
      ],
      [
        "▁তেনে",
        -9.122134423648017
      ],
      [
        "▁ফে",
        -9.12246255716958
      ],
      [
        "▁মাক",
        -9.12291128112524
      ],
      [
        "▁বোলে",
        -9.124050688285823
      ],
      [
        "0",
        -9.124279426257175
      ],
      [
        "▁জনসংখ্যা",
        -9.124853934029499
      ],
      [
        "▁কণ্ঠশিল্পী",
        -9.124873059910747
      ],
      [
        "▁লগা",
        -9.129502144517641
      ],
      [
        "▁চাকৰি",
        -9.130570397466476
      ],
      [
        "▁একাডেমী",
        -9.131226180037746
      ],
      [
        "▁প্ৰদেশ",
        -9.132954677525099
      ],
      [
        "▁চনলৈ",
        -9.134476503718226
      ],
      [
        "▁পুৰুষৰ",
        -9.135439837747015
      ],
      [
        "নিক",
        -9.136432717753959
      ],
      [
        "▁যুদ্ধৰ",
        -9.137988636443103
      ],
      [
        "▁মুক্ত",
        -9.138820865503714
      ],
      [
        "িয়াৰ",
        -9.139072279333
      ],
      [
        "▁সাত",
        -9.140018888066454
      ],
      [
        "▁টু",
        -9.140371066230538
      ],
      [
        "▁ষ্ট",
        -9.142583777264278
      ],
      [
        "▁বাহ্যিক",
        -9.142810358885324
      ],
      [
        "▁ত্যাগ",
        -9.144184296229303
      ],
      [
        "▁বিশিষ্ট",
        -9.14495055026074
      ],
      [
        "কেইটা",
        -9.146052954138916
      ],
      [
        "▁মোৰ",
        -9.147829180692344
      ],
      [
        "▁ক্ষেত্ৰ",
        -9.152064603156305
      ],
      [
        "▁এইটো",
        -9.152794214555602
      ],
      [
        "▁দশকৰ",
        -9.152826054181705
      ],
      [
        "▁সিংহ",
        -9.15316058756542
      ],
      [
        "▁ইছলাম",
        -9.154050470695527
      ],
      [
        "▁প্ৰথা",
        -9.154477290811677
      ],
      [
        "পৰ",
        -9.15479275165593
      ],
      [
        "▁প্ৰতিনিধিত্ব",
        -9.15481462623983
      ],
      [
        "গু",
        -9.156091361167547
      ],
      [
        "স্থান",
        -9.15738187305736
      ],
      [
        "▁শ্ৰেণী",
        -9.157700675753606
      ],
      [
        "▁সৰ্বাধিক",
        -9.158580544900472
      ],
      [
        "ণি",
        -9.15906861668082
      ],
      [
        "▁ছবিখন",
        -9.159345746548698
      ],
      [
        "চল",
        -9.162190382592467
      ],
      [
        "▁সূত্ৰ",
        -9.163025181246255
      ],
      [
        "▁ব্যৱসায়",
        -9.163103690304656
      ],
      [
        "কী",
        -9.163931476502128
      ],
      [
        "▁ৰেল",
        -9.164230686504911
      ],
      [
        "▁পূৰ্বৰ",
        -9.165196732249857
      ],
      [
        "▁চীনা",
        -9.165321514900143
      ],
      [
        "▁ঘটে",
        -9.166083853884121
      ],
      [
        "ুৰ",
        -9.166446536138727
      ],
      [
        "▁কেইটামান",
        -9.166521026379666
      ],
      [
        "▁চীন",
        -9.167412275107754
      ],
      [
        "▁একক",
        -9.167684729447291
      ],
      [
        "চন্দ্ৰ",
        -9.16930497306521
      ],
      [
        "▁নৱেম্বৰ",
        -9.170712067340718
      ],
      [
        "▁কৈছিল",
        -9.17080868593031
      ],
      [
        "জান",
        -9.170890194736764
      ],
      [
        "েও",
        -9.171887104904684
      ],
      [
        "নো",
        -9.172183627323335
      ],
      [
        "▁সম্ভৱ",
        -9.172377557650943
      ],
      [
        "▁মই",
        -9.174056096461804
      ],
      [
        "▁পৰ্যন্ত",
        -9.1747765106376
      ],
      [
        "িয়ে",
        -9.175086272767157
      ],
      [
        "অসমীয়া",
        -9.177022877839818
      ],
      [
        "▁পৰামৰ্শ",
        -9.177102434057208
      ],
      [
        "▁উপাদান",
        -9.178322192380465
      ],
      [
        "ভে",
        -9.178556706551838
      ],
      [
        "▁গণ",
        -9.180262827651944
      ],
      [
        "▁প্ৰণালী",
        -9.180473118761041
      ],
      [
        "▁লাখ",
        -9.180696973707116
      ],
      [
        "লোক",
        -9.180724563294401
      ],
      [
        "িম",
        -9.181214155844604
      ],
      [
        "পক্ষ",
        -9.182231121205518
      ],
      [
        "▁শ্ৰেণীৰ",
        -9.182313575603661
      ],
      [
        "▁নহ",
        -9.182388427119927
      ],
      [
        "লিয়া",
        -9.184546648272596
      ],
      [
        "সমূহক",
        -9.186567535324723
      ],
      [
        "▁আয়",
        -9.187068868215379
      ],
      [
        "▁শিক্ষাৰ",
        -9.188128824070226
      ],
      [
        "▁১৯৯৯",
        -9.188379520392939
      ],
      [
        "▁সমৰ্থন",
        -9.188789012869606
      ],
      [
        "▁বাহিৰে",
        -9.189806842286332
      ],
      [
        "ম্",
        -9.191605458643728
      ],
      [
        "▁পৰীক্ষাত",
        -9.192329122989612
      ],
      [
        "▁বজাৰ",
        -9.193963964903062
      ],
      [
        "▁ছবিত",
        -9.194111590234122
      ],
      [
        "▁প্ৰকৃত",
        -9.194462005591692
      ],
      [
        "▁মুখ",
        -9.195102747600322
      ],
      [
        "ৱান",
        -9.196920598431769
      ],
      [
        "▁সহায়ত",
        -9.197995082925503
      ],
      [
        "লাল",
        -9.19805759340797
      ],
      [
        "▁ৰাজ্যিক",
        -9.19813586301544
      ],
      [
        "▁ঘূৰি",
        -9.198854587761959
      ],
      [
        "▁কাব্য",
        -9.200584629775637
      ],
      [
        "গাঁও",
        -9.202162862084815
      ],
      [
        "▁এইখন",
        -9.203160112914286
      ],
      [
        "▁দিলে",
        -9.203251368250921
      ],
      [
        "▁কংগ্ৰেছ",
        -9.20513100312111
      ],
      [
        "▁বাকী",
        -9.205269316395933
      ],
      [
        "িয়",
        -9.207895397365142
      ],
      [
        "▁হৰি",
        -9.208211519763957
      ],
      [
        "নিয়া",
        -9.210298415446157
      ],
      [
        "টোত",
        -9.210407924534408
      ],
      [
        "▁থকাৰ",
        -9.21127493616321
      ],
      [
        "ডাল",
        -9.212723924407777
      ],
      [
        "▁দৃষ্টি",
        -9.212934979211887
      ],
      [
        "▁২৩",
        -9.216651240913208
      ],
      [
        "▁শইকীয়া",
        -9.217279349566454
      ],
      [
        "▁নাট্য",
        -9.221371911105017
      ],
      [
        "▁আলোচনী",
        -9.221469964299281
      ],
      [
        "▁নিৰ্বাচন",
        -9.22163051921386
      ],
      [
        "তেই",
        -9.222750833638461
      ],
      [
        "দিন",
        -9.223583372859602
      ],
      [
        "▁তত্ত্ব",
        -9.223962062407796
      ],
      [
        "▁চাই",
        -9.224536607053926
      ],
      [
        "▁প্ৰাক্তন",
        -9.224756064027172
      ],
      [
        "▁সংজ্ঞা",
        -9.225057208282136
      ],
      [
        "▁ফালে",
        -9.225414525066025
      ],
      [
        "্ম",
        -9.225447884373224
      ],
      [
        "বল",
        -9.225462413393869
      ],
      [
        "॰",
        -9.226007467641859
      ],
      [
        "▁তামিল",
        -9.22615033875743
      ],
      [
        "▁ঘৰত",
        -9.226440922535323
      ],
      [
        "টাৰ",
        -9.227142714587433
      ],
      [
        "▁মুদ্ৰা",
        -9.227456885318784
      ],
      [
        "▁আয়োজন",
        -9.229296086672836
      ],
      [
        "▁ব্যাখ্যা",
        -9.229779632315562
      ],
      [
        "েট",
        -9.230517143323375
      ],
      [
        "▁পদত",
        -9.23078471645909
      ],
      [
        "▁লাগিব",
        -9.230895811869772
      ],
      [
        "বোৰত",
        -9.231496388402963
      ],
      [
        "▁পূৰ্বে",
        -9.232154087764684
      ],
      [
        "▁যুগৰ",
        -9.232403139622665
      ],
      [
        "▁মানসিক",
        -9.232614596401685
      ],
      [
        "▁ইয়াৰে",
        -9.233536933544475
      ],
      [
        "▁উপাধি",
        -9.233553489224196
      ],
      [
        "▁)-",
        -9.233853050887898
      ],
      [
        "▁মাজেৰে",
        -9.236028509771304
      ],
      [
        "▁ব্যক্তিৰ",
        -9.236387665833643
      ],
      [
        "▁টাই",
        -9.237960570556194
      ],
      [
        "▁উপস্থিত",
        -9.239047814190108
      ],
      [
        "▁প্ৰতিটো",
        -9.239480242488913
      ],
      [
        "▁প্ৰদেশৰ",
        -9.240129458210241
      ],
      [
        "▁অনেক",
        -9.240164048243614
      ],
      [
        "▁বাধা",
        -9.240540958696705
      ],
      [
        "▁বিস্তৃত",
        -9.24074225399926
      ],
      [
        "েন্স",
        -9.240827624013612
      ],
      [
        "▁যা",
        -9.241216445934946
      ],
      [
        "▁বড়ো",
        -9.243634426434635
      ],
      [
        "▁চুক্তি",
        -9.244938554969126
      ],
      [
        "▁গছৰ",
        -9.245563534577986
      ],
      [
        "▁নিজকে",
        -9.2472119608728
      ],
      [
        "▁নিউ",
        -9.247696517458209
      ],
      [
        "▁ধাৰা",
        -9.24815319586747
      ],
      [
        "▁উঠি",
        -9.24897367388781
      ],
      [
        "▁ভিন্ন",
        -9.250126918205662
      ],
      [
        "বিলাক",
        -9.250964383432894
      ],
      [
        "▁২৮",
        -9.25171921170849
      ],
      [
        "▁শীৰ্ষক",
        -9.252251316831089
      ],
      [
        "ঙৰ",
        -9.253068242655665
      ],
      [
        "▁আহিছিল",
        -9.253618724208287
      ],
      [
        "টন",
        -9.253683894293859
      ],
      [
        "ৃ",
        -9.255151463299304
      ],
      [
        "▁সেয়েহে",
        -9.256624588974404
      ],
      [
        "▁খেতি",
        -9.256823895286587
      ],
      [
        "▁৫০",
        -9.257522518809616
      ],
      [
        "ম্প",
        -9.257809738586289
      ],
      [
        "▁পিছৰ",
        -9.25796240580031
      ],
      [
        "▁সিং",
        -9.258156582755607
      ],
      [
        "▁পণ্ডিত",
        -9.258462100315304
      ],
      [
        "▁সীমা",
        -9.25914896752256
      ],
      [
        "ষ্ঠ",
        -9.260447835839507
      ],
      [
        "▁ক্ৰীড়া",
        -9.261702962943456
      ],
      [
        "মো",
        -9.262170966118482
      ],
      [
        "▁অকাডেমি",
        -9.264301867386632
      ],
      [
        "কান্ত",
        -9.264576147454422
      ],
      [
        "সং",
        -9.264583271787412
      ],
      [
        "▁একেলগে",
        -9.2647808584579
      ],
      [
        "▁আম",
        -9.265592217543016
      ],
      [
        "▁পঢ়া",
        -9.266704522676086
      ],
      [
        "▁স্থানত",
        -9.267239466969148
      ],
      [
        "▁চন",
        -9.268213641942193
      ],
      [
        "▁শ্ব",
        -9.268234094006747
      ],
      [
        "▁সং",
        -9.269546393880738
      ],
      [
        "▁শান্তি",
        -9.2696205800674
      ],
      [
        "▁ঘৰৰ",
        -9.271616860750422
      ],
      [
        "ীন",
        -9.27308554018871
      ],
      [
        "▁দিশ",
        -9.274483257338122
      ],
      [
        "▁অৱস্থা",
        -9.274628022399257
      ],
      [
        "ঢ়",
        -9.274815075439463
      ],
      [
        "ফে",
        -9.275634876016387
      ],
      [
        "▁পৰিকল্পনা",
        -9.27608229062112
      ],
      [
        "▁শিৱসাগৰ",
        -9.27744693650828
      ],
      [
        "▁ধৰে",
        -9.27856132485328
      ],
      [
        "দেৱ",
        -9.27892674964951
      ],
      [
        "▁দেশত",
        -9.279076859310926
      ],
      [
        "▁আগৰ",
        -9.28019600187123
      ],
      [
        "▁বিজয়",
        -9.281272853967852
      ],
      [
        "▁বিচাৰ",
        -9.281600037676728
      ],
      [
        "ডু",
        -9.281794215858513
      ],
      [
        "▁পাতি",
        -9.282358234492445
      ],
      [
        "▁নিম্ন",
        -9.28265112610454
      ],
      [
        "▁অভিযান",
        -9.284679167022338
      ],
      [
        "▁টে",
        -9.285514401873588
      ],
      [
        "▁পাহাৰ",
        -9.285708288454618
      ],
      [
        "কুল",
        -9.286356299651821
      ],
      [
        "▁কলেজৰ",
        -9.286494930477293
      ],
      [
        "বান",
        -9.288124160248483
      ],
      [
        "▁অংগ",
        -9.288877120778075
      ],
      [
        "▁আসন",
        -9.289257642450774
      ],
      [
        "োঁ",
        -9.289400533155765
      ],
      [
        "সামৰিক",
        -9.289502100998224
      ],
      [
        "▁গে",
        -9.289641295844785
      ],
      [
        "▁পতাকা",
        -9.290975327377769
      ],
      [
        "▁তেল",
        -9.292437445652743
      ],
      [
        "▁মাতৃৰ",
        -9.29256411811646
      ],
      [
        "▁কাৰ্যনিৰ্বাহ",
        -9.293391037488124
      ],
      [
        "▁১০০",
        -9.293424705722925
      ],
      [
        "▁পৰিগণ",
        -9.293489298924175
      ],
      [
        "ৃত",
        -9.293543549746936
      ],
      [
        "▁সম্প্ৰদায়ৰ",
        -9.29383954306913
      ],
      [
        "▁স্ব",
        -9.295095402326517
      ],
      [
        "▁বু",
        -9.296265612756294
      ],
      [
        "▁নিৰ্দেশ",
        -9.296808111596128
      ],
      [
        "▁১৯৯৬",
        -9.297062267675496
      ],
      [
        "▁আৰ্হি",
        -9.297158054509097
      ],
      [
        "▁উন্নয়ন",
        -9.297282282073224
      ],
      [
        "▁মহ",
        -9.29748038591067
      ],
      [
        "▁বলি",
        -9.299409541241957
      ],
      [
        "▁সঙ্গীত",
        -9.299459712879703
      ],
      [
        "▁সৈন্য",
        -9.300053012027536
      ],
      [
        "▁শক্তিশালী",
        -9.300158378729863
      ],
      [
        "ত্ৰী",
        -9.302344878157108
      ],
      [
        "▁হ্ৰাস",
        -9.302769340053437
      ],
      [
        "▁ঘটা",
        -9.302861198850524
      ],
      [
        "ঘ",
        -9.30414328793253
      ],
      [
        "▁ভূমি",
        -9.304733221477475
      ],
      [
        "▁কৰাত",
        -9.305454004565823
      ],
      [
        "▁অৱদান",
        -9.305564129025218
      ],
      [
        "▁চনলৈকে",
        -9.307010212997174
      ],
      [
        "ৰ্থ",
        -9.307116531054543
      ],
      [
        "▁সংস্কৃতিৰ",
        -9.308611054974296
      ],
      [
        "▁দিশত",
        -9.309426585817798
      ],
      [
        "▁ক্ৰমে",
        -9.309729509171099
      ],
      [
        "▁যুগ",
        -9.310200836226933
      ],
      [
        "▁গোটেই",
        -9.310680684634063
      ],
      [
        "▁হাজৰিকা",
        -9.31144675534437
      ],
      [
        "▁ৰাষ্ট্ৰ",
        -9.311935218275906
      ],
      [
        "ভো",
        -9.312055251062626
      ],
      [
        "▁মূৰ্তি",
        -9.312071148831063
      ],
      [
        "▁বিক্ৰী",
        -9.312283941215956
      ],
      [
        "খনত",
        -9.31248299388746
      ],
      [
        "শীল",
        -9.312972634711269
      ],
      [
        "▁সফল",
        -9.313301085990618
      ],
      [
        "▁সমালোচক",
        -9.313636086695551
      ],
      [
        "▁গঢ়ি",
        -9.313897718008866
      ],
      [
        "▁জিলাত",
        -9.314238708988382
      ],
      [
        "েন্দ্ৰ",
        -9.314425893114098
      ],
      [
        "▁সমষ্টি",
        -9.315236636409235
      ],
      [
        "▁শু",
        -9.315376023553688
      ],
      [
        "▁সক্ৰিয়",
        -9.316383480046593
      ],
      [
        "▁উভতি",
        -9.316383703706727
      ],
      [
        "▁অৱসৰ",
        -9.316471158269351
      ],
      [
        "পত্ৰ",
        -9.316483824533872
      ],
      [
        "ডে",
        -9.317362097806239
      ],
      [
        "▁আত্ম",
        -9.318199156164445
      ],
      [
        "▁দহ",
        -9.318455685851958
      ],
      [
        "আই",
        -9.31849970161544
      ],
      [
        "▁১৯৯৮",
        -9.318808495256407
      ],
      [
        "▁বৰ্ণ",
        -9.320300911650026
      ],
      [
        "▁ধ্বংস",
        -9.321325093415185
      ],
      [
        "ধা",
        -9.321462201229266
      ],
      [
        "▁মাৰি",
        -9.32203529220217
      ],
      [
        "▁পাঠ্যক্ৰম",
        -9.323272884503021
      ],
      [
        "▁হাতী",
        -9.324116651782624
      ],
      [
        "মাৰ",
        -9.324489090364466
      ],
      [
        "▁মো",
        -9.325081895575995
      ],
      [
        "▁চাৰিটা",
        -9.325617414595909
      ],
      [
        "াপ",
        -9.328050599508398
      ],
      [
        "▁গৃহ",
        -9.329404466703217
      ],
      [
        "▁গাঁৱত",
        -9.329473618437376
      ],
      [
        "▁প্ৰথমখন",
        -9.329598183597497
      ],
      [
        "ময়",
        -9.330795285009424
      ],
      [
        "▁আৰম্ভণি",
        -9.3317895996782
      ],
      [
        "▁পৰিষদ",
        -9.33317437274895
      ],
      [
        "িচ",
        -9.334102206959527
      ],
      [
        "▁প্ৰচলন",
        -9.335764121647554
      ],
      [
        "▁নামে",
        -9.336499806171666
      ],
      [
        "পদ",
        -9.336877404961175
      ],
      [
        "▁প্ৰধানমন্ত্ৰী",
        -9.337310644886223
      ],
      [
        "▁লিপি",
        -9.337460876739634
      ],
      [
        "▁কৰ",
        -9.3379001971118
      ],
      [
        "▁আকাৰ",
        -9.338879285187286
      ],
      [
        "▁ফুট",
        -9.339198939773866
      ],
      [
        "▁গীতৰ",
        -9.340822950795227
      ],
      [
        "9",
        -9.341366943976563
      ],
      [
        "▁ফৰ",
        -9.34146383242372
      ],
      [
        "▁পৰিৱৰ্তন",
        -9.341645622863005
      ],
      [
        "▁কাকত",
        -9.342611775281863
      ],
      [
        "▁দেখি",
        -9.343072379820637
      ],
      [
        "▁বৰুৱাই",
        -9.34312539580699
      ],
      [
        "▁লু",
        -9.34327902653539
      ],
      [
        "▁আমাৰ",
        -9.343443742160362
      ],
      [
        "▁পাত",
        -9.344133869693739
      ],
      [
        "▁আলি",
        -9.344622616368344
      ],
      [
        "▁যাব",
        -9.344682173541138
      ],
      [
        "▁অৱশেষ",
        -9.345694338829322
      ],
      [
        "▁নৱ",
        -9.345727578252738
      ],
      [
        "▁২৭",
        -9.346015169875802
      ],
      [
        "▁সংগীতৰ",
        -9.346695241613741
      ],
      [
        "▁অব",
        -9.346996712569322
      ],
      [
        "▁গৰু",
        -9.34776541163778
      ],
      [
        "ৱতী",
        -9.348688890923583
      ],
      [
        "▁নিযুক্তি",
        -9.351050771687792
      ],
      [
        "▁কোৰআন",
        -9.35125414460848
      ],
      [
        "▁সংখ্যক",
        -9.351298088184967
      ],
      [
        "▁সংযুক্ত",
        -9.351523837153898
      ],
      [
        "▁দুজন",
        -9.352448832046921
      ],
      [
        "▁যুক্তি",
        -9.352883187032061
      ],
      [
        "▁দেৱীৰ",
        -9.353697202677315
      ],
      [
        "▁জাৰ্মান",
        -9.354920830925291
      ],
      [
        "▁অন",
        -9.355045825228572
      ],
      [
        "গৈ",
        -9.355646776221525
      ],
      [
        "▁দুয়োটা",
        -9.355717521345492
      ],
      [
        "টিক",
        -9.355913514097136
      ],
      [
        "ফালে",
        -9.356230391665026
      ],
      [
        "▁তেন্তে",
        -9.356949758682658
      ],
      [
        "▁উচ্চতৰ",
        -9.357530874382382
      ],
      [
        "ষ্টি",
        -9.358009596710902
      ],
      [
        "▁কমি",
        -9.358600385450005
      ],
      [
        "▁লক্ষ্মী",
        -9.35917404866027
      ],
      [
        "শক্তি",
        -9.359790014661666
      ],
      [
        "মল",
        -9.360160023627513
      ],
      [
        "▁ৰাখি",
        -9.362319537326822
      ],
      [
        "াং",
        -9.362380938728268
      ],
      [
        "▁প্ৰকাৰ",
        -9.362385180772744
      ],
      [
        "ৱাৰ",
        -9.363113269264467
      ],
      [
        "▁ফি",
        -9.363426522611345
      ],
      [
        "▁শিল্প",
        -9.364881099970203
      ],
      [
        "▁ক্ৰিকেট",
        -9.365027500631623
      ],
      [
        "ষ্ট্ৰ",
        -9.365084222723254
      ],
      [
        "▁আমেৰিকাৰ",
        -9.36536607522645
      ],
      [
        "▁ত্ৰি",
        -9.366773514109
      ],
      [
        "▁সমালোচনা",
        -9.367010593209812
      ],
      [
        "▁ধাৰাবাহিক",
        -9.36729718484843
      ],
      [
        "▁হাজাৰ",
        -9.36746811898006
      ],
      [
        "▁গোস্বামী",
        -9.368337706655158
      ],
      [
        "▁সমাজত",
        -9.36871889248103
      ],
      [
        "▁যুদ্ধত",
        -9.368746150430145
      ],
      [
        "▁শতিকাত",
        -9.370136974602252
      ],
      [
        "▁দিনত",
        -9.370288887835923
      ],
      [
        "▁নাৰায়ণ",
        -9.371541796848994
      ],
      [
        "সহ",
        -9.371792457897769
      ],
      [
        "▁কম্পিউটাৰ",
        -9.372663767707378
      ],
      [
        "▁যুক্তৰাষ্ট্ৰৰ",
        -9.372778773944354
      ],
      [
        "▁শেষৰ",
        -9.372918901618487
      ],
      [
        "▁বুজা",
        -9.373065926817834
      ],
      [
        "▁এবাৰ",
        -9.373597725734648
      ],
      [
        "▁উত্তীৰ্ণ",
        -9.374227159298286
      ],
      [
        "যাতে",
        -9.374476363289208
      ],
      [
        "▁লিখিছিল",
        -9.37604288670708
      ],
      [
        "▁নিৰ্",
        -9.376117882565218
      ],
      [
        "▁দিনৰ",
        -9.377243482932561
      ],
      [
        "ভূমি",
        -9.378238135981729
      ],
      [
        "▁সাগৰ",
        -9.378328236541071
      ],
      [
        "▁ঔষধ",
        -9.379784914018021
      ],
      [
        "▁খু",
        -9.380736484782169
      ],
      [
        "পন",
        -9.38117660874277
      ],
      [
        "বন",
        -9.382076445286081
      ],
      [
        "▁প্ৰত্যেক",
        -9.382097804740923
      ],
      [
        "▁থাকি",
        -9.382152441488337
      ],
      [
        "▁তেজ",
        -9.382749944241173
      ],
      [
        "▁মোগল",
        -9.383075779149895
      ],
      [
        "▁বিল",
        -9.38332024808047
      ],
      [
        "▁দশকত",
        -9.38494952182351
      ],
      [
        "▁’,",
        -9.384975803850576
      ],
      [
        "▁যুঁজ",
        -9.385452036172296
      ],
      [
        "দ্",
        -9.38654375272105
      ],
      [
        "▁ইন্দ্ৰ",
        -9.386766723307773
      ],
      [
        "▁খোৱা",
        -9.386967625840992
      ],
      [
        "▁পাকিস্তান",
        -9.387695986594577
      ],
      [
        "স্থিত",
        -9.388154209294258
      ],
      [
        "▁বিমান",
        -9.389091882682699
      ],
      [
        "▁বন্ধু",
        -9.389317089577649
      ],
      [
        "বলগীয়া",
        -9.390871684062969
      ],
      [
        "▁মহাবিদ্যালয়ৰ",
        -9.391485898900882
      ],
      [
        "দাৰ",
        -9.39162935362765
      ],
      [
        "▁সমান",
        -9.392082278956343
      ],
      [
        "▁১৯৬০",
        -9.392434349983013
      ],
      [
        "▁দ্বীপ",
        -9.39252273024464
      ],
      [
        "▁আনুষ্ঠানিক",
        -9.392970006149604
      ],
      [
        "োপ",
        -9.395787141898248
      ],
      [
        "▁ৰাতি",
        -9.396645140539729
      ],
      [
        "দ্য",
        -9.397162784232709
      ],
      [
        "াৱ",
        -9.397686909005973
      ],
      [
        "লিন",
        -9.398977867758461
      ],
      [
        "▁দৈৰ্ঘ্য",
        -9.399228399621933
      ],
      [
        "▁যিবোৰ",
        -9.399739704782586
      ],
      [
        "▁এনেদৰে",
        -9.400834578156102
      ],
      [
        "▁৩১",
        -9.401707948389305
      ],
      [
        "▁যন্ত্ৰ",
        -9.403073110683637
      ],
      [
        "▁তম",
        -9.403704065613127
      ],
      [
        "জনে",
        -9.403730935774526
      ],
      [
        "▁২৯",
        -9.403844338865895
      ],
      [
        "হীন",
        -9.405574576046073
      ],
      [
        "▁আচৰণ",
        -9.40599941515653
      ],
      [
        "▁বিভক্ত",
        -9.406203649340494
      ],
      [
        "▁ভাতৃ",
        -9.4067936728522
      ],
      [
        "▁ৰোগৰ",
        -9.406876320073899
      ],
      [
        "▁উদ্যান",
        -9.40702475151837
      ],
      [
        "▁দেউতাক",
        -9.40730261399456
      ],
      [
        "ৱাল",
        -9.407827168740338
      ],
      [
        "▁সুৰক্ষা",
        -9.407942856146036
      ],
      [
        "ৰ্ক",
        -9.409103467115063
      ],
      [
        "ধি",
        -9.409279768454905
      ],
      [
        "▁সূৰ্য",
        -9.409351571175279
      ],
      [
        "▁প্ৰতিষ্ঠাপক",
        -9.409736669403689
      ],
      [
        "ন্দা",
        -9.410263653203245
      ],
      [
        "▁চহৰৰ",
        -9.410398755973379
      ],
      [
        "ান্ত",
        -9.410560940100325
      ],
      [
        "▁কন",
        -9.410573586033003
      ],
      [
        "▁মনো",
        -9.410623435696497
      ],
      [
        "▁পূৰ্ব",
        -9.411036480678968
      ],
      [
        "▁ছেপ্টেম্বৰ",
        -9.411325313758885
      ],
      [
        "▁উদযাপন",
        -9.411721858441979
      ],
      [
        "▁দে",
        -9.412300533816211
      ],
      [
        "▁শেষত",
        -9.412345891591503
      ],
      [
        "▁১৯৯৭",
        -9.412470985933505
      ],
      [
        "▁পৰিৱেশন",
        -9.412534120306397
      ],
      [
        "▁\",",
        -9.412698403689388
      ],
      [
        "▁বয়স",
        -9.412843770204063
      ],
      [
        "েজ",
        -9.413496759639145
      ],
      [
        "গুৰি",
        -9.413947098749293
      ],
      [
        "▁পৰ্বত",
        -9.414292575622401
      ],
      [
        "▁ছয়",
        -9.416030974765377
      ],
      [
        "টু",
        -9.416415737728686
      ],
      [
        "▁তাক",
        -9.416650028829629
      ],
      [
        "▁দূৰ",
        -9.416667652930268
      ],
      [
        "বাই",
        -9.416969353108902
      ],
      [
        "▁ৰজাৰ",
        -9.417422941900654
      ],
      [
        "▁১৮৭",
        -9.418577737625547
      ],
      [
        "▁সময়ছোৱাত",
        -9.418929740739099
      ],
      [
        "▁আশা",
        -9.419563735604637
      ],
      [
        "▁বংশ",
        -9.419586916891806
      ],
      [
        "ল্লা",
        -9.42012387804559
      ],
      [
        "▁গণিত",
        -9.420472134915022
      ],
      [
        "▁উপৰি",
        -9.421539893066576
      ],
      [
        "▁ভগৱান",
        -9.421868594897214
      ],
      [
        "▁বায়ু",
        -9.422956194441449
      ],
      [
        "▁বিধানসভা",
        -9.423956037065542
      ],
      [
        "▁গাঁও",
        -9.424180687279684
      ],
      [
        "▁খা",
        -9.42596105787587
      ],
      [
        "▁ফিল্মফেয়াৰ",
        -9.42602516053094
      ],
      [
        "5",
        -9.426322473926728
      ],
      [
        "িল",
        -9.426436845344055
      ],
      [
        "▁ভিত্তি",
        -9.426730102493458
      ],
      [
        "ণা",
        -9.42793640660447
      ],
      [
        "▁স্বৰূপে",
        -9.428944952888159
      ],
      [
        "▁চৌধুৰী",
        -9.428990558345156
      ],
      [
        "▁পৰিমাণ",
        -9.429016708534142
      ],
      [
        "ক্ত",
        -9.429253288997645
      ],
      [
        "▁কৌশল",
        -9.43100238701474
      ],
      [
        "▁ঘৰুৱা",
        -9.431333055880533
      ],
      [
        "▁মহিলাসকলে",
        -9.431361813212636
      ],
      [
        "▁সেয়া",
        -9.432577982631827
      ],
      [
        "▁]",
        -9.433063971480738
      ],
      [
        "▁কাজ",
        -9.433882141353866
      ],
      [
        "6",
        -9.434080391010614
      ],
      [
        "▁পিতৃৰ",
        -9.435189268575108
      ],
      [
        "▁পূ",
        -9.435392508058023
      ],
      [
        "▁সাংবাদিক",
        -9.43613118914999
      ],
      [
        "▁2",
        -9.4365279807935
      ],
      [
        "▁বাস্তৱ",
        -9.437209062374428
      ],
      [
        "▁লাহে",
        -9.43796896383962
      ],
      [
        "▁১৮৬",
        -9.438626955522707
      ],
      [
        "▁চিকিৎসক",
        -9.43871720216124
      ],
      [
        "▁নোৱাৰে",
        -9.438805479799004
      ],
      [
        "▁অৰ্থনীতি",
        -9.43928785048471
      ],
      [
        "▁খান",
        -9.439731026629623
      ],
      [
        "▁গ্ৰন্থখন",
        -9.440869585440183
      ],
      [
        "▁চাৰ্",
        -9.442625915294084
      ],
      [
        "চী",
        -9.44324360701124
      ],
      [
        "▁আক্ৰান্ত",
        -9.443375785846921
      ],
      [
        "▁জু",
        -9.443607537686418
      ],
      [
        "▁ৰাখে",
        -9.443728801954775
      ],
      [
        "নাই",
        -9.444061581982242
      ],
      [
        "▁পূৰ্ণ",
        -9.444327542124228
      ],
      [
        "▁কাঠ",
        -9.444900908986746
      ],
      [
        "▁তাৰপিছত",
        -9.444933290518062
      ],
      [
        "▁খ্ৰীষ্টপূৰ্ব",
        -9.444934833156161
      ],
      [
        "বোৰক",
        -9.446703346884531
      ],
      [
        "শ্যন",
        -9.447709911911415
      ],
      [
        "▁সংবিধান",
        -9.448055863603384
      ],
      [
        "▁সম্পদ",
        -9.448072497896812
      ],
      [
        "▁অনুভৱ",
        -9.448169119203154
      ],
      [
        "▁কাৰ্যালয়",
        -9.449666129706182
      ],
      [
        "▁ইংৰাজ",
        -9.449902250077098
      ],
      [
        "▁ৰীতি",
        -9.451751482191742
      ],
      [
        "▁যোৱাৰ",
        -9.452325370374776
      ],
      [
        "▁কৰ্মী",
        -9.452582777213035
      ],
      [
        "শাল",
        -9.452753688375047
      ],
      [
        "▁লেখা",
        -9.455631375824382
      ],
      [
        "▁আগবঢ়ায়",
        -9.456058400805308
      ],
      [
        "▁বিশ্ববিদ্যালয়ত",
        -9.456790193152973
      ],
      [
        "▁শিল",
        -9.456820339435183
      ],
      [
        "ইড",
        -9.457323294508285
      ],
      [
        "বোধ",
        -9.45734632195649
      ],
      [
        "▁জো",
        -9.457434808943919
      ],
      [
        "▁থাকোঁতে",
        -9.457482578229547
      ],
      [
        "▁পত্ৰ",
        -9.460300045976162
      ],
      [
        "▁নিশ্চিত",
        -9.460644605071401
      ],
      [
        "▁মূৰ",
        -9.461043546496562
      ],
      [
        "▁গান্ধীৰ",
        -9.461099903782552
      ],
      [
        "▁মহাভাৰত",
        -9.461426662141623
      ],
      [
        "াৰ্ছ",
        -9.463259948352139
      ],
      [
        "▁পৰাস্ত",
        -9.463541582163696
      ],
      [
        "▁বিদ্যালয়ত",
        -9.463563336810719
      ],
      [
        "▁ৰায়",
        -9.463837829091936
      ],
      [
        "▁সুন্দৰ",
        -9.464092623980786
      ],
      [
        "▁ৰাজনীতি",
        -9.464722682652003
      ],
      [
        "ভিত্তিক",
        -9.465266060641873
      ],
      [
        "▁নৃত্যৰ",
        -9.465299764852036
      ],
      [
        "▁কেৰিয়াৰ",
        -9.465457661194872
      ],
      [
        "▁আধাৰত",
        -9.465997750671065
      ],
      [
        "▁মাটিৰ",
        -9.466078252227671
      ],
      [
        "▁দুৰ্গা",
        -9.466166351194198
      ],
      [
        "খে",
        -9.466320592785323
      ],
      [
        "ুক",
        -9.466644603922042
      ],
      [
        "পথ",
        -9.46695962497746
      ],
      [
        "▁নেতৃত্ব",
        -9.468262572371277
      ],
      [
        "▁পুখুৰী",
        -9.468527649908566
      ],
      [
        "▁কাৰ্য্য",
        -9.468603477856973
      ],
      [
        "সম্",
        -9.469826887943732
      ],
      [
        "▁আগত",
        -9.47015850821747
      ],
      [
        "▁সুযোগ",
        -9.471262793695164
      ],
      [
        "ষ্টাৰ",
        -9.471267151115235
      ],
      [
        "▁মঞ্চ",
        -9.471272148827339
      ],
      [
        "দে",
        -9.472266417791783
      ],
      [
        "▁মানে",
        -9.472660691178486
      ],
      [
        "▁অনুষ্ঠানত",
        -9.472677486199597
      ],
      [
        "▁চুটি",
        -9.473557779218563
      ],
      [
        "▁কলেজত",
        -9.473992794768499
      ],
      [
        "▁বিভাগত",
        -9.474213835482772
      ],
      [
        "পৰি",
        -9.474843881825251
      ],
      [
        "▁বহল",
        -9.475371345803804
      ],
      [
        "▁অধ্যায়",
        -9.475962354122522
      ],
      [
        "▁উপন্যাসখন",
        -9.476054686284064
      ],
      [
        "গ্ৰা",
        -9.476711845346266
      ],
      [
        "▁নিৰ্বাচনত",
        -9.476923176265966
      ],
      [
        "▁কৰ্মৰ",
        -9.477971967108964
      ],
      [
        "জাত",
        -9.478535840359001
      ],
      [
        "▁সংৰক্ষণ",
        -9.478643759376329
      ],
      [
        "▁পানীৰ",
        -9.479605773291324
      ],
      [
        "লাম",
        -9.480093277636696
      ],
      [
        "▁হাই",
        -9.480411356444362
      ],
      [
        "▁নাচ",
        -9.481066707161094
      ],
      [
        "▁ভাগত",
        -9.481530816778717
      ],
      [
        "▁কটন",
        -9.481877933122746
      ],
      [
        "গী",
        -9.482111349318444
      ],
      [
        "▁লোকসভা",
        -9.482130993308015
      ],
      [
        "▁নাযায়",
        -9.483063592939775
      ],
      [
        "▁উদ্ধাৰ",
        -9.48310336716418
      ],
      [
        "▁সংবাদ",
        -9.483403354722569
      ],
      [
        "▁এফ",
        -9.483476956934394
      ],
      [
        "8",
        -9.48460694146665
      ],
      [
        "▁ভিতৰতে",
        -9.485914604968379
      ],
      [
        "▁বাংলাদেশ",
        -9.486571202141747
      ],
      [
        "সী",
        -9.486903950145603
      ],
      [
        "▁অৰণ্য",
        -9.48796496084747
      ],
      [
        "▁মৌলিক",
        -9.488293829912418
      ],
      [
        "▁বহুল",
        -9.48860044810997
      ],
      [
        "▁চিহ্ন",
        -9.488817352649868
      ],
      [
        "▁আৰম্ভণিতে",
        -9.489393696763756
      ],
      [
        "▁বিৱৰণ",
        -9.489567116409788
      ],
      [
        "ৱৰ",
        -9.48990155131498
      ],
      [
        "▁বিদ্যালয়ৰ",
        -9.489964539633007
      ],
      [
        "▁১৯৯৩",
        -9.489982832518464
      ],
      [
        "▁চো",
        -9.49015985172301
      ],
      [
        "▁চিনেমা",
        -9.491210935851216
      ],
      [
        "নিৰ",
        -9.492118471619724
      ],
      [
        "▁ভূঞা",
        -9.492867712218464
      ],
      [
        "▁ব্ৰহ্ম",
        -9.493407915395544
      ],
      [
        "প্ৰথমবাৰৰ",
        -9.49358154783817
      ],
      [
        "▁মাত",
        -9.494063912370589
      ],
      [
        "▁কাৰ্যসূচী",
        -9.494503595121014
      ],
      [
        "▁এছিয়াৰ",
        -9.496834829814127
      ],
      [
        "েইন",
        -9.496875381424584
      ],
      [
        "বাস",
        -9.497532670310214
      ],
      [
        "▁অৱদানৰ",
        -9.498181298810975
      ],
      [
        "▁বিদ্ৰোহ",
        -9.498489659827598
      ],
      [
        "▁জুই",
        -9.500096176760463
      ],
      [
        "মত",
        -9.500414346248498
      ],
      [
        "▁লোকসকলৰ",
        -9.50058501835424
      ],
      [
        "▁সম্ৰাট",
        -9.501038150775994
      ],
      [
        "▁অগ্নি",
        -9.501041583159825
      ],
      [
        "▁কৰ্মজীৱন",
        -9.501167839573537
      ],
      [
        "▁ছাল",
        -9.502157163725602
      ],
      [
        "▁স্মৃতি",
        -9.503635703781782
      ],
      [
        "▁ইষ্ট",
        -9.50478022005495
      ],
      [
        "সু",
        -9.50488427776294
      ],
      [
        "▁বাংলাদেশৰ",
        -9.505575635893585
      ],
      [
        "▁প্ৰসাদ",
        -9.505842766974634
      ],
      [
        "▁চাল",
        -9.507592005744947
      ],
      [
        "▁পাৰ্থক্য",
        -9.507655791060103
      ],
      [
        "প্ত",
        -9.50876539388305
      ],
      [
        "▁পাঠ",
        -9.509770727698626
      ],
      [
        "▁বীৰ",
        -9.510093142988843
      ],
      [
        "▁অনুমান",
        -9.510157624264831
      ],
      [
        "▁অলিম্পিক",
        -9.510865506754989
      ],
      [
        "▁ফুটবল",
        -9.511146647821773
      ],
      [
        "▁সৰল",
        -9.511387927921653
      ],
      [
        "▁সহযোগী",
        -9.51161138261697
      ],
      [
        "ড়ি",
        -9.511641678322018
      ],
      [
        "নীত",
        -9.512109920478665
      ],
      [
        "▁ঐতিহ্য",
        -9.512646410400029
      ],
      [
        "▁কেইবাখনো",
        -9.512647290625596
      ],
      [
        "▁চৰ্চা",
        -9.512650038053831
      ],
      [
        "▁উঠে",
        -9.512650077285654
      ],
      [
        "▁কিয়নো",
        -9.512696239051763
      ],
      [
        "▁নামকৰণ",
        -9.514187786898805
      ],
      [
        "বছৰ",
        -9.514311066741886
      ],
      [
        "▁মহাত্মা",
        -9.514315910738256
      ],
      [
        "▁আদৰ্শ",
        -9.515487412150748
      ],
      [
        "িয়াম",
        -9.515888399870555
      ],
      [
        "▁প্ৰতিৰোধ",
        -9.516003728107787
      ],
      [
        "▁কলিকতা",
        -9.517198053389514
      ],
      [
        "▁সাধু",
        -9.517813499240004
      ],
      [
        "▁ব্ৰহ্মপুত্ৰ",
        -9.517891981392793
      ],
      [
        "▁হেৰী",
        -9.51793621953564
      ],
      [
        "▁হিচাপেও",
        -9.518955694660383
      ],
      [
        "▁১৯৮৭",
        -9.519300897956828
      ],
      [
        "তিৰ",
        -9.520587802682197
      ],
      [
        "▁আকৰ্ষণ",
        -9.520870426928447
      ],
      [
        "▁১৯৭২",
        -9.520964217109505
      ],
      [
        "▁যোগেদি",
        -9.521151930322311
      ],
      [
        "▁দিছে",
        -9.521912548396674
      ],
      [
        "▁বাণিজ্য",
        -9.522008214428958
      ],
      [
        "▁খাই",
        -9.522843792349235
      ],
      [
        "▁সমিতি",
        -9.523470304343721
      ],
      [
        "পো",
        -9.524971889954546
      ],
      [
        "▁জনগোষ্ঠীৰ",
        -9.524985828017059
      ],
      [
        "▁যুৱ",
        -9.525651974785031
      ],
      [
        "▁কোষ",
        -9.525797308655132
      ],
      [
        "▁প্ৰতিযোগিতা",
        -9.528139148269226
      ],
      [
        "মাই",
        -9.52907747824504
      ],
      [
        "▁শ্ৰমিক",
        -9.52986572618535
      ],
      [
        "▁লক্ষণ",
        -9.529968264045017
      ],
      [
        "কল",
        -9.53067584495326
      ],
      [
        "▁প্ৰতিবাদ",
        -9.530854570120127
      ],
      [
        "▁একাধিক",
        -9.530921089182534
      ],
      [
        "▁পাছলৈ",
        -9.531086514825915
      ],
      [
        "▁ধান",
        -9.531101829476402
      ],
      [
        "▁অল",
        -9.531177110245345
      ],
      [
        "ংগা",
        -9.531644255469486
      ],
      [
        "▁নামটো",
        -9.531924917794852
      ],
      [
        "▁জ্যেষ্ঠ",
        -9.532866162460765
      ],
      [
        "▁প্ৰখ্যাত",
        -9.532868952855276
      ],
      [
        "▁নেতৃত্বত",
        -9.533219280427389
      ],
      [
        "▁নৈ",
        -9.533276960566752
      ],
      [
        "▁ওলাই",
        -9.53344213833898
      ],
      [
        "▁তেজপুৰ",
        -9.533895085901012
      ],
      [
        "▁আজি",
        -9.534221450190284
      ],
      [
        "▁সম্পন্ন",
        -9.535244031466563
      ],
      [
        "ড্ৰ",
        -9.535541835646942
      ],
      [
        "▁আনি",
        -9.53587678528259
      ],
      [
        "▁শাস্ত্ৰীয়",
        -9.53672881278668
      ],
      [
        "▁বৰপেটা",
        -9.537986269406993
      ],
      [
        "▁সংঘটিত",
        -9.537994117862146
      ],
      [
        "▁পৰিষদৰ",
        -9.538374365420303
      ],
      [
        "এছ",
        -9.538742199177275
      ],
      [
        "▁মুখ্যমন্ত্ৰী",
        -9.539854115703871
      ],
      [
        "যোগ্য",
        -9.540422676519988
      ],
      [
        "ণী",
        -9.540752843877028
      ],
      [
        "▁অনুমতি",
        -9.541415626075679
      ],
      [
        "▁সেইবোৰ",
        -9.542544285879892
      ],
      [
        "▁ৰস",
        -9.542929243070027
      ],
      [
        "▁অৰুণাচল",
        -9.543131611998618
      ],
      [
        "▁গান্ধীয়ে",
        -9.544525306140471
      ],
      [
        "▁পঞ্চম",
        -9.544550399772655
      ],
      [
        "ঠা",
        -9.545182251830662
      ],
      [
        "টী",
        -9.545257656045099
      ],
      [
        "জনী",
        -9.546331862313135
      ],
      [
        "▁থৈ",
        -9.546805192870565
      ],
      [
        "াংগ",
        -9.546999865112447
      ],
      [
        "▁সোণৰ",
        -9.547200902501528
      ],
      [
        "▁সেনা",
        -9.547309148674504
      ],
      [
        "▁বৰ্ষৰ",
        -9.547338500599754
      ],
      [
        "▁ভৰি",
        -9.548388403274394
      ],
      [
        "উন",
        -9.548561202920478
      ],
      [
        "ুল",
        -9.548945173636339
      ],
      [
        "▁শৰীৰ",
        -9.549881557674986
      ],
      [
        "▁প্ৰশংসা",
        -9.550955788657273
      ],
      [
        "▁গঢ়",
        -9.551030545606228
      ],
      [
        "▁২০২২",
        -9.551770313909122
      ],
      [
        "কৃত",
        -9.55254958558264
      ],
      [
        "▁এয়া",
        -9.552553449142543
      ],
      [
        "▁শাখাত",
        -9.553215545197794
      ],
      [
        "▁অংশত",
        -9.554084378830606
      ],
      [
        "▁কংগ্ৰেছৰ",
        -9.554216931061083
      ],
      [
        "▁এছিয়া",
        -9.554500209672264
      ],
      [
        "▁ঠিক",
        -9.554642467573375
      ],
      [
        "▁বালি",
        -9.554823101376027
      ],
      [
        "▁মিলি",
        -9.55490315965692
      ],
      [
        "স্ব",
        -9.555595641622272
      ],
      [
        "▁ক্ৰিয়া",
        -9.556025273371874
      ],
      [
        "▁হেম",
        -9.55649671612597
      ],
      [
        "মেণ্ট",
        -9.556764804074867
      ],
      [
        "▁হু",
        -9.556984475412905
      ],
      [
        "▁পৃথিৱী",
        -9.558072836060099
      ],
      [
        "দল",
        -9.55820080900168
      ],
      [
        "নগৰ",
        -9.55822996578167
      ],
      [
        "▁ৰঙৰ",
        -9.560311620369243
      ],
      [
        "▁হিচাবে",
        -9.560477956290406
      ],
      [
        "জ্ঞ",
        -9.560981416951785
      ],
      [
        "▁ভা",
        -9.561436599153254
      ],
      [
        "্যু",
        -9.56197613718288
      ],
      [
        "▁ভগ্নী",
        -9.56256666944358
      ],
      [
        "▁ক্ৰ",
        -9.562981868942241
      ],
      [
        "▁ৱা",
        -9.563313933595232
      ],
      [
        "▁প্ৰসাৰ",
        -9.564530913785557
      ],
      [
        "▁যোগান",
        -9.564930375565735
      ],
      [
        "▁গ্ৰীক",
        -9.564985107998739
      ],
      [
        "▁নগাঁও",
        -9.56648432446363
      ],
      [
        "উল",
        -9.566492397844161
      ],
      [
        "ধু",
        -9.566709811533322
      ],
      [
        "▁ভৱন",
        -9.568446958882216
      ],
      [
        "জিত",
        -9.568486821485195
      ],
      [
        "▁মাল",
        -9.569082893128204
      ],
      [
        "▁বিষয়ক",
        -9.570561060787748
      ],
      [
        "▁চিন",
        -9.571222591466638
      ],
      [
        "▁ইচ্ছা",
        -9.571475732930367
      ],
      [
        "▁ইণ্ডিয়ান",
        -9.571536687365398
      ],
      [
        "▁গতিকে",
        -9.57258784377565
      ],
      [
        "▁আখৰ",
        -9.575258789178125
      ],
      [
        "▁পৃষ্ঠা",
        -9.575353335949934
      ],
      [
        "▁দেখিবলৈ",
        -9.576992599830492
      ],
      [
        "▁পাইছে",
        -9.577153422406685
      ],
      [
        "▁ধ",
        -9.57739701469605
      ],
      [
        "চ্ছ",
        -9.57773402818129
      ],
      [
        "▁ভিত্তিত",
        -9.577999819427347
      ],
      [
        "▁মহন্ত",
        -9.578355723173802
      ],
      [
        "▁উন্নত",
        -9.578456585081558
      ],
      [
        "▁মানি",
        -9.578746045518347
      ],
      [
        "ড়া",
        -9.57912874045279
      ],
      [
        "▁ছাত্ৰী",
        -9.579268653500307
      ],
      [
        "▁বাঁহ",
        -9.579706548353144
      ],
      [
        "▁১৯৮৮",
        -9.579746147747656
      ],
      [
        "▁অভিহিত",
        -9.580022150043636
      ],
      [
        "▁প্ৰভাৱিত",
        -9.58023369292497
      ],
      [
        "▁এইচ",
        -9.581323522539918
      ],
      [
        "শ্",
        -9.581484902031537
      ],
      [
        "▁নানা",
        -9.5823127750126
      ],
      [
        "▁আনকি",
        -9.582924403896058
      ],
      [
        "▁কছাৰী",
        -9.583497878895905
      ],
      [
        "▁বুক",
        -9.583845546041733
      ],
      [
        "▁কাটি",
        -9.5848007868363
      ],
      [
        "▁তলৰ",
        -9.584816264356498
      ],
      [
        "▁পাব",
        -9.58493177581791
      ],
      [
        "▁প্ৰশ্ন",
        -9.585283598240682
      ],
      [
        "▁এলবাম",
        -9.585284232480937
      ],
      [
        "ৰ্জ",
        -9.585460516731032
      ],
      [
        "লেণ্ড",
        -9.585465198971033
      ],
      [
        "▁কটা",
        -9.586315089363659
      ],
      [
        "জনৰ",
        -9.586969309488891
      ],
      [
        "▁ঘ",
        -9.587187666441377
      ],
      [
        "▁আৰক্ষী",
        -9.587378091569207
      ],
      [
        "গড়",
        -9.587459504320972
      ],
      [
        "▁মহাৰাষ্ট্ৰ",
        -9.58815036799939
      ],
      [
        "2",
        -9.589516717312698
      ],
      [
        "▁ঘটি",
        -9.589983738558068
      ],
      [
        "▁৪০",
        -9.590194300628056
      ],
      [
        "▁উপত্যকা",
        -9.59137657201661
      ],
      [
        "▁ৰাভা",
        -9.59164360952838
      ],
      [
        "▁1",
        -9.591788788860026
      ],
      [
        "ফল",
        -9.591788985496262
      ],
      [
        "▁শক্তিৰ",
        -9.5919726918831
      ],
      [
        "▁ট্ৰে",
        -9.592223351686183
      ],
      [
        "▁অভিযোগ",
        -9.592544635415273
      ],
      [
        "▁জনতা",
        -9.592624534361779
      ],
      [
        "দেশ",
        -9.59322259129779
      ],
      [
        "▁তোলা",
        -9.594062793887051
      ],
      [
        "▁মাংস",
        -9.594295005121424
      ],
      [
        "▁আখ্যান",
        -9.594332479398382
      ],
      [
        "ৱদ্ধ",
        -9.594431620640329
      ],
      [
        "▁চাউল",
        -9.595327858521056
      ],
      [
        "▁বাৰ্ষিক",
        -9.595474852655542
      ],
      [
        "▁নিৰ্ণয়",
        -9.596102849452347
      ],
      [
        "▁১৮৫",
        -9.597247851132384
      ],
      [
        "▁এক্স",
        -9.597321955835287
      ],
      [
        "▁লাগি",
        -9.598014135315418
      ],
      [
        "▁কাপুৰ",
        -9.598978469319839
      ],
      [
        "▁ভট্টাচাৰ্য",
        -9.599022568290575
      ],
      [
        "▁বংগ",
        -9.599313330296031
      ],
      [
        "▁প্ৰচেষ্টা",
        -9.599490156334642
      ],
      [
        "▁দূৰদৰ্শন",
        -9.599765860432832
      ],
      [
        "ৰ্চ",
        -9.60075562561317
      ],
      [
        "▁প্ৰাণ",
        -9.600907943725371
      ],
      [
        "▁লোকসকলে",
        -9.601509877719995
      ],
      [
        "▁পিছতে",
        -9.602287268922332
      ],
      [
        "িয়েল",
        -9.602495024074386
      ],
      [
        "▁কৰাটো",
        -9.603221259103186
      ],
      [
        "াৰে",
        -9.604643975736291
      ],
      [
        "▁ব্ৰাহ্মণ",
        -9.605739483066625
      ],
      [
        "▁পো",
        -9.606800271646115
      ],
      [
        "▁ঋষি",
        -9.607039717918518
      ],
      [
        "▁ফৰাচী",
        -9.607040263021897
      ],
      [
        "▁বসবাস",
        -9.607040474639891
      ],
      [
        "ল্ট",
        -9.607193424124436
      ],
      [
        "▁দেহৰ",
        -9.607347934150724
      ],
      [
        "▁মুম্বাই",
        -9.607434955142967
      ],
      [
        "ভূত",
        -9.607869072743693
      ],
      [
        "▁পাৰ্",
        -9.608002397340195
      ],
      [
        "▁ৰাষ্ট্ৰসংঘ",
        -9.608616661960673
      ],
      [
        "▁গাই",
        -9.608882638193922
      ],
      [
        "▁ওচৰৰ",
        -9.6091795913199
      ],
      [
        "▁লিখি",
        -9.610160644105918
      ],
      [
        "▁পোহৰ",
        -9.610171184716469
      ],
      [
        "▁দৈনিক",
        -9.610791682270953
      ],
      [
        "তত্ত্ব",
        -9.611167674061535
      ],
      [
        "▁প্ৰশাসনিক",
        -9.611243876903668
      ],
      [
        "▁১৯৮২",
        -9.61195142873256
      ],
      [
        "▁এদিন",
        -9.612492829348366
      ],
      [
        "▁নকৰে",
        -9.6126628378435
      ],
      [
        "▁শীৰ্ষ",
        -9.613036466650524
      ],
      [
        "▁তাৰিখ",
        -9.613684851716158
      ],
      [
        "▁পৰিল",
        -9.613688437660777
      ],
      [
        "অসমৰ",
        -9.613704172137652
      ],
      [
        "▁প্ৰযোজনা",
        -9.614399560498867
      ],
      [
        "াছ",
        -9.614426636560411
      ],
      [
        "ক্ৰমে",
        -9.614728840235838
      ],
      [
        "ুন",
        -9.615234979517563
      ],
      [
        "▁উপস্থাপন",
        -9.616331729221294
      ],
      [
        "▁আঠ",
        -9.616492386148247
      ],
      [
        "▁প্ৰযুক্তি",
        -9.617089713690548
      ],
      [
        "শ্ৰী",
        -9.617910826723872
      ],
      [
        "▁নিজা",
        -9.618631333111773
      ],
      [
        "▁কোটি",
        -9.619059863752591
      ],
      [
        "▁প্ৰথমটো",
        -9.619360800159992
      ],
      [
        "▁ভয়",
        -9.619639410050222
      ],
      [
        "▁বান্ধি",
        -9.619796538997196
      ],
      [
        "▁অলপ",
        -9.619814235930232
      ],
      [
        "সূ",
        -9.620507817621998
      ],
      [
        "▁পৰিমাণে",
        -9.62086690819605
      ],
      [
        "7",
        -9.621813589630278
      ],
      [
        "▁মন্দিৰৰ",
        -9.622167097071443
      ],
      [
        "লীয়া",
        -9.622266810868531
      ],
      [
        "▁পৰিয়ালত",
        -9.623426445716229
      ],
      [
        "▁অৱস্থান",
        -9.62347174909797
      ],
      [
        "▁উক্ত",
        -9.623617454140128
      ],
      [
        "▁পেলাই",
        -9.62422341707406
      ],
      [
        "▁ঠাকুৰ",
        -9.624709037909305
      ],
      [
        "▁বহি",
        -9.625033806251494
      ],
      [
        "▁বিষয়বস্তু",
        -9.62559132155188
      ],
      [
        "▁চলচ্চিত্ৰত",
        -9.625697519928025
      ],
      [
        "▁ক্ষতি",
        -9.625747176944493
      ],
      [
        "কোষ",
        -9.626182598939668
      ],
      [
        "নেল",
        -9.626582390872459
      ],
      [
        "▁এড",
        -9.626949463655741
      ],
      [
        "মিন",
        -9.627415504417414
      ],
      [
        "পৃষ্ঠ",
        -9.62759500166236
      ],
      [
        "▁শিক্ষাবিদ",
        -9.62834229693369
      ],
      [
        "▁উপলব্ধ",
        -9.629116726834447
      ],
      [
        "▁কইনা",
        -9.629676313383609
      ],
      [
        "▁কাৰ্বি",
        -9.629787614611924
      ],
      [
        "▁মাই",
        -9.630149321983986
      ],
      [
        "▁আহৰণ",
        -9.631272158068482
      ],
      [
        "▁অভিনয়ৰ",
        -9.631317870288985
      ],
      [
        "্লি",
        -9.631359871896965
      ],
      [
        "স্থল",
        -9.631731877853227
      ],
      [
        "▁ৰূপৰ",
        -9.632005737825125
      ],
      [
        "▁ক্ল",
        -9.632687473123283
      ],
      [
        "ঙ্ক",
        -9.63287689830839
      ],
      [
        "▁প্ৰযোজক",
        -9.633039155395494
      ],
      [
        "েচন",
        -9.6332171717462
      ],
      [
        "াৱলী",
        -9.633501954004064
      ],
      [
        "▁দ্বি",
        -9.633513975984958
      ],
      [
        "▁কামত",
        -9.633703719057126
      ],
      [
        "▁পৰ্যায়ত",
        -9.634151127184886
      ],
      [
        "াংশ",
        -9.634954953942628
      ],
      [
        "▁শতাংশ",
        -9.634963284894617
      ],
      [
        "ডাৰ",
        -9.635751463283423
      ],
      [
        "▁গ্ল",
        -9.636731675200089
      ],
      [
        "▁বাংলা",
        -9.636784191031083
      ],
      [
        "▁বৰদলৈ",
        -9.636820140548242
      ],
      [
        "▁গগৈ",
        -9.637587905034827
      ],
      [
        "ীক",
        -9.637787604470294
      ],
      [
        "চাই",
        -9.63785184561634
      ],
      [
        "িজ",
        -9.638268804855507
      ],
      [
        "▁পাকিস্তানৰ",
        -9.6388235714869
      ],
      [
        "▁দৃশ্য",
        -9.639630072177514
      ],
      [
        "িব",
        -9.640285323450158
      ],
      [
        "▁কৰোঁতে",
        -9.640932812647533
      ],
      [
        "▁উলিয়াই",
        -9.642516717795624
      ],
      [
        "▁উদ্ভৱ",
        -9.642536158555835
      ],
      [
        "▁যাদু",
        -9.644008895981685
      ],
      [
        "▁গ্ৰে",
        -9.644074106830379
      ],
      [
        "▁উচ্চতা",
        -9.644271307515329
      ],
      [
        "▁সঠিক",
        -9.644395836379424
      ],
      [
        "▁সন্মুখীন",
        -9.644419404359788
      ],
      [
        "গল",
        -9.64452530644838
      ],
      [
        "ফাৰ",
        -9.645749462654203
      ],
      [
        "তাই",
        -9.646827607678437
      ],
      [
        "▁নোহোৱা",
        -9.647932414642025
      ],
      [
        "▁পৰম",
        -9.648146257058526
      ],
      [
        "▁বিশ্লেষণ",
        -9.648147218957302
      ],
      [
        "▁কঠিন",
        -9.648208365973222
      ],
      [
        "▁শাৰীৰিক",
        -9.648232541017494
      ],
      [
        "▁আখ্যা",
        -9.648569437144811
      ],
      [
        "▁বছৰে",
        -9.648930099667325
      ],
      [
        "িঅ",
        -9.651216537832212
      ],
      [
        "▁ৰোমান",
        -9.651720833885813
      ],
      [
        "দেৱী",
        -9.652252843808501
      ],
      [
        "▁শিখ",
        -9.652637790149562
      ],
      [
        "▁একো",
        -9.65470339676726
      ],
      [
        "ধান",
        -9.655361466331616
      ],
      [
        "মাহ",
        -9.65646376938202
      ],
      [
        "▁বৰণ",
        -9.657291427875574
      ],
      [
        "▁নাথ",
        -9.657792637897934
      ],
      [
        "▁যিহেতু",
        -9.657803230212576
      ],
      [
        "▁সংৰক্ষিত",
        -9.65780437826703
      ],
      [
        "▁জনায়",
        -9.658014409842
      ],
      [
        "▁তালিকাত",
        -9.658021725497893
      ],
      [
        "▁গৰ্ভ",
        -9.659942390332725
      ],
      [
        "▁আৰোপ",
        -9.660046723421356
      ],
      [
        "▁উদ্দেশ্যে",
        -9.660057309828767
      ],
      [
        "▁আত্মা",
        -9.660128721392407
      ],
      [
        "▁ছবিখনত",
        -9.66024911099095
      ],
      [
        "▁গেছ",
        -9.660495987155118
      ],
      [
        "▁শুনা",
        -9.66053110060056
      ],
      [
        "ফু",
        -9.660964740658883
      ],
      [
        "▁৬০",
        -9.66114106077914
      ],
      [
        "▁তেতিয়াৰ",
        -9.6633749684134
      ],
      [
        "▁নু",
        -9.663726196081868
      ],
      [
        "▁হোৱাত",
        -9.66391776125701
      ],
      [
        "▁দো",
        -9.66474135811462
      ],
      [
        "▁কালৰ",
        -9.667065481199561
      ],
      [
        "▁এইদৰে",
        -9.667553715277059
      ],
      [
        "▁নিশা",
        -9.668802640409641
      ],
      [
        "ম্বা",
        -9.668864599961594
      ],
      [
        "▁কণী",
        -9.669376577422685
      ],
      [
        "▁বিদেশী",
        -9.670425424416692
      ],
      [
        "ফাল",
        -9.671320482185227
      ],
      [
        "ম্ভ",
        -9.671322658134489
      ],
      [
        "▁ভাইৰাছ",
        -9.671441298377555
      ],
      [
        "▁ঘাই",
        -9.672530356343913
      ],
      [
        "▁ভক্তি",
        -9.672996876522259
      ],
      [
        "3",
        -9.673369718743178
      ],
      [
        "▁আদিত",
        -9.673899213960969
      ],
      [
        "কোণ",
        -9.674283987462353
      ],
      [
        "▁অৱতাৰ",
        -9.674322752151959
      ],
      [
        "▁ভাত",
        -9.674415485056612
      ],
      [
        "▁চিকাৰ",
        -9.675220556901648
      ],
      [
        "▁লখিমপুৰ",
        -9.675312488154097
      ],
      [
        "▁প্ৰসিদ্ধ",
        -9.675673505277334
      ],
      [
        "বিদ্যা",
        -9.675861687584288
      ],
      [
        "▁ডিচেম্বৰত",
        -9.676489424250157
      ],
      [
        "▁তাল",
        -9.676569350711304
      ],
      [
        "▁ক্ষুদ্ৰ",
        -9.677277173583612
      ],
      [
        "▁প্ৰজনন",
        -9.67729456251761
      ],
      [
        "টিৰ",
        -9.677315420272848
      ],
      [
        "▁জনপ্ৰিয়তা",
        -9.67810532847852
      ],
      [
        "▁ক্ৰম",
        -9.678804961332872
      ],
      [
        "▁ঢ",
        -9.679271226505424
      ],
      [
        "্ৰ",
        -9.679659398336467
      ],
      [
        "▁আপ",
        -9.679689411489122
      ],
      [
        "▁দিল্লীৰ",
        -9.680401603899043
      ],
      [
        "▁ইতিমধ্যে",
        -9.681218014578448
      ],
      [
        "▁পূৱ",
        -9.68196871626798
      ],
      [
        "▁নগা",
        -9.682068802030688
      ],
      [
        "▁প্ৰয়োজনীয়",
        -9.682230313152486
      ],
      [
        "▁শৈলী",
        -9.684046691013698
      ],
      [
        "▁সোণ",
        -9.684420127029416
      ],
      [
        "▁চাপ",
        -9.685493605132237
      ],
      [
        "দী",
        -9.686127443737131
      ],
      [
        "▁জগতত",
        -9.68626376421593
      ],
      [
        "গুণ",
        -9.686725992575315
      ],
      [
        "▁কাৰ্",
        -9.686733111223564
      ],
      [
        "▁নাগৰিক",
        -9.686902928400405
      ],
      [
        "▁তেখেতক",
        -9.68753077360747
      ],
      [
        "▁জন্মগ্ৰহণ",
        -9.687537619400647
      ],
      [
        "▁আগষ্টত",
        -9.687907708127423
      ],
      [
        "▁মত",
        -9.688123807191648
      ],
      [
        "কাই",
        -9.688172985060753
      ],
      [
        "▁সম্প্ৰদায়",
        -9.688415162973772
      ],
      [
        "▁মালা",
        -9.688882938409364
      ],
      [
        "▁মতা",
        -9.689545135261202
      ],
      [
        "ঘাট",
        -9.689763858619969
      ],
      [
        "ীত",
        -9.690294731021613
      ],
      [
        "▁ডলাৰ",
        -9.690405453147092
      ],
      [
        "চিত্ৰ",
        -9.690738322602472
      ],
      [
        "▁বৈষ্ণৱ",
        -9.691138791488667
      ],
      [
        "▁বছৰীয়া",
        -9.691757645825621
      ],
      [
        "শ্বা",
        -9.692197574984624
      ],
      [
        "▁শিৱৰ",
        -9.692324946460694
      ],
      [
        "▁কমলা",
        -9.69235293494567
      ],
      [
        "পী",
        -9.692971552822044
      ],
      [
        "▁থিয়",
        -9.693465772563833
      ],
      [
        "▁প্ৰজাতিৰ",
        -9.69395278449504
      ],
      [
        "▁পাছ",
        -9.693960582640292
      ],
      [
        "ক্ৰি",
        -9.694040042268563
      ],
      [
        "▁সমিতিৰ",
        -9.694127163021804
      ],
      [
        "গিৰি",
        -9.696660071696014
      ],
      [
        "▁আইনৰ",
        -9.697449606484966
      ],
      [
        "▁ভৰ",
        -9.69765583010117
      ],
      [
        "▁অৰ্ধ",
        -9.697964082823377
      ],
      [
        "▁আকাশ",
        -9.698496384193579
      ],
      [
        "▁তাই",
        -9.698708666430958
      ],
      [
        "▁ৰেকৰ্ড",
        -9.698806860900632
      ],
      [
        "িউ",
        -9.698979957367046
      ],
      [
        "▁জলবায়ু",
        -9.699146823993013
      ],
      [
        "▁অপৰাধ",
        -9.699310738517617
      ],
      [
        "▁জনগোষ্ঠী",
        -9.69938425605859
      ],
      [
        "▁ভিন",
        -9.701029623242732
      ],
      [
        "▁কেইবা",
        -9.701069532435264
      ],
      [
        "াচ",
        -9.7025559990847
      ],
      [
        "▁গ্ৰন্থখনৰ",
        -9.702742765932891
      ],
      [
        "▁১৯৮৪",
        -9.702944575271054
      ],
      [
        "▁পালে",
        -9.703289530834116
      ],
      [
        "▁কমল",
        -9.703790842059895
      ],
      [
        "▁পদ্মশ্ৰী",
        -9.704142975062709
      ],
      [
        "▁স্পষ্ট",
        -9.704364957652562
      ],
      [
        "▁ভৌগোলিক",
        -9.705195179224892
      ],
      [
        "▁ক্লাব",
        -9.705442877603016
      ],
      [
        "▁কাৰক",
        -9.705691744768846
      ],
      [
        "▁কাষ",
        -9.706387222815032
      ],
      [
        "দ্ধ",
        -9.706760862681634
      ],
      [
        "▁ষ্টেচন",
        -9.707681821929494
      ],
      [
        "শী",
        -9.708320158215916
      ],
      [
        "▁মৌ",
        -9.708396054827745
      ],
      [
        "▁পদ্ম",
        -9.70868203823089
      ],
      [
        "▁বাট",
        -9.70886856434542
      ],
      [
        "▁কৰোৱা",
        -9.710118996973552
      ],
      [
        "▁অভাৱ",
        -9.710770867035015
      ],
      [
        "▁নিৰ্ধাৰণ",
        -9.711306386797762
      ],
      [
        "▁স্বৰ্গ",
        -9.711476952815621
      ],
      [
        "▁প্ৰেৰণ",
        -9.71153914789376
      ],
      [
        "▁শাৰী",
        -9.711886210980197
      ],
      [
        "প্ৰভা",
        -9.71325937254451
      ],
      [
        "▁বিতৰণ",
        -9.713374311689046
      ],
      [
        "নাৰায়ণ",
        -9.713459847966824
      ],
      [
        "▁এচ",
        -9.71367883936314
      ],
      [
        "যা",
        -9.71374728179012
      ],
      [
        "4",
        -9.714431883265476
      ],
      [
        "▁হো",
        -9.71515994985471
      ],
      [
        "▁খ্ৰীষ্টান",
        -9.715369663956203
      ],
      [
        "▁গণেশ",
        -9.715498753998528
      ],
      [
        "1",
        -9.716113325523883
      ],
      [
        "▁সীমান্ত",
        -9.717680313814492
      ],
      [
        "▁চকু",
        -9.71782949771329
      ],
      [
        "▁থান",
        -9.718696706288137
      ],
      [
        "▁সংঘ",
        -9.719275150593077
      ],
      [
        "▁নাগ",
        -9.719715504202224
      ],
      [
        "▁স্ক",
        -9.719992103113169
      ],
      [
        "শ্ৰেষ্ঠ",
        -9.721144097096921
      ],
      [
        "▁ঔপন্যাসিক",
        -9.721505422975929
      ],
      [
        "▁লেখিকা",
        -9.721555222556123
      ],
      [
        "▁ৰাজনীতিবিদ",
        -9.72171945092111
      ],
      [
        "▁লিখিছে",
        -9.721968754412835
      ],
      [
        "▁দান",
        -9.722122334693514
      ],
      [
        "বৃত্ত",
        -9.722270396543312
      ],
      [
        "▁শিশুৰ",
        -9.722271231371295
      ],
      [
        "▁লোৱাৰ",
        -9.722451197395264
      ],
      [
        "▁প্ৰিয়",
        -9.723641793044859
      ],
      [
        "▁প্ৰতিযোগিতাত",
        -9.723732798472493
      ],
      [
        "▁কাহিনীৰ",
        -9.723824166105803
      ],
      [
        "▁বাণিজ্যিক",
        -9.72441585661559
      ],
      [
        "▁ৰক্ত",
        -9.72488551879211
      ],
      [
        "ক্ৰ",
        -9.72506765629607
      ],
      [
        "▁ৰজাই",
        -9.725765719820156
      ],
      [
        "▁চুতীয়া",
        -9.725774634760509
      ],
      [
        "▁সমষ্টিৰ",
        -9.725863685420624
      ],
      [
        "▁ফ্ৰান্স",
        -9.726413779734552
      ],
      [
        "▁নামঘৰ",
        -9.726603643302482
      ],
      [
        "▁বোলছবি",
        -9.727261111503235
      ],
      [
        "▁কল্যাণ",
        -9.727692691173289
      ],
      [
        "নীয়",
        -9.728490910487233
      ],
      [
        "▁সাজ",
        -9.73128943112862
      ],
      [
        "▁মায়া",
        -9.731794807785066
      ],
      [
        "▁আঞ্চলিক",
        -9.731836233040072
      ],
      [
        "▁অনুৰোধ",
        -9.731836573473682
      ],
      [
        "ন্না",
        -9.73244658188675
      ],
      [
        "কুমাৰ",
        -9.732499955765686
      ],
      [
        "টক",
        -9.73283244172814
      ],
      [
        "▁১৯৭৬",
        -9.734207857319728
      ],
      [
        "▁বাঘ",
        -9.734223650200704
      ],
      [
        "▁বিবাহৰ",
        -9.73438274284213
      ],
      [
        "▁ভাই",
        -9.735085111458208
      ],
      [
        "▁শস্য",
        -9.73623203668111
      ],
      [
        "ৱি",
        -9.737089470431162
      ],
      [
        "▁জৈৱ",
        -9.737415040540254
      ],
      [
        "▁কোচ",
        -9.737418143332825
      ],
      [
        "বিন",
        -9.737633381038792
      ],
      [
        "▁ঘৰলৈ",
        -9.738526138301186
      ],
      [
        "▁প্ৰতিভা",
        -9.73872606868447
      ],
      [
        "▁বুদ্ধ",
        -9.73904328067228
      ],
      [
        "▁সন্মানিত",
        -9.739487225127213
      ],
      [
        "▁শংকৰ",
        -9.73952950442554
      ],
      [
        "▁চিনাক্ত",
        -9.739686081523555
      ],
      [
        "▁অনুসৰণ",
        -9.740178415627586
      ],
      [
        "▁গৱেষণাৰ",
        -9.740199702849145
      ],
      [
        "▁মিলিয়ন",
        -9.740285859243546
      ],
      [
        "▁শ্বাহ",
        -9.740404475302343
      ],
      [
        "▁কণ্ঠ",
        -9.740660502652407
      ],
      [
        "▁ৰাখিছিল",
        -9.740847458140276
      ],
      [
        "▁তাৰে",
        -9.740902060101323
      ],
      [
        "▁জাপানী",
        -9.741093719952314
      ],
      [
        "▁জানিব",
        -9.742060255382237
      ],
      [
        "দাস",
        -9.742066296849405
      ],
      [
        "মণ্ডল",
        -9.742122405925938
      ],
      [
        "▁অষ্ট্ৰেলিয়া",
        -9.742275363933201
      ],
      [
        "▁জৈন",
        -9.742288445675843
      ],
      [
        "▁বিশ্বযুদ্ধ",
        -9.742456713664401
      ],
      [
        "▁স্বাধীন",
        -9.742982965561305
      ],
      [
        "প্ল",
        -9.743650940968983
      ],
      [
        "▁সামৰি",
        -9.74414571359916
      ],
      [
        "▁ভিডিঅ",
        -9.744459973089546
      ],
      [
        "▁নীল",
        -9.744644378666507
      ],
      [
        "চিয়া",
        -9.744893137630019
      ],
      [
        "▁বন্দী",
        -9.74499090817504
      ],
      [
        "ল্ল",
        -9.745464726765844
      ],
      [
        "হান",
        -9.745481464316288
      ],
      [
        "ীকৰণ",
        -9.746888597241115
      ],
      [
        "▁১৯৬৯",
        -9.74713675818234
      ],
      [
        "▁একোটা",
        -9.747312869040151
      ],
      [
        "বাসী",
        -9.747488887915111
      ],
      [
        "ভৱ",
        -9.74792300889282
      ],
      [
        "▁গ্ৰন্থৰ",
        -9.748297038717027
      ],
      [
        "▁ইউৰোপীয়",
        -9.748471794828518
      ],
      [
        "কালীন",
        -9.748838692241279
      ],
      [
        "▁মণি",
        -9.748933113319165
      ],
      [
        "▁দলে",
        -9.749921236251977
      ],
      [
        "▁ফালৰ",
        -9.750734010747696
      ],
      [
        "▁আধাৰিত",
        -9.751362812973404
      ],
      [
        "াউ",
        -9.752263948050743
      ],
      [
        "▁মণিপুৰ",
        -9.752364299665262
      ],
      [
        "ণ্ডা",
        -9.752962458899916
      ],
      [
        "▁লেও",
        -9.753876584708935
      ],
      [
        "▁আদেশ",
        -9.754117654556996
      ],
      [
        "ওঁ",
        -9.754147533193027
      ],
      [
        "গণ",
        -9.75485180561739
      ],
      [
        "▁সম্ভাৱনা",
        -9.754946365259245
      ],
      [
        "▁গৱেষক",
        -9.754946367599212
      ],
      [
        "▁মৰ্যাদা",
        -9.754946420928908
      ],
      [
        "▁জাহাজ",
        -9.755109673719899
      ],
      [
        "ৰ্ম",
        -9.75525289805098
      ],
      [
        "▁প্ৰকৃতি",
        -9.755309560843877
      ],
      [
        "▁ছাই",
        -9.755533372989511
      ],
      [
        "াত্মক",
        -9.755636475592745
      ],
      [
        "▁ভাগৱত",
        -9.755864547047189
      ],
      [
        "▁কৈছে",
        -9.756263460292903
      ],
      [
        "▁স্থিতি",
        -9.756456005111767
      ],
      [
        "মুখী",
        -9.757042162592477
      ],
      [
        "▁নেপাল",
        -9.757410868502301
      ],
      [
        "াৰ্ড",
        -9.757710461375332
      ],
      [
        "▁বাধ্য",
        -9.757879698192347
      ],
      [
        "▁মেলা",
        -9.758549582337995
      ],
      [
        "▁নিয়া",
        -9.759193228973878
      ],
      [
        "▁দাৰ্শনিক",
        -9.759206209154812
      ],
      [
        "▁ষষ্ঠ",
        -9.759273838603317
      ],
      [
        "দেৱে",
        -9.760207071190454
      ],
      [
        "চৰণ",
        -9.761337161569287
      ],
      [
        "▁বিবাহপাশত",
        -9.761342971193791
      ],
      [
        "▁১৯৭৮",
        -9.761640200914847
      ],
      [
        "▁৩৫",
        -9.76218286454066
      ],
      [
        "▁গ্ৰহ",
        -9.762249421791488
      ],
      [
        "▁থাকিবলৈ",
        -9.762858227562944
      ],
      [
        "▁পঢ়ি",
        -9.763010649547997
      ],
      [
        "▁অনুযায়ী",
        -9.76348428941866
      ],
      [
        "▁নাৰীৰ",
        -9.764332051624072
      ],
      [
        "▁ৰত্ন",
        -9.76507699260964
      ],
      [
        "▁পৰিবেশন",
        -9.76543010420431
      ],
      [
        "▁সতী",
        -9.76585071221214
      ],
      [
        "▁আঘাত",
        -9.766140740965753
      ],
      [
        "▁অধিকাংশ",
        -9.766163410295672
      ],
      [
        "কেইখন",
        -9.76661072781351
      ],
      [
        "▁পৰিণত",
        -9.767191449180263
      ],
      [
        "▁স্ত্ৰী",
        -9.768485107237739
      ],
      [
        "▁শ্বে",
        -9.76877484515413
      ],
      [
        "▁মুহাম্মাদ",
        -9.769935922048946
      ],
      [
        "▁ব্যাপক",
        -9.769941068229219
      ],
      [
        "▁জীয়াই",
        -9.770003330307897
      ],
      [
        "▁আনে",
        -9.770218751044476
      ],
      [
        "▁নিৰ্ভৰ",
        -9.771145846057326
      ],
      [
        "▁কিঃমিঃ",
        -9.77209574911662
      ],
      [
        "▁মন্ত্ৰ",
        -9.772729409539977
      ],
      [
        "গ্",
        -9.773089507324709
      ],
      [
        "▁উৎসৱৰ",
        -9.77349791570919
      ],
      [
        "▁উপযুক্ত",
        -9.77355323561709
      ],
      [
        "▁দেউতাকৰ",
        -9.774035392753648
      ],
      [
        "▁নেপথ্য",
        -9.774260474252742
      ],
      [
        "▁অন্তিম",
        -9.774367612741061
      ],
      [
        "▁সংসদ",
        -9.77489278312865
      ],
      [
        "▁চৰাইৰ",
        -9.775255294553055
      ],
      [
        "▁অন্ত",
        -9.775365158803014
      ],
      [
        "▁বসু",
        -9.77574169538138
      ],
      [
        "▁পৰ্যায়ৰ",
        -9.775985579300402
      ],
      [
        "▁শৰীৰৰ",
        -9.776069200958503
      ],
      [
        "▁বিকশি",
        -9.776461656874623
      ],
      [
        "▁এইবোৰ",
        -9.776546553122607
      ],
      [
        "▁সহজ",
        -9.776791631245759
      ],
      [
        "গে",
        -9.777131254251657
      ],
      [
        "গাৰ",
        -9.777536887976042
      ],
      [
        "▁চুলি",
        -9.778544875189397
      ],
      [
        "▁আধা",
        -9.778669054434467
      ],
      [
        "বাহী",
        -9.779036301102414
      ],
      [
        "▁গ্ৰাম",
        -9.779796780050148
      ],
      [
        "▁তাইৰ",
        -9.780058635655045
      ],
      [
        "▁নামভৰ্তি",
        -9.780782027892798
      ],
      [
        "▁বেজবৰুৱা",
        -9.781171674678212
      ],
      [
        "▁জেন",
        -9.781539782510524
      ],
      [
        "লেখ",
        -9.78189418524169
      ],
      [
        "▁দেহ",
        -9.782013092136864
      ],
      [
        "▁মধু",
        -9.782366217935515
      ],
      [
        "▁বিৰোধী",
        -9.782454468116894
      ],
      [
        "জ্",
        -9.782585456251603
      ],
      [
        "▁মিছ",
        -9.783819176278296
      ],
      [
        "জাতীয়",
        -9.783923834942382
      ],
      [
        "ৰ্ড",
        -9.784723872066323
      ],
      [
        "▁সাহিত্যত",
        -9.784724075786023
      ],
      [
        "▁গভীৰ",
        -9.784926527341229
      ],
      [
        "▁তীব্ৰ",
        -9.785170256976741
      ],
      [
        "▁নোৱাৰি",
        -9.785647976055685
      ],
      [
        "▁চহৰত",
        -9.786491927879535
      ],
      [
        "ন্দু",
        -9.786575171904524
      ],
      [
        "▁পাৰত",
        -9.787073224339736
      ],
      [
        "ণ্ডি",
        -9.787228309714205
      ],
      [
        "▁পুৰাণ",
        -9.787259093688817
      ],
      [
        "▁দেখুওৱা",
        -9.787346586471681
      ],
      [
        "▁অস্তিত্ব",
        -9.787347094051876
      ],
      [
        "ক্ষী",
        -9.787368602347648
      ],
      [
        "▁?",
        -9.787614461362573
      ],
      [
        "▁কিছুদিন",
        -9.787894479918219
      ],
      [
        "▁সন্তানৰ",
        -9.788184663940399
      ],
      [
        "▁যেন",
        -9.78826418672103
      ],
      [
        "▁বিধান",
        -9.788484788237135
      ],
      [
        "▁জনসংখ্যাৰ",
        -9.789539002486137
      ],
      [
        "▁ৰেডিঅ",
        -9.789675024911512
      ],
      [
        "মালা",
        -9.789793655025207
      ],
      [
        "▁ডাই",
        -9.790230891837453
      ],
      [
        "▁সংস্কাৰ",
        -9.790346174339179
      ],
      [
        "▁চীনৰ",
        -9.790350528712276
      ],
      [
        "▁পাত্ৰ",
        -9.790634134224074
      ],
      [
        "▁স্কুলত",
        -9.791431249855252
      ],
      [
        "▁বিবেচনা",
        -9.791525788413267
      ],
      [
        "▁ডাক",
        -9.793407415084008
      ],
      [
        "▁সঞ্চালক",
        -9.793922512825606
      ],
      [
        "তাত্ত্বিক",
        -9.793959836053805
      ],
      [
        "িতা",
        -9.793982779557396
      ],
      [
        "▁অৰ্জুন",
        -9.79579280102902
      ],
      [
        "▁পৰিধান",
        -9.796422288099592
      ],
      [
        "▁স্তৰ",
        -9.796437161891479
      ],
      [
        "▁মহানগৰ",
        -9.796471569988753
      ],
      [
        "েশ্বৰী",
        -9.796898165536636
      ],
      [
        "▁গায়ক",
        -9.797202418043838
      ],
      [
        "▁মাধ্যম",
        -9.798055814827485
      ],
      [
        "লেট",
        -9.79847233082242
      ],
      [
        "▁মনোবিজ্ঞান",
        -9.79849262284667
      ],
      [
        "▁দিনটো",
        -9.798894240593075
      ],
      [
        "▁প্ৰতিষ্ঠ",
        -9.800096829101708
      ],
      [
        "▁৮০",
        -9.80022465630526
      ],
      [
        "▁[",
        -9.80034334405437
      ],
      [
        "▁দিনটোত",
        -9.800845348611707
      ],
      [
        "জগত",
        -9.80112258215538
      ],
      [
        "পট",
        -9.801160487737015
      ],
      [
        "▁সম্পৰ্কিত",
        -9.802001349520165
      ],
      [
        "▁অধিষ্ঠ",
        -9.802878577780351
      ],
      [
        "ষা",
        -9.80323007053752
      ],
      [
        "▁জীৱনী",
        -9.803264597037884
      ],
      [
        "ধ্য",
        -9.803582209711491
      ],
      [
        "▁বয়সতে",
        -9.80363868799104
      ],
      [
        "▁সেৱাৰ",
        -9.804516612556778
      ],
      [
        "▁সজা",
        -9.804662674435068
      ],
      [
        "▁পৌৰাণিক",
        -9.805065755618152
      ],
      [
        "ক্ষেত্ৰ",
        -9.805516339669808
      ],
      [
        "▁জৰ্জ",
        -9.805582070476392
      ],
      [
        "ুম",
        -9.806663909464099
      ],
      [
        "▁প্ৰতিবেদন",
        -9.807306383179169
      ],
      [
        "িট",
        -9.808105463039109
      ],
      [
        "ভেন",
        -9.808199976422081
      ],
      [
        "ন্",
        -9.808218580950777
      ],
      [
        "ভেল",
        -9.80906851613804
      ],
      [
        "হাল",
        -9.809112016883471
      ],
      [
        "▁ভুল",
        -9.80918817443977
      ],
      [
        "▁ধাৰণ",
        -9.809230463779835
      ],
      [
        "▁বনাঞ্চল",
        -9.809624096030772
      ],
      [
        "▁পঞ্চ",
        -9.81077769902556
      ],
      [
        "হো",
        -9.810842836424936
      ],
      [
        "▁তন্ত্ৰ",
        -9.811130039766208
      ],
      [
        "▁জটিল",
        -9.81163336847343
      ],
      [
        "▁একত্ৰিত",
        -9.811810398262239
      ],
      [
        "▁ছু",
        -9.81221840051414
      ],
      [
        "▁প্ৰতিষ্ঠানৰ",
        -9.812607556055028
      ],
      [
        "▁ভাস্কৰ",
        -9.813249423296273
      ],
      [
        "জোৰা",
        -9.814189126478247
      ],
      [
        "▁প্ৰকল্প",
        -9.816121928884925
      ],
      [
        "▁উপাসনা",
        -9.816301866068647
      ],
      [
        "ডো",
        -9.816560033995863
      ],
      [
        "▁পাৰ্টি",
        -9.817821837381643
      ],
      [
        "▁শৈশৱ",
        -9.81856426848509
      ],
      [
        "▁নম্বৰ",
        -9.818614215324818
      ],
      [
        "কালত",
        -9.818858590827798
      ],
      [
        "▁আন্দোলনত",
        -9.819413343913418
      ],
      [
        "▁খোলা",
        -9.820328853147355
      ],
      [
        "▁শৈক্ষিক",
        -9.820831840765848
      ],
      [
        "▁মনত",
        -9.820954945242264
      ],
      [
        "ৰ্ন",
        -9.823197254552188
      ],
      [
        "▁মাৰ্চত",
        -9.823507954929406
      ],
      [
        "ছু",
        -9.82394891293516
      ],
      [
        "নীৰ",
        -9.824736162552005
      ],
      [
        "স্তা",
        -9.824840193299332
      ],
      [
        "▁শুনি",
        -9.824843181866648
      ],
      [
        "▁থা",
        -9.824844797949199
      ],
      [
        "▁মহাকাশ",
        -9.825319666559842
      ],
      [
        "▁এছিয়ান",
        -9.8253517464679
      ],
      [
        "▁চৌ",
        -9.825388024212444
      ],
      [
        "▁ইয়াৰোপৰি",
        -9.825388955071567
      ],
      [
        "গ্ৰ",
        -9.825431465217319
      ],
      [
        "জীৱন",
        -9.82619306546788
      ],
      [
        "বাহ",
        -9.826285411137198
      ],
      [
        "মণি",
        -9.826532191025464
      ],
      [
        "▁ছবিখনে",
        -9.826547509015667
      ],
      [
        "▁অংক",
        -9.826639527511842
      ],
      [
        "ুৰী",
        -9.827657715952864
      ],
      [
        "ঙে",
        -9.827742782125961
      ],
      [
        "▁জ্যোতি",
        -9.828756017645805
      ],
      [
        "▁চিহ্নিত",
        -9.829444729060024
      ],
      [
        "মিল",
        -9.829781293643235
      ],
      [
        "ভাৰতৰ",
        -9.829836811968415
      ],
      [
        "▁মহাকাব্য",
        -9.829954231079977
      ],
      [
        "▁প্ৰত্যক্ষ",
        -9.830048034284886
      ],
      [
        "াৰী",
        -9.830111310285186
      ],
      [
        "▁ভোট",
        -9.83012076546524
      ],
      [
        "▁স্থায়ী",
        -9.830164012093304
      ],
      [
        "টিং",
        -9.830787620795052
      ],
      [
        "এম",
        -9.83173403313885
      ],
      [
        "▁জনসাধাৰণ",
        -9.832247508628623
      ],
      [
        "▁ৱেবছাইট",
        -9.832247577219245
      ],
      [
        "▁দশম",
        -9.832626091573008
      ],
      [
        "▁বহন",
        -9.832653006738356
      ],
      [
        "▁আৰ্ট",
        -9.832687195766342
      ],
      [
        "▁ব্যৱসায়িক",
        -9.83358228977
      ],
      [
        "▁ওখ",
        -9.833840268827213
      ],
      [
        "▁অনুসন্ধান",
        -9.83454633532473
      ],
      [
        "▁নৃত্যশিল্পী",
        -9.834787839711158
      ],
      [
        "▁চলোৱা",
        -9.835092583748143
      ],
      [
        "▁কিতাপখন",
        -9.835827870322353
      ],
      [
        "▁ফিল্ম",
        -9.836406663842926
      ],
      [
        "▁অক্টোবৰত",
        -9.836685284065577
      ],
      [
        "▁জিন",
        -9.837249172461387
      ],
      [
        "▁ৰাৱণ",
        -9.837283262595715
      ],
      [
        "্তি",
        -9.83752104524428
      ],
      [
        "▁পল",
        -9.837909277210311
      ],
      [
        "১৯৫৫",
        -9.838152178392654
      ],
      [
        "▁সোঁ",
        -9.838386606484843
      ],
      [
        "▁নথকা",
        -9.83916740730277
      ],
      [
        "বীৰ",
        -9.83994814738702
      ],
      [
        "▁ভূমিকাত",
        -9.840303745064066
      ],
      [
        "▁বৃত্তি",
        -9.840492080576757
      ],
      [
        "▁ৰসায়ন",
        -9.840736216131162
      ],
      [
        "▁ভূপেন",
        -9.840746353085777
      ],
      [
        "▁বিষয়ৰ",
        -9.841180633126857
      ],
      [
        "▁শৃংখলা",
        -9.841265588996514
      ],
      [
        "▁কৰ্ণাটক",
        -9.84147492403871
      ],
      [
        "▁আহ্বান",
        -9.84147494776288
      ],
      [
        "১৯৫২",
        -9.841893142753992
      ],
      [
        "▁সহকাৰী",
        -9.84265645871023
      ],
      [
        "কাৰ্য",
        -9.84266489198625
      ],
      [
        "▁নাট্যকাৰ",
        -9.84307587274579
      ],
      [
        "▁খুব",
        -9.843116711790461
      ],
      [
        "▁সপ্তাহ",
        -9.84339667949818
      ],
      [
        "▁ম্যানমাৰ",
        -9.843794981673236
      ],
      [
        "▁আত্মপ্ৰকাশ",
        -9.843825820310926
      ],
      [
        "▁আন্তঃ",
        -9.843919170071217
      ],
      [
        "▁উঠা",
        -9.844714568476036
      ],
      [
        "ৰোগ",
        -9.844806176633435
      ],
      [
        "▁প্ৰশাসন",
        -9.845689325576396
      ],
      [
        "▁মাজ",
        -9.845732311943252
      ],
      [
        "▁চিত্ৰনাট্য",
        -9.845830575575162
      ],
      [
        "ণ্ডাৰ",
        -9.845870431169724
      ],
      [
        "▁নিযুত",
        -9.84612639285316
      ],
      [
        "প্ৰসাদ",
        -9.846167187596908
      ],
      [
        "▁ফ্ল",
        -9.846443759998861
      ],
      [
        "ন্দ্ৰ",
        -9.846783392650751
      ],
      [
        "▁মহকুমা",
        -9.846938801478764
      ],
      [
        "▁ৰোগত",
        -9.847295739944382
      ],
      [
        "ট্ৰি",
        -9.848067839924983
      ],
      [
        "▁ৰাসায়নিক",
        -9.848255320764478
      ],
      [
        "িয়াই",
        -9.848349553314652
      ],
      [
        "▁ন্যায়াধীশ",
        -9.848451535728977
      ],
      [
        "▁অভিযান্ত্ৰিক",
        -9.848451536704623
      ],
      [
        "▁ছূৰা",
        -9.848453704746102
      ],
      [
        "▁নলবাৰী",
        -9.848561189193138
      ],
      [
        "ছাৰ",
        -9.84946468724147
      ],
      [
        "▁স্প",
        -9.849540400847259
      ],
      [
        "▁প্ৰা",
        -9.850220604158359
      ],
      [
        "▁সাম্ৰাজ্য",
        -9.850773152012929
      ],
      [
        "▁পাৰ্বতী",
        -9.850788784746221
      ],
      [
        "▁ভৰ্তি",
        -9.850861461217882
      ],
      [
        "▁নেহৰু",
        -9.851369378934258
      ],
      [
        "মূ",
        -9.85140912559762
      ],
      [
        "▁দুখ",
        -9.851426915445252
      ],
      [
        "▁সন্মানীয়",
        -9.851607058356931
      ],
      [
        "জনিত",
        -9.852180693811771
      ],
      [
        "▁পানীত",
        -9.852190580252064
      ],
      [
        "▁কৰিবলগীয়া",
        -9.852344780928448
      ],
      [
        "খোৱা",
        -9.852450552771382
      ],
      [
        "▁পাবলৈ",
        -9.852939484949399
      ],
      [
        "▁এপ",
        -9.853007179122473
      ],
      [
        "▁এপ্ৰিলত",
        -9.854024107073315
      ],
      [
        "▁অস্ত্ৰ",
        -9.854089412335512
      ],
      [
        "▁মহিলাসকলৰ",
        -9.854431911765436
      ],
      [
        "▁জগতৰ",
        -9.854450468997268
      ],
      [
        "▁সো",
        -9.854653638045288
      ],
      [
        "▁১৯৬৪",
        -9.85469290381679
      ],
      [
        "▁পাঠক",
        -9.85472034710115
      ],
      [
        "▁পূৰ্বতে",
        -9.85486222965825
      ],
      [
        "▁মালিক",
        -9.854874519850934
      ],
      [
        "▁পৰিৱৰ্ত",
        -9.85501148230713
      ],
      [
        "▁৯০",
        -9.855272607270894
      ],
      [
        "▁হালধীয়া",
        -9.855477360983166
      ],
      [
        "▁শত্ৰু",
        -9.855511111967903
      ],
      [
        "▁সংক্ৰমণ",
        -9.855652155301122
      ],
      [
        "▁লুই",
        -9.855909444723016
      ],
      [
        "শো",
        -9.855979793788809
      ],
      [
        "▁উপায়",
        -9.856970388121596
      ],
      [
        "▁ৰাজ্যত",
        -9.857287105829496
      ],
      [
        "▁ৰাজত্ব",
        -9.857321331576387
      ],
      [
        "▁বৈষম্য",
        -9.857830264531536
      ],
      [
        "▁পবিত্ৰ",
        -9.857830969563135
      ],
      [
        "▁শ্ৰীমন্ত",
        -9.857831659663503
      ],
      [
        "খনে",
        -9.85910323740302
      ],
      [
        "▁ফেব্ৰুৱাৰীত",
        -9.859711488480627
      ],
      [
        "▁তাতে",
        -9.859938677961452
      ],
      [
        "▁আধ্যাত্মিক",
        -9.860188754237523
      ],
      [
        "কৃতি",
        -9.86033737889424
      ],
      [
        "ৰ্গ",
        -9.861295385959906
      ],
      [
        "▁জনোৱা",
        -9.86151000997145
      ],
      [
        "▁উদ্ভাৱন",
        -9.86255332416054
      ],
      [
        "▁নিয়োগ",
        -9.86255469185886
      ],
      [
        "▁বসন্ত",
        -9.862555722418012
      ],
      [
        "▁মহম্মদ",
        -9.862562645266777
      ],
      [
        "▁ষ্টে",
        -9.863778365484098
      ],
      [
        "▁স্বৰ্গদেউ",
        -9.864955758237457
      ],
      [
        "▁শংকৰদেৱ",
        -9.865282783529642
      ],
      [
        "▁মাত্ৰা",
        -9.865941156204142
      ],
      [
        "▁ভাৱ",
        -9.86621965898813
      ],
      [
        "▁সাপ",
        -9.86681214827285
      ],
      [
        "▁আইনী",
        -9.867124247721822
      ],
      [
        "▁দুৰ্গ",
        -9.867615049068865
      ],
      [
        "▁নিৰ্মাণৰ",
        -9.868217398321669
      ],
      [
        "▁অক্ষ",
        -9.868562945371181
      ],
      [
        "▁ৰাজ্যখন",
        -9.869335339530554
      ],
      [
        "▁পোন",
        -9.869561355451552
      ],
      [
        "ধাৰ",
        -9.869775737166254
      ],
      [
        "▁মহান",
        -9.869839270448871
      ],
      [
        "▁সদায়",
        -9.869865317890683
      ],
      [
        "কালৰ",
        -9.869882909082236
      ],
      [
        "▁গুটি",
        -9.869888511461744
      ],
      [
        "▁গ্ৰাম্য",
        -9.870415428945664
      ],
      [
        "▁বিপৰীত",
        -9.870416588514058
      ],
      [
        "▁মাৰ্",
        -9.87044128226832
      ],
      [
        "ানু",
        -9.870575697488585
      ],
      [
        "▁হব",
        -9.871229001703528
      ],
      [
        "▁পিন্ধা",
        -9.871904075441712
      ],
      [
        "▁নিষিদ্ধ",
        -9.872065373106906
      ],
      [
        "▁ফলস্বৰূপে",
        -9.872126157851532
      ],
      [
        "▁পৰ",
        -9.872273054094418
      ],
      [
        "▁ৰামায়ণ",
        -9.872296665250147
      ],
      [
        "▁সেউজীয়া",
        -9.872423435223219
      ],
      [
        "▁তোলে",
        -9.872925702973703
      ],
      [
        "▁পেন",
        -9.873725623325743
      ],
      [
        "▁বাঢ়ি",
        -9.874530805269297
      ],
      [
        "▁কৰ্মচাৰী",
        -9.874539580178864
      ],
      [
        "▁প্ৰাপ্ত",
        -9.8746168582988
      ],
      [
        "▁পাট",
        -9.875375644209097
      ],
      [
        "▁নৱেম্বৰত",
        -9.875408981091589
      ],
      [
        "গ্ৰাম",
        -9.875774879788418
      ],
      [
        "▁পাতনি",
        -9.876220288584872
      ],
      [
        "▁গাখীৰ",
        -9.876855958271626
      ],
      [
        "ফ্ৰ",
        -9.876982520119533
      ],
      [
        "▁বিত্তীয়",
        -9.877157675676216
      ],
      [
        "▁আগবঢ়াইছিল",
        -9.87731907625214
      ],
      [
        "▁কলকাতা",
        -9.877599153734389
      ],
      [
        "▁সেন",
        -9.878220713832844
      ],
      [
        "িলে",
        -9.87822510554345
      ],
      [
        "▁তৰা",
        -9.878372613301709
      ],
      [
        "▁প্ৰতিনিধি",
        -9.879341215384034
      ],
      [
        "▁চৰ",
        -9.879848160934987
      ],
      [
        "▁গোপাল",
        -9.87988428537021
      ],
      [
        "হাই",
        -9.879957273841665
      ],
      [
        "▁বুঢ়া",
        -9.880389562475713
      ],
      [
        "ট্ৰ",
        -9.880550852431764
      ],
      [
        "▁নিযুক্ত",
        -9.881499253938077
      ],
      [
        "▁আঁচনি",
        -9.88224047946461
      ],
      [
        "▁চাম",
        -9.882284901197822
      ],
      [
        "▁সফলতা",
        -9.882677210599294
      ],
      [
        "▁সপ্তম",
        -9.882712486444891
      ],
      [
        "থু",
        -9.883575554809223
      ],
      [
        "▁যোগাযোগ",
        -9.884085196804238
      ],
      [
        "▁শিষ্য",
        -9.884095656692873
      ],
      [
        "▁ৰেখা",
        -9.884439492762052
      ],
      [
        "▁কবিতাৰ",
        -9.884528158088052
      ],
      [
        "▁খণ্ডৰ",
        -9.884633566371765
      ],
      [
        "সাৰ",
        -9.885202520916167
      ],
      [
        "▁মাইল",
        -9.885685611093379
      ],
      [
        "▁চৰ্ত",
        -9.885838596339655
      ],
      [
        "▁বৰষুণ",
        -9.886369564964259
      ],
      [
        "▁কিংবদন্তি",
        -9.88650605018786
      ],
      [
        "▁কাশ্মীৰ",
        -9.886506054746356
      ],
      [
        "▁—",
        -9.887376742479656
      ],
      [
        "য়ন",
        -9.887636901151254
      ],
      [
        "▁সংগ্ৰাম",
        -9.887677076650327
      ],
      [
        "▁অনুষ্ঠানৰ",
        -9.888917428638905
      ],
      [
        "▁সঁজুলি",
        -9.888933245963138
      ],
      [
        "▁সামৰিক",
        -9.888994021092326
      ],
      [
        "▁আগবঢ়াই",
        -9.889337475349034
      ],
      [
        "পাৰা",
        -9.890097876218633
      ],
      [
        "▁সাজি",
        -9.890136964834902
      ],
      [
        "▁শাসক",
        -9.890293424512965
      ],
      [
        "▁সদৰ",
        -9.891007077970649
      ],
      [
        "▁অতিৰিক্ত",
        -9.89136660802838
      ],
      [
        "▁এৱাৰ্ড",
        -9.89185458565847
      ],
      [
        "জেন",
        -9.892735769731575
      ],
      [
        "▁সন্ধান",
        -9.893224659185474
      ],
      [
        "ানা",
        -9.893565054081279
      ],
      [
        "▁বিচাৰে",
        -9.895670714765519
      ],
      [
        "▁মাজে",
        -9.896071721171033
      ],
      [
        "▁বিশাল",
        -9.896146705932434
      ],
      [
        "▁জীয়ৰী",
        -9.896253308944917
      ],
      [
        "▁মহাবিদ্যালয়ত",
        -9.898308674167843
      ],
      [
        "▁অব্যাহত",
        -9.89870133347084
      ],
      [
        "▁সকলোৱে",
        -9.899104743586054
      ],
      [
        "▁যুগত",
        -9.899476902755817
      ],
      [
        "বাৰ্গ",
        -9.900115726401118
      ],
      [
        "ধৰ্মী",
        -9.900515596038677
      ],
      [
        "▁আৰ্য",
        -9.900919033670114
      ],
      [
        "▁এবছৰ",
        -9.902581950133605
      ],
      [
        "ুৰা",
        -9.90335951770135
      ],
      [
        "▁স্বৰ্ণ",
        -9.904012312546964
      ],
      [
        "▁বান্দৰ",
        -9.904222031218763
      ],
      [
        "ছ্",
        -9.90459921329477
      ],
      [
        "ধী",
        -9.904905973579652
      ],
      [
        "▁বাঁহৰ",
        -9.90493803355686
      ],
      [
        "▁শতিকা",
        -9.905468602270325
      ],
      [
        "ানন্দ",
        -9.905618829145718
      ],
      [
        "বেদ",
        -9.905674400570891
      ],
      [
        "▁ঈশ্বৰ",
        -9.905842651439553
      ],
      [
        "▁ফলাফল",
        -9.9060915366465
      ],
      [
        "▁শাস্তি",
        -9.90611733636209
      ],
      [
        "কৰ্ম",
        -9.906288563161407
      ],
      [
        "বালা",
        -9.906493008950626
      ],
      [
        "▁দেশখন",
        -9.906669710138482
      ],
      [
        "ষ্ক",
        -9.90676770470153
      ],
      [
        "▁গ্ৰন্থত",
        -9.907205374843292
      ],
      [
        "▁নামত",
        -9.907494085393871
      ],
      [
        "▁জন্তু",
        -9.907640891607821
      ],
      [
        "্ৰা",
        -9.908106527426312
      ],
      [
        "▁সমাধান",
        -9.908566621509308
      ],
      [
        "▁এলেকা",
        -9.908762560339198
      ],
      [
        "▁মিচিং",
        -9.908992187407748
      ],
      [
        "▁জাতিৰ",
        -9.909325022231808
      ],
      [
        "▁বাদ্য",
        -9.909515652630226
      ],
      [
        "▁উন্নতি",
        -9.91060268927232
      ],
      [
        "▁অনি",
        -9.91072228540105
      ],
      [
        "▁প্ৰাক",
        -9.910951546111015
      ],
      [
        "▁আৰ্থিক",
        -9.911413536793905
      ],
      [
        "▁ঘণ্টা",
        -9.912371132224953
      ],
      [
        "▁উদ্",
        -9.912375152643964
      ],
      [
        "▁সম্পত্তি",
        -9.912414608086227
      ],
      [
        "▁ঢোল",
        -9.913009330614177
      ],
      [
        "▁সমুদ্ৰ",
        -9.913861330488622
      ],
      [
        "▁বধ",
        -9.914072334526695
      ],
      [
        "ৰাজ্য",
        -9.914913525283485
      ],
      [
        "▁পৰিছে",
        -9.915363928755585
      ],
      [
        "ৱী",
        -9.91601558406622
      ],
      [
        "▁স্থাপিত",
        -9.916028528180039
      ],
      [
        "▁মনোনীত",
        -9.9161613092846
      ],
      [
        "▁অভিজ্ঞতা",
        -9.916185393931162
      ],
      [
        "▁মিল",
        -9.917708438711673
      ],
      [
        "▁যাবলৈ",
        -9.917745720014654
      ],
      [
        "জুৰি",
        -9.918246332062818
      ],
      [
        "কলা",
        -9.918442080161462
      ],
      [
        "ভেদ",
        -9.918545127977346
      ],
      [
        "▁কাৰ্যকৰী",
        -9.918551070153267
      ],
      [
        "▁গোচৰ",
        -9.918672398715493
      ],
      [
        "▁দৰা",
        -9.918790611911168
      ],
      [
        "▁চলাই",
        -9.919268414840197
      ],
      [
        "▁সংগ্ৰামী",
        -9.919647187928952
      ],
      [
        "▁প্ৰি",
        -9.919804903360017
      ],
      [
        "ায়ন",
        -9.92045042600681
      ],
      [
        "▁ওপৰৰ",
        -9.920810264269095
      ],
      [
        "▁গৰম",
        -9.921067855115528
      ],
      [
        "ৱন",
        -9.921981691575846
      ],
      [
        "ঝা",
        -9.922201310037778
      ],
      [
        "▁চলা",
        -9.923381414127338
      ],
      [
        "▁স্থাপত্য",
        -9.923547314501745
      ],
      [
        "▁আল্লাহ",
        -9.924457685839394
      ],
      [
        "▁দীঘলীয়া",
        -9.924561494167252
      ],
      [
        "খণ্ড",
        -9.924680640633362
      ],
      [
        "▁পাতল",
        -9.926032999305228
      ],
      [
        "▁থলুৱা",
        -9.92609851218589
      ],
      [
        "▁তুলনাত",
        -9.926524741043231
      ],
      [
        "তন্ত্ৰ",
        -9.926717949459453
      ],
      [
        "চ্",
        -9.926826845596654
      ],
      [
        "সময়",
        -9.927822683960347
      ],
      [
        "নত",
        -9.928477302072807
      ],
      [
        "▁প্ৰাৰ্থনা",
        -9.928592212891722
      ],
      [
        "▁ঋতু",
        -9.928611077007652
      ],
      [
        "▁মিত্ৰ",
        -9.928699125836136
      ],
      [
        "▁উৎসাহ",
        -9.92873606231361
      ],
      [
        "ালি",
        -9.929157495671515
      ],
      [
        "গৃহ",
        -9.929235944558382
      ],
      [
        "দেৱৰ",
        -9.92967920315975
      ],
      [
        "ক্ল",
        -9.930111270335363
      ],
      [
        "▁আঁতৰা",
        -9.930323998028502
      ],
      [
        "▁ভোগ",
        -9.93038206975517
      ],
      [
        "▁ওচৰ",
        -9.930816579549266
      ],
      [
        "▁টিভি",
        -9.930988191660393
      ],
      [
        "▁গদ্য",
        -9.932006315803491
      ],
      [
        "▁বিশেষজ্ঞ",
        -9.932030670720504
      ],
      [
        "▁এণ্ট",
        -9.932673448424364
      ],
      [
        "▁পুঁজি",
        -9.93366206230699
      ],
      [
        "▁ধৰ্ষণ",
        -9.933673658591616
      ],
      [
        "▁আদালত",
        -9.933694608367395
      ],
      [
        "ক্ৰা",
        -9.933758243325
      ],
      [
        "সেৱা",
        -9.934044514524729
      ],
      [
        "▁সোম",
        -9.934381603333836
      ],
      [
        "▁বাবেই",
        -9.934837759488033
      ],
      [
        "▁বয়সৰ",
        -9.9350269802989
      ],
      [
        "▁শাক",
        -9.937096648767568
      ],
      [
        "শ্বি",
        -9.937604709479867
      ],
      [
        "ক্ষণ",
        -9.938214489527741
      ],
      [
        "▁শাস্ত্ৰ",
        -9.938527056869809
      ],
      [
        "▁অহাৰ",
        -9.938544577293214
      ],
      [
        "▁ৱৰ্ল্ড",
        -9.938756741643289
      ],
      [
        "▁কঢ়িয়াই",
        -9.93875687334458
      ],
      [
        "▁হ্ৰদ",
        -9.938763247931309
      ],
      [
        "ঞ্জা",
        -9.939321403665986
      ],
      [
        "▁ধ্বনি",
        -9.94102406823414
      ],
      [
        "▁বংশৰ",
        -9.94111899999967
      ],
      [
        "▁শাসনৰ",
        -9.941588136499902
      ],
      [
        "্বা",
        -9.942115265555472
      ],
      [
        "▁দূৰত্ব",
        -9.942843152037334
      ],
      [
        "▁গুৱাহাটীত",
        -9.943556558279166
      ],
      [
        "▁সমাপ্ত",
        -9.944015063610609
      ],
      [
        "▁কনিষ্ঠ",
        -9.944095010023425
      ],
      [
        "▁খায়",
        -9.944101644431822
      ],
      [
        "থে",
        -9.944213507089064
      ],
      [
        "▁ভাস্কৰ্য",
        -9.945125403480827
      ],
      [
        "ভাষী",
        -9.945206010580751
      ],
      [
        "▁পৰিবৰ্তন",
        -9.945798546943251
      ],
      [
        "▁লোকপিয়ল",
        -9.94644906318953
      ],
      [
        "▁উপাৰ্জন",
        -9.946449063805069
      ],
      [
        "▁উচ্চাৰণ",
        -9.946454952592411
      ],
      [
        "ঘা",
        -9.946746300027137
      ],
      [
        "▁মুম্বাইৰ",
        -9.94693813335461
      ],
      [
        "▁কোৰিয়া",
        -9.947218455446835
      ],
      [
        "▁ভাবে",
        -9.948367689378149
      ],
      [
        "পুৰী",
        -9.948537935165033
      ],
      [
        "গন",
        -9.948816232189854
      ],
      [
        "▁উপস্থিতি",
        -9.948825318474691
      ],
      [
        "▁3",
        -9.949002631643019
      ],
      [
        "শাস্ত্ৰ",
        -9.949252985134091
      ],
      [
        "▁প্লে",
        -9.94937353102284
      ],
      [
        "কৃষ্ণ",
        -9.949434480156278
      ],
      [
        "▁ৰাজস্থান",
        -9.94961549442295
      ],
      [
        "▁মহাবিদ্যালয়খন",
        -9.949923453903718
      ],
      [
        "▁জীৱনত",
        -9.950334889987381
      ],
      [
        "▁পাঁচটা",
        -9.95045546001406
      ],
      [
        "▁ওজন",
        -9.950830861758874
      ],
      [
        "শৈলী",
        -9.950916212579056
      ],
      [
        "▁বিষ্ণুৰ",
        -9.951144874621233
      ],
      [
        "▁লো",
        -9.952013333479396
      ],
      [
        "▁৪৫",
        -9.952060494618962
      ],
      [
        "▁চিঠি",
        -9.952064128537707
      ],
      [
        "▁কেতিয়াও",
        -9.95210325523464
      ],
      [
        "▁মোহন",
        -9.953131629469269
      ],
      [
        "▁কৃষক",
        -9.953893562418614
      ],
      [
        "▁১৮৪",
        -9.95403270288133
      ],
      [
        "▁পৰিবহণ",
        -9.954201356494867
      ],
      [
        "▁ইন্দিৰা",
        -9.954201631391218
      ],
      [
        "▁বসতি",
        -9.954210229134887
      ],
      [
        "▁ইনষ্টিটিউট",
        -9.954328059782274
      ],
      [
        "ম্মা",
        -9.954352071900672
      ],
      [
        "▁হাইস্কুল",
        -9.954980767902914
      ],
      [
        "চিন",
        -9.955221178436476
      ],
      [
        "চেন",
        -9.955445153461794
      ],
      [
        "▁ৰ্ড",
        -9.955501489760255
      ],
      [
        "▁এডাল",
        -9.955537667815335
      ],
      [
        "মৰা",
        -9.957085718914634
      ],
      [
        "য়াল",
        -9.957623137676856
      ],
      [
        "কেই",
        -9.958474444362619
      ],
      [
        "▁ৱিকিপিডিয়া",
        -9.959177387772172
      ],
      [
        "▁নিয়মীয়া",
        -9.959419025219642
      ],
      [
        "▁মিনিট",
        -9.959426980939922
      ],
      [
        "▁উদাহৰণস্বৰূপে",
        -9.959453364275397
      ],
      [
        "▁ৰূপায়ণ",
        -9.959504947101795
      ],
      [
        "▁১৮৩",
        -9.95968631119159
      ],
      [
        "▁মূৰত",
        -9.9607450199976
      ],
      [
        "খু",
        -9.961394828607013
      ],
      [
        "▁ব্ৰহ্মা",
        -9.961503829121416
      ],
      [
        "বুল",
        -9.962090297271674
      ],
      [
        "▁মহাপুৰুষ",
        -9.962159431277431
      ],
      [
        "য়ান",
        -9.962569218279018
      ],
      [
        "▁জৈৱিক",
        -9.962854904216996
      ],
      [
        "▁পতা",
        -9.963181456886518
      ],
      [
        "িটি",
        -9.963366943821296
      ],
      [
        "▁অষ্টম",
        -9.96352222045308
      ],
      [
        "▁অৰ্",
        -9.96353977045348
      ],
      [
        "কৰণৰ",
        -9.963792148385718
      ],
      [
        "▁মহিলাই",
        -9.964279754758408
      ],
      [
        "গান",
        -9.964645039597894
      ],
      [
        "হিত",
        -9.964814059964144
      ],
      [
        "▁শ্ৰেণীত",
        -9.964916603650218
      ],
      [
        "▁পৰিবেশ",
        -9.965093935170046
      ],
      [
        "▁অভিনেত্ৰীৰ",
        -9.96528716715676
      ],
      [
        "▁চমুকৈ",
        -9.965601138194796
      ],
      [
        "দম",
        -9.966422560242936
      ],
      [
        "▁অভয়াৰণ্য",
        -9.967256042805223
      ],
      [
        "▁খোজ",
        -9.96730789824063
      ],
      [
        "স্তি",
        -9.967378862022688
      ],
      [
        "▁বিহাৰ",
        -9.96739248973007
      ],
      [
        "বাদৰ",
        -9.967478885901802
      ],
      [
        "▁শ্ৰীলংকা",
        -9.96778416684155
      ],
      [
        "ঈ",
        -9.968076834522684
      ],
      [
        "▁ইতিহাসৰ",
        -9.969204248848122
      ],
      [
        "▁মানুহক",
        -9.9695238835716
      ],
      [
        "▁টেলিভিছন",
        -9.969887640977408
      ],
      [
        "ৱেল",
        -9.969944093132117
      ],
      [
        "েৰি",
        -9.970242625703813
      ],
      [
        "▁ধৰিলে",
        -9.970950063468011
      ],
      [
        "▁ভাওনা",
        -9.972536084683695
      ],
      [
        "▁ঘাইপথ",
        -9.97263277270844
      ],
      [
        "▁অসুৰ",
        -9.972645167458564
      ],
      [
        "▁সুকীয়া",
        -9.972722296543358
      ],
      [
        "▁প্ৰদৰ্শিত",
        -9.975172200043755
      ],
      [
        "▁তেলেগু",
        -9.97517317085292
      ],
      [
        "▁বাগিচা",
        -9.975186468054924
      ],
      [
        "েৰী",
        -9.975927041525026
      ],
      [
        "ধৰ্ম",
        -9.975982314879857
      ],
      [
        "▁নাইবা",
        -9.976568201765208
      ],
      [
        "ৰ্ভ",
        -9.97761394892116
      ],
      [
        "▁গীতিকাৰ",
        -9.978289455259059
      ],
      [
        "▁১৮২",
        -9.978329932230869
      ],
      [
        "ছী",
        -9.978474466587908
      ],
      [
        "▁উভয়",
        -9.978830985944693
      ],
      [
        "ক্ৰম",
        -9.978857068168905
      ],
      [
        "▁যুক্তৰাষ্ট্ৰ",
        -9.979038829407068
      ],
      [
        "ৰাৰ",
        -9.979329489342636
      ],
      [
        "▁স্বামীৰ",
        -9.979676641808371
      ],
      [
        "▁বাবেও",
        -9.980854091024785
      ],
      [
        "▁উষ্ণতা",
        -9.981090542174757
      ],
      [
        "▁১৯৪৬",
        -9.982131677450763
      ],
      [
        "▁অঞ্চলটো",
        -9.982892510005664
      ],
      [
        "▁উই",
        -9.98293236781182
      ],
      [
        "▁গোলাঘাট",
        -9.983155250494052
      ],
      [
        "▁বাহ",
        -9.983261553081945
      ],
      [
        "▁অতিক্ৰম",
        -9.983481119733547
      ],
      [
        "▁থোৱা",
        -9.983743750300782
      ],
      [
        "শাসিত",
        -9.983966268011386
      ],
      [
        "▁সত্ৰৰ",
        -9.984130931375143
      ],
      [
        "▁গোটৰ",
        -9.984344646747141
      ],
      [
        "ঙি",
        -9.985485045348696
      ],
      [
        "▁দেও",
        -9.98549678638585
      ],
      [
        "▁বেয়া",
        -9.985544824831154
      ],
      [
        "▁বিদেশ",
        -9.98586548265287
      ],
      [
        "▁আকাৰৰ",
        -9.986086930691403
      ],
      [
        "েড",
        -9.986137466574197
      ],
      [
        "▁গঙ্গা",
        -9.98626209842843
      ],
      [
        "▁নগৰৰ",
        -9.98809365165554
      ],
      [
        "▁মাটিত",
        -9.99007560304944
      ],
      [
        "োলা",
        -9.990196542999875
      ],
      [
        "▁আকৃতি",
        -9.990629722790246
      ],
      [
        "ভাই",
        -9.990705955953445
      ],
      [
        "জিয়া",
        -9.991041640155032
      ],
      [
        "▁মহোৎসৱত",
        -9.991095009229614
      ],
      [
        "▁বৰ্ষপঞ্জী",
        -9.991227287549467
      ],
      [
        "▁থাইলেণ্ড",
        -9.991236830317916
      ],
      [
        "▁পৰাজিত",
        -9.991762010579155
      ],
      [
        "ঝ",
        -9.992094920142446
      ],
      [
        "▁এজনী",
        -9.992447503030942
      ],
      [
        "ডিয়া",
        -9.993641823635357
      ],
      [
        "▁ধ্ৰুপদী",
        -9.99388875245215
      ],
      [
        "▁নিউয়ৰ্ক",
        -9.99388891386842
      ],
      [
        "▁নিৰ্মাতা",
        -9.993891704787353
      ],
      [
        "▁সুখ",
        -9.993953667668382
      ],
      [
        "▁হাৰ্",
        -9.99405745230073
      ],
      [
        "আৰ",
        -9.994189929057333
      ],
      [
        "দাম",
        -9.99466713337107
      ],
      [
        "নীতি",
        -9.995026529189822
      ],
      [
        "▁বাহিনী",
        -9.995043113638868
      ],
      [
        "ব্ৰু",
        -9.995317927327362
      ],
      [
        "▁শৰ্মাই",
        -9.996281815644267
      ],
      [
        "▁বেগ",
        -9.996818421321903
      ],
      [
        "বাল",
        -9.99694340967255
      ],
      [
        "ন্য",
        -9.997257150546837
      ],
      [
        "কাছ",
        -9.997303314188535
      ],
      [
        "▁তাপ",
        -9.99766072386969
      ],
      [
        "▁বস্ত্ৰ",
        -9.997760309225608
      ],
      [
        "কেট",
        -9.99790079856096
      ],
      [
        "ভাষ",
        -9.998554531575532
      ],
      [
        "▁ধৰণে",
        -9.998906775198613
      ],
      [
        "▁তিনিখন",
        -9.999171051007785
      ],
      [
        "গোল",
        -9.999202211723654
      ],
      [
        "▁তামোল",
        -9.99932660675881
      ],
      [
        "▁বিদ্যুৎ",
        -9.999363274122281
      ],
      [
        "▁মাইকী",
        -9.999548860011824
      ],
      [
        "▁ছপা",
        -9.999608345415215
      ],
      [
        "▁বাক্য",
        -9.999906645098832
      ],
      [
        "টাই",
        -10.001347862473033
      ],
      [
        "লোৱা",
        -10.001525786910493
      ],
      [
        "▁মুৰব্বী",
        -10.002018903353289
      ],
      [
        "▁গোৱালপাৰা",
        -10.002019134452253
      ],
      [
        "▁সন্থা",
        -10.002032344573713
      ],
      [
        "▁ছোৱালীৰ",
        -10.00207149413134
      ],
      [
        "▁সাধন",
        -10.002074021161782
      ],
      [
        "লিক",
        -10.002426137292655
      ],
      [
        "▁ৰাখিব",
        -10.002442493122635
      ],
      [
        "▁মডেল",
        -10.002466255076659
      ],
      [
        "াইন",
        -10.002468641076685
      ],
      [
        "▁গীতটো",
        -10.00254745772925
      ],
      [
        "▁জিলাখনৰ",
        -10.003106625519976
      ],
      [
        "▁পূজাৰ",
        -10.004686753094862
      ],
      [
        "▁স্নায়ু",
        -10.004743847740619
      ],
      [
        "▁মন্তব্য",
        -10.004744044048415
      ],
      [
        "▁২০২৩",
        -10.004748476087418
      ],
      [
        "▁কোঠা",
        -10.004952621490638
      ],
      [
        "▁ঘন",
        -10.005334301308519
      ],
      [
        "▁নল",
        -10.00566781863044
      ],
      [
        "ট্ট",
        -10.005977821231252
      ],
      [
        "দৈ",
        -10.006026799714835
      ],
      [
        "▁সিংহৰ",
        -10.006178010592077
      ],
      [
        "▁বিকাশৰ",
        -10.006399658488307
      ],
      [
        "▁গল্পকাৰ",
        -10.00678519027727
      ],
      [
        "▁চান্দ",
        -10.007658282245
      ],
      [
        "▁লাল",
        -10.007695363797042
      ],
      [
        "চোৱা",
        -10.00812817422672
      ],
      [
        "▁মাকৰ",
        -10.0088562550497
      ],
      [
        "লাইন",
        -10.00926204827796
      ],
      [
        "▁নকৰা",
        -10.009346792527662
      ],
      [
        "▁দিল্লীত",
        -10.009655670772762
      ],
      [
        "▁কাৰণত",
        -10.009915712504064
      ],
      [
        "▁সহযোগিতা",
        -10.010238276355839
      ],
      [
        "▁অনলাইন",
        -10.010308081736774
      ],
      [
        "▁ৰোগী",
        -10.011074215441944
      ],
      [
        "েণ্ড",
        -10.011666541498773
      ],
      [
        "▁পাপ",
        -10.011682305645781
      ],
      [
        "বাৰে",
        -10.01209071716628
      ],
      [
        "▁ঠাইৰ",
        -10.012726374207798
      ],
      [
        "লাভ",
        -10.012741771127882
      ],
      [
        "▁বৰ্",
        -10.013130781996722
      ],
      [
        "▁জনাই",
        -10.01325201650041
      ],
      [
        "▁দুবছৰ",
        -10.013268480960477
      ],
      [
        "ণ্য",
        -10.013610007994059
      ],
      [
        "▁আহাৰ",
        -10.013996508943897
      ],
      [
        "▁কালি",
        -10.015196682887467
      ],
      [
        "▁সপোন",
        -10.015723155577883
      ],
      [
        "▁ব্যাকৰণ",
        -10.01602133777655
      ],
      [
        "▁ভাব",
        -10.01630666204327
      ],
      [
        "▁বহুত",
        -10.016331227231088
      ],
      [
        "োৱাৰ",
        -10.016790944397677
      ],
      [
        "▁বিস্তাৰ",
        -10.017342350405364
      ],
      [
        "▁বিদ্যা",
        -10.01746906575607
      ],
      [
        "▁ৰেলৱে",
        -10.017726632434321
      ],
      [
        "▁আগবাঢ়ি",
        -10.018480142550665
      ],
      [
        "▁পোছাক",
        -10.01848438823168
      ],
      [
        "▁লোকক",
        -10.018515217920498
      ],
      [
        "▁বাহিৰত",
        -10.018745245436403
      ],
      [
        "▁খেলা",
        -10.01882262928549
      ],
      [
        "▁দক্ষতা",
        -10.019967028924892
      ],
      [
        "ক্কা",
        -10.01998975194055
      ],
      [
        "▁ঘটনাৰ",
        -10.020196857024992
      ],
      [
        "▁ৰামৰ",
        -10.020882650993249
      ],
      [
        "▁লীগ",
        -10.021660112034859
      ],
      [
        "কথা",
        -10.021731311033768
      ],
      [
        "▁উদ",
        -10.022893795840654
      ],
      [
        "▁তাৰা",
        -10.023077754670085
      ],
      [
        "▁জুনত",
        -10.023077919786118
      ],
      [
        "▁খো",
        -10.023443021177886
      ],
      [
        "▁কলিতা",
        -10.024241746436875
      ],
      [
        "যোৰ",
        -10.024251130577813
      ],
      [
        "▁জুলাইত",
        -10.02564482571901
      ],
      [
        "শু",
        -10.026165486583924
      ],
      [
        "▁খৰচ",
        -10.026553822129983
      ],
      [
        "ৎস",
        -10.027258961937907
      ],
      [
        "▁ফুলৰ",
        -10.028797835046943
      ],
      [
        "কৰ্তা",
        -10.028798503153237
      ],
      [
        "▁পদ্ধতিৰ",
        -10.029556093689145
      ],
      [
        "▁মুছলিম",
        -10.029606834697816
      ],
      [
        "লীৰ",
        -10.029884409899719
      ],
      [
        "▁দীৰ্ঘ",
        -10.029993742269383
      ],
      [
        "▁নীলা",
        -10.030261629627926
      ],
      [
        "▁আহিল",
        -10.03037824421302
      ],
      [
        "াইট",
        -10.031470278135664
      ],
      [
        "সংখ্যক",
        -10.031527098361838
      ],
      [
        "▁গাভৰু",
        -10.031982872887221
      ],
      [
        "▁খেলৰ",
        -10.032017315774466
      ],
      [
        "▁মেলি",
        -10.032247319555221
      ],
      [
        "▁সাম্ৰাজ্যৰ",
        -10.032425748404881
      ],
      [
        "▁ভায়েক",
        -10.032472914411954
      ],
      [
        "▁সাৰ",
        -10.033399912483066
      ],
      [
        "▁কোম্পানীৰ",
        -10.033413272397958
      ],
      [
        "য়ু",
        -10.033480735782053
      ],
      [
        "িঙৰ",
        -10.03420149368289
      ],
      [
        "▁ডিজাইন",
        -10.034269981923305
      ],
      [
        "▁ওচৰলৈ",
        -10.034280616594245
      ],
      [
        "▁আকৃতিৰ",
        -10.034374271052343
      ],
      [
        "▁ব্যক্তিয়ে",
        -10.03512194211428
      ],
      [
        "▁কঠোৰ",
        -10.03521726034953
      ],
      [
        "▁উৎপন্ন",
        -10.035240490033738
      ],
      [
        "লেও",
        -10.035705033050451
      ],
      [
        "▁কল্পনা",
        -10.035802093751606
      ],
      [
        "ুৱে",
        -10.036087190355687
      ],
      [
        "▁ব্যয়",
        -10.036901303923454
      ],
      [
        "▁মহোৎসৱ",
        -10.03816364954957
      ],
      [
        "▁দিশৰ",
        -10.04058900095786
      ],
      [
        "▁নাতি",
        -10.040760954764082
      ],
      [
        "▁দৌল",
        -10.041404894755312
      ],
      [
        "▁পূৰণ",
        -10.04146408339695
      ],
      [
        "▁চমু",
        -10.04152902252862
      ],
      [
        "▁নাও",
        -10.043223901895882
      ],
      [
        "▁গম",
        -10.043451535585449
      ],
      [
        "▁বক্তৃতা",
        -10.043691554070614
      ],
      [
        "▁খিতাপ",
        -10.043694086146537
      ],
      [
        "▁অনুশীলন",
        -10.043695890733641
      ],
      [
        "▁ষ্টেডিয়াম",
        -10.043708997348473
      ],
      [
        "▁সংস্থাৰ",
        -10.044412324184078
      ],
      [
        "▁পিঠা",
        -10.044604626323263
      ],
      [
        "▁১৯৪০",
        -10.04464389438351
      ],
      [
        "▁ৰাজা",
        -10.04468787342281
      ],
      [
        "▁ধাৰণাটো",
        -10.044727991197414
      ],
      [
        "▁পৰিস্থিতি",
        -10.046164825830306
      ],
      [
        "▁আত্মজীৱনী",
        -10.046532827194184
      ],
      [
        "▁আবেদন",
        -10.04653784826883
      ],
      [
        "▁ৰহস্য",
        -10.04653785293599
      ],
      [
        "▁বিবিচি",
        -10.046547796431765
      ],
      [
        "▁বাৰ্তা",
        -10.046681607673545
      ],
      [
        "▁\"।",
        -10.046693066413969
      ],
      [
        "▁কৰায়",
        -10.04675797622804
      ],
      [
        "▁উচিত",
        -10.04701549037129
      ],
      [
        "▁কেনেকৈ",
        -10.047031732413153
      ],
      [
        "জনা",
        -10.047122158727205
      ],
      [
        "▁ৰয়",
        -10.047272316931405
      ],
      [
        "▁দেৱালয়",
        -10.047679098080618
      ],
      [
        "সংগ",
        -10.04771372627652
      ],
      [
        "▁ন্যায়",
        -10.049117575157977
      ],
      [
        "▁চিৰ",
        -10.049182589441799
      ],
      [
        "বৃহৎ",
        -10.049295708208824
      ],
      [
        "▁মাজুলী",
        -10.04938326832902
      ],
      [
        "▁আগৰৱালা",
        -10.049448587139832
      ],
      [
        "▁একেটা",
        -10.049522583679433
      ],
      [
        "▁পেলোৱা",
        -10.04961319661945
      ],
      [
        "▁উপভাষা",
        -10.049700638556642
      ],
      [
        "▁ব্যক্তিত্ব",
        -10.049782251574296
      ],
      [
        "▁নাৰীবাদী",
        -10.049899528239713
      ],
      [
        "▁প্ৰকৃতিৰ",
        -10.050357352691067
      ],
      [
        "▁লিখিত",
        -10.050375692759747
      ],
      [
        "▁৭০",
        -10.052094934054141
      ],
      [
        "▁ৰাগ",
        -10.052159588036393
      ],
      [
        "▁মাৰাঠী",
        -10.052238652861353
      ],
      [
        "▁বৈদিক",
        -10.052243674492358
      ],
      [
        "▁মেঘালয়",
        -10.052259949181614
      ],
      [
        "▁হোম",
        -10.052855213166213
      ],
      [
        "▁আব্দুল",
        -10.053614676144408
      ],
      [
        "জাই",
        -10.054094036801345
      ],
      [
        "▁ভক্ত",
        -10.054480899467308
      ],
      [
        "▁বংগৰ",
        -10.054701487885968
      ],
      [
        "▁পুলিচ",
        -10.054757154972814
      ],
      [
        "▁পেট",
        -10.054794592534078
      ],
      [
        "▁সমসাময়িক",
        -10.055103927485426
      ],
      [
        "▁সাক্ষৰতা",
        -10.055104211192058
      ],
      [
        "▁বৰফুকন",
        -10.055104719385143
      ],
      [
        "▁দাঁত",
        -10.055213889409854
      ],
      [
        "▁পৰিসৰ",
        -10.055223841295598
      ],
      [
        "▁ভাঙি",
        -10.055228236768793
      ],
      [
        "▁অলংকাৰ",
        -10.055576628578624
      ],
      [
        "▁জনজাতীয়",
        -10.055705433311356
      ],
      [
        "▁শৰ্মাৰ",
        -10.056169387760171
      ],
      [
        "লতা",
        -10.056308694639347
      ],
      [
        "▁ফ্ৰে",
        -10.056373210815456
      ],
      [
        "▁বিচাৰিছিল",
        -10.056425051137623
      ],
      [
        "▁চলচ্চিত্ৰখন",
        -10.057214619624137
      ],
      [
        "ণ্টা",
        -10.057257875889592
      ],
      [
        "সন",
        -10.057966288099525
      ],
      [
        "▁৫০০",
        -10.05877915132945
      ],
      [
        "▁মৃত",
        -10.059494621070002
      ],
      [
        "ুট",
        -10.05963434421885
      ],
      [
        "▁৩৭",
        -10.059688264372813
      ],
      [
        "▁কাণ",
        -10.059778464163177
      ],
      [
        "▁আগ্ৰহ",
        -10.0602938622642
      ],
      [
        "ৰ্দ",
        -10.060302036373242
      ],
      [
        "▁তাৰকা",
        -10.060714799016257
      ],
      [
        "▁ভবা",
        -10.060989743428522
      ],
      [
        "▁কাৰ্বন",
        -10.061019284149637
      ],
      [
        "▁নো",
        -10.061330074974702
      ],
      [
        "▁চেনেল",
        -10.061461112692392
      ],
      [
        "জিৎ",
        -10.06176232431517
      ],
      [
        "▁বাই",
        -10.062245959443707
      ],
      [
        "▁সৰস্বতী",
        -10.062303522735576
      ],
      [
        "▁মেচ",
        -10.062349330612264
      ],
      [
        "▁দৰ্শক",
        -10.063316834883748
      ],
      [
        "▁প্ৰতিক্ৰিয়া",
        -10.06410370068729
      ],
      [
        "্স",
        -10.06427731510454
      ],
      [
        "▁বাছনি",
        -10.064539786939793
      ],
      [
        "▁জাৰ্মানী",
        -10.06470645363555
      ],
      [
        "▁দুৱাৰ",
        -10.064735166870005
      ],
      [
        "▁শাখাৰ",
        -10.064895707952829
      ],
      [
        "▁বীজ",
        -10.06554259343631
      ],
      [
        "ভিন",
        -10.066200785479422
      ],
      [
        "ন্দৰ",
        -10.066255596735907
      ],
      [
        "▁পদুম",
        -10.066917821724285
      ],
      [
        "▁আফ্ৰিকা",
        -10.067128701797895
      ],
      [
        "▁ৰাছিয়া",
        -10.067144758148256
      ],
      [
        "▁চাৰিওফালে",
        -10.068127539785895
      ],
      [
        "▁দণ্ড",
        -10.068356274353901
      ],
      [
        "▁প্ৰকৃততে",
        -10.068576102075955
      ],
      [
        "াইড",
        -10.068598388077488
      ],
      [
        "▁বৰ্ষত",
        -10.06908069721638
      ],
      [
        "▁আশ্ৰয়",
        -10.069555100532124
      ],
      [
        "▁জীয়েক",
        -10.069609312689593
      ],
      [
        "শিল্পী",
        -10.069853565084426
      ],
      [
        "▁উজনি",
        -10.070639412633485
      ],
      [
        "▁ৰূপান্তৰ",
        -10.071560612730934
      ],
      [
        "কল্প",
        -10.071934972989741
      ],
      [
        "▁অস্বীকাৰ",
        -10.072470490285337
      ],
      [
        "▁সমান্তৰাল",
        -10.072470503021304
      ],
      [
        "▁শতাব্দী",
        -10.072470553269653
      ],
      [
        "▁চেন্নাই",
        -10.072473319645564
      ],
      [
        "্ধ",
        -10.072539118329939
      ],
      [
        "▁কাঠৰ",
        -10.072651361132856
      ],
      [
        "▁মহিলাসকলক",
        -10.073701068513751
      ],
      [
        "যু",
        -10.074008296949653
      ],
      [
        "▁ভৱিষ্যত",
        -10.074347851047548
      ],
      [
        "▁ষ্টুডিঅ",
        -10.075394495794221
      ],
      [
        "▁পেলায়",
        -10.075399726241066
      ],
      [
        "▁কেঁচা",
        -10.075406649187334
      ],
      [
        "▁কোমল",
        -10.075575855989753
      ],
      [
        "▁ৰুদ্ৰ",
        -10.075849885118789
      ],
      [
        "▁বাসস্থান",
        -10.075859931232813
      ],
      [
        "ডেন",
        -10.07654200016701
      ],
      [
        "▁তৰুণ",
        -10.076655542763778
      ],
      [
        "▁প্ৰথমতে",
        -10.076714127267465
      ],
      [
        "▁তথাপিও",
        -10.076880698591705
      ],
      [
        "▁সহজে",
        -10.077252399004939
      ],
      [
        "ওঁতে",
        -10.07743396291119
      ],
      [
        "াগ",
        -10.077679595293151
      ],
      [
        "▁হৃদয়",
        -10.077946395344632
      ],
      [
        "▁নাথাকে",
        -10.078333759435257
      ],
      [
        "▁মেক",
        -10.07935607967046
      ],
      [
        "▁উপহাৰ",
        -10.079526435012728
      ],
      [
        "▁নিৰ্দেশনা",
        -10.079698642607038
      ],
      [
        "ছিয়া",
        -10.079866036673913
      ],
      [
        "▁ইউৰোপ",
        -10.079960279766013
      ],
      [
        "▁ভাৰতবৰ্ষ",
        -10.08053864684144
      ],
      [
        "িয়াল",
        -10.080558845475792
      ],
      [
        "▁সূচনা",
        -10.081268823692021
      ],
      [
        "▁ঘূৰাই",
        -10.081281665656746
      ],
      [
        "▁প্ৰৱৰ্তন",
        -10.081467894382047
      ],
      [
        "▁মহাসাগৰ",
        -10.08172042383439
      ],
      [
        "অসম",
        -10.083068862093716
      ],
      [
        "▁বৈদ্যুতিক",
        -10.08375209825844
      ],
      [
        "▁সমল",
        -10.084074042346568
      ],
      [
        "▁পশ্চিমে",
        -10.084385248667296
      ],
      [
        "▁সংঘৰ",
        -10.084999612952537
      ],
      [
        "কেন্দ্ৰ",
        -10.085388871252842
      ],
      [
        "নন্দ",
        -10.087057483459098
      ],
      [
        "▁পৰ্ব",
        -10.08713071965858
      ],
      [
        "▁তামিলনাডু",
        -10.087176841087135
      ],
      [
        "▁স্বাক্ষৰ",
        -10.087177927816732
      ],
      [
        "▁সন্দেহ",
        -10.087178813514509
      ],
      [
        "▁গ্ৰাহক",
        -10.08718512634886
      ],
      [
        "▁সংঘাত",
        -10.087315296860588
      ],
      [
        "পুত্ৰ",
        -10.087546617881529
      ],
      [
        "▁পঞ্জাব",
[...]
