{
  "version": "1.0",
  "truncation": null,
  "padding": null,
  "added_tokens": [
    {
      "id": 0,
      "content": "<PAD>",
      "single_word": false,
      "lstrip": false,
      "rstrip": false,
      "normalized": false,
      "special": true
    },
    {
      "id": 1,
      "content": "<BOS>",
      "single_word": false,
      "lstrip": false,
      "rstrip": false,
      "normalized": false,
      "special": true
    },
    {
      "id": 2,
      "content": "<EOS>",
      "single_word": false,
      "lstrip": false,
      "rstrip": false,
      "normalized": false,
      "special": true
    },
    {
      "id": 3,
      "content": "<MASK>",
      "single_word": false,
      "lstrip": false,
      "rstrip": false,
      "normalized": false,
      "special": true
    },
    {
      "id": 4,
      "content": "<SEP>",
      "single_word": false,
      "lstrip": false,
      "rstrip": false,
      "normalized": false,
      "special": true
    }
  ],
  "normalizer": {
    "type": "NFKC"
  },
  "pre_tokenizer": {
    "type": "ByteLevel",
    "add_prefix_space": true,
    "trim_offsets": true,
    "use_regex": true
  },
  "post_processor": null,
  "decoder": {
    "type": "ByteLevel",
    "add_prefix_space": true,
    "trim_offsets": true,
    "use_regex": true
  },
  "model": {
    "type": "Unigram",
    "unk_id": null,
    "vocab": [
      [
        "<PAD>",
        0.0
      ],
      [
        "<BOS>",
        0.0
      ],
      [
        "<EOS>",
        0.0
      ],
      [
        "<MASK>",
        0.0
      ],
      [
        "<SEP>",
        0.0
      ],
      [
        "Ċ",
        -2.835883741486528
      ],
      [
        "Ġ",
        -2.9085370296222823
      ],
      [
        "ĠÚ©ÛĴ",
        -3.578470362111215
      ],
      [
        "ÛĶ",
        -3.761807777575818
      ],
      [
        "ĠÙħÛĮÚº",
        -3.8027772955329926
      ],
      [
        "ĠÚ©ÛĮ",
        -3.8897638497612537
      ],
      [
        "Į",
        -4.244100632955421
      ],
      [
        "Ø",
        -4.247971252774519
      ],
      [
        "ĠØ§ÙĪØ±",
        -4.257966052944774
      ],
      [
        "ĠÛģÛĴ",
        -4.278304569400314
      ],
      [
        "ĠØ³ÛĴ",
        -4.4846229258878285
      ],
      [
        "ĠÚ©Ø§",
        -4.548081806313075
      ],
      [
        "ĠÙ¾Ø±",
        -4.896271772306282
      ],
      [
        "ĠÙĨÛĴ",
        -4.896428226719161
      ],
      [
        "ĠÚ©ÙĪ",
        -4.927579946885395
      ],
      [
        "ĠØ§Ø³",
        -4.938609011990177
      ],
      [
        "ÙĪÚº",
        -5.019625682540141
      ],
      [
        "ĠØ§ÛĮÚ©",
        -5.029453419942769
      ],
      [
        "Ø¡",
        -5.0497414693591605
      ],
      [
        "Ûģ",
        -5.090518476436516
      ],
      [
        "ÛĮ",
        -5.1563581350186105
      ],
      [
        ")",
        -5.286780106601693
      ],
      [
        "Ġ(",
        -5.293501071171683
      ],
      [
        "ĠÛģÛĮÚº",
        -5.428529778667738
      ],
      [
        "ĠØ¬ÙĪ",
        -5.55525427985304
      ],
      [
        "ĠØĮ",
        -5.5884855805479035
      ],
      [
        "ĠÚ©ÛĮØ§",
        -5.6054551343996515
      ],
      [
        "ĠØ§ÙĨ",
        -5.777420531781662
      ],
      [
        "ĠØªÚ¾Ø§",
        -5.777463451332471
      ],
      [
        "ĠÚ©Ûģ",
        -5.783786885929844
      ],
      [
        "ĠØ¬Ø§Øª",
        -5.849393735359882
      ],
      [
        "ÛĮÚº",
        -5.8662126716606995
      ],
      [
        "-",
        -5.871479447486301
      ],
      [
        "ØŃÙĪØ§ÙĦÛģ",
        -5.8803718654246016
      ],
      [
        "ĠÙĦÛĮÛĴ",
        -5.91581388585597
      ],
      [
        "ĠØ¨Ú¾ÛĮ",
        -5.927721324774481
      ],
      [
        "ĠÚ©Ø±",
        -5.934462267271451
      ],
      [
        "ĠÙĪ",
        -5.940617882294013
      ],
      [
        ":",
        -5.948684881273621
      ],
      [
        "ĠÛĮÛģ",
        -5.959269216349636
      ],
      [
        "ĠØ´ÛģØ±",
        -5.967023343380967
      ],
      [
        "ĠÙĪØ§ÙĤØ¹",
        -6.034791456017581
      ],
      [
        "ĠÙĪÛģ",
        -6.044815885812945
      ],
      [
        "Ø§",
        -6.080749719598922
      ],
      [
        "ÛĴ",
        -6.083879366992953
      ],
      [
        "ĠÚ¯ÛĮØ§",
        -6.1051455447070815
      ],
      [
        "ĠØªÚ¾ÛĴ",
        -6.108495603905084
      ],
      [
        "ÙħØ²ÛĮØ¯",
        -6.196488854024121
      ],
      [
        ".",
        -6.201317511955246
      ],
      [
        "\"",
        -6.215902405132692
      ],
      [
        "ĠÚ©Ø±Ú©Ù¹",
        -6.221286403906969
      ],
      [
        "ĠÙħØªØŃØ¯Ûģ",
        -6.244317741984112
      ],
      [
        "ĠØ¬Ø³",
        -6.250317101069271
      ],
      [
        "ĠØ±",
        -6.28224380074923
      ],
      [
        "ĠØ¯ÛĮÚ©Ú¾ÛĮÛĴ",
        -6.290132015599912
      ],
      [
        "ĠÙģÛģØ±Ø³Øª",
        -6.300337099768315
      ],
      [
        "ĠØ¨Ø¹Ø¯",
        -6.326827844572184
      ],
      [
        ",",
        -6.353096740664245
      ],
      [
        "ÙĨ",
        -6.395577006292813
      ],
      [
        "ÛĮØ§Ø³ØªÛģØ§Ø¦ÛĴ",
        -6.416647118208806
      ],
      [
        "ĠØ¨ÙĨ",
        -6.436218706493477
      ],
      [
        "ĠØ³Ø§ØªÚ¾",
        -6.436239682229246
      ],
      [
        "ĠÛģÙĪ",
        -6.437942627865125
      ],
      [
        "Ø§Øª",
        -6.44896157923538
      ],
      [
        "ÙĲ",
        -6.502144922050874
      ],
      [
        "ĠÚ©Ø±ÙĨÛĴ",
        -6.534418308714947
      ],
      [
        "ĠÚ©Ø§Ø¤ÙĨÙ¹ÛĮ",
        -6.542711864100696
      ],
      [
        "ĠØªÚ¾ÛĮ",
        -6.553835229694171
      ],
      [
        "ĠØ·ÙĪØ±",
        -6.568973402029494
      ],
      [
        "ĠÙ¾Ø§Ú©Ø³ØªØ§ÙĨ",
        -6.581561331792646
      ],
      [
        "ĠØªÚ©",
        -6.607425175457426
      ],
      [
        "ĠÙĨÛģÛĮÚº",
        -6.612271035543312
      ],
      [
        "Ø³",
        -6.616069687861023
      ],
      [
        "ĠÛĮØ§",
        -6.645409369157679
      ],
      [
        "ĠØ§ÙħØ±ÛĮÚ©Ø§",
        -6.647965409904408
      ],
      [
        "ĠØ¯ÛĮØ§",
        -6.657708297612498
      ],
      [
        "ĠØ§Ù¾ÙĨÛĴ",
        -6.67473397545197
      ],
      [
        "1",
        -6.69613895369687
      ],
      [
        "m",
        -6.721575229139688
      ],
      [
        "ĠÛģÙĪØ¦ÛĴ",
        -6.727141021267501
      ],
      [
        "ĠØ¢Ø¨Ø§Ø¯ÛĮ",
        -6.735606574074886
      ],
      [
        "ĠÚ©Ú¾ÙĦØ§ÚĳÛĮ",
        -6.744667834140795
      ],
      [
        "ĠÙĪØ§ÙĦÛĴ",
        -6.7500370103338145
      ],
      [
        "Ùİ",
        -6.752601499119658
      ],
      [
        "ĠØ§",
        -6.777158954684108
      ],
      [
        "2",
        -6.780113082272122
      ],
      [
        "ĠØªÙĪ",
        -6.797904919109024
      ],
      [
        "ĠÙĪØ§ÙĦÛĮ",
        -6.807957381894781
      ],
      [
        "ĠØ¬Ø§ØªØ§",
        -6.826415058971284
      ],
      [
        "ĠÛģÙĪÙĨÛĴ",
        -6.83920223857363
      ],
      [
        "Ùħ",
        -6.841519372004798
      ],
      [
        "ĠØ§ÙģØ±Ø§Ø¯",
        -6.856675187811732
      ],
      [
        "Ø²",
        -6.874710143486917
      ],
      [
        "ĠÛģÙĪØ§",
        -6.8769660291211
      ],
      [
        "ĠÛģÛĮ",
        -6.885371082969641
      ],
      [
        "ĠÙħØ´ØªÙħÙĦ",
        -6.897176235725629
      ],
      [
        "ĠÙħØ¬ÙħÙĪØ¹ÛĮ",
        -6.905775027784628
      ],
      [
        "ĠÙĨØ§Ùħ",
        -6.914485292998913
      ],
      [
        "ĠØ¢Ø¨Ø§Ø¯",
        -6.920424786863505
      ],
      [
        "ÛĮÙĨ",
        -6.92147637662265
      ],
      [
        "5",
        -6.927288907030814
      ],
      [
        "Ġfro",
        -6.928642060906908
      ],
      [
        "Ġis",
        -6.9286551237968474
      ],
      [
        "ÙĪ",
        -6.9371977646667276
      ],
      [
        "data",
        -6.948868812659958
      ],
      [
        "6",
        -6.9500316236003385
      ],
      [
        "ĠÚĪÛĮÙ¹Ø§",
        -6.950344091153726
      ],
      [
        "description",
        -6.950709269464088
      ],
      [
        "ĠWiki",
        -6.952167050995609
      ],
      [
        "Short",
        -6.9529556147757905
      ],
      [
        "Ġdifferent",
        -6.953117670527243
      ],
      [
        "ĠØ´Ø®ØµÛĮØ§Øª",
        -6.965399790563065
      ],
      [
        "ØªÙģØµÛĮÙĦØ§Øª",
        -6.971996903173446
      ],
      [
        "ÙĨÛĴ",
        -6.974638005439225
      ],
      [
        "Ùı",
        -6.977880070712114
      ],
      [
        "Ø±",
        -6.984730285879715
      ],
      [
        "Ø§ÙĨÛģÙĪÚº",
        -6.98732511396744
      ],
      [
        "ĠØ²ÛĮØ§Ø¯Ûģ",
        -6.998676244000572
      ],
      [
        "ĠØ³Ø§ÙĦ",
        -7.013323127283996
      ],
      [
        "4",
        -7.037622944557299
      ],
      [
        "ĠØ§Ù¾ÙĨÛĮ",
        -7.044950987788136
      ],
      [
        "ĠÚ¯Ø¦ÛĴ",
        -7.049721585789719
      ],
      [
        "7",
        -7.050710469611472
      ],
      [
        "ĠØµØ¯ÛĮ",
        -7.058658923869327
      ],
      [
        "ĠØŃØ§ØµÙĦ",
        -7.06371021860798
      ],
      [
        "ĠØ¢Ù¾",
        -7.077900752449297
      ],
      [
        "ÙĦ",
        -7.0802388307179225
      ],
      [
        "8",
        -7.084412557770694
      ],
      [
        "ĠØ§ÙĦÙĦÛģ",
        -7.10674087910218
      ],
      [
        "Ø§Ø³",
        -7.114613044006427
      ],
      [
        "9",
        -7.116639541749937
      ],
      [
        "ĠØ¯ÙĪ",
        -7.1360910780052365
      ],
      [
        "ĠØ³Ø¨",
        -7.145002239167843
      ],
      [
        "Ø§Úº",
        -7.150653210743325
      ],
      [
        "Ø§ÙĨ",
        -7.152641638427019
      ],
      [
        "ĠØ§ÙĦ",
        -7.153537343894577
      ],
      [
        "ĠÚ¯Ø¦ÛĮ",
        -7.1622389560077035
      ],
      [
        "ĠÙħØŃÙħØ¯",
        -7.166301079943313
      ],
      [
        "ĠÙ¹Ø§Ø¤ÙĨ",
        -7.169168202516865
      ],
      [
        "Ù°",
        -7.172346960406557
      ],
      [
        "ĠØ¬Ø¨",
        -7.177167221903476
      ],
      [
        "Øª",
        -7.18443374331874
      ],
      [
        "ĠØ³ÛĮ",
        -7.19920652038207
      ],
      [
        "s",
        -7.203924842955493
      ],
      [
        "ĠØ®Ø§ÙĨ",
        -7.20957081009184
      ],
      [
        "ĠØ´Ø§ÙħÙĦ",
        -7.210975442246863
      ],
      [
        "ĠØ¯ÛĮ",
        -7.212932902796297
      ],
      [
        "3",
        -7.21869132254905
      ],
      [
        "ĠÚ©Ø±ØªÛĴ",
        -7.219935858461367
      ],
      [
        "ĠØ±Ú©Ú¾ÙĨÛĴ",
        -7.227853171410825
      ],
      [
        "ĠÙĦÛĮÚ©ÙĨ",
        -7.238299768854974
      ],
      [
        "ĠØ§Ø³ÛĴ",
        -7.246244117817019
      ],
      [
        "ĠÙ¾ÛģÙĦÛĴ",
        -7.254304006737824
      ],
      [
        "ĠØ®ÙĦØ§Ùģ",
        -7.259107938608759
      ],
      [
        "ĠÛģÙĪØ¦ÛĮ",
        -7.260796803182169
      ],
      [
        "ĠØ´Ù¾",
        -7.276211818238304
      ],
      [
        "ĠØ¹ÙĦØ§ÙĤÛģ",
        -7.2817453298418595
      ],
      [
        "Ĵ",
        -7.285990319365682
      ],
      [
        "ĠØ³Ø·ØŃ",
        -7.288608758563512
      ],
      [
        "ÛĮÛģ",
        -7.304010428493868
      ],
      [
        "ĠØ¨ÛģØª",
        -7.308965522417148
      ],
      [
        "|",
        -7.309503747888192
      ],
      [
        "ĠØ¨",
        -7.314881532888384
      ],
      [
        "ĠÙħØ®ØªØµØ±",
        -7.321855359537986
      ],
      [
        "ĠÙĪÙĤØª",
        -7.3232514045596755
      ],
      [
        "ÙĪÛĮÚ©ÛĮ",
        -7.332633278504479
      ],
      [
        "ĠÙĨÛģ",
        -7.350604576905674
      ],
      [
        "Ù",
        -7.357026906338492
      ],
      [
        "ĠÙħÛĮÙ¹Ø±",
        -7.359141393712003
      ],
      [
        "ĠÙ¹ÛĮØ³Ù¹",
        -7.374928086980798
      ],
      [
        "ĠÚ©ÛģØ§",
        -7.376893327272477
      ],
      [
        "ĠØ±ÛģÛĴ",
        -7.39119755679082
      ],
      [
        "ĠØªÙģØµÛĮÙĦ",
        -7.393256736059341
      ],
      [
        "ĠØ¶ÙĦØ¹",
        -7.411184366234245
      ],
      [
        "ĠÙħÙĤØ§ÙħØ§Øª",
        -7.428629243044533
      ],
      [
        "ĠÙ¾ÛĮØ¯Ø§Ø¦Ø´",
        -7.432356068116629
      ],
      [
        "ĠÙ¹ÛĮÙħ",
        -7.44083406008782
      ],
      [
        "ĠÙħØ·Ø§Ø¨ÙĤØª",
        -7.443854205275622
      ],
      [
        "ĠØ¨Ú¾Ø§Ø±Øª",
        -7.444127275333621
      ],
      [
        "ĠØ®ÙĪØ§ØªÛĮÙĨ",
        -7.446050931840171
      ],
      [
        "ĠØ¬ÙĨÚ¯",
        -7.454608590327899
      ],
      [
        "Ú©",
        -7.459860878946715
      ],
      [
        "ĠÛģÙĪØªØ§",
        -7.461643130327644
      ],
      [
        "ĠÙħØ±Ø¨Ø¹",
        -7.464133798240207
      ],
      [
        "ĠØ¹ÙĦÛĮ",
        -7.476675641687516
      ],
      [
        "ĠÚ©ÚĨÚ¾",
        -7.477324943818022
      ],
      [
        "ĠÚ©Ø§Ùħ",
        -7.487462846479742
      ],
      [
        "ĠØ¬ÙĨ",
        -7.49092522958893
      ],
      [
        "Ø±ÙĤØ¨Ûģ",
        -7.492461515267184
      ],
      [
        "ĠØ²Ø¨Ø§ÙĨ",
        -7.499707159747622
      ],
      [
        "0",
        -7.502416317627439
      ],
      [
        "ĠÙĪØ¬Ûģ",
        -7.507902473865451
      ],
      [
        "ĠÚ©Ø³ÛĮ",
        -7.508161608804032
      ],
      [
        "ĠØ§Ø³ØªØ¹ÙħØ§ÙĦ",
        -7.5105697962646545
      ],
      [
        "ĠØ¨ÙĦÙĨØ¯ÛĮ",
        -7.5137731884245476
      ],
      [
        "ĠØŃÚ©ÙĪÙħØª",
        -7.516811472304722
      ],
      [
        "ĠÙħ",
        -7.526003459544016
      ],
      [
        "ÙĨÚ¯",
        -7.53591190995774
      ],
      [
        "/",
        -7.54469051453623
      ],
      [
        "Ú©ÛĮÙĦÙĪÙħÛĮÙ¹Ø±",
        -7.559571132427131
      ],
      [
        "ĠØ·Ø±ØŃ",
        -7.569591473299255
      ],
      [
        "ĠØ³ÙĪ",
        -7.578227945151243
      ],
      [
        "ĠÙĤØ§Ø¦Ùħ",
        -7.57946630576564
      ],
      [
        "ĠÚ©Ùħ",
        -7.580899190282828
      ],
      [
        "ÛģÙĨØ¯ÙĪØ³ØªØ§ÙĨ",
        -7.582341538545316
      ],
      [
        "ĠØ·Ø±Ùģ",
        -7.586269358014674
      ],
      [
        "Ġof",
        -7.590854044180292
      ],
      [
        "ĠØ§ÙĨÛģÛĮÚº",
        -7.597778664172905
      ],
      [
        "ĠØ¨ÛĮÙĨ",
        -7.6052714009179
      ],
      [
        "ĠÙģÙĦÙħ",
        -7.608578120319727
      ],
      [
        "ĠØ¢Ùģ",
        -7.610430952090548
      ],
      [
        "ĠØ¯ÙĪØ±",
        -7.616119675686633
      ],
      [
        "Ù¾Ø§Ú©Ø³ØªØ§ÙĨÛĮ",
        -7.622212442005043
      ],
      [
        "Ùĭ",
        -7.652503752078816
      ],
      [
        "ĠÙĦÛĮÙĨÚĪ",
        -7.667734481702798
      ],
      [
        "ĠØ¯ÙĪØ±Ø§ÙĨ",
        -7.669845200213246
      ],
      [
        "ĠØ§Ø¯Ø§Ú©Ø§Ø±",
        -7.677713367675251
      ],
      [
        "ĠÛģØ±",
        -7.687281451657995
      ],
      [
        "Ø§ÙĦØ§ÙĤÙĪØ§ÙħÛĮ",
        -7.69174285030158
      ],
      [
        "ĠÙĦÛĮØ§",
        -7.695076232997057
      ],
      [
        "ĠÙ¾ÛĮØ¯Ø§",
        -7.697008560664996
      ],
      [
        "ĠÙħÙĦÚ©",
        -7.705361408911092
      ],
      [
        "ÙĨØ§",
        -7.706764709995635
      ],
      [
        "ĠÙħÛĮÚĨ",
        -7.707348001478637
      ],
      [
        "ĠØ´Ø§Ûģ",
        -7.710013425805917
      ],
      [
        "ĠÚ©ÙĪØ¦ÛĮ",
        -7.7106728899946475
      ],
      [
        "Ġ199",
        -7.724934574792345
      ],
      [
        "ĠØ¹Ø¨Ø¯",
        -7.734172034814918
      ],
      [
        "ĠÙģØ±Ø§ÙĨØ³",
        -7.737311504589924
      ],
      [
        "Ú¾",
        -7.739199803951422
      ],
      [
        "ĠØªØ¹ÙĦÛĮÙħ",
        -7.755745036600024
      ],
      [
        "ĠØ´Ø±ÙĪØ¹",
        -7.760043136636085
      ],
      [
        "ĠâĢĵ",
        -7.762444114865181
      ],
      [
        "ĠÛģÙĪØ§Ø¦ÛĮ",
        -7.772659278496107
      ],
      [
        "ĠØ±ÛģØ§Ø¦Ø´ÛĮ",
        -7.7885614066785145
      ],
      [
        "Ø§Ø¦ÛĮÚº",
        -7.790156813888668
      ],
      [
        "ĠØ±ÛģØ§",
        -7.797797140947015
      ],
      [
        "ĠØ¹ÙħØ±",
        -7.803826019831604
      ],
      [
        "ĠÚ©Ú¾ÛĮÙĦ",
        -7.804849642575531
      ],
      [
        "ĠØ±ÛĮØ§Ø³Øª",
        -7.805087666234309
      ],
      [
        "Ù¾Ø§Ú©Ø³ØªØ§ÙĨ",
        -7.806510674514877
      ],
      [
        "ÚĪ",
        -7.810569139853028
      ],
      [
        "Ø¨",
        -7.8116318870837596
      ],
      [
        "ĠØªÛĮÙĨ",
        -7.8125594909948255
      ],
      [
        "ĠØ²ÙĨØ¯Ú¯ÛĮ",
        -7.813955452601361
      ],
      [
        "ĠÙ¾ÛĮ",
        -7.815491234298927
      ],
      [
        "ĠÙ¹ÛĮ",
        -7.8155436850249735
      ],
      [
        "ĠÙĤÙĪÙħÛĮ",
        -7.816328311436125
      ],
      [
        "Ø¢Ø³Ù¹Ø±ÛĮÙĦÛĮØ§",
        -7.817227656076797
      ],
      [
        "ĠÙ¾Ú¾Ø±",
        -7.8237371276563135
      ],
      [
        "ĠØµØ±Ùģ",
        -7.82605399140269
      ],
      [
        "ĠÙħØ·Ø§Ø¨ÙĤ",
        -7.827315675284016
      ],
      [
        "ĠØ±ÛĮÙĦÙĪÛĴ",
        -7.831945351130685
      ],
      [
        "ĠØ±ÙĪØ§Ø¨Ø·",
        -7.8376484723585484
      ],
      [
        "ĠØ¬ÙĨÙĪØ¨ÛĮ",
        -7.841845358349602
      ],
      [
        "ĠÙ¾ÛģÙĦÛĮ",
        -7.84469991476592
      ],
      [
        "Ø¶ÙĦØ¹",
        -7.845182447247971
      ],
      [
        "(",
        -7.8485941357293125
      ],
      [
        "ĠÙħÙĪØ¬ÙĪØ¯",
        -7.848705294835598
      ],
      [
        "ÛĮÙĪÙĨÛĮÙĪØ±Ø³Ù¹",
        -7.849260151178703
      ],
      [
        "'",
        -7.853362945384209
      ],
      [
        "Ø¨ÛĮØ±ÙĪÙĨÛĮ",
        -7.85814335796311
      ],
      [
        "ĠØªÚ¾ÛĮÚº",
        -7.860451766841873
      ],
      [
        "Ú©ÛĮ",
        -7.861962317451541
      ],
      [
        "ĠØ¹Ø§Ùħ",
        -7.863046710870952
      ],
      [
        "ĠØ³ÙħÙĨØ¯Ø±",
        -7.865354962722831
      ],
      [
        "ĠØªØ§Ø±ÛĮØ®",
        -7.865930847595331
      ],
      [
        "ĠØ±ÙĨØ²",
        -7.867182049524338
      ],
      [
        "ĠØ¨ÛĮ",
        -7.8679628083289685
      ],
      [
        "ĠÚ©Ø±ØªØ§",
        -7.871246710704613
      ],
      [
        "ĠØ§Ø³ÛĮ",
        -7.872039280433734
      ],
      [
        "ĠØªÙħØ§Ùħ",
        -7.872053812538901
      ],
      [
        "ĠÚĪÛĮ",
        -7.876312804461616
      ],
      [
        "ĠØ§ÛĴ",
        -7.885260217217327
      ],
      [
        "ĠØŃÛĮØ§Øª",
        -7.88613416155874
      ],
      [
        "ĠÙ¾ÛĮØ´",
        -7.887449351415286
      ],
      [
        "ĠØ§Ø³Ù¹ÛĮØ´ÙĨ",
        -7.887583945623918
      ],
      [
        "ĠØ§Ø³ÙĦØ§Ùħ",
        -7.890574536020628
      ],
      [
        "ĠØ§ÙħØ±ÛĮÚ©ÛĮ",
        -7.891113432470357
      ],
      [
        "y",
        -7.89488537927488
      ],
      [
        "ĠÚ©Ø±ÙĨØ§",
        -7.905208588248161
      ],
      [
        "ĠØ§ÛĮØ±Ø§ÙĨ",
        -7.905440770992772
      ],
      [
        "ĠØ¹ÙĦØ§ÙĤÛĴ",
        -7.90618157722327
      ],
      [
        "ĠØŃØµÛģ",
        -7.907567052587327
      ],
      [
        "ĠØ¢Ø¦ÛĮ",
        -7.913725713197145
      ],
      [
        "ĠØ¨Ø§Ø±",
        -7.914614209195468
      ],
      [
        "ĠØºÛĮØ±",
        -7.917548687951806
      ],
      [
        "ĠÚ©ØªØ§Ø¨",
        -7.919201412307563
      ],
      [
        "ĠØµÙĪØ¨Ûģ",
        -7.9398332748681995
      ],
      [
        "ĠÙħÙĤØ§Ùħ",
        -7.940940739801174
      ],
      [
        "ĠØ¯Ø§Ø±",
        -7.942059255963297
      ],
      [
        "ĠØ¬ÛģØ§Úº",
        -7.956999566087449
      ],
      [
        "ĠØ§ØŃÙħØ¯",
        -7.961400006126032
      ],
      [
        "ĠÙħØ´ÛģÙĪØ±",
        -7.96176635747303
      ],
      [
        "Úº",
        -7.962863752454279
      ],
      [
        "ĠØŃØ¶Ø±Øª",
        -7.964860208030222
      ],
      [
        "ĠÚ©Ø§ÙĦØ¬",
        -7.972125270128039
      ],
      [
        "ĠØ±Ø¨Ø·",
        -7.972567720593602
      ],
      [
        "ØªØ§",
        -7.97362475892329
      ],
      [
        "ĠÛģÙĪØªÛĮ",
        -7.973805367608676
      ],
      [
        "ĠØ§Ù¾ÙĨØ§",
        -7.98162995441886
      ],
      [
        "ØªÛĴ",
        -7.9818207594834
      ],
      [
        "Ø²ÙħØ±Ûģ",
        -7.987584530094285
      ],
      [
        "Ġ20",
        -7.987637503672364
      ],
      [
        "ĠØ¯ÙĪØ³Ø±ÛĴ",
        -7.994325892596773
      ],
      [
        "ĠØ¯Ø±ÙħÛĮØ§ÙĨ",
        -7.994909292282779
      ],
      [
        "ĠØ®Ø§ÙĨØ¯Ø§ÙĨ",
        -7.996886875301085
      ],
      [
        "ĠØ¬Ø§",
        -7.999573140815125
      ],
      [
        "ĠÚ¯Ø§",
        -8.00068045035438
      ],
      [
        "Ø¯",
        -8.001032237368069
      ],
      [
        "ĠÚ©Ø¦ÛĮ",
        -8.001105895964349
      ],
      [
        "ĠØ§Ø¨",
        -8.013149371478702
      ],
      [
        "ĠÚ©ÛĮÛĴ",
        -8.014755109706428
      ],
      [
        "ĠÙħÙħØ§ÙĦÚ©",
        -8.016973787761787
      ],
      [
        "ÙģØ±Ø§ÙĨØ³ÛĮØ³ÛĮ",
        -8.017655028523187
      ],
      [
        "ĠØ¯ÙĪÙĨÙĪÚº",
        -8.018333577690735
      ],
      [
        "ĠÙħØ®ØªÙĦÙģ",
        -8.019699944794008
      ],
      [
        "âĢĵ",
        -8.022003399867948
      ],
      [
        "ĠÙĦØ¦ÛĴ",
        -8.027565593359547
      ],
      [
        "ĠØ®ÙĪØ¯",
        -8.028065027212817
      ],
      [
        "ĠÙĦÙĪÚ¯ÙĪÚº",
        -8.03123934926551
      ],
      [
        "Ø§ÙĦ",
        -8.034257374733645
      ],
      [
        "Ú©Ø§ÙħÙĨØ²",
        -8.03704676839288
      ],
      [
        "ĠØ¹Ø±Ø¨",
        -8.037197077248186
      ],
      [
        "ĠÙĦÛĴ",
        -8.042637456980746
      ],
      [
        "ĠÙ¾ÙĨØ¬Ø§Ø¨",
        -8.042800305679961
      ],
      [
        "ĠÙĪÚ©Ù¹",
        -8.044500232250154
      ],
      [
        "ĠØ³Ø±",
        -8.063052165842334
      ],
      [
        "Ġ198",
        -8.069452009628018
      ],
      [
        "ĠØ¯ÙĨÛĮØ§",
        -8.072629099715776
      ],
      [
        "ĠÙģÙĦÙħÛĮÚº",
        -8.073609675929221
      ],
      [
        "ĠØ§ÛģÙħ",
        -8.074425171936317
      ],
      [
        "ÛĮØ§",
        -8.075907805609726
      ],
      [
        "ĠØ¬Ø§Ø¦ÛĴ",
        -8.075934383050209
      ],
      [
        "ĠÙħØ¶Ø§ÙħÛĮÙĨ",
        -8.076992296447902
      ],
      [
        "ĠØªØ§Ø³ÛĮØ³",
        -8.077082511866543
      ],
      [
        "ĠÛģÙħ",
        -8.078316941764882
      ],
      [
        "ĠÙģÙĪØ¬",
        -8.08631662404387
      ],
      [
        "ĠØ¬Ø§ØªÛĮ",
        -8.08838916589584
      ],
      [
        "ĠØ¬Ø§ÙĨÛĴ",
        -8.092501499982914
      ],
      [
        ")ØĮ",
        -8.094966138535899
      ],
      [
        "ĠØ¨Ø§Øª",
        -8.098418311983453
      ],
      [
        "ĠÛĮÛģØ§Úº",
        -8.101138496424909
      ],
      [
        "ĠÙ¾Ø§Ø³",
        -8.103720726528968
      ],
      [
        "ĠØ§ÙħØ±ÛĮÚ©Ûģ",
        -8.104813609009003
      ],
      [
        "ĠØ¯Ø§ÙĨ",
        -8.10763217760051
      ],
      [
        "ĠÙĪÛĮÚ©ÛĮ",
        -8.108108402722769
      ],
      [
        "ĠÚ¯Ú¾Ø±",
        -8.110022164970962
      ],
      [
        "ĠØ³ÙĦØ·ÙĨØª",
        -8.1101250599975
      ],
      [
        "Ø¨ÙĤÛĮØ¯",
        -8.116234397660364
      ],
      [
        "ĠØ±ÙĪØ²Ûģ",
        -8.117325278772263
      ],
      [
        "ĠÙħØ³ÙĦÙħ",
        -8.118397057957315
      ],
      [
        "ĠÙĨØ¸Ø±",
        -8.118441671422026
      ],
      [
        "ĠØ§ÙħØ§Ùħ",
        -8.120181053333242
      ],
      [
        "ĠÚ©Ø§Ø±",
        -8.12396077270892
      ],
      [
        "=",
        -8.12751398122516
      ],
      [
        "Ù¾ÛĮØ¯Ø§Ø¦Ø´",
        -8.128729520407061
      ],
      [
        "ĠØ§Ø±Ø¯ÙĪ",
        -8.129229075777454
      ],
      [
        "ÙĪÙģÛĮØ§Øª",
        -8.14042750728516
      ],
      [
        "ĠØ¨ÛĴ",
        -8.14722523259957
      ],
      [
        "ĠØ³ÛĮØ¯",
        -8.14877579327859
      ],
      [
        "Ù¹",
        -8.152763442705533
      ],
      [
        "ĠØ¯ÛĮÚ¯Ø±",
        -8.152901210761994
      ],
      [
        "ĠØ¯ÛĴ",
        -8.153449857412664
      ],
      [
        "ĠØ§Ø¨ÙĨ",
        -8.155309040451131
      ],
      [
        "ģ",
        -8.156647523165125
      ],
      [
        "ĠÙħÛĮÙĨ",
        -8.157434902052069
      ],
      [
        "ĠØ¨ÚĳÛĴ",
        -8.15834099775101
      ],
      [
        "ĠØ¯ÛģØ§Ø¦ÛĮ",
        -8.170344435008024
      ],
      [
        "ĠØ¯Ø±ÛĮØ§",
        -8.177336122844006
      ],
      [
        "ĠÚĨØ§Ø±",
        -8.177930215652767
      ],
      [
        "ĠØ¯ÙĨ",
        -8.18065813831753
      ],
      [
        "ĠØ§ÙĦØ¯ÛĮÙĨ",
        -8.180986914479815
      ],
      [
        "ĠØ§Ø³ÙħØ¨ÙĦÛĮ",
        -8.187808924143706
      ],
      [
        "ĠÙħØµÙĨÙģ",
        -8.191698934493159
      ],
      [
        "e",
        -8.19203589956024
      ],
      [
        "ĠØ¹ÙĦØ§ÙĪÛģ",
        -8.197605502237451
      ],
      [
        "Ġ3",
        -8.19869189966022
      ],
      [
        "Ùģ",
        -8.205953163017684
      ],
      [
        "ĠØªØ±",
        -8.210599316966643
      ],
      [
        "Ġthe",
        -8.215828622575266
      ],
      [
        "ĠØ¹ÙħÙĦ",
        -8.220941109980817
      ],
      [
        "ĠØ¨Ú¾Ø§Ø±ØªÛĮ",
        -8.22310293688551
      ],
      [
        "ĠØ¨Ø§Ø±ÛĴ",
        -8.223329981153459
      ],
      [
        "ĠØ§Ø¨ÙĪ",
        -8.22903474567925
      ],
      [
        "ØªÛĮ",
        -8.23063657383406
      ],
      [
        "ĠØ¨ÚĳÛĮ",
        -8.236495226959958
      ],
      [
        "ĠØ±ÛģÛĮ",
        -8.237934048281291
      ],
      [
        "ĠØ¢ØºØ§Ø²",
        -8.238652307267909
      ],
      [
        "ĠÚĨÛĮÙĨ",
        -8.240504354686271
      ],
      [
        "ĠØµØ¯Ø±",
        -8.2446134953432
      ],
      [
        "ĠÙĨÛĮÙĪ",
        -8.245100049374935
      ],
      [
        "ĠÛģØ²Ø§Ø±",
        -8.245584478485041
      ],
      [
        "ĠØ¯ÙĪØ³Ø±ÛĮ",
        -8.24653337266978
      ],
      [
        "Ø´",
        -8.246646199343362
      ],
      [
        "ĠØ¬ÛĮØ³ÛĴ",
        -8.248628553988482
      ],
      [
        "ĠØ¨ÙĨØ§",
        -8.25031673912587
      ],
      [
        "ĠÙĦÙĪÚ¯",
        -8.250690550060169
      ],
      [
        "ĠØ¨ÚĳØ§",
        -8.25077333557723
      ],
      [
        "Ø¹",
        -8.256380281838869
      ],
      [
        "ĠÙĨØ¸Ø§Ùħ",
        -8.25691239246903
      ],
      [
        "Ø§ÙĨÛģ",
        -8.260479609190888
      ],
      [
        "20",
        -8.266020299115551
      ],
      [
        "ĠØ¬Ú¯Ûģ",
        -8.266475607085052
      ],
      [
        "ĠÙĨÙĤÙĦ",
        -8.267279177078404
      ],
      [
        "ØĽ",
        -8.267740328194082
      ],
      [
        "ĠÛĮÙĪÙĨÛĮÙĨ",
        -8.274933422464079
      ],
      [
        "Ø¨Ú¾Ø§Ø±Øª",
        -8.27746148055295
      ],
      [
        "ĠÚ©Ø±ØªÛĮ",
        -8.278784832632772
      ],
      [
        "ĠÚ©Ø±Ø¯Ø§Ø±",
        -8.279384620729772
      ],
      [
        "000",
        -8.280184514960345
      ],
      [
        "ĠØ§ÛĮØ³",
        -8.282173572008046
      ],
      [
        "ĠØ¬Ø³ÛĴ",
        -8.284835880860747
      ],
      [
        "ĠØ¹Ø§ÙĦÙħÛĮ",
        -8.286111281738437
      ],
      [
        "ĠØŃØ³ÛĮÙĨ",
        -8.28812488285839
      ],
      [
        "ĠÛģÙĪØªÛĴ",
        -8.288835167154101
      ],
      [
        "ĠÙħØºØ±Ø¨ÛĮ",
        -8.290727373637356
      ],
      [
        "ĠÙĤØ±ÛĮØ¨",
        -8.292270467560174
      ],
      [
        "a",
        -8.293226828806974
      ],
      [
        "ÙĤ",
        -8.296167502968208
      ],
      [
        "ĠØ³ÛĮØ§Ø³Øª",
        -8.298994958279795
      ],
      [
        "ĠØ³ÛĮØ±ÛĮØ²",
        -8.300502777624814
      ],
      [
        "ĠØ¹ÙĦÙħ",
        -8.305214867538867
      ],
      [
        "ĠØŃÙħÙĦ",
        -8.309895006094981
      ],
      [
        "Ùĩ",
        -8.31049260691437
      ],
      [
        "ĠÚ¯Ø§Ø¤Úº",
        -8.315841893927574
      ],
      [
        "ĠÙħÚ©ÙħÙĦ",
        -8.317951931859694
      ],
      [
        "ĠØ¢",
        -8.318828796157128
      ],
      [
        "ĠØ´ÙħØ§ÙĦÛĮ",
        -8.320994628446432
      ],
      [
        "ĠØ¬Ø¨Ú©Ûģ",
        -8.32130099412851
      ],
      [
        "Ø¬ÙĨÙĪØ±ÛĮ",
        -8.32496368454262
      ],
      [
        "ĠØªØ¹ÙħÛĮØ±",
        -8.327772554524604
      ],
      [
        "Ġ2018",
        -8.328741811656673
      ],
      [
        "ĠØ¬Ø§Ø±ÛĮ",
        -8.330697804126721
      ],
      [
        "ĠÙĦÛĮÚ¯",
        -8.33167909893399
      ],
      [
        "ĠÙħØ±Ø¯",
        -8.332163393280753
      ],
      [
        "ĠÚ©Ù¾",
        -8.336348212992068
      ],
      [
        "ÙĦØ§Ø¦ÛĮ",
        -8.337761361257197
      ],
      [
        "ĠØ¨ÛĮØ§ÙĨ",
        -8.338494154194821
      ],
      [
        "ĠÙĪØ§ÙĦØ§",
        -8.34053601064791
      ],
      [
        "ĠÙĪØ§ÙĦØ¯",
        -8.342934330606232
      ],
      [
        "ĠØªØ¹ÙĦÙĤ",
        -8.345071944577825
      ],
      [
        "ĠÛģÙĪÚº",
        -8.346169925011118
      ],
      [
        "ĠØ§Ú¯Ø±",
        -8.350174552369776
      ],
      [
        "ĠØ¯Ø±Ø¬Ûģ",
        -8.35021697992426
      ],
      [
        "ĠØ®Ø§Øµ",
        -8.351501854165368
      ],
      [
        "ĠØ§ÛĮÙħ",
        -8.357254673159307
      ],
      [
        "ĠÙĪØ³ÙĦÙħ",
        -8.360746397303917
      ],
      [
        "ĠÙĨØ§ÙħÚ©ÙħÙĦ",
        -8.365911822022403
      ],
      [
        "ĠØªØ§",
        -8.371381182473653
      ],
      [
        "ĠÛĮØ¹ÙĨÛĮ",
        -8.37388634068104
      ],
      [
        "ĠØ¬ÛĮ",
        -8.37396830588006
      ],
      [
        "Ø§ÙħØ±ÛĮÚ©ÛĮ",
        -8.377480001688202
      ],
      [
        "Ġ19",
        -8.38149481050497
      ],
      [
        "ĠÙĪØ²ÛĮØ±",
        -8.386068898940799
      ],
      [
        "ĠÙĦØ§ÛģÙĪØ±",
        -8.388678959156449
      ],
      [
        "ĠØ§ÙĪÙĦ",
        -8.389471424323997
      ],
      [
        "ĠØ§ÙĨÚ¯ÙĦÛĮÙĨÚĪ",
        -8.396088248938142
      ],
      [
        "ĠØ¨ÙĨØ§Ø¦ÛĴ",
        -8.39660230169213
      ],
      [
        "ĠØ§Ø³Ú©ÙĪÙĦ",
        -8.397115952184146
      ],
      [
        "Ø§Ø¦ÛĮ",
        -8.397881386979797
      ],
      [
        "ĠØ¹ÙĦÛĮÛģ",
        -8.398660002098868
      ],
      [
        "Ġ197",
        -8.399527952184831
      ],
      [
        "ĠØ´Ø§Ø¯ÛĮ",
        -8.40110574275501
      ],
      [
        "ĠØªØ§ÛģÙħ",
        -8.404603526924951
      ],
      [
        "ĠÚ©ÙĦ",
        -8.40531919353542
      ],
      [
        "ĠÚ©ÛĮÙĪÙĨÚ©Ûģ",
        -8.410772840114912
      ],
      [
        "ĠÙħÚ¯Ø±",
        -8.410817201842969
      ],
      [
        "ĠØ¨ÚĨ",
        -8.41409215221324
      ],
      [
        "ĠØªÙĤØ³ÛĮÙħ",
        -8.415569430799474
      ],
      [
        "ĠØ§Ø³ÙĦØ§ÙħÛĮ",
        -8.416055279494744
      ],
      [
        "ĠØªÙĤØ±ÛĮØ¨Ø§",
        -8.416190309603317
      ],
      [
        "ĠØ³ÛĮØ§Ø³ÛĮ",
        -8.426871925804761
      ],
      [
        "ÙĦÛĮ",
        -8.427288190539448
      ],
      [
        "Ùĳ",
        -8.42869056059348
      ],
      [
        "ĠÙĤØ¨ÙĦ",
        -8.429494610967556
      ],
      [
        "Ø¬",
        -8.43610812394124
      ],
      [
        "ĠÙĦÛĮ",
        -8.437092974840938
      ],
      [
        "ÙĪÙĨ",
        -8.442362382731647
      ],
      [
        "Ø¨Ú¾Ø§Ø±ØªÛĮ",
        -8.446510502700491
      ],
      [
        "ĠÚ©ÙħÙ¾ÙĨÛĮ",
        -8.449169053395327
      ],
      [
        "ĠÙħØ§Ø±ÚĨ",
        -8.451401381551447
      ],
      [
        "ĠÙĨÙĪ",
        -8.451908661126625
      ],
      [
        "ĠØ¹Ø¸ÛĮÙħ",
        -8.45301287723325
      ],
      [
        "Ġ10",
        -8.455480093432033
      ],
      [
        "ĠÙ¾ÙĪØ±",
        -8.458439457247657
      ],
      [
        "Ø¦ÛĮ",
        -8.459989399770224
      ],
      [
        "ØªØ§Ø±ÛĮØ®",
        -8.465515379833107
      ],
      [
        "ĠÙĤØ¯ÛĮÙħ",
        -8.466246280512548
      ],
      [
        "ĠØµØ§ØŃØ¨",
        -8.469674507249236
      ],
      [
        "ÙĬ",
        -8.472501096069518
      ],
      [
        "ÛĮØª",
        -8.473682022512138
      ],
      [
        "ĠÙģÛĮ",
        -8.475843116637211
      ],
      [
        "ĠÙ¾Ø§ÙĨÚĨ",
        -8.477622414981498
      ],
      [
        "ĠÙ¹ÛĮÙĦÛĮ",
        -8.479407413125696
      ],
      [
        "Ġ195",
        -8.480169252016744
      ],
      [
        "ĠØ¨Ø·ÙĪØ±",
        -8.480922732651
      ],
      [
        "ĠØªØŃØ±ÛĮÚ©",
        -8.48420360247061
      ],
      [
        "ĠØªØ±Ú©ÛĮ",
        -8.485511631829075
      ],
      [
        "Ú©Ø§",
        -8.488994725472308
      ],
      [
        "ĠØ§Ú¯Ø³Øª",
        -8.49000932522175
      ],
      [
        "ÙĦØ§",
        -8.490276425411398
      ],
      [
        "ĠØ³Ú©ØªØ§",
        -8.49043832059845
      ],
      [
        "ĠØªØ¹Ø¯Ø§Ø¯",
        -8.493386243829558
      ],
      [
        "ĠØ¬Ø§ØªÛĴ",
        -8.494513685775837
      ],
      [
        "ĠÙħØ³Ø¬Ø¯",
        -8.497989981165615
      ],
      [
        "ĠÚ¯ÙĨ",
        -8.498067685389895
      ],
      [
        "ÙĨÛĮ",
        -8.498228420953858
      ],
      [
        "ĠØ±Ú©Ú¾Ø§",
        -8.498298220126795
      ],
      [
        "ÛĮÙĪÚº",
        -8.50205270111688
      ],
      [
        "ĠÙħÙĦ",
        -8.510933751719385
      ],
      [
        "Ø¨ÛĮØ³ÙĪ",
        -8.510953771833918
      ],
      [
        "Ø³ÛĮ",
        -8.512911846657184
      ],
      [
        "ĠÙħØ¯Ø¯",
        -8.515901398946536
      ],
      [
        "ĠÛģØ§ØªÚ¾",
        -8.516924556703586
      ],
      [
        "ĠØ¨ÛģØªØ±ÛĮÙĨ",
        -8.516958224140376
      ],
      [
        "ĠÙħØ´Ø±ÙĤÛĮ",
        -8.517487394041433
      ],
      [
        "ØµÙģØŃØ§Øª",
        -8.519460867210118
      ],
      [
        "ĠÙĪØ§Ù¾Ø³",
        -8.51991880770592
      ],
      [
        "ĠÚ©ÙĪØ´Ø´",
        -8.520883725102221
      ],
      [
        "ĠØ§Ø¹Ø¸Ùħ",
        -8.524045231284228
      ],
      [
        "Ġ196",
        -8.525348545865985
      ],
      [
        "ĠØ¨ÙĨØ§ÛĮØ§",
        -8.525990617369153
      ],
      [
        "ĠØ§Ú©ØªÙĪØ¨Ø±",
        -8.52632674735645
      ],
      [
        "ĉ",
        -8.529134486422059
      ],
      [
        "ĠÚ¯ÛĴ",
        -8.53210482261755
      ],
      [
        "ĠØ´Ø¯Ûģ",
        -8.533138993402448
      ],
      [
        "ĠÙĪÙģØ§Øª",
        -8.533289914681388
      ],
      [
        "199",
        -8.533314673505702
      ],
      [
        "ĠØ´ÛĮØ®",
        -8.53440097931764
      ],
      [
        "ĠØ®ØªÙħ",
        -8.535257469424913
      ],
      [
        "ĠÙĦØ§",
        -8.536166039906465
      ],
      [
        "ĠØ±Ú©ÙĨ",
        -8.538986445160724
      ],
      [
        "ĠØ¢Ø¦ÛĴ",
        -8.540328756222413
      ],
      [
        "Ø´Ø§Ø¦Ø¹",
        -8.541059307316727
      ],
      [
        "ĠÙħØ¦ÛĮ",
        -8.542926246647708
      ],
      [
        "ĠÚ©ÛĮØ±ÛĮØ¦Ø±",
        -8.544848659984924
      ],
      [
        "ĠÙĦ",
        -8.54687196472442
      ],
      [
        "*",
        -8.547938395956601
      ],
      [
        "ĠØ¨Ø§ÙĦ",
        -8.548297977362015
      ],
      [
        "ĠØ®Ø¯ÙħØ§Øª",
        -8.549300750722473
      ],
      [
        "ĠÙ¾ÛģÙĦØ§",
        -8.5499386372819
      ],
      [
        "Ùī",
        -8.55638916191597
      ],
      [
        "ĠÙĤØªÙĦ",
        -8.557860735910227
      ],
      [
        "ĠÙħÙĨØªØ®Ø¨",
        -8.55875303041688
      ],
      [
        "ĠÙ¾Ø³ÙĨØ¯",
        -8.559612007816625
      ],
      [
        "ĠÙĨÚ¯Ø§Ø±",
        -8.560623295346709
      ],
      [
        "ĠØ¬Ø§ÙĨ",
        -8.564363102256841
      ],
      [
        "ĠØ¬ÙĪÙĨ",
        -8.56594769015441
      ],
      [
        "ĠØ°Ø±ÛĮØ¹Ûģ",
        -8.56647298601015
      ],
      [
        "ĠØ§ÙĪ",
        -8.568709784321104
      ],
      [
        "ĠØ³ÙĦØ·Ø§ÙĨ",
        -8.570011697417398
      ],
      [
        "ĠØ¨Ø±Ø·Ø§ÙĨÙĪÛĮ",
        -8.570783088162981
      ],
      [
        "ĠØ¢Ø®Ø±ÛĮ",
        -8.57231507817678
      ],
      [
        "ĠÙģÙĪØ¬ÛĮ",
        -8.575672513601424
      ],
      [
        "ĠØ¯Ø³ÙħØ¨Ø±",
        -8.576244131630665
      ],
      [
        "Ù¾",
        -8.576760153626646
      ],
      [
        "ĠØ³ØªÙħØ¨Ø±",
        -8.578507362416364
      ],
      [
        "ÙĪÛģ",
        -8.57923152865258
      ],
      [
        "ĠØ¨Ø§Ø²",
        -8.583853175125913
      ],
      [
        "ĠÙģØªØŃ",
        -8.586402005721375
      ],
      [
        "2019",
        -8.586752360673572
      ],
      [
        "ĠÚ©ÙĪÙĨØ³ÙĦ",
        -8.58728828319404
      ],
      [
        "ĠØ¬ÙħÛģÙĪØ±ÛĮÛģ",
        -8.587303158087419
      ],
      [
        "ÙĪÛĮÚº",
        -8.590190468259093
      ],
      [
        "Ġin",
        -8.5927922055389
      ],
      [
        "ĠÙ¹ÙĪØ¦ÙĨÙ¹ÛĮ",
        -8.59408344171073
      ],
      [
        "Ø§ÙĪØ±",
        -8.594187192718175
      ],
      [
        "ĠØ§Ø®ØªÛĮØ§Ø±",
        -8.597346616516306
      ],
      [
        "ĠÙĨÙĪÙħØ¨Ø±",
        -8.598834265556256
      ],
      [
        "ĠÚ©ÛģØªÛĴ",
        -8.599481734593207
      ],
      [
        "ĠÙĪÛĮ",
        -8.604855202198625
      ],
      [
        "Ø§ÛĮÚ©",
        -8.607962392664074
      ],
      [
        "ĠØ§ÛĮÙĦ",
        -8.608598174293178
      ],
      [
        "ĠØ¢ÛĮØ§",
        -8.61070917005987
      ],
      [
        "ĠØ°Ú©Ø±",
        -8.61239045944196
      ],
      [
        "ĠØ²ÙħÛĮÙĨ",
        -8.612597435779978
      ],
      [
        "ĠØ¨ÙĨÛĮØ§Ø¯",
        -8.613275608591874
      ],
      [
        "ĠÚ¯ÛĮ",
        -8.614380587355507
      ],
      [
        "Ġ15",
        -8.614493728896866
      ],
      [
        "Ø§ÚĪÛĴ",
        -8.614794059763405
      ],
      [
        "ĠÚ©ÙĦØ¨",
        -8.61699963729849
      ],
      [
        "ĠØŃÛĮØ«ÛĮØª",
        -8.617637612495765
      ],
      [
        "ĠØ³ÙĨ",
        -8.62140495094419
      ],
      [
        "ĠØ´ÙħØ§Ø±",
        -8.621859004865692
      ],
      [
        "ÙĪÛĮ",
        -8.621952040353289
      ],
      [
        "ĠØ²ÛĮØ±",
        -8.62209501980267
      ],
      [
        "ĠÙĪÛĮÚĺÙĨ",
        -8.62397990001808
      ],
      [
        "ĠØ¢Ø±",
        -8.625660659353874
      ],
      [
        "ĠØ¨Ø±Ø§Ø¦ÛĴ",
        -8.626761076420252
      ],
      [
        "ĠØ§Ø±Ú©Ø§ÙĨ",
        -8.627083056404395
      ],
      [
        "Ø§ÙĨØªØ®Ø§Ø¨Ø§Øª",
        -8.634432063184414
      ],
      [
        "ĠÙģØ±ÙĪØ±ÛĮ",
        -8.636200713219404
      ],
      [
        "ĠØ¹ÙĦØ§ÙĤÙĪÚº",
        -8.63847516102778
      ],
      [
        "ĠØ§Ù¾Ø±ÛĮÙĦ",
        -8.639463464763304
      ],
      [
        "ĠØŃÙħÙĦÛģ",
        -8.639479379663381
      ],
      [
        "ĠØŃØ³ÙĨ",
        -8.639528496365374
      ],
      [
        "ĠØ§Ø¯Ø§",
        -8.641344986377003
      ],
      [
        "Ø¨ÙĨÚ¯ÙĦÛģ",
        -8.643325585496894
      ],
      [
        "ĠÚ©ÙĦØ§Ø³",
        -8.645781064021067
      ],
      [
        "Ø¨ÛĮ",
        -8.646803671484872
      ],
      [
        "ÛĮØ³ÙĪÙ¹Ø§",
        -8.647390266399603
      ],
      [
        "ĠÙ¾Ø§Ø±Ù¹ÛĮ",
        -8.647731812632996
      ],
      [
        "ĠØ¨Ú¾Ø§Ø¦ÛĮ",
        -8.6478483420585
      ],
      [
        "Ú©ÛĴ",
        -8.651956979228775
      ],
      [
        "Ġ18",
        -8.652953995390126
      ],
      [
        "ĠØ¯ÙĪØ¨Ø§Ø±Ûģ",
        -8.653164753934696
      ],
      [
        "ĠØ¬Ø§ÙĨØ¨",
        -8.65637058227022
      ],
      [
        "ĠÙħØ³ÙĦÙħØ§ÙĨ",
        -8.662430810385427
      ],
      [
        "ĠØ³Ø±Ú©Ø§Ø±ÛĮ",
        -8.662774126833064
      ],
      [
        "ĠØ¯ÙĦ",
        -8.663443821099372
      ],
      [
        "ĠÚ©Ø±Ø§ÚĨÛĮ",
        -8.663640885628936
      ],
      [
        "ĠÙħÙĤØ§ÙħÛĮ",
        -8.664647418018575
      ],
      [
        "Ø§ÙģØ±ÛĮÙĤÛģ",
        -8.667406751639875
      ],
      [
        "ĠÙĤØ±Ø§Ø±",
        -8.66870658329594
      ],
      [
        "Ġ12",
        -8.66967264232696
      ],
      [
        "Ø¦ÛĴ",
        -8.671067677730964
      ],
      [
        "ĠØ´Ø§Ø¹Ø±",
        -8.672681816780688
      ],
      [
        "ĠØ§ÙĨØ¬Ø§Ùħ",
        -8.674054141936333
      ],
      [
        "ĠÚĨÚ¾",
        -8.675694736589495
      ],
      [
        "ĠÚ¯Ø±ÙĪÙ¾",
        -8.67683303450436
      ],
      [
        "Ø§Ø¨ØªØ¯Ø§Ø¦ÛĮ",
        -8.67773595520253
      ],
      [
        "ĠØ¯ÛĮÙĨÛĴ",
        -8.678927949313259
      ],
      [
        "ĠØ¨Ø§Ø¯Ø´Ø§Ûģ",
        -8.679079607754616
      ],
      [
        "ĠØ´Ú©Ø³Øª",
        -8.6793382278458
      ],
      [
        "Û",
        -8.68060149877717
      ],
      [
        "ĠÚ©ÛĮÚº",
        -8.682003600522727
      ],
      [
        "ĠØ³ÛĮØ²ÙĨ",
        -8.682153577715525
      ],
      [
        "ÙĦØŃØ§Ø¸",
        -8.68436372812788
      ],
      [
        "Øµ",
        -8.684668738983442
      ],
      [
        "ĠÚĨÙĨØ¯",
        -8.684771196138502
      ],
      [
        "Ø§ÙĨÚ¯ÙĦØ³ØªØ§ÙĨ",
        -8.686179756945197
      ],
      [
        "ĠØ³ÙĨÚ¯Ú¾",
        -8.686678311173157
      ],
      [
        "Ġand",
        -8.687299636526214
      ],
      [
        "Ú¯",
        -8.692990646779066
      ],
      [
        "ĠØ³Ø±ÛĮ",
        -8.69303999576282
      ],
      [
        "ĠØªÛĮØ§Ø±",
        -8.697050256843458
      ],
      [
        "ĠÙħÙĪÙĦØ§ÙĨØ§",
        -8.698822179395624
      ],
      [
        "ĠØ§Ø¯Ø¨",
        -8.69898670793381
      ],
      [
        "ØŃ",
        -8.699859700722726
      ],
      [
        "ĠØ§ÙĨÚ¯Ø±ÛĮØ²ÛĮ",
        -8.701001940306183
      ],
      [
        "ĠØ¨ÙĨØ§ÙĨÛĴ",
        -8.702465742637353
      ],
      [
        "ĠØµÙĪØ¨Ø§Ø¦ÛĮ",
        -8.703937678804992
      ],
      [
        "ĠØªØ±ÛĮÙĨ",
        -8.705547254818217
      ],
      [
        "ĠØªØ±ÙĤÛĮ",
        -8.70571969587537
      ],
      [
        "ĠØ§ÚĪØ§",
        -8.71100732902063
      ],
      [
        "ĠØ¹Ø±Ø¨ÛĮ",
        -8.711725811644943
      ],
      [
        "ĠØ§ÛĮÙĨ",
        -8.71292927330235
      ],
      [
        "ĠÙħØªØ¹ÙĦÙĤ",
        -8.712991420281782
      ],
      [
        "ĠØ°Ø±ÛĮØ¹ÛĴ",
        -8.713200555563855
      ],
      [
        "ĠØ¢Ø²Ø§Ø¯",
        -8.713631276306485
      ],
      [
        "ĠÙĤØ³Ùħ",
        -8.71497647080743
      ],
      [
        "ĠØ´Ø®Øµ",
        -8.715724645466
      ],
      [
        "ĠÙ¾Ø§ÙĨÛĮ",
        -8.71614134988114
      ],
      [
        "ĠØ§ÙĦÙĦÙĩ",
        -8.71801592009384
      ],
      [
        "Ú©Ø¨Ú¾ÛĮ",
        -8.718556718204967
      ],
      [
        "ĠØ¢ÛĮØª",
        -8.718873509340575
      ],
      [
        "ĠÙĪÛģØ§Úº",
        -8.719009454418456
      ],
      [
        "ĠÙĦÚ©Ú¾Ø§",
        -8.719504696082073
      ],
      [
        "ĠØ³Ø§Ø¨ÙĤ",
        -8.719954557531404
      ],
      [
        "ĠØ®Ø¯Ø§",
        -8.720178753202894
      ],
      [
        "Ġ2013",
        -8.720248891954899
      ],
      [
        "Ú©ÙĪ",
        -8.720561704057696
      ],
      [
        "ĠØ³ÙĨØ¯Ú¾",
        -8.721054375739685
      ],
      [
        "ĠÙĨÛĮÙĪØ²ÛĮ",
        -8.721192333081017
      ],
      [
        "Ø±ÛĮ",
        -8.72168292481384
      ],
      [
        "ÙĪØ±",
        -8.72401504664718
      ],
      [
        "_",
        -8.727236813298047
      ],
      [
        "d",
        -8.729270003035094
      ],
      [
        "ĠÚ©ÙĨ",
        -8.729431089851564
      ],
      [
        "Ûĥ",
        -8.730800484687427
      ],
      [
        "ĠÛģÙĨØ¯",
        -8.731192069140846
      ],
      [
        "ĠÙĨÙħØ¨Ø±",
        -8.73211916207803
      ],
      [
        "ĠØ§Ø¨ØªØ¯Ø§Ø¦ÛĮ",
        -8.735682852107445
      ],
      [
        "ĠØ§ÛģÙĦ",
        -8.738085016332905
      ],
      [
        "ĠÙĤØ±Ø¢ÙĨ",
        -8.738842604910353
      ],
      [
        "ĠØ±Ø³ÙĪÙĦ",
        -8.742119365462734
      ],
      [
        "ĠØªÙħ",
        -8.742237967840703
      ],
      [
        "ĠØ¨ÙĦÚ©Ûģ",
        -8.746948420553787
      ],
      [
        "ĠØ¨ÙĨØ¯",
        -8.74726605477607
      ],
      [
        "ĠÙĤØ§ÙĨÙĪÙĨ",
        -8.749887474519149
      ],
      [
        "ĠÙģØ±ÙħØ§ÛĮØ§",
        -8.750009846403998
      ],
      [
        "ĠØ®Ø§ÙĨÛģ",
        -8.75087754972681
      ],
      [
        "Ø§Ø¨",
        -8.751791013713861
      ],
      [
        "ĠØ§Ø²",
        -8.752858820661702
      ],
      [
        "ĠØ¬ÙħØ§Ø¹Øª",
        -8.75633460677004
      ],
      [
        "ĠØ¨ÙĦÛĴ",
        -8.757284863736219
      ],
      [
        "Ú©Ø±",
        -8.759699466548101
      ],
      [
        "ĠØ¯ÛĮØ´",
        -8.760339551396216
      ],
      [
        "ĠÙģØ±Ø³Ù¹",
        -8.760847524155075
      ],
      [
        "ÙģØºØ§ÙĨØ³ØªØ§ÙĨ",
        -8.76112499498145
      ],
      [
        "ĠØ§Ø¹ÙĦØ§ÙĨ",
        -8.762840200013486
      ],
      [
        "ĠØ¹Ø§ÙĦÙħ",
        -8.763882173871815
      ],
      [
        "ĠØ§Ø¹ÙĦÛĮ",
        -8.767738013296958
      ],
      [
        "ĠÙħÙĪØª",
        -8.778154299696007
      ],
      [
        "Ø¯ÛĮ",
        -8.7798625407888
      ],
      [
        "ĠØ¹",
        -8.781860779912114
      ],
      [
        "ĠØ¢Ø²Ø§Ø¯ÛĮ",
        -8.782144937772342
      ],
      [
        "ĠØ¢Ø®Ø±",
        -8.783101459211
      ],
      [
        "2008",
        -8.785857463981902
      ],
      [
        "ĠØ¨ÛĮÙ¹ÛĴ",
        -8.78588005482649
      ],
      [
        "ĠÙģÙĦÙħÛĮ",
        -8.787257593752098
      ],
      [
        "Ġ14",
        -8.788543964783694
      ],
      [
        "ĠØŃØ¯ÛĮØ«",
        -8.788815596911371
      ],
      [
        "ĠÙ¾ÙĪÙĦÛĮÙĨÚĪ",
        -8.790269973617917
      ],
      [
        "ĠÙĤØ§Ø¨ÙĦ",
        -8.791658260980595
      ],
      [
        "ĠØªØŃØª",
        -8.792583516486241
      ],
      [
        "ĠÙħØ±Ú©Ø²ÛĮ",
        -8.793484528872602
      ],
      [
        "ĠÙĦÙĨÚ©Ø§",
        -8.794071637021753
      ],
      [
        "Ġ11",
        -8.794345558725816
      ],
      [
        "ÙĦÛĮÙģÙĪØ±ÙĨÛĮØ§",
        -8.794583427419509
      ],
      [
        "ĠØ¬ÙĨØ±ÙĦ",
        -8.794897487627065
      ],
      [
        "ĠØ¬Ø§ÙĨØ§",
        -8.795452620809893
      ],
      [
        "ĠÙĪØºÛĮØ±Ûģ",
        -8.79616674018976
      ],
      [
        "ĠØ§Ø¶ÙĦØ§Ø¹",
        -8.797252582229694
      ],
      [
        "ĠÙĤÙĪÙħ",
        -8.797528279339051
      ],
      [
        "t",
        -8.798780994859985
      ],
      [
        "ÙĪØ§",
        -8.799481936786725
      ],
      [
        "Ġ17",
        -8.801098467062376
      ],
      [
        "ÙİÙĳ",
        -8.801884959600722
      ],
      [
        "ĠØ§ÙĨÙĨÚ¯Ø²",
        -8.80282913571318
      ],
      [
        "Ġ16",
        -8.803781345596281
      ],
      [
        "ĠÚ¯ÛĮÙĨØ¯",
        -8.804065481807507
      ],
      [
        "ĠØ®ÛĮØ§ÙĦ",
        -8.80447998122628
      ],
      [
        "Ġ193",
        -8.805019541288033
      ],
      [
        "ĠØ¨Ø¹Ø¶",
        -8.805785278044407
      ],
      [
        "ĠØ§ÙĨØªÙĤØ§ÙĦ",
        -8.80635540370893
      ],
      [
        "Ø³ÙĨ",
        -8.807679338954266
      ],
      [
        "ĠØ¨ÙĨÛĮØ§Ø¯ÛĮ",
        -8.809882928425395
      ],
      [
        "ĠØ®ØµÙĪØµÛĮØ§Øª",
        -8.81066683592022
      ],
      [
        "ĠÙĪÛĮØ³Ù¹",
        -8.813053925655634
      ],
      [
        "ĠØ³ÛĮÙĨÙ¹",
        -8.813364248585481
      ],
      [
        "Ø§ÙĨÚ¾ÙĪÚº",
        -8.813530785884934
      ],
      [
        "Ġ13",
        -8.813713877758513
      ],
      [
        "ĠÙĤ",
        -8.814917649183219
      ],
      [
        "i",
        -8.81523256700945
      ],
      [
        "Ø¬ÙĪ",
        -8.8157161961237
      ],
      [
        "Ø¤Úº",
        -8.817875956743164
      ],
      [
        "ĠØ§ÙĦÛĮÙĨÙĪØ§Ø¦",
        -8.81796987213931
      ],
      [
        "ĠÚ©Ú¾ÛĮÙĦÛĴ",
        -8.81863559212496
      ],
      [
        "ĠÚĪÛĮØ¨ÛĮÙĪ",
        -8.822827300115412
      ],
      [
        "ĠØ±ÙĪØ³",
        -8.824455037259112
      ],
      [
        "ĠØ³ÙģØ±",
        -8.824623105092275
      ],
      [
        "ĠØ¢Ø¬",
        -8.824867886383732
      ],
      [
        "ĠØ§ÛĮ",
        -8.82585169574432
      ],
      [
        "ĠÙħØªØ¹Ø¯Ø¯",
        -8.828119855379155
      ],
      [
        "198",
        -8.82868938596139
      ],
      [
        "ĠÙģ",
        -8.831487014032561
      ],
      [
        "ĠÚ©Ú¾ÛĮÙĦØ§",
        -8.838994227664543
      ],
      [
        "19",
        -8.839470021362029
      ],
      [
        "ĠÙĪÛĮØ¨",
        -8.84342621991292
      ],
      [
        "ĠÙħÙħÙĦÚ©Øª",
        -8.843490707379557
      ],
      [
        "ĠÙħØ°ÛģØ¨ÛĮ",
        -8.845674550583354
      ],
      [
        "ĠØ°ÛĮÙĦ",
        -8.848264027533014
      ],
      [
        "ĠØ§ÛĮØ³Ø§",
        -8.849022260064737
      ],
      [
        "Ø¢Ø¦ÛĮÙĪÙĪØ§",
        -8.849691070531692
      ],
      [
        "ĠÙħÙĦØ§",
        -8.8584990071556
      ],
      [
        "ĠØ¯ÛģÙĦÛĮ",
        -8.858803517232676
      ],
      [
        "ĠØªÙĨØ¸ÛĮÙħ",
        -8.859040397809874
      ],
      [
        "ĠØŃÚ©Ùħ",
        -8.860255875475453
      ],
      [
        "ĠA",
        -8.860600078743165
      ],
      [
        "Ø¢Ù¾",
        -8.861254930427549
      ],
      [
        "ĠØ¯ÛĮØªÛĴ",
        -8.864274854601998
      ],
      [
        "ĠÙĪØ³Ø·ÛĮ",
        -8.866672302278852
      ],
      [
        "ĠÚ¯ÙĪ",
        -8.870974483097383
      ],
      [
        "ĠØ§ÛĮØ³ÛĴ",
        -8.873599490469719
      ],
      [
        "ĠÙģØ±Ø§ÛģÙħ",
        -8.874299557131618
      ],
      [
        "ĠØ´ÙħØ§ÙĦ",
        -8.87489898511082
      ],
      [
        "ĠÙĤÛĮØ§Ùħ",
        -8.87702590720017
      ],
      [
        "ĠØ§ØµÙĦ",
        -8.877507397785307
      ],
      [
        "ĠÙĪØ±ÙĦÚĪ",
        -8.878383982280907
      ],
      [
        "ĠØ¬Ø±ÙħÙĨÛĮ",
        -8.881198627780241
      ],
      [
        "ĠÛĮÛģÙĪØ¯ÛĮ",
        -8.882086690323447
      ],
      [
        "Ø§ÙĨÛĮ",
        -8.883229749497941
      ],
      [
        "ĠÙģÙĨ",
        -8.886130196535396
      ],
      [
        "ĠØªØ¹ÙĦÛĮÙħÛĮ",
        -8.887509341810496
      ],
      [
        "ÛĮØ§Úº",
        -8.887920198362458
      ],
      [
        "Ø§Ú©ÛĮØ³ÙĪ",
        -8.88947746007249
      ],
      [
        "ÙħÛĮÚº",
        -8.891497460645537
      ],
      [
        "ĠÚ©Ø§ÙħÛĮØ§Ø¨",
        -8.893154676539645
      ],
      [
        "ĠÙħÙĤØ±Ø±",
        -8.895344771454692
      ],
      [
        "2017",
        -8.895979473950518
      ],
      [
        "ÙĤØ¨Ø¶Ûģ",
        -8.896545676254206
      ],
      [
        "ĠØ¬Ø¯ÛĮØ¯",
        -8.89664498556168
      ],
      [
        "ĠÙĦØ§Ø¦ÙĨ",
        -8.901707172124992
      ],
      [
        "Ø¬ØºØ±Ø§ÙģÛĮ",
        -8.90211084023515
      ],
      [
        "en",
        -8.902443162807721
      ],
      [
        "ĠØ¬ÛĮØª",
        -8.903066152958564
      ],
      [
        "ed",
        -8.903208995593587
      ],
      [
        "ĠØ¨Ø±Ø·Ø§ÙĨÛĮ",
        -8.904247268273659
      ],
      [
        "ĠØ§Ø¹Ø¯Ø§Ø¯",
        -8.905524206580058
      ],
      [
        "ĠØªØŃØµÛĮÙĦ",
        -8.907669646339201
      ],
      [
        "Ġ30",
        -8.907922065258587
      ],
      [
        "ĠØ³",
        -8.90832801177335
      ],
      [
        "ĠØ¹ÙĪØ§ÙħÛĮ",
        -8.910662102731202
      ],
      [
        "Ù¹ÛĮ",
        -8.91295082850459
      ],
      [
        "ĠØ¬ÙĨÙĪØ¨",
        -8.914009736258814
      ],
      [
        "ĠS",
        -8.914893707216184
      ],
      [
        "ĠØŃÙĤ",
        -8.915930682292872
      ],
      [
        "ÙħÛĮÙĨ",
        -8.916111814134862
      ],
      [
        "ĠÙħØ±Ú©Ø²",
        -8.918774284432148
      ],
      [
        "ĠÚ©Ø±Ú©ÛĴ",
        -8.918952028327777
      ],
      [
        "2016",
        -8.920005179292065
      ],
      [
        "ĠØ±Ú©Ú¾ØªÛĴ",
        -8.921641839810201
      ],
      [
        "ĠÚĨÚ¾ÙĪÚĳ",
        -8.921724731373631
      ],
      [
        "ĠØ¹ÛģØ¯",
        -8.921811436506278
      ],
      [
        "Ø§ÙĪÛģØ§Ø¦ÛĮÙĪ",
        -8.923106665065083
      ],
      [
        "ĠÛģØ¯Ø§ÛĮØª",
        -8.924749590489883
      ],
      [
        "ĠÙĨØ§ÙĪÙĦ",
        -8.926991541896365
      ],
      [
        "ĠØµÙĪØ±Øª",
        -8.92700887403998
      ],
      [
        "2014",
        -8.92935607443251
      ],
      [
        "Ù¹ÙĪØ±ÙĨØ§ÙħÙĨÙ¹",
        -8.930432182309756
      ],
      [
        "ĠÚ©Ø§ÙģÛĮ",
        -8.933795723168135
      ],
      [
        "ĠØ§ÙĨØ¹Ø§Ùħ",
        -8.93416880962343
      ],
      [
        "ĠØ´Ú©ÙĦ",
        -8.934456758719355
      ],
      [
        "Ù¹ÙĨ",
        -8.936291365112067
      ],
      [
        "ĠØ¨Ú¾Ø±",
        -8.936791740054804
      ],
      [
        "ØºÛĮØ±",
        -8.937006330855295
      ],
      [
        "ĠØ³ÙĨÚĨØ±ÛĮ",
        -8.937695856262305
      ],
      [
        "ĠÙħØ§Ø±",
        -8.937733230012622
      ],
      [
        "ĠØ¹ÙĦÙĬÙĩ",
        -8.93854943498345
      ],
      [
        "Ĥ",
        -8.939261499751016
      ],
      [
        "ĠØ¯",
        -8.94206912941702
      ],
      [
        "ĠØ§ÙĦØ³ÙĦØ§Ùħ",
        -8.942368450636776
      ],
      [
        "ĠØ§Ø¹Ø²Ø§Ø²",
        -8.943395181604204
      ],
      [
        "ĠØ§ÛĮÙĪØ§Ø±ÚĪ",
        -8.94386005881299
      ],
      [
        "ĠØ¢ÙĨÛĴ",
        -8.944046795203253
      ],
      [
        "Ú¯ÛĮ",
        -8.944176630567082
      ],
      [
        "ÙĤØ±Ø¢ÙĨ",
        -8.944366385216934
      ],
      [
        "ĠØ³ÙĦØ³ÙĦÛģ",
        -8.944615266443975
      ],
      [
        "ĠØ§ÛĮÙĨÚĪ",
        -8.949832813338098
      ],
      [
        "Ø·",
        -8.95006923665985
      ],
      [
        "ĠÚĪØ§Ú©Ù¹Ø±",
        -8.950914267949175
      ],
      [
        "ĠØ³Ø§Ø¦Ù¹",
        -8.951369731704208
      ],
      [
        "ĠÚ¯Ø¦ÛĮÚº",
        -8.9514005265658
      ],
      [
        "ĠØ¨ÙĪÙĦØ§",
        -8.95276809157923
      ],
      [
        "ĠØ³Ø§ÙħÙĨÛĴ",
        -8.95761186900131
      ],
      [
        "ĠØªØ§Ø±ÛĮØ®ÛĮ",
        -8.959386048497336
      ],
      [
        "ĠØ³Ø§Øª",
        -8.95940583064812
      ],
      [
        "ĠØ±ÙĪØ³ÛĮ",
        -8.960468508642421
      ],
      [
        "n",
        -8.961382323990868
      ],
      [
        "ĠØ§Ú©Ø«Ø±",
        -8.961426779247384
      ],
      [
        "Ø±Ø§",
        -8.962826264401192
      ],
      [
        "ĠØ¯ÛĮÚ©Ú¾",
        -8.964267503934026
      ],
      [
        "ĠØ§ÙĨØ³Ø§ÙĨ",
        -8.966181373496454
      ],
      [
        "ĠØ¬Ø§ÙħØ¹Ûģ",
        -8.967054320918082
      ],
      [
        "ÙħØ§",
        -8.971248499765139
      ],
      [
        "ĠØ§Ø³Ø±Ø§Ø¦ÛĮÙĦ",
        -8.971740580514682
      ],
      [
        "âĢĺ",
        -8.973474490314585
      ],
      [
        "ĠÙħØ¹",
        -8.973789307483626
      ],
      [
        "Ġ25",
        -8.973867271485584
      ],
      [
        "ĠÙĦÙĨØ¯ÙĨ",
        -8.974555429120139
      ],
      [
        "ÙħØ³ÙĦÙħØ§ÙĨÙĪÚº",
        -8.975231775710114
      ],
      [
        "ÙĨÛĮÙĪ",
        -8.97641289842303
      ],
      [
        "ĠØ§ÙĨÚ¯Ø±ÛĮØ²",
        -8.977131293539285
      ],
      [
        ";",
        -8.979337219927409
      ],
      [
        "ĠÙ¾ÛģÙĨÚĨ",
        -8.98211507819461
      ],
      [
        "ĠÙģØ§Ø±Ø³ÛĮ",
        -8.983258984266477
      ],
      [
        "ĠØ§ÙĨØ¯Ø±",
        -8.983303743075743
      ],
      [
        "ĠÚ©ØªØ¨",
        -8.984631090044743
      ],
      [
        "ĠØ§ÙħÛĮØ±",
        -8.985465897605701
      ],
      [
        "ĠØ¬ÙĦØ¯",
        -8.985575004963641
      ],
      [
        "2011",
        -8.985575652610711
      ],
      [
        "ĠØ³Ú©ØªÛĴ",
        -8.9867283853004
      ],
      [
        "ĠÙħÙĪÙĤØ¹",
        -8.986859780480785
      ],
      [
        "ĠØ§ÙĨØ¯Ø§Ø²",
        -8.987980608013011
      ],
      [
        "ĠØ¨Ø§ÛģØ±",
        -8.9880996918341
      ],
      [
        "ØŁ",
        -8.98841494276417
      ],
      [
        "ĠØŃÙĤÙĪÙĤ",
        -8.989185861127098
      ],
      [
        "ÙĪÙģØ§Øª",
        -8.991424771553968
      ],
      [
        "ĠÙ¾ÛģØ§Úĳ",
        -8.991644585106803
      ],
      [
        "ĠÙģÙ¹",
        -8.991976634412364
      ],
      [
        "ĠÙħØª",
        -8.994971522072328
      ],
      [
        "ĠØ±ÙĪØ§ÛĮØª",
        -8.995228059000333
      ],
      [
        "ĠØª",
        -8.995682217815494
      ],
      [
        "ĠÛģØ¬Ø±ÛĮ",
        -8.995883171491807
      ],
      [
        "ĠÙ¾Ø±Ø¯ÛĮØ´",
        -8.997426728903214
      ],
      [
        "ÚĨ",
        -8.997935010987977
      ],
      [
        "ĠÚ¯ÙĦÙĪÚ©Ø§Ø±",
        -9.00018445383891
      ],
      [
        "23",
        -9.002048837524702
      ],
      [
        "Ø¬ÙĨÛģÙĪÚº",
        -9.00448125510374
      ],
      [
        "ĠØ§ÛĮØ³ÛĮ",
        -9.005194097207065
      ],
      [
        "Ø®",
        -9.00549897118288
      ],
      [
        "ĠÙĤØ¨ÙĪÙĦ",
        -9.005989500038588
      ],
      [
        "ĠØŃØµÛĴ",
        -9.007595746862972
      ],
      [
        "ĠØ¹ÙħØ§Ø±Ø§Øª",
        -9.007925621616524
      ],
      [
        "ĠØ¯ÛĮÚ©Ú¾Ø§",
        -9.008149928191283
      ],
      [
        "ĠÙħØµØ±",
        -9.008182161190769
      ],
      [
        "ĠØ§ÙĪØ³Ø·",
        -9.008892624164252
      ],
      [
        "ĠâĢĿ",
        -9.011978420114847
      ],
      [
        "ĠØºÙĦØ§Ùħ",
        -9.014509037845805
      ],
      [
        "ĠÚ©ÙĦÙĪÙħÛĮÙ¹Ø±",
        -9.015419206745111
      ],
      [
        "ĠÙĦÙģØ¸",
        -9.015791830141843
      ],
      [
        "ĠØ´Ø±ÛĮÙģ",
        -9.01584546418149
      ],
      [
        "2021",
        -9.016000157759354
      ],
      [
        "ĠØ¯ÛĮÚº",
        -9.016254002035886
      ],
      [
        "ĠÙħØ´ÛĮ",
        -9.018558626404527
      ],
      [
        "2012",
        -9.018773377831234
      ],
      [
        "Ø§Ø±",
        -9.019024780948962
      ],
      [
        "ĠØ±ÛĮÚ©Ø§Ø±ÚĪ",
        -9.021962983960762
      ],
      [
        "ĠØŃÚ©ÙħØ±Ø§ÙĨ",
        -9.022169870105555
      ],
      [
        "ĠÙħØ´Ø±ÙĤ",
        -9.022319035172812
      ],
      [
        "2007",
        -9.025742117485363
      ],
      [
        "ĠØ´Ø§Ø¦Ø±",
        -9.027123015903152
      ],
      [
        "ĠÙĨØªÛĮØ¬ÛĴ",
        -9.028558920700336
      ],
      [
        "ĠÙ¾",
        -9.029867418986044
      ],
      [
        "17",
        -9.031044708126723
      ],
      [
        "ĠÙĪÙĨ",
        -9.033170727201593
      ],
      [
        "ĠÚ©Ø±ÛĮÚº",
        -9.033733248615876
      ],
      [
        "ĠØ§ÙĨÚĪÛĮÙĨ",
        -9.036549806066457
      ],
      [
        "Ġ194",
        -9.037280540793043
      ],
      [
        "ĠØ§Ø«Ø±",
        -9.037688808318464
      ],
      [
        "ĠØ¯Ø§Ø®ÙĦ",
        -9.038385207900044
      ],
      [
        "ĠØ¸Ø§ÛģØ±",
        -9.038564315651799
      ],
      [
        "ĠØ¯Ø±Ø¬",
        -9.040442552499902
      ],
      [
        "ĠÙĨØ¦ÛĮ",
        -9.046109760953248
      ],
      [
        "ĠÛģÙĨØ¯ÙĪ",
        -9.046165152393167
      ],
      [
        "Ø¬ÛĮ",
        -9.046361853229765
      ],
      [
        "ĠØªØ¹ÙĦÙĤØ§Øª",
        -9.04636693545811
      ],
      [
        "ĠØ®Ø·",
        -9.046685034233748
      ],
      [
        "al",
        -9.049258792006858
      ],
      [
        "ĠØ¹Ø«ÙħØ§ÙĨÛĮ",
        -9.050267108917172
      ],
      [
        "ĠØ§Ø¯Ø§Ø±ÛĴ",
        -9.050683241400849
      ],
      [
        "âĢĺâĢĺ",
        -9.051044063758265
      ],
      [
        "ĠØ¬ÙĪØ§Ø¨",
        -9.051612193061933
      ],
      [
        "Ù¹Ø±ÙĨÛĮØ´ÙĨÙĦ",
        -9.054507054417934
      ],
      [
        "ĠâĢĻâĢĻ",
        -9.055229715850357
      ],
      [
        "ĠØªØ±Ú©",
        -9.060370904338159
      ],
      [
        "ĠÙħÙĨ",
        -9.060814237736293
      ],
      [
        "ØªØ§Ú©Ûģ",
        -9.063054198846553
      ],
      [
        "ĠÙħØ¹ÙĦÙĪÙħØ§Øª",
        -9.063073276941248
      ],
      [
        "ĠØ¯Ø³",
        -9.065919288000984
      ],
      [
        "ĠØ§ÙĦÚ¯",
        -9.066631531631376
      ],
      [
        "Øĵ",
        -9.068578490684128
      ],
      [
        "ĠÛģÙĦØ§Ú©",
        -9.069639945062475
      ],
      [
        "ĠÛģÙĪØ¦ÛĮÚº",
        -9.070453577127665
      ],
      [
        "ĠÚ©Ø±Ø¯Ûģ",
        -9.070561290186266
      ],
      [
        "ĠØ¨Ø±",
        -9.074500394608206
      ],
      [
        "ĠÙĨØ¦ÛĴ",
        -9.076548753739258
      ],
      [
        "ÙĦÛĴ",
        -9.076820400357537
      ],
      [
        "Ø¯ÙĪ",
        -9.0782433340096
      ],
      [
        "ĠÚĪÛĴ",
        -9.078657959979504
      ],
      [
        "ĠØ§ÙĨÚĪÛĮØ²",
        -9.083869516747226
      ],
      [
        "ĠÙħØ°ÛģØ¨",
        -9.085338980465973
      ],
      [
        "ĠÙħÙĦÛĮ",
        -9.085942684679805
      ],
      [
        "ĠÙ¾ÙĪØ±ÛĮ",
        -9.086106040371341
      ],
      [
        "ĠØ§ÙĨÚĪÛĮØ§ÙĨØ§",
        -9.08664063349448
      ],
      [
        "w",
        -9.087304347001577
      ],
      [
        "2009",
        -9.088542911347256
      ],
      [
        "ĠØ¹ÙħØ§Ø±Øª",
        -9.08867495660725
      ],
      [
        "ĠØ³ÙĪÙĪÛĮØª",
        -9.09047786395141
      ],
      [
        "ĠØ³Ú©ÛĴ",
        -9.092427543198037
      ],
      [
        "ĠØ±Ú©Ú¾ÛĮ",
        -9.092640303297081
      ],
      [
        "Ø³ÙĪØ±Ûģ",
        -9.093243636807767
      ],
      [
        "ĠG",
        -9.09507500623718
      ],
      [
        "ĠØ¨Ø§ÙĤÛĮ",
        -9.095320940705125
      ],
      [
        "ĠØ¨Ø¯ÙĦ",
        -9.095888112781033
      ],
      [
        "ĠÙħÛĮÙĦ",
        -9.09696429593544
      ],
      [
        "ĠØ³Ø§Ø¦ÙĨØ³",
        -9.09733401780291
      ],
      [
        "ĠÚ©Ø±ÛĴ",
        -9.098580190613404
      ],
      [
        "ĠÙĨÛĮØ´ÙĨÙĦ",
        -9.09890776191303
      ],
      [
        "ĠØ´Ø§Ùħ",
        -9.09946299942084
      ],
      [
        "%",
        -9.099757273684522
      ],
      [
        "ĠØ´Ø§ÛģÛĮ",
        -9.100748841461394
      ],
      [
        "Ø´Ø§Ø¹Ø±ÛĮ",
        -9.10094009584429
      ],
      [
        "ĠÛĮÙĪ",
        -9.101211516987442
      ],
      [
        "ĠØ±ÙĨÚ¯",
        -9.102545642751751
      ],
      [
        "ĠØ¢ÙĦ",
        -9.104636855149561
      ],
      [
        "ĠÙģÛĮØµØ¯",
        -9.105766963855345
      ],
      [
        "ĠÙħÙĪØ¬ÙĪØ¯Ûģ",
        -9.106636207187416
      ],
      [
        "ĠÙħÛĮØ±ÛĮ",
        -9.106671206983561
      ],
      [
        "ĠØ¶Ø±ÙĪØ±Øª",
        -9.10801525566662
      ],
      [
        "ĠÙĦÛĮÙĨÛĴ",
        -9.108031121378325
      ],
      [
        "ÛĶÛĶÛĶ",
        -9.109282758503074
      ],
      [
        "ĠÚ©Ø§ÙħÛĮØ§Ø¨ÛĮ",
        -9.113595369439079
      ],
      [
        "Ø¬Ø§ÙĨ",
        -9.115475017674148
      ],
      [
        "ĠØ·Ø§ÙĤØª",
        -9.117781519914617
      ],
      [
        "ĠÚ©Ø´ÙħÛĮØ±",
        -9.119265898437167
      ],
      [
        "Ø¯Ø§Ø±",
        -9.120823269710487
      ],
      [
        "ĠÙĨÙĪØ±",
        -9.120997484630394
      ],
      [
        "ĠÙ¾Ø±ÙĪÚ¯Ø±Ø§Ùħ",
        -9.123120330533611
      ],
      [
        "ĠØ¨Ø§ÙĪØ¬ÙĪØ¯",
        -9.125009522073594
      ],
      [
        "Ġ2015",
        -9.125859085007496
      ],
      [
        "ĠÚ¯Ø±",
        -9.125939804960659
      ],
      [
        "ĠØ¯Ø±ÛĮØ§Ø¦ÛĴ",
        -9.127749225121766
      ],
      [
        "Ø³Ù¹",
        -9.12806562622511
      ],
      [
        "ĠØ±ÛģÙĨÙħØ§",
        -9.128505666542067
      ],
      [
        "ĠØ¯ÛĮÙĨ",
        -9.130751468373703
      ],
      [
        "ĠÙĪØ·ÙĨ",
        -9.132471135187124
      ],
      [
        "ÙģÛĮØµÙĦÛģ",
        -9.13286740330175
      ],
      [
        "ĠÚĨÚ©ÛĴ",
        -9.134333602751356
      ],
      [
        "ĠØ¨ØºÛĮØ±",
        -9.136658027153722
      ],
      [
        "ĠØ¯Ø±",
        -9.137091480646014
      ],
      [
        "ĠÚ©ÛĮÙĨÛĮÚĪØ§",
        -9.13720907710168
      ],
      [
        "ĠÙħÛĮØ¯Ø§ÙĨ",
        -9.137276124264776
      ],
      [
        "ĠØŃØ§ÙĦ",
        -9.140557572077926
      ],
      [
        "ĠØ¹ÙĪØ±Øª",
        -9.141098834997772
      ],
      [
        "ĠØ§Ø¯Ø§Ú©Ø§Ø±Ûģ",
        -9.141146626456052
      ],
      [
        "15",
        -9.1435442687575
      ],
      [
        "Ø¦",
        -9.145184489437531
      ],
      [
        "ĠØ§ÛĮØ´ÛĮØ§",
        -9.145890465548684
      ],
      [
        "ĠØŃØ¯",
        -9.14627830980527
      ],
      [
        "ĠØ¨ÙĨØ¯ÛĮ",
        -9.147362081164882
      ],
      [
        "ĠØŃÙħÙĦÛĴ",
        -9.152017830129408
      ],
      [
        "ĠØ³ÙħØ¬Ú¾Ø§",
        -9.152022627496132
      ],
      [
        "ĠÙĨØ³ÙĦ",
        -9.153786411843843
      ],
      [
        "ĠØ§ÙĨØ³Ø§ÙĨÛĮ",
        -9.154273355761926
      ],
      [
        "ĠØ±Ø§Ø¦ÛĴ",
        -9.155021064012976
      ],
      [
        "ĠØµ",
        -9.155250376015012
      ],
      [
        "]",
        -9.155487074266953
      ],
      [
        "ĠØ¯ÙĪØ±Ûģ",
        -9.156072333068412
      ],
      [
        "ÚĪÛĮ",
        -9.156323485198286
      ],
      [
        "ĠØ¬ÙħØ¹",
        -9.158323039877937
      ],
      [
        "ing",
        -9.158505100697447
      ],
      [
        "2006",
        -9.158936811359556
      ],
      [
        "ĠØ³Ø§ÙĨÚĨ",
        -9.161294187853786
      ],
      [
        "ĠØ®Ø§ØªÙĪÙĨ",
        -9.16253988909039
      ],
      [
        "Ø´Ø§Ø¦Ø±",
        -9.163541483732677
      ],
      [
        "ĠØ³Ø§Ø¨ÙĤÛģ",
        -9.16492903534408
      ],
      [
        "ĠØ§ØªØŃØ§Ø¯",
        -9.165194049174142
      ],
      [
        "Ù¾ÙĨØ¬Ø§Ø¨",
        -9.168348231624584
      ],
      [
        "ĠÙħØ¹ÙĦÙĪÙħ",
        -9.168522769133352
      ],
      [
        "th",
        -9.169171549633345
      ],
      [
        "ĠØ§ÛĮÙģ",
        -9.169999516882447
      ],
      [
        "ĠÙĦÚ¯Ø§",
        -9.172660027217633
      ],
      [
        "ĠÙ¾Ø§Ú©",
        -9.172913823640526
      ],
      [
        "ĠÙħÛĮØ±",
        -9.173059049089291
      ],
      [
        "ĠÙĪØ§ÙĦÙĪÚº",
        -9.174181120772348
      ],
      [
        "ÙĪÙĦ",
        -9.175195616018947
      ],
      [
        "ĠÛģØ§Ø¦ÛĮ",
        -9.175643467364482
      ],
      [
        "ĠØ¢Ø¤Ù¹",
        -9.177363916156619
      ],
      [
        "Ġ21",
        -9.17740740747061
      ],
      [
        "Ø¨Ø±",
        -9.178478408587669
      ],
      [
        "Ù¾ÛĮ",
        -9.18067116035478
      ],
      [
        "ĠÙħØºÙĦ",
        -9.18139540181341
      ],
      [
        "ÙĦÙĪ",
        -9.18271701740869
      ],
      [
        "ĠÙħÙĤØµØ¯",
        -9.182933971001914
      ],
      [
        "ÙħÛĮÚĨÙĪÚº",
        -9.185749743569462
      ],
      [
        "ĠØ¯ÙĪØ³Ø±Ø§",
        -9.186084259768833
      ],
      [
        "Ġ200",
        -9.186316768695816
      ],
      [
        "ĠØŃÙħØ§ÛĮØª",
        -9.187881119158106
      ],
      [
        "ĠÙħØºØ±Ø¨",
        -9.189715940879058
      ],
      [
        "ĠÚ©Ø±Ø¯ÛĮØ§",
        -9.191876404089736
      ],
      [
        "ĠØ¨Ø±Ø³",
        -9.192124472848858
      ],
      [
        "Ġ24",
        -9.192672801598492
      ],
      [
        "ĠÛģÙĪÙĨØ§",
        -9.192798011727822
      ],
      [
        "ĠØ¨ÛĮÙ¹ÛĮ",
        -9.194086717288702
      ],
      [
        "Ø³Ø±",
        -9.194380828116643
      ],
      [
        "Ø¬ÙĨÙĪØ¨ÛĮ",
        -9.194396914655401
      ],
      [
        "ĠÙ¾Ø§Ø¦ÛĮ",
        -9.19572137499697
      ],
      [
        "ĠØ§Ø¨ÛĮ",
        -9.197697976715144
      ],
      [
        "ĠØªØ¨Ø¯ÛĮÙĦ",
        -9.200684192172952
      ],
      [
        "ĠÙĤØµØ¨Ûģ",
        -9.20079820925506
      ],
      [
        "ĠÚĨÚ¾ÙĪÙ¹Ø§",
        -9.201883249350269
      ],
      [
        "Ú¯ÙĪ",
        -9.202331408064602
      ],
      [
        "ĠÙħÙĤØ§Ø¨ÙĦÛĴ",
        -9.203096590763872
      ],
      [
        "18",
        -9.204346296742619
      ],
      [
        "ĠØ³ÙĨÛĮÙħØ§",
        -9.20473888805665
      ],
      [
        "ĠØ±ÙĪ",
        -9.205565288298276
      ],
      [
        "ĠØªØ´Ú©ÛĮÙĦ",
        -9.205910805838144
      ],
      [
        "ĠÙħØ¹Ø±ÙĪÙģ",
        -9.206277435303768
      ],
      [
        "ĠÚ¯ÚĳÚ¾",
        -9.207411943216556
      ],
      [
        "ĠØ¨ØºØ§ÙĪØª",
        -9.207665600459894
      ],
      [
        "ĠØ¨ÛĮÙĨÚ©",
        -9.208526141734904
      ],
      [
        "ĠØ§Ø¬Ø§Ø²Øª",
        -9.209785708156435
      ],
      [
        "ĠØ³Ø§Ø®",
        -9.21086743889707
      ],
      [
        "Ø¤",
        -9.211220240349501
      ],
      [
        "ĠØªØ±Ø¬ÙħÛģ",
        -9.212179760708137
      ],
      [
        "ĠØ¨ÚĳÚ¾",
        -9.213020373926073
      ],
      [
        "ĠÙħØŃÙĦ",
        -9.214945290061037
      ],
      [
        "ĠØµÙĦÛĮ",
        -9.21836160316263
      ],
      [
        "ĠØ¨Ø§",
        -9.21885009180078
      ],
      [
        "ĠÙĨÙħØ§",
        -9.218992477537473
      ],
      [
        "ĠØ´Ø¹Ø±Ø§",
        -9.219463319386001
      ],
      [
        "ĠØ¨ÙĨÛĮ",
        -9.220567327552724
      ],
      [
        "ØªÙĪ",
        -9.22222490703323
      ],
      [
        "ĠÙĨÙħØ§Ø²",
        -9.222405397334592
      ],
      [
        "Ġ2020",
        -9.22300345479798
      ],
      [
        "Ġ22",
        -9.226263103014176
      ],
      [
        "in",
        -9.226724205966477
      ],
      [
        "ĠÙħÙĨØªÙĤÙĦ",
        -9.229857249992785
      ],
      [
        "ĠÛĮÙĪØ±Ù¾",
        -9.233574982100084
      ],
      [
        "ĠÙ¾ÚĳØ§",
        -9.235064130168839
      ],
      [
        "ĠÙħØ±Ø§Ø¯",
        -9.236206398138563
      ],
      [
        "Ø¨ÛĮÙĨ",
        -9.23652810292109
      ],
      [
        "ĠâĢľ",
        -9.236755691998704
      ],
      [
        "ĠB",
        -9.23827498728489
      ],
      [
        "ĠØ¹ÙĪØ§Ùħ",
        -9.239083066222047
      ],
      [
        "ĠÙħÙĦÚ©ÛĮ",
        -9.239166890503316
      ],
      [
        "ĠÙħÙĨØ¸Ø±",
        -9.23973678295402
      ],
      [
        "k",
        -9.241112220927137
      ],
      [
        "ĠØ«Ø§Ø¨Øª",
        -9.24112786940318
      ],
      [
        "197",
        -9.242386344364665
      ],
      [
        "ĠØ¬Ø§ÙħØ¹Ø§Øª",
        -9.243799924518276
      ],
      [
        "ĠÚĨÙĦØ§",
        -9.244089493343145
      ],
      [
        "196",
        -9.245250532041023
      ],
      [
        "ĠØ§Ú¯Ø±ÚĨÛģ",
        -9.246220546889935
      ],
      [
        "ĠÛĮØ§Ø±Ú©",
        -9.246259175127795
      ],
      [
        "align",
        -9.246323685156899
      ],
      [
        "ĠØµÙĪØ¨ÛĴ",
        -9.24716770717689
      ],
      [
        "ĠÚ¯Ø±ÙĪÛģ",
        -9.24852347676011
      ],
      [
        "ĠÙģÙĦÙħÙĪÚº",
        -9.248656061401352
      ],
      [
        "ĠØ«ÙĤØ§ÙģØª",
        -9.248681187660045
      ],
      [
        "ĠÙħØ§Ûģ",
        -9.249010162639639
      ],
      [
        "ĠØ§ÙĦÙģØ§Ø¸",
        -9.250394164882298
      ],
      [
        "er",
        -9.25155713238897
      ],
      [
        "ĠÙħÙĤØ§Ø¨ÙĦÛģ",
        -9.253653184212077
      ],
      [
        "ĠC",
        -9.255063576023646
      ],
      [
        "âĢľ",
        -9.255304644362297
      ],
      [
        "ĠØ¬Ø±ÙħÙĨ",
        -9.257083264751499
      ],
      [
        "Ø¢",
        -9.259350768018397
      ],
      [
        "ĠØ´ÛģØ±ÛĮ",
        -9.260454303815436
      ],
      [
        "ĠØ±Ûģ",
        -9.261999209177432
      ],
      [
        "ĠØ±ÛĮÙĦÙĪÛĮØ²",
        -9.26256064008425
      ],
      [
        "Ø§ÙĨØªÙĤØ§ÙĦ",
        -9.26281282722878
      ],
      [
        "ĠÙĪØ§ØŃØ¯",
        -9.262878679970939
      ],
      [
        "ĠØ§ÙĨÚĪÛĮØ§",
        -9.264794359387968
      ],
      [
        "ĠØ«Ø§ÙĨÛĮ",
        -9.265612877927811
      ],
      [
        "Ø³ÛĮÙĨÙ¹",
        -9.268549265095094
      ],
      [
        "ĠÙĨØ§",
        -9.268963626146181
      ],
      [
        "Ø§Ø±Ø¯ÙĪ",
        -9.269796862989077
      ],
      [
        "Ġ27",
        -9.269887413487332
      ],
      [
        "ĠÙħØ¹Ø§ÛģØ¯ÛĴ",
        -9.27013624652511
      ],
      [
        "16",
        -9.270176499522973
      ],
      [
        "ĠÙħØ§ÛģØ±",
        -9.270499917039285
      ],
      [
        "2005",
        -9.270639340747085
      ],
      [
        "ÙĨÙħØ§Ø¦ÙĨØ¯Ú¯ÛĮ",
        -9.271116631298131
      ],
      [
        "Ø¹ÙĦØ§ÙħÛģ",
        -9.271247254234783
      ],
      [
        "2022",
        -9.273454541126542
      ],
      [
        "o",
        -9.273481840457475
      ],
      [
        "ĠØ²ÙħØ§ÙĨÛĴ",
        -9.274312307533998
      ],
      [
        "ĠØ³Ø§",
        -9.27438607406867
      ],
      [
        "ĠÚĨÛĮÙĨÛĮ",
        -9.27445474456052
      ],
      [
        "Ġ189",
        -9.274632907120402
      ],
      [
        "ĠØ¬ØºØ±Ø§ÙģÛĮ",
        -9.274896419886419
      ],
      [
        "195",
        -9.276058514174043
      ],
      [
        "Ġ2010",
        -9.27639902705635
      ],
      [
        "ĠØ§ÙĨØªØ®Ø§Ø¨",
        -9.278741648827644
      ],
      [
        "ĠÙħØªØ§Ø«Ø±",
        -9.28067257847251
      ],
      [
        "Ġ188",
        -9.280784513326125
      ],
      [
        "ĠØ¯ÛĮÛĴ",
        -9.281064502694969
      ],
      [
        "ĠØ§Ø¯Ø§Ø±Ûģ",
        -9.281187113157863
      ],
      [
        "ĠØŃØ§ÙĦØª",
        -9.282478950016532
      ],
      [
        "ĠÙ¾ÛĮØºØ§Ùħ",
        -9.282848112799835
      ],
      [
        "||",
        -9.282916816361496
      ],
      [
        "ĠÚ©ÙĨØ³",
        -9.282947876334006
      ],
      [
        "ĠÚ©ÛģØ§ÙĨÛĮ",
        -9.283010479446197
      ],
      [
        "ĠÙ¾Ø§Ø±Ú©",
        -9.283650387141611
      ],
      [
        "ĠØ±Ø§Ø¬",
        -9.286971209777613
      ],
      [
        "ÛĮØ§ÙģØªÛģ",
        -9.290241311431974
      ],
      [
        "ĠØ¹ÙĦØ§ÙħØª",
        -9.29108622960715
      ],
      [
        "ĠØ§ÛĮØ±Ø§ÙĨÛĮ",
        -9.291477709024969
      ],
      [
        "ĠÙĦØ§Ú©Ú¾",
        -9.291948680038093
      ],
      [
        "Ġ23",
        -9.29492148382356
      ],
      [
        "Ù¾Ø±",
        -9.295045272190148
      ],
      [
        "Ġ28",
        -9.295175868122463
      ],
      [
        "Ġ26",
        -9.297430638732195
      ],
      [
        "ĠÚ©Ù¾ØªØ§ÙĨ",
        -9.29756894046923
      ],
      [
        "ĠØ¢Ú¯ÛĴ",
        -9.298672991067013
      ],
      [
        "ĠÙ¾Ø§",
        -9.301031434927822
      ],
      [
        "ĠØ§ÙģÙĪØ§Ø¬",
        -9.301435489950839
      ],
      [
        "ĠØ±ÙĪÚĪ",
        -9.3017112707467
      ],
      [
        "Ú©Ø³",
        -9.302310154209838
      ],
      [
        "Ø³ÛĴ",
        -9.303016539663634
      ],
      [
        "2002",
        -9.30506360022972
      ],
      [
        "ĠÚ¯ÙĪØ±ÙĨØ±",
        -9.305266677700699
      ],
      [
        "ĠÙħØ±ØªØ¨Ûģ",
        -9.305925765609798
      ],
      [
        "ĠÙħÛģÙħ",
        -9.305980609523692
      ],
      [
        "ĠÙħØ³ÛĮØŃ",
        -9.306045181333223
      ],
      [
        "ĠÙĤØ¯Ø±",
        -9.307815150321511
      ],
      [
        "ĠØ±ÛģÙĨÛĴ",
        -9.308396061102233
      ],
      [
        "ĠÙĤÛĮØ§Ø¯Øª",
        -9.31003231358815
      ],
      [
        "an",
        -9.310185345049064
      ],
      [
        "Ø°",
        -9.311684346159817
      ],
      [
        "ĠØ¯ÛĮØªØ§",
        -9.312011656526526
      ],
      [
        "ĠâĢĺ",
        -9.313481584728498
      ],
      [
        "ĠØ³Ø¹ÙĪØ¯ÛĮ",
        -9.313510775059447
      ],
      [
        "ĠÚĨÛĮØ²",
        -9.31417523546873
      ],
      [
        "ĠØ±ÙĪØ²",
        -9.317046218234237
      ],
      [
        "ĠÛĮØ§Ø¯",
        -9.317096562925634
      ],
      [
        "ÙħÛĮ",
        -9.31999609691634
      ],
      [
        "ĠØŃØ³Ø§Ø¨",
        -9.320294674317369
      ],
      [
        "14",
        -9.320349477512021
      ],
      [
        "ĠØ¨ÙĨØ§Ø¦ÛĮ",
        -9.320506804431695
      ],
      [
        "Ø¶",
        -9.321195332541578
      ],
      [
        "ĠØ§ÙĦÙħ",
        -9.321454745193185
      ],
      [
        "Ø§ÛģÙħÛĮØª",
        -9.322493636920713
      ],
      [
        "ĠÙ¾ÛĮØ±",
        -9.322579458528352
      ],
      [
        "ĠØ³ÙħØ§Ø¬ÛĮ",
        -9.322836317572726
      ],
      [
        "ĠÚ©ØªØ§Ø¨ÛĮÚº",
        -9.325835852632741
      ],
      [
        "ĠØ®Ø¯ÙħØª",
        -9.325889439249051
      ],
      [
        "Ø³Ú©ØªÛĮ",
        -9.326641332622408
      ],
      [
        "Ø§Ø¦ÛĴ",
        -9.329020848905476
      ],
      [
        "ĠØ´ÛģØ±Ø³ØªØ§ÙĨ",
        -9.329270235696114
      ],
      [
        "ĠØ¬ÛģØ§Ø²",
        -9.33121772721401
      ],
      [
        "ØŃÙĪØ§ÙĦÛĴ",
        -9.331611461335596
      ],
      [
        "10",
        -9.331820760456571
      ],
      [
        "Ø´ÛģØ±",
        -9.331974779177107
      ],
      [
        "!",
        -9.332535433069273
      ],
      [
        "ĠÙħØŃÙħÙĪØ¯",
        -9.332748655916093
      ],
      [
        "2003",
        -9.332832139616588
      ],
      [
        "Ø°ÛĮÙĦÛĮ",
        -9.333214685010754
      ],
      [
        "ĠÙħÙĪØ³ÛĮÙĤÛĮ",
        -9.33408964119801
      ],
      [
        "ĠÙĤÙĦØ¹Ûģ",
        -9.335229512523162
      ],
      [
        "ĠØŃØ§ÙĦØ§Øª",
        -9.335979668055526
      ],
      [
        "ĠØ´Ø±ÛĮÚ©",
        -9.33664517282663
      ],
      [
        "ĠÙĪÛĮÚº",
        -9.336680787667559
      ],
      [
        "ĠØ¬Ø§Ù¾Ø§ÙĨ",
        -9.337466177449011
      ],
      [
        "ĠØ¯ÙĪØ³Øª",
        -9.337868025131288
      ],
      [
        "ĠÙħØ§ÙĦÚ©",
        -9.33974563825398
      ],
      [
        "ĠÚĪØ±Ø§ÙħØ§",
        -9.339749076223645
      ],
      [
        "ĠÛģÙĪÚ¯Ø§",
        -9.339933699540316
      ],
      [
        "ĠÙĪØ§ÙĤØ¹Ø§Øª",
        -9.34042953501154
      ],
      [
        "ĠØ±ÛģØªÛĴ",
        -9.340989659934978
      ],
      [
        "ĠØŃÙĦÙĤÛģ",
        -9.341009206333457
      ],
      [
        "ĠÚĨÚ¾ÙĪÙ¹ÛĴ",
        -9.341497011059724
      ],
      [
        "Ù¹Ø±",
        -9.342425752917912
      ],
      [
        "ĠÚ¯Ø±Ø¯",
        -9.343244579614751
      ],
      [
        "ĠThe",
        -9.346041055730721
      ],
      [
        "12",
        -9.346524197061026
      ],
      [
        "Ø§Ø¤",
        -9.347635839748344
      ],
      [
        "ĠÚĪÚ¯Ø±ÛĮ",
        -9.349386962470648
      ],
      [
        "Ù¾ÙĨØ³ÙĦÙĪØ§ÙĨÛĮ",
        -9.349726752290874
      ],
      [
        "=\"",
        -9.350190360594379
      ],
      [
        "Ø³Ø§ÙĦ",
        -9.350783105022748
      ],
      [
        "ĠØ¨ÛĮÙĪÛĮ",
        -9.35094912929775
      ],
      [
        "ĠÚ©ÙħÛĮÙĪÙĨ",
        -9.35235193663741
      ],
      [
        "ÙĨØ§Ùħ",
        -9.352748953272346
      ],
      [
        "ĠØ®ÙĪØ§Ø¬Ûģ",
        -9.352813783195163
      ],
      [
        "ĠØ³Ø§Ø¤ØªÚ¾",
        -9.354969565728569
      ],
      [
        "ĠØ´ÛĮØ±",
        -9.356401930885115
      ],
      [
        "ÙĦØ§Ø·ÛĮÙĨÛĮ",
        -9.3572482106376
      ],
      [
        "ÙħÙĨ",
        -9.360827891872404
      ],
      [
        "ĠØ´",
        -9.361970267618856
      ],
      [
        "ĠØ±Ø§Øª",
        -9.362258747356803
      ],
      [
        "ĠÙħØ¯ÛĮÙĨÛģ",
        -9.363393432639036
      ],
      [
        "Ø±Ø²",
        -9.364338572817392
      ],
      [
        "ĠØ§ÙĪÙĦØ§Ø¯",
        -9.36459700908076
      ],
      [
        "ÚĨÛĮ",
        -9.365419883609237
      ],
      [
        "Ġ192",
        -9.366875173724866
      ],
      [
        "Ø¨Ø§",
        -9.368134808521898
      ],
      [
        "Ø³ÙĪ",
        -9.368596312425604
      ],
      [
        "Ø§Ùħ",
        -9.37047430195891
      ],
      [
        "ĠØ¢Ù¹Ú¾",
        -9.37133237457104
      ],
      [
        "Ø±ÙĪ",
        -9.3726194857238
      ],
      [
        "ĠØ§ÙĨØªÛģØ§Ø¦ÛĮ",
        -9.373444123776592
      ],
      [
        "Ø¨Ø§Ø¹Ø«",
        -9.375479288256388
      ],
      [
        "ĠØ¨ÙĦ",
        -9.37555697435219
      ],
      [
        "ĠÙĨØ¸Ùħ",
        -9.376151998639196
      ],
      [
        "Ú©ÛĮØ±ÙĪÙĦØ§Ø¦ÙĨ",
        -9.376527818679506
      ],
      [
        "ĠØªØ¹Ø§ÙĦÛĮ",
        -9.376937867721873
      ],
      [
        "ĠÙħØŃØ¨Øª",
        -9.377245839179956
      ],
      [
        "ĠØ§Ø¶Ø§ÙģÛģ",
        -9.377330793965445
      ],
      [
        "B",
        -9.377345866334025
      ],
      [
        "ĠØ³Ø§ØŃÙĦ",
        -9.377853672649355
      ],
      [
        "ĠÙĦÚ¯",
        -9.37825608309318
      ],
      [
        "ĠØ¨Ûģ",
        -9.378784375327651
      ],
      [
        "ĠÙħÛĮØ±ÛĴ",
        -9.380963816841794
      ],
      [
        "ĠÙĪØ§Ø´ÙĨÚ¯Ù¹ÙĨ",
        -9.383677547826082
      ],
      [
        "ĠØ³Ø®Øª",
        -9.38434869891059
      ],
      [
        "ĠÙĨØ´Ø³Øª",
        -9.385157886407915
      ],
      [
        "ØŃÛĮØ¯Ø±Ø¢Ø¨Ø§Ø¯",
        -9.390284237962202
      ],
      [
        "ĠØ¬",
        -9.390935557104003
      ],
      [
        "ĠÙ¾ÙĪÙĦÛĮØ³",
        -9.391345070506384
      ],
      [
        "ĠØ²ÙħØ§ÙĨÛģ",
        -9.392484910135934
      ],
      [
        "S",
        -9.393844089660215
      ],
      [
        "ĠÙħØ³Ø§Ø¦ÙĦ",
        -9.394796519131958
      ],
      [
        "ĠÚ©Ø§Ø±ÛĮ",
        -9.394977919886534
      ],
      [
        "ĠØ¨ÛĮÙ¹Ø§",
        -9.397699641547312
      ],
      [
        "ÙħØ§Úº",
        -9.398789683072023
      ],
      [
        "ĠØ³Ø±ØŃØ¯",
        -9.40066503538659
      ],
      [
        "ÛģÙħ",
        -9.40084634654513
      ],
      [
        "ĠÙĦÚĳØ§Ø¦ÛĮ",
        -9.402208486535786
      ],
      [
        "ĠØªØ±Ø¨ÛĮØª",
        -9.402646484100549
      ],
      [
        "ĠØ§ÙĤØ¨Ø§ÙĦ",
        -9.402946539085383
      ],
      [
        "ĠØ·ÙĪÛĮÙĦ",
        -9.403956809847964
      ],
      [
        "ĠØ·Ø§ÙĦØ¨",
        -9.404584899427006
      ],
      [
        "Ġ29",
        -9.404838834506432
      ],
      [
        "ĠØªØ³ÙĦÛĮÙħ",
        -9.404866735778027
      ],
      [
        "Ġ190",
        -9.405118374611993
      ],
      [
        "ĠØ¬ÛĮØ³Ø§",
        -9.405584147966767
      ],
      [
        "ĠØ±Ø§Ùħ",
        -9.405689391029544
      ],
      [
        "ĠØ³Ø±Ø¯Ø§Ø±",
        -9.406455258812295
      ],
      [
        "ĠØ¹Ø¨Ø§Ø³",
        -9.407016526540813
      ],
      [
        "ĠÛģÙĨØ¯ÛĮ",
        -9.408277113835856
      ],
      [
        "Ú©ÙĦ",
        -9.40914036097826
      ],
      [
        "ĠØ¹Ø±Ø§ÙĤ",
        -9.409257688900183
      ],
      [
        "ĠÚĨÙĨØ§ÙĨÚĨÛģ",
        -9.40952038348726
      ],
      [
        "Ø§Ú¯ÙĦÛĴ",
        -9.409778927597268
      ],
      [
        "ĠÚ©ÙĨÙ¹Ø±ÙĪÙĦ",
        -9.412041513702356
      ],
      [
        "ĠÙħØ¬ÙħÙĪØ¹Ûģ",
        -9.412776972277223
      ],
      [
        "Ùĥ",
        -9.41384078515118
      ],
      [
        "ĠØ¹ÙĦÙĪÙħ",
        -9.413884808759672
      ],
      [
        "ĠØ®Ø¨Ø±",
        -9.413905697435684
      ],
      [
        "ĠÙģØ¶ÙĦØ§",
        -9.41427517380748
      ],
      [
        "Ú©Ø§Ø±Ú©Ø±Ø¯Ú¯ÛĮ",
        -9.415310287299148
      ],
      [
        "ÙĦÙī",
        -9.417273766552565
      ],
      [
        "ĠØ¨Ø§ÙĨÛĮ",
        -9.4173489307144
      ],
      [
        "ĠÚĪÙĪÛĮÚĺÙĨ",
        -9.417955483219625
      ],
      [
        "ĠÚĨÙĦÛĴ",
        -9.418609761715043
      ],
      [
        "A",
        -9.419229465955707
      ],
      [
        "ĠÛĮÛģÛĮ",
        -9.41999389368235
      ],
      [
        "es",
        -9.42093984058461
      ],
      [
        "ĠØ¨ØªØ§ÛĮØ§",
        -9.420989924663631
      ],
      [
        "ĠÙĤØµØ¨ÛĴ",
        -9.421302512404065
      ],
      [
        "ĠÙħØ§ÙĦ",
        -9.421496293143912
      ],
      [
        "Ú©Ø§Ø±",
        -9.42178449190257
      ],
      [
        "ĠÙħØ¹ÙĨÛĮ",
        -9.421792053744948
      ],
      [
        "ĠØ§ÙħÛĮØ¯ÙĪØ§Ø±",
        -9.42306974071844
      ],
      [
        "Ø§ÙĨÚ¯Ø±ÛĮØ²ÛĮ",
        -9.42316420456756
      ],
      [
        "ĠØ§Ø¨Ø±Ø§ÛģÛĮÙħ",
        -9.42536417859174
      ],
      [
        "ĠÙħÙĪØ³Ùħ",
        -9.425727137185863
      ],
      [
        "ĠÙ¾ÛĮÙħØ§ÙĨÛĴ",
        -9.425950636866776
      ],
      [
        "ĠØ§ÛĮÚĨ",
        -9.426193725545714
      ],
      [
        "ĠØ§ÙħÙĨ",
        -9.42768975578799
      ],
      [
        "ĠØ§Ùħ",
        -9.427830242876421
      ],
      [
        "ĠØ·Ø±Ø²",
        -9.427927039437309
      ],
      [
        "ĠØªÛĮØ²",
        -9.429644821549113
      ],
      [
        "ĠØ¨ÛģÙĨ",
        -9.429776681305869
      ],
      [
        "ĠÚ¯ÙĦ",
        -9.430166546481384
      ],
      [
        "ĠÚĨØ§ÛģÛĮÛĴ",
        -9.432340872839154
      ],
      [
        "ÙĨÙĪ",
        -9.43251296312118
      ],
      [
        "11",
        -9.43251598704197
      ],
      [
        "Ġ50",
        -9.433242160185339
      ],
      [
        "ĠØ®ÙĦØ§ÙģØª",
        -9.433297859733978
      ],
      [
        ">",
        -9.433508124013683
      ],
      [
        "ĠØ¯Ø§Ø¦",
        -9.434929197599999
      ],
      [
        "ĠØªØŃÙĤÛĮÙĤ",
        -9.435489465883402
      ],
      [
        "ĠÙĪØ³ÛĮØ¹",
        -9.435697909284695
      ],
      [
        "Ø¨ÙĦÙĪÚĨØ³ØªØ§ÙĨ",
        -9.438257171517547
      ],
      [
        "ĠØ³ÙħÛĮØª",
        -9.439013336650055
      ],
      [
        "r",
        -9.439205492705769
      ],
      [
        "ĠØ´Ø±ØŃ",
        -9.44047824518825
      ],
      [
        "ĠÛĮÙĪØ±Ù¾ÛĮ",
        -9.44186154229778
      ],
      [
        "ĠØ¹Ø¯Ø¯",
        -9.4420577581611
      ],
      [
        "ĠÙĨÚĺØ§Ø¯",
        -9.442642145954899
      ],
      [
        "ĠØ§Ø¯Ø¨ÛĮ",
        -9.443034441058636
      ],
      [
        "ĠØ¨ÙĪØ±ÚĪ",
        -9.443087706273129
      ],
      [
        "ĠØ±Ø¶ÛĮ",
        -9.443739686992927
      ],
      [
        "g",
        -9.444972569278285
      ],
      [
        "Ø«",
        -9.44674544397245
      ],
      [
        "ĠâĢĻ",
        -9.447089730138895
      ],
      [
        "D",
        -9.447121326251205
      ],
      [
        "ĠØ«ÙĤØ§ÙģØªÛĮ",
        -9.447948366074229
      ],
      [
        "ĠÚĨÚ©ÛĮ",
        -9.448523377017175
      ],
      [
        "ĠÙħØ¨ÙĨÛĮ",
        -9.449299190447297
      ],
      [
        "Ø§Ø³ÙĦØ§Ùħ",
        -9.450605846055726
      ],
      [
        "ĠØ¨ÙĦÙĨØ¯",
        -9.452574852584963
      ],
      [
        "ĠÙħØ·ÙĦØ¨",
        -9.453034487806535
      ],
      [
        "ĠÙ¹ÛĮÚ©Ø³Ø§Ø³",
        -9.454571251753288
      ],
      [
        "Ø¬Ø¨",
        -9.455601998345593
      ],
      [
        "13",
        -9.458616919055006
      ],
      [
        "ĠØ´Ø®ØµÛĮØª",
        -9.459914709062222
      ],
      [
        "ĠÙ¾ÙĪØ±ÛĴ",
        -9.459943068806883
      ],
      [
        "ĠØ°ÙħÛģ",
        -9.460661723996438
      ],
      [
        "ĠÙĨØµÙģ",
        -9.461533497417191
      ],
      [
        "ĠØ¨Ø¬Ø§Ø¦ÛĴ",
        -9.462145850109858
      ],
      [
        "ĠÙĨÙĤØµØ§ÙĨ",
        -9.462649868105071
      ],
      [
        "ĠÙĨØ¨ÛĮ",
        -9.464715603205141
      ],
      [
        "ĠÙħØ´ØªØ±Ú©Ûģ",
        -9.467126127222883
      ],
      [
        "ĠØ¹ÙĦÙħØ§",
        -9.467892698730584
      ],
      [
        "ĠØµØŃØª",
        -9.468328401426222
      ],
      [
        "ĠÛĮÙĪÙĨØ§ÙĨÛĮ",
        -9.469956919501412
      ],
      [
        "ĠØ§ÙĨÚ¾ÛĮÚº",
        -9.469959150644387
      ],
      [
        "Ø¬ÙĨ",
        -9.47072079139692
      ],
      [
        "Ù¾Ø§",
        -9.47163895410586
      ],
      [
        "ĠØ¢Ø¦Ø±ÙĦÛĮÙĨÚĪ",
        -9.473363153037344
      ],
      [
        "ĠØ¬ÛĴ",
        -9.473525380014816
      ],
      [
        "ĠÚ¯Ø§Ûģ",
        -9.473606634656925
      ],
      [
        "ĠÛģØ§Ø±",
        -9.474031272911391
      ],
      [
        "ĠØ´Ú©Ø§Ø±",
        -9.474434639356327
      ],
      [
        "ĠCount",
        -9.4746188761355
      ],
      [
        "h",
        -9.475544726479816
      ],
      [
        "ĠÙħØŃÙģÙĪØ¸",
        -9.475621558051184
      ],
      [
        "ĠØªØ¨Ø¯ÛĮÙĦÛĮ",
        -9.476069605605664
      ],
      [
        "ĠP",
        -9.476446756813552
      ],
      [
        "ĠÚ©",
        -9.47703648771507
      ],
      [
        "ĠÙħØªÙĨ",
        -9.477748778307726
      ],
      [
        "ĠØ³Ù¹ÛĮ",
        -9.478465234675017
      ],
      [
        "ĠØ¨ÛģØªØ±",
        -9.478500723790319
      ],
      [
        "ĠÚ©ÙĪÚĨ",
        -9.478781781988037
      ],
      [
        "ĠÙĦÚ¯ÛĴ",
        -9.478832101158869
      ],
      [
        "ÚĨÙĪÙĨÚ©Ûģ",
        -9.479918731625315
      ],
      [
        "ĠØ²Ø¨Ø§ÙĨÛĮÚº",
        -9.480142842001065
      ],
      [
        "ĠØŃ",
        -9.480396454579939
      ],
      [
        "ĠÙħØ±",
        -9.480992383739938
      ],
      [
        "Ø§ÙĦØŃÚ©ÙĪÙħØª",
        -9.482516919956836
      ],
      [
        "ĠØ§ÛĮØ¦Ø±",
        -9.482867401656613
      ],
      [
        "ĠØŃÙĤÛĮÙĤØª",
        -9.483111846256321
      ],
      [
        "ĠØ¨ÚĨÛĴ",
        -9.483553083634892
      ],
      [
        "ĠÚ©Ø³",
        -9.485009328314735
      ],
      [
        "ĠØ³Ø§Ø²",
        -9.486554952632083
      ],
      [
        "ĠÙĪØ§Ø¶ØŃ",
        -9.487653690933271
      ],
      [
        "ĠØ³ÙĨÛĮ",
        -9.488050487562809
      ],
      [
        "ĠØªÙĪØ¬Ûģ",
        -9.488586438016256
      ],
      [
        "ĠR",
        -9.489142974419993
      ],
      [
        "ĠØ§ÙĤÙĪØ§Ùħ",
        -9.48974090792885
      ],
      [
        "ĠØ§Ø³Ú©ÙĪØ±",
        -9.489743143508116
      ],
      [
        "ĠÙ¹Ø±Ø§ÙģÛĮ",
        -9.489864362202276
      ],
      [
        "ĠØ¢ÙĪØ§Ø²",
        -9.490136228134636
      ],
      [
        "ÙĪÙģ",
        -9.490889264836653
      ],
      [
        "ĠÙ¾ÛĮÚĨÚ¾",
        -9.491436024804996
      ],
      [
        "ĠÚ©ÙĪÙĨØ³ÙĦÛĮÚº",
        -9.491457946866591
      ],
      [
        "ĠÙĪØµÙĪÙĦ",
        -9.493937158275935
      ],
      [
        "ĠØ¬Ø§Ø±Ø¬ÛĮØ§",
        -9.496507309469335
      ],
      [
        "Ø¯Ø§",
        -9.496629128773412
      ],
      [
        "ĠÙħÙĦÛĮÙĨ",
        -9.497017553717361
      ],
      [
        "ĠØ¢Ø¨Ø´Ø§Ø±",
        -9.49715524418239
      ],
      [
        "ĠÙĪÛĮÙĦØ²",
        -9.497295720168824
      ],
      [
        "Ø¢Ø³Ù¹Ø±ÛĮÙĦÙĪÛĮ",
        -9.498398760418285
      ],
      [
        "ĠØªØŃØ±ÛĮØ±",
        -9.498505975764802
      ],
      [
        "ĠÙĦÚ©Ú¾ÛĮ",
        -9.499051260774204
      ],
      [
        "ĠT",
        -9.499261744684349
      ],
      [
        "2001",
        -9.499819731118542
      ],
      [
        "ÙĪÙĦØ§Ø¯Øª",
        -9.500387747614342
      ],
      [
        "Ġ100",
        -9.50067271983732
      ],
      [
        "ĠÙĦÙĪ",
        -9.504199115135046
      ],
      [
        "ĠÚ©ÙĦØ§Ùħ",
        -9.504416128900989
      ],
      [
        "ĠØ§ÙĨÙĤÙĦØ§Ø¨",
        -9.505327605802009
      ],
      [
        "ĠØ±Ø§Ø³Øª",
        -9.505329483521939
      ],
      [
        "ĠÚ©Ú¾ÛĮÙĦÛĮ",
        -9.506514800204839
      ],
      [
        "ĠÙĨØ§ÙħÛĮ",
        -9.506566163484168
      ],
      [
        "Ġ187",
        -9.506920811798777
      ],
      [
        "ĠØªØ®Øª",
        -9.507508259261224
      ],
      [
        "ØŃØ¶Ø±Øª",
        -9.507863834421611
      ],
      [
        "ĠØ¢Ø¯ÙħÛĮ",
        -9.50827761750738
      ],
      [
        "ĠÙħØ¬Ú¾ÛĴ",
        -9.508421173521485
      ],
      [
        "ĠÙĪØ§ÙĦØ¯Ûģ",
        -9.509079399262767
      ],
      [
        "ÙĪØ§ÙĦ",
        -9.509462632664128
      ],
      [
        "ĠØ¨ÙĨÛĴ",
        -9.509530300918017
      ],
      [
        "ĠÙħØ´Ú©ÙĦ",
        -9.510521829973541
      ],
      [
        "ÙĪØ³",
        -9.511522786987198
      ],
      [
        "ĠØ´ÛģÙĨØ´Ø§Ûģ",
        -9.511936146609672
      ],
      [
        "ĠØ¹ÙĦÙħÛĮ",
        -9.512425596577389
      ],
      [
        "ĠØ¯ÙĪÙĦØª",
        -9.51259246753181
      ],
      [
        "ĠÙħÙĤØ¨ÙĪÙĦ",
        -9.51294024553425
      ],
      [
        "ĠÚĪØ§ÙĦ",
        -9.513775445528678
      ],
      [
        "Ø³ØªØ§ÙĨ",
        -9.516179708925742
      ],
      [
        "ĠØ§Ø¸ÛģØ§Ø±",
        -9.516346949110435
      ],
      [
        "ĠÚ©ÙħÛĮÙ¹ÛĮ",
        -9.517457181212196
      ],
      [
        "Ø§Ø¯",
        -9.518626258844112
      ],
      [
        "ĠØ®ÙĦÛĮÙģÛģ",
        -9.51965906462738
      ],
      [
        "Ù¾ÙĪØ±",
        -9.51991571326188
      ],
      [
        "ĠØ¯Ø§Ø±ÛĮ",
        -9.521154051231457
      ],
      [
        "ĠØ´ÙĪ",
        -9.521645675159753
      ],
      [
        "ĠÙħØ«Ø§ÙĦ",
        -9.524100985354213
      ],
      [
        "ĠÙģÛĮØµÙĦ",
        -9.524132156184429
      ],
      [
        "ĠØ±Ú©Ú¾ØªØ§",
        -9.524474318659752
      ],
      [
        "ĠÙĦÙĪÚ©",
        -9.524699276017296
      ],
      [
        "ĠÙħØ¶Ø¨ÙĪØ·",
        -9.525399243319393
      ],
      [
        "Ú¯Ø±",
        -9.525924097484712
      ],
      [
        "âĢĿ",
        -9.526551522362498
      ],
      [
        "ĠÙĨØ´Ø§ÙĨ",
        -9.528932750961697
      ],
      [
        "Ø¯ÛĴ",
        -9.529026601839242
      ],
      [
        "ĠÙ¾Ø§ÛĮØ§",
        -9.529745690875913
      ],
      [
        "ĠØ¹ÛģØ¯ÛĴ",
        -9.529789187733115
      ],
      [
        "ĠÙĨØ§ÙħØ²Ø¯",
        -9.530099883199968
      ],
      [
        "Úĳ",
        -9.53037091914714
      ],
      [
        "Ø§Ø·Ø§ÙĦÛĮÛģ",
        -9.530613940398428
      ],
      [
        "l",
        -9.532241016569735
      ],
      [
        "ØªÚ¾",
        -9.533611246910471
      ],
      [
        "ĠØ§Ø¨Ú¾ÛĮ",
        -9.535347162238716
      ],
      [
        "ĠØ§ÙĨÚ©Ø§Ø±",
        -9.535597210035668
      ],
      [
        "P",
        -9.535971670636876
      ],
      [
        "ĠØ¨ÙĨÚ¯Ø§ÙĦ",
        -9.538532689329887
      ],
      [
        "ĠÙĪØ±Ø¬ÛĮÙĨÛĮØ§",
        -9.541550619161962
      ],
      [
        "Ġ31",
        -9.542197924867738
      ],
      [
        "ĠØ´Ø±Ú©Øª",
        -9.542355073293393
      ],
      [
        "p",
        -9.542761405695034
      ],
      [
        "de",
        -9.545000918190874
      ],
      [
        "âĢĮ",
        -9.54614522486137
      ],
      [
        "ĠÙĨÙĪØ¨ÙĦ",
        -9.546335064394702
      ],
      [
        "ĠØ´ÙħØ³ÛĮ",
        -9.54677288028865
      ],
      [
        "ÙģÛĮ",
        -9.547353752732771
      ],
      [
        "ĠÙĦØŃØ§Ø¸",
        -9.547413347114603
      ],
      [
        "ĠÙĨØ§Ú©Ø§Ùħ",
        -9.548621814307035
      ],
      [
        "ĠÙħØ®ØµÙĪØµ",
        -9.549343126562658
      ],
      [
        "on",
        -9.549502444099579
      ],
      [
        "ĠØ¬ÙĨÚ¯ÛĮ",
        -9.549672381557958
      ],
      [
        "ĠÛģÙħÛĮØ´",
        -9.54978684835967
      ],
      [
        "ĠÚ©Ø±Ø¯ÛĮ",
        -9.54990976127337
      ],
      [
        "ĠØ§Ø®ØªØªØ§Ùħ",
        -9.550256762193563
      ],
      [
        "ĠÙĤØ¨Ø§Ø¦ÙĦ",
        -9.550564946731457
      ],
      [
        "ĠØ±Ú©Ú¾",
        -9.55123818834936
      ],
      [
        "ĠÙĪØ§Ø¯ÛĮ",
        -9.553441507456782
      ],
      [
        "ÙĦÛĮÙĨÚĪ",
        -9.55352606238006
      ],
      [
        "ĠÙħÚ©Ûģ",
        -9.553745657958443
      ],
      [
        "Ú©Ø±Ú©Ù¹",
        -9.554090473344253
      ],
      [
        "ĠØ´ÛĮØ¹Ûģ",
        -9.554579106639459
      ],
      [
        "ĠØªØ¨Ø§Ûģ",
        -9.554589296018998
      ],
      [
        "ĠÙħØ¹Ø§ÛģØ¯Ûģ",
        -9.555571079894467
      ],
      [
        "ĠÙĤØ¨ÛĮÙĦÛģ",
        -9.556665920876238
      ],
      [
        "ĠM",
        -9.558475409399708
      ],
      [
        "Ø´ÙĨ",
        -9.558486408604114
      ],
      [
        "ĠØ¨ÛĮØ³",
        -9.559023574329114
      ],
      [
        "ĠÙĨÛģØ§ÛĮØª",
        -9.559120686109612
      ],
      [
        "ĠÙģØ±ÙĤ",
        -9.559312893883963
      ],
      [
        "ĠÛĮÙĪØ³Ùģ",
        -9.559801648690142
      ],
      [
        "ÛĮÙĪ",
        -9.56110712657691
      ],
      [
        "ĠÙħØ§Ø¨ÛĮÙĨ",
        -9.561111784064769
      ],
      [
        "ĠØ¨ØŃØ±ÛĮ",
        -9.561319736753754
      ],
      [
        "ĠÙħÙĪØ³ÛĮ",
        -9.561326952525818
      ],
      [
        "ĠÚĨÚ¾ÙĪÙ¹ÛĮ",
        -9.562650528388057
      ],
      [
        "ĠØ´ÛģÛĮØ¯",
        -9.562729656324578
      ],
      [
        "right",
        -9.563129728923286
      ],
      [
        "ĠÙģØ§Ø¦ÙĨÙĦ",
        -9.563218792605692
      ],
      [
        "ĠØ¯ÙĪÙħ",
        -9.563272421098329
      ],
      [
        "ĠØ¯ÙĪØ±ÛĴ",
        -9.56432710713166
      ],
      [
        "Ù¹Ø§",
        -9.564731997539674
      ],
      [
        "Ø³Ø§",
        -9.565827580999763
      ],
      [
        "ĠSaint",
        -9.566523299863999
      ],
      [
        "Ø¨ÙĦ",
        -9.567509571394943
      ],
      [
        "ĠÙħØ·Ø§ÙĦØ¹Ûģ",
        -9.568172348312627
      ],
      [
        "ĠÙĨÙĪØ¬ÙĪØ§ÙĨ",
        -9.568586616544545
      ],
      [
        "ĠØ³Ø¹ÛĮØ¯",
        -9.568984846542522
      ],
      [
        "ĠØ¹ÛĮØ³ÙĪÛĮ",
        -9.56902494140649
      ],
      [
        "Ù¾Ø®ØªÙĪÙĨØ®ÙĪØ§",
        -9.56914996298664
      ],
      [
        "ĠÛģØ³Ù¾Ø§ÙĨÙĪÛĮ",
        -9.5711766065369
      ],
      [
        "ĠØ¶Ø±ÙĪØ±ÛĮ",
        -9.571751577330131
      ],
      [
        "ÙĪØ±ÛĮ",
        -9.571866770839497
      ],
      [
        "ĠÙĨÙĪØ§Ø¨",
        -9.573754541822137
      ],
      [
        "G",
        -9.574571379224357
      ],
      [
        "ĠØŃÙĦ",
        -9.574787060179986
      ],
      [
        "ĠÙ¾ÛģÙĨÚĨØ§",
        -9.57485234944481
      ],
      [
        "ĠÚ©ÙħÛĮ",
        -9.575314888760586
      ],
      [
        "ĠØ¬Ø³Ùħ",
        -9.575477824502174
      ],
      [
        "ĠØ§ÙĨØªØ¸Ø§Ùħ",
        -9.57660142729076
      ],
      [
        "ĠE",
        -9.576781876249273
      ],
      [
        "Ø±Ø§ÙĪÙĦÙ¾ÙĨÚĪÛĮ",
        -9.576951415731482
      ],
      [
        "ĠÙĨØªÛĮØ¬",
        -9.577193623301165
      ],
      [
        "ĠØ±Ø¶Ø§",
        -9.577857721617962
      ],
      [
        "ĠØ¨Ø±ÙĤØ±Ø§Ø±",
        -9.577864650558762
      ],
      [
        "Ø§Ø³ÛĮ",
        -9.57796986749786
      ],
      [
        "ĠO",
        -9.578754246792796
      ],
      [
        "25",
        -9.580236566065903
      ],
      [
        "ĠØ³ÙĨÛģ",
        -9.580662002457942
      ],
      [
        "ĠÛģÙģØª",
        -9.581179623928492
      ],
      [
        "ĠØ²Ø®ÙħÛĮ",
        -9.58149649710891
      ],
      [
        "Ø²ÙĨØ¯Ûģ",
        -9.583328350566038
      ],
      [
        "ĠØ±ÙĪÙħ",
        -9.583967917779445
      ],
      [
        "ĠØ±ÛĮÙĦ",
        -9.585683518960268
      ],
      [
        "ĠK",
        -9.585806467442131
      ],
      [
        "Ġto",
        -9.586123227620355
      ],
      [
        "ĠØ³Ø§ÙħÙĨØ§",
        -9.588234984030773
      ],
      [
        "©",
        -9.588295428492886
      ],
      [
        "ÙĨØ³",
        -9.588612065040502
      ],
      [
        "ĠØ§ÙģØ±ÛĮÙĤÛĮ",
        -9.589648322688635
      ],
      [
        "Ø§ÙĪ",
        -9.589925737694635
      ],
      [
        "ĠØ¢ÙĨ",
        -9.591014497395156
      ],
      [
        "ĠØµØŃÛĮØŃ",
        -9.592646193267402
      ],
      [
        "ĠÙ¾Ø³",
        -9.592853062345284
      ],
      [
        "ĠLa",
        -9.592884738071865
      ],
      [
        "ØªØ±",
        -9.593503216814835
      ],
      [
        "ĠØ¢ØªØ§",
        -9.593943172798138
      ],
      [
        "ĠÙħÙħØªØ§Ø²",
        -9.594503664442318
      ],
      [
        "ĠØ³Ú©Ú¾",
        -9.59499010662369
      ],
      [
        "ĠØ¹Ø±ØµÛĴ",
        -9.595228073113363
      ],
      [
        "ÚĨÚ¾ÙĪÙ¹ÛĴ",
        -9.595822801203417
      ],
      [
        "ĠÙħÙĨØµÙĪØ¨Ûģ",
        -9.596295701677938
      ],
      [
        "Ġ185",
        -9.596719637126364
      ],
      [
        "ĠØ§Ú©ÛĮÚĪÙħÛĮ",
        -9.597025460239808
      ],
      [
        "ĠÛģØ§Ø¦ÛĴ",
        -9.597784732024422
      ],
      [
        "ĠØ¨Ø³",
        -9.59829850162964
      ],
      [
        "ĠÙ¾Ø§ÙĦ",
        -9.598496262128865
      ],
      [
        "ĠÙĤØ§ÙĨÙĪÙĨÛĮ",
        -9.60040173641845
      ],
      [
        "1947",
        -9.600556638513615
      ],
      [
        "ĠØµÙĦØ§ØŃÛĮØª",
        -9.600908643209277
      ],
      [
        "ĠÙ¾ÙĪØ±Ø§",
        -9.602077867516513
      ],
      [
        "M",
        -9.603275665363979
      ],
      [
        "ĠÙħÛĮÚ©",
        -9.603352706377768
      ],
      [
        "ĠÙģÙĦØ³Ø·ÛĮÙĨ",
        -9.60353252790863
      ],
      [
        "ĠÚ©ÛĮÙĨÙ¹",
        -9.60468126247768
      ],
      [
        "ĠØ·Ø±ÛĮÙĤÛģ",
        -9.604966922263532
      ],
      [
        "ĠØªÙĦØ§Ø´",
        -9.60525306516034
      ],
      [
        "ĠØ³ÚĳÚ©",
        -9.605537770063426
      ],
      [
        "ĠÙħØ¬Ø¨ÙĪØ±",
        -9.605904852091204
      ],
      [
        "ĠÛģØ¬Ø±Øª",
        -9.606492116331937
      ],
      [
        "ĠÙ¾ÙĦ",
        -9.607026618815565
      ],
      [
        "Ġ2000",
        -9.608722226515322
      ],
      [
        "ĠØ§Ø®ØªÙĦØ§Ùģ",
        -9.610229394947483
      ],
      [
        "193",
        -9.610307965994183
      ],
      [
        "Ø¹Ø¯Ø¯",
        -9.610368552654727
      ],
      [
        "ĠØ§ÙĦØŃÚ©ÙĪÙħØª",
        -9.610715118746002
      ],
      [
        "ØµÙĪØ¨Ûģ",
        -9.610859751570429
      ],
      [
        "21",
        -9.612936380714633
      ],
      [
        "ĠØ¨Ø®Ø´",
        -9.61430312234869
      ],
      [
        "ĠØ³Ø±Ø¨Ø±Ø§Ûģ",
        -9.615226577465535
      ],
      [
        "Ø§Ø±ÛĮ",
        -9.616035696649568
      ],
      [
        "ĠØ§Ú©Ø¨Ø±",
        -9.617137038399992
      ],
      [
        "ĠØµÙĦ",
        -9.617175497680515
      ],
      [
        "ĠØ¬Ø²ÛĮØ±Ûģ",
        -9.617369478583955
      ],
      [
        "ĠØµØŃØ§ÙģÛĮ",
        -9.62080214315273
      ],
      [
        "C",
        -9.62340811283669
      ],
      [
        "ØµØŃÛĮØŃ",
        -9.624356781797028
      ],
      [
        "ĠØªÙģØ³ÛĮØ±",
        -9.625275631256505
      ],
      [
        "ĠÙĨØ³Ø¨Øª",
        -9.625576874353523
      ],
      [
        "ĠØ¹Ø¨Ø¯Ø§ÙĦÙĦÛģ",
        -9.627095833172357
      ],
      [
        "Ø¬Ø§",
        -9.628414603186537
      ],
      [
        "ĠÙĤÙĪØª",
        -9.630271734438569
      ],
      [
        "Ú©Ø±Ø§ÚĨÛĮ",
        -9.632132587058063
      ],
      [
        "ĠØ³ÙĦØ³ÙĦÛĴ",
        -9.63336168974219
      ],
      [
        "ĠØ¨Ø§Ù¾",
        -9.633530547256335
      ],
      [
        "ÙĪÛĮÙĦ",
        -9.63439051919676
      ],
      [
        "ĠØ±ÛģÛĮÚº",
        -9.634681452752005
      ],
      [
        "ĠÙħØ§",
        -9.634750984621109
      ],
      [
        "ĠÙħØªØ¹ÙĦÙĤÛģ",
        -9.637789968678335
      ],
      [
        "ØªØ±Ø§Ø¬Ùħ",
        -9.63955391194604
      ],
      [
        "ĠØªÚ¾Ø§Ø¦ÛĮ",
        -9.63998339363911
      ],
      [
        "ĠÙĨØ³Ø¨",
        -9.640955017324366
      ],
      [
        "ĠØ§ÙĪÙ¾Ø±",
        -9.64144429285952
      ],
      [
        "ĠØ¹Ø¯Ø§ÙĦØª",
        -9.641843977165514
      ],
      [
        "ĠØ²Ø¨Ø§ÙĨÙĪÚº",
        -9.64204948570269
      ],
      [
        "ĠÙħØ±Ø²Ø§",
        -9.644948366867194
      ],
      [
        "ĠØ¢ØªÛĴ",
        -9.645682055838819
      ],
      [
        "ĠØ¯Ø±ÛĮØ§ÙģØª",
        -9.646004888293366
      ],
      [
        "<",
        -9.646264203183012
      ],
      [
        "ĠØ§ÙĤØªØ¯Ø§Ø±",
        -9.646650620567115
      ],
      [
        "ĠÙħØ§ÚĪÙĦ",
        -9.64716335522161
      ],
      [
        "ĠØ¨Ø¯Ú¾",
        -9.64736333422574
      ],
      [
        "ĠØŃØ§ÙĦØ§ÙĨÚ©Û",
        -9.647635908644823
      ],
      [
        "ĠÙħØ·Ø§ÙĦØ¨",
        -9.650728403154957
      ],
      [
        "ĠØ³Ú©ÙĪØ±",
        -9.652903673645447
      ],
      [
        "ÙħØ±",
        -9.653325343690243
      ],
      [
        "ĠÙħÙĤØ¯Ø³",
        -9.653545283695134
      ],
      [
        "Ġ40",
        -9.65366801511591
      ],
      [
        "ÙĦÙĨØ¯ÙĨ",
        -9.654274673549008
      ],
      [
        "ĠÙ¾Ø§Ø¨ÙĨØ¯ÛĮ",
        -9.656337926090535
      ],
      [
        "1960",
        -9.656661622486256
      ],
      [
        "ĠØ®",
        -9.658016160470202
      ],
      [
        "Ø¨ÙĨ",
        -9.659078407221712
      ],
      [
        "ĠØªØ±ØªÛĮØ¨",
        -9.659201557434839
      ],
      [
        "ĠØ±ÙĪØ§ÛĮØªÛĮ",
        -9.661567427494537
      ],
      [
        "ĠÙģÛĮÙĦÚĪ",
        -9.662141842957567
      ],
      [
        "ĠØ¬Ø§Ø¦ÛĮÚº",
        -9.663260909973523
      ],
      [
        "ĠÙħØŃÚ©ÙħÛģ",
        -9.664154801468408
      ],
      [
        "ĠØ¯Ø¹ÙĪÛĮ",
        -9.664426654751793
      ],
      [
        "Ø¹ÙħÙĪÙħÛĮ",
        -9.665411342159434
      ],
      [
        "ÙħØŃÙħØ¯",
        -9.665942457377577
      ],
      [
        "Ú©Ø§Ø±Ù¾ÙĪØ±ÛĮÙ¹",
        -9.666413266667815
      ],
      [
        "ĠØ¹Ø«ÙħØ§ÙĨ",
        -9.666956636310879
      ],
      [
        "ĠØ¢Ø³",
        -9.666994023750652
      ],
      [
        "ĠØ¯ÛģØ´Øª",
        -9.667980531697468
      ],
      [
        "ĠÚ©ØªØ§Ø¨ÙĪÚº",
        -9.67011383693235
      ],
      [
        "Canton",
        -9.67115346058225
      ],
      [
        "ĠØ®ØµÙĪØµÛĮ",
        -9.673537309331937
      ],
      [
        "ÚĳÛĴ",
        -9.674193738784691
      ],
      [
        "ĠØ´ÛģØ±Øª",
        -9.674416293128118
      ],
      [
        "ĠØ¨Ø§Ø²ÛĮ",
        -9.674999787020358
      ],
      [
        "Ø°Ø±Ø§Ø¦Ø¹",
        -9.67511757289032
      ],
      [
        "ÙħÙĨÙ¹",
        -9.675212356639635
      ],
      [
        "ĠØ¨Ø²Ø±Ú¯",
        -9.67645009227064
      ],
      [
        "Ø¨Ø±Ø·Ø§ÙĨÙĪÛĮ",
        -9.677923599278405
      ],
      [
        "ĠÚ©ÙĪØ±ÛĮØ§",
        -9.678224144215356
      ],
      [
        "Ø´ÛĮ",
        -9.678478968927681
      ],
      [
        "ĠØ¹Ø«ÙħØ§ÙĨÛĮÛģ",
        -9.678513750563349
      ],
      [
        "ĠÙħØ®Ø§ÙĦÙģ",
        -9.679401875451788
      ],
      [
        "ĠÙħÙħÚ©ÙĨ",
        -9.679478657665836
      ],
      [
        "ĠÙ¾Ø±ÙĪÙģÛĮØ³Ø±",
        -9.67951458982005
      ],
      [
        "ĠÚ¯Ø±Ø§Ø¤ÙĨÚĪ",
        -9.680871850026879
      ],
      [
        "Ø¨ØŃÛĮØ±Ûģ",
        -9.68106714341049
      ],
      [
        "ĠØ§ÙĨØªØ¸Ø§ÙħÛĮ",
        -9.681758395014969
      ],
      [
        "la",
        -9.682341462032907
      ],
      [
        "Ø§ÙĨÙģØ±Ø§Ø¯ÛĮ",
        -9.683964472120703
      ],
      [
        "ĠÙħØ§ÙĨ",
        -9.684015697615008
      ],
      [
        "b",
        -9.685301238309963
      ],
      [
        "ĠØ³Ùħ",
        -9.685808384141406
      ],
      [
        "ÙģØ±",
        -9.685904527573175
      ],
      [
        "Ø¨Ûģ",
        -9.686192418981072
      ],
      [
        "Ø´Ø§",
        -9.686643825427362
      ],
      [
        "ĠÚ©Ø±ÙĪ",
        -9.686907795317474
      ],
      [
        "ĠÚ¯ÙĨØªÛĮ",
        -9.687293496225598
      ],
      [
        "ĠÙħØ®ØªØ§Ø±",
        -9.68775592160147
      ],
      [
        "ĠÙĨÙĪØ§Ø²Ø§",
        -9.688165538462023
      ],
      [
        "ĠØŃØ§ÙģØ¸",
        -9.68817235228558
      ],
      [
        "ĠØ´Ø¯ÛĮØ¯",
        -9.68906383386719
      ],
      [
        "24",
        -9.68982092491436
      ],
      [
        "le",
        -9.689889722570394
      ],
      [
        "ÙħØªØ¹ÙĦÙĤÛģ",
        -9.68990239994629
      ],
      [
        "ĠÚ©Ø±Ú©Ù¹Ø±",
        -9.689911549151914
      ],
      [
        "Ø¹ÙĦÛĮÛģ",
        -9.691985392596118
      ],
      [
        "ĠØ§Ø®Ø¨Ø§Ø±",
        -9.69284394815476
      ],
      [
        "ĠØ²Ø§Ø¦Ø¯",
        -9.69352166083719
      ],
      [
        "ĠÙħÙĪ",
        -9.693606909361657
      ],
      [
        "ĠÙĪØ¬ÙĪØ¯",
        -9.693659880755874
      ],
      [
        "ĠØ¯ÙģØªØ±",
        -9.694613403660098
      ],
      [
        "c",
        -9.694916616900802
      ],
      [
        "ĠØŃØµÙĪÚº",
        -9.695131328210808
      ],
      [
        "Ø±ÛĮØ§Ø³Øª",
        -9.695976539071724
      ],
      [
        "ĠØªØµÙĪØ±",
        -9.696213091056615
      ],
      [
        "ĠØ¹Ø¯Ø¯ÛĮ",
        -9.696343861163308
      ],
      [
        "ĠØ¯Ø´ÙħÙĨ",
        -9.696979563107474
      ],
      [
        "ĠÙ¾ÛĮØ±Ø³",
        -9.698490403932423
      ],
      [
        "ÙĨÙ¹",
        -9.698718155387171
      ],
      [
        "Ø´ÙħØ§ÙĦÛĮ",
        -9.699300764418004
      ],
      [
        "ĠÙħØ¯Øª",
        -9.699796601752551
      ],
      [
        "ĠÙģÙĦÙ¾Ø§Ø¦ÙĨ",
        -9.699927263909778
      ],
      [
        "Ø§ÙĦÛĮÙĨÙĪØ§Ø¦",
        -9.701207355805602
      ],
      [
        "Ø¬Ø³",
        -9.701793417560339
      ],
      [
        "ĠÙĨÛĮØ§",
        -9.702239025584229
      ],
      [
        "22",
        -9.705400230166303
      ],
      [
        "ĠØ¢Ø°Ø±Ø¨Ø§Ø¦ÛĮ",
        -9.7060095296688
      ],
      [
        "Ø§ÙĨÚ¯",
        -9.70623457769747
      ],
      [
        "ĠÙĨÛĮØ²",
        -9.706331344324875
      ],
      [
        "T",
        -9.707208600947636
      ],
      [
        "ĠÛģØ³Ù¾ØªØ§ÙĦ",
        -9.70725193854983
      ],
      [
        "Ø³Ù¹Ø±",
        -9.708001324333294
      ],
      [
        "ĠØ§Ø³ØªØ§Ø¯",
        -9.708928512512681
      ],
      [
        "Ø¢ÙĦÛģ",
        -9.710133941645642
      ],
      [
        "ØªØ±Ú©ÛĮ",
        -9.710154229789524
      ],
      [
        "K",
        -9.711249608714214
      ],
      [
        "ĠØ¨ÙĪ",
        -9.71319560951856
      ],
      [
        "ĠØ¬Ø²Ø§Ø¦Ø±",
        -9.713314426484667
      ],
      [
        "Ġ[",
        -9.713335478012556
      ],
      [
        "ĠØ¬Ú¾ÛĮÙĦ",
        -9.713827035413987
      ],
      [
        "ĠÙĪÙĪÙ¹",
        -9.715107550509304
      ],
      [
        "ĠØ§ÙĨØªØ®Ø§Ø¨ÛĮ",
        -9.715123706876712
      ],
      [
        "ĠØ¯ÙģØ§Ø¹",
        -9.715925906644728
      ],
      [
        "Ķ",
        -9.717314824209376
      ],
      [
        "ĠØ¨Ø§Ø²Ø§Ø±",
        -9.717425750226122
      ],
      [
        "ĠÚĨÚ©Ø§",
        -9.71812120238608
      ],
      [
        "ĠÚ©Ø§ÙĨÚ¯Ø±ÛĮØ³",
        -9.71821322670457
      ],
      [
        "ĠÙħÙĦØ§ÙĤØ§Øª",
        -9.718226793097951
      ],
      [
        "ĠØ±Ø§Ûģ",
        -9.718450126579059
      ],
      [
        "ĠÙĪØ±",
        -9.71961423807712
      ],
      [
        "ĠÙĦÚ¯Ø§ÛĮØ§",
        -9.71990329023463
      ],
      [
        "1988",
        -9.720435626597032
      ],
      [
        "ĠØªØ¹Ø±ÛĮÙģ",
        -9.72124574621845
      ],
      [
        "ĠØ¨Ú¾ÛĮØ¬Ø§",
        -9.721476445640523
      ],
      [
        "ĠØ®Ø·Ø§Ø¨",
        -9.722317239029286
      ],
      [
        "ĠÙ¾ÛģØ§ÚĳÛĮ",
        -9.72259507671303
      ],
      [
        "Ú¯ÙĦ",
        -9.723301729394603
      ],
      [
        "ĠÙħÙĦØªØ§",
        -9.723583768596027
      ],
      [
        "ĠÙħØ¶ÙħÙĪÙĨ",
        -9.723628349666189
      ],
      [
        "ĠI",
        -9.724460300564832
      ],
      [
        "Ø¬ÙĪÙĨ",
        -9.725285809521989
      ],
      [
        "ĠØ³ÙĨØª",
        -9.726319197643562
      ],
      [
        "ĠÛģØ§ØªÚ¾ÙĪÚº",
        -9.726694889021141
      ],
      [
        "ĠØ±ÛģØªØ§",
        -9.727288585041716
      ],
      [
        "ĠØ³Ú©ÙĪÙĦ",
        -9.727350312041356
      ],
      [
        "ĠØ¨Ø§Ø¨",
        -9.728291468939888
      ],
      [
        "ĠÚ©ÙĨØ§Ø±ÛĴ",
        -9.72887410066123
      ],
      [
        "ĠÙĨØ§ÙħÛģ",
        -9.729402566456582
      ],
      [
        "ĠÚĨÙĦ",
        -9.729667007107247
      ],
      [
        "ĠÙ¾ÛĮØ´Ûģ",
        -9.730551459232627
      ],
      [
        "ĠØªÛĮØ³Ø±ÛĴ",
        -9.730932158100261
      ],
      [
        "Ġ186",
        -9.731429304057185
      ],
      [
        "ĠØ®ÛĮØ¨Ø±",
        -9.732022158336285
      ],
      [
        "ĠØ¨ÛĮÙ¹ÙĨÚ¯",
        -9.733657588752527
      ],
      [
        "ĠÙ¾Ø§ÙĦÛĮØ³ÛĮ",
        -9.73483068360629
      ],
      [
        "ĠØ¹Ø±ØµÛģ",
        -9.73637965605968
      ],
      [
        "ĠØµÙĨØ¹Øª",
        -9.73648796567844
      ],
      [
        "ĠÚ©Ø±ÛĮÙħ",
        -9.737142768493003
      ],
      [
        "ĠØ¨Ø§Ø±Ûģ",
        -9.737305583227117
      ],
      [
        "ĠÛģØªÚ¾ÛĮØ§Ø±",
        -9.737444076028972
      ],
      [
        "ĠØ§ØªØ±",
        -9.738405464785034
      ],
      [
        "ĠÙĤÛĮÙħØª",
        -9.738486750418302
      ],
      [
        "Ġ1999",
        -9.738527298405511
      ],
      [
        "Ú©Ø§Ø±Ø±ÙĪØ§Ø¦ÛĮ",
        -9.739044832971164
      ],
      [
        "ĠÙĨÛĮÙ¹",
        -9.739669472743465
      ],
      [
        "2010",
        -9.740239868485874
      ],
      [
        "Ø¯Ø±",
        -9.740516755913946
      ],
      [
        "ĠØªØ¬Ø§Ø±ØªÛĮ",
        -9.740629996518356
      ],
      [
        "ĠÚĨÛĮÙħÙ¾Ø¦ÙĨ",
        -9.740636145352951
      ],
      [
        "ĠÙĨØ¬ÛĮ",
        -9.740787575675967
      ],
      [
        "ÛĮÙĦ",
        -9.741828731043466
      ],
      [
        "Ú©ÙĨ",
        -9.741845891764067
      ],
      [
        "ĠØ¨ÛģØ§Ø±",
        -9.742527180377095
      ],
      [
        "ĠÙĪØ§Ø¨Ø³ØªÛģ",
        -9.74384085049911
      ],
      [
        "ÙĪØ§Úº",
        -9.744366978964406
      ],
      [
        "ĠÙħØŃØ¯ÙĪØ¯",
        -9.744966348359378
      ],
      [
        "ĠØ±ÛĮØ§Ø³ØªÙĪÚº",
        -9.745499927895349
      ],
      [
        "x",
        -9.745617190235455
      ],
      [
        "ÙĦÛģ",
        -9.746827653135545
      ],
      [
        "I",
        -9.748405152010884
      ],
      [
        "ÚĪØ§Ø¦Ø±ÛĮÚ©Ù¹Ø±",
        -9.748493648199547
      ],
      [
        "ÙģÛģØ±Ø³Øª",
        -9.748716927961468
      ],
      [
        "ĠØ¨ÙĦØ¯ÛĮØ§Øª",
        -9.7489152672424
      ],
      [
        "ĠØ±ÙĪØ´ÙĨÛĮ",
        -9.749647568375545
      ],
      [
        "ĠÚ©Ø§Ø±Ú©ÙĨ",
        -9.750618422638246
      ],
      [
        "ÚĨÛĮÙĨ",
        -9.750622394395409
      ],
      [
        "f",
        -9.750674767001353
      ],
      [
        "Ø¨ÙĪ",
        -9.750919884145148
      ],
      [
        "li",
        -9.751010956202675
      ],
      [
        "ĠÙ¾ÛĮØ¯Ø§ÙĪØ§Ø±",
        -9.752683604942339
      ],
      [
        "ĠØ²ÙĪØ±",
        -9.753062426721858
      ],
      [
        "ĠÙħØ§ÙĦÛĮ",
        -9.753755633540601
      ],
      [
        "ĠØ³Ù¾Ø±",
        -9.75409285793754
      ],
      [
        "ĠØªØ¬Ø§Ø±Øª",
        -9.75478037018427
      ],
      [
        "ĠØ±ÙģØªØ§Ø±",
        -9.755259481884098
      ],
      [
        "ĠÙħÙĨØ¹ÙĤØ¯",
        -9.755827710008239
      ],
      [
        "ĠÚĨØ±ÚĨ",
        -9.757500538031014
      ],
      [
        "194",
        -9.758043675595923
      ],
      [
        "ĠØ§ÛĮØ´ÙĨ",
        -9.758468365498505
      ],
      [
        "ĠØ±Ø§Ø³ØªÛĴ",
        -9.759278229280424
      ],
      [
        "ĠÛĮÙħÙĨ",
        -9.759409088243226
      ],
      [
        "26",
        -9.760071010681083
      ],
      [
        "ĠØ§ÛĮØ³ÙĪØ³ÛĮ",
        -9.760185444435924
      ],
      [
        "ĠØ¨ÙĪØ±ÙĪ",
        -9.760299756759174
      ],
      [
        "ĠÙĨÛĮÚĨÛĴ",
        -9.760579559651168
      ],
      [
        "ÛĮØ±",
        -9.761734733400287
      ],
      [
        "ĠÙĦÚ©Ú¾ØªÛĴ",
        -9.762679094859273
      ],
      [
        "ĠF",
        -9.762680498902634
      ],
      [
        "ĠØ§Ù¾",
        -9.76371684545848
      ],
      [
        "Ú©Ûģ",
        -9.764201255855314
      ],
      [
        "ĠÙħÙĨØ¯Ø±",
        -9.764673220183033
      ],
      [
        "ĠÙĪØ²Ø§Ø±Øª",
        -9.76613397129137
      ],
      [
        "ÙĦØ§ÛģÙĪØ±",
        -9.767533536386022
      ],
      [
        "ĠØ¢Ú¯",
        -9.768527037564247
      ],
      [
        "04",
        -9.769015999723212
      ],
      [
        "ĠÙ¾Ø§Ø¦ÛĴ",
        -9.771439648923218
      ],
      [
        "ĠØ±ÙĪØ§ÙĨ",
        -9.771620274743462
      ],
      [
        "ĠØ¹ÙĦØ§ÙĤØ§Ø¦ÛĮ",
        -9.77221234683338
      ],
      [
        "ÙĨÛģ",
        -9.772377657112573
      ],
      [
        "ĠÚ¯Ø±ÙģØªØ§Ø±",
        -9.77254443136182
      ],
      [
        "ĠØ¨Ø§Øº",
        -9.77338505303527
      ],
      [
        "ØªÚ¾Ø§",
        -9.774780233908535
      ],
      [
        "ĠØ¨Ø±Ø§Ø¨Ø±",
        -9.774966134028608
      ],
      [
        "29",
        -9.775116046366806
      ],
      [
        "ĠØ±ÙĪØ§ÛĮØ§Øª",
        -9.7771506664845
      ],
      [
        "ĠÙ¾ÙĨØ¬Ø§Ø¨ÛĮ",
        -9.777664677020955
      ],
      [
        "ĠÙĨØ§Ø¦Ø¨",
        -9.77799088273303
      ],
      [
        "ĠØ¨ÛĮØª",
        -9.77851143699873
      ],
      [
        "ĠØ¹ÙĨÛģ",
        -9.779744002313608
      ],
      [
        "ĠÙħØ¨Ø§Ø±Ú©",
        -9.780019645027053
      ],
      [
        "ĠØ´ÙħÙĪÙĦÛĮØª",
        -9.780065457572526
      ],
      [
        "ĠÙħØ¬ÙĦØ³",
        -9.780862418318504
      ],
      [
        "ÙħÛģØ§Ø±Ø§Ø´Ù¹Ø±",
        -9.781182920216525
      ],
      [
        "ĠÙĪØ³Ú©ÙĪÙĨØ³ÙĨ",
        -9.782502847188603
      ],
      [
        "ĠÙĪÙĪÚĪ",
        -9.782604874891604
      ],
      [
        "ÙģÙĦÙħ",
        -9.782928169443974
      ],
      [
        "ĠØ¹Ø³Ú©Ø±ÛĮ",
        -9.783994772696456
      ],
      [
        "ĠÛģÙħØ§Ø±ÛĴ",
        -9.784579610185252
      ],
      [
        "ÚĪÚ©ÙĪÙ¹Ø§",
        -9.78481179636894
      ],
      [
        "ĠÚ©ÙħÛĮÙĪÙĨÙ¹ÛĮ",
        -9.785085534455694
      ],
      [
        "1950",
        -9.785536762953985
      ],
      [
        "ĠØµÙĪÙģÛĮ",
        -9.786496269495718
      ],
      [
        "Ø®Ø·ÛĴ",
        -9.786568212067737
      ],
      [
        "ĠÙħÛĮÚĪÛĮØ§",
        -9.786704164357547
      ],
      [
        "ĠØ®ÙĪÙĨ",
        -9.78712351831482
      ],
      [
        "ĠÙħÛĮÚ©Ø³ÛĮÚ©ÙĪ",
        -9.787259465795321
      ],
      [
        "ĠÙħØ§ÛģØ±ÛĮÙĨ",
        -9.788376670892369
      ],
      [
        "ĠØ±ÛĮÙ¹Ø§Ø¦Ø±",
        -9.789176365586156
      ],
      [
        "ĠØ¬ÙĨÛģÛĮÚº",
        -9.7892785772907
      ],
      [
        "Ø§ÚĨÚ¾ÛĮ",
        -9.790125574221262
      ],
      [
        "Ú©Ù¹",
        -9.790488146541213
      ],
      [
        "Ġby",
        -9.791724446471436
      ],
      [
        "ĠØ´Ø¹Ø¨Ûģ",
        -9.79240029629467
      ],
      [
        "ĠØ³ÛĮÙ¹",
        -9.792530402570256
      ],
      [
        "ĠØ§ØµÙĪÙĦ",
        -9.79259688770002
      ],
      [
        "ĠÙħØ³ØªÙĤÙĦ",
        -9.792678287617138
      ],
      [
        "ĠÚ©ÛģÙĨØ§",
        -9.792895348180858
      ],
      [
        "ĠÚ¯Ø±Ø§Ùģ",
        -9.793197567249099
      ],
      [
        "ĠÛĮÙĪÙĨØ§ÙĨ",
        -9.794136070823523
      ],
      [
        "ĠØĵ",
        -9.794260811398935
      ],
      [
        "Ø¹Ø±Ø¨ÛĮ",
        -9.794284369269828
      ],
      [
        "ĠØ§Ø²Ø§Úº",
        -9.794358037036965
      ],
      [
        "ĠÙħÙĦØªØ§ÙĨ",
        -9.794369477686981
      ],
      [
        "ĠØ¹ÙħÙĦÛĮ",
        -9.79505940775398
      ],
      [
        "ĠØ®ÙĪØ´",
        -9.795553122348638
      ],
      [
        "Ø³ÛĮØ¯",
        -9.795902824147925
      ],
      [
        "ĠL",
        -9.796065216951588
      ],
      [
        "ĠØ¢Ø±ÙħÛĮ",
        -9.79745595571895
      ],
      [
        "ĠØ¹Ø·Ø§",
        -9.79904285156842
      ],
      [
        "ĠÙĨØ¸Ø±ÛĮÛģ",
        -9.799118074310615
      ],
      [
        "ĠØ§Ø³ÙħØ§Ø¹ÛĮÙĦ",
        -9.799870157768492
      ],
      [
        "ĠØ§ÙĦØ§",
        -9.799884581246955
      ],
      [
        "ĠH",
        -9.800858182465324
      ],
      [
        "ĠØ§Ú©Ø«Ø±ÛĮØª",
        -9.801287737708096
      ],
      [
        "Ø¢ÙĨØŃØ¶Ø±Øª",
        -9.801380616632832
      ],
      [
        "Ø§ÙħÙĪØ§Øª",
        -9.802142520427811
      ],
      [
        "ĠØ§ÙĨÚĪØ±",
        -9.802182027880812
      ],
      [
        "ĠÙħØ¹Ø§Ø´ÛĮ",
        -9.802216020359994
      ],
      [
        "ĠØ³ÙĦÛĮÙħØ§ÙĨ",
        -9.80402911253868
      ],
      [
        "ĠÙĨØ³ÙĦÛĮ",
        -9.804152762248002
      ],
      [
        "27",
        -9.804888452080364
      ],
      [
        "E",
        -9.80621851374183
      ],
      [
        "ĠØ§ÙĨØ§ÙĨ",
        -9.806373119471667
      ],
      [
        "ĠØ§ÙģØ±ÛĮÙĤØ§",
        -9.806414852760078
      ],
      [
        "ĠØ¨Ø§ÙĦØ§",
        -9.806777034664327
      ],
      [
        "us",
        -9.80696370501129
      ],
      [
        "ĠØ§ØµØ·ÙĦØ§ØŃ",
        -9.806972569959067
      ],
      [
        "ĠØ§Ø´Ø§Ø¹Øª",
        -9.807232864052368
      ],
      [
        "Ø¯Ûģ",
        -9.808338354759384
      ],
      [
        "ĠØ§ÙĪØ§Ø¦ÙĦ",
        -9.809499586091448
      ],
      [
        "ĠÙ¾ÙĨØ§Ûģ",
        -9.81059000847232
      ],
      [
        "ĠÙģÛĮØ¶",
        -9.811239958164212
      ],
      [
        "ÙħØ§ÙĨ",
        -9.811368785170508
      ],
      [
        "ĠÙħØ³",
        -9.81272605177715
      ],
      [
        "District",
        -9.813053466239326
      ],
      [
        "ĠØŃØ§ÙħÙĦ",
        -9.813083085543358
      ],
      [
        "ĠÚĨÛĮÙģ",
        -9.814202458304907
      ],
      [
        "ĠÙħØ³ÙĦØ³ÙĦ",
        -9.814897095307458
      ],
      [
        "ĠØ³Ø¨Ø¨",
        -9.81520272108659
      ],
      [
        "ª",
        -9.815920922587408
      ],
      [
        "ĠØªÙĨÙĤÛĮØ¯",
        -9.816124721383453
      ],
      [
        "ĠÙ¾ØªÚ¾Ø±",
        -9.81766192763592
      ],
      [
        "ĠÙĪØ³Ø·",
        -9.818082480249428
      ],
      [
        "ĠÙħØ¯Ø±Ø³Ûģ",
        -9.818854379007439
      ],
      [
        "ĠØ±Ù¾ÙĪØ±Ù¹",
        -9.819095272721341
      ],
      [
        "ĠØ§ÙħÙĪØ±",
        -9.819727861584083
      ],
      [
        "ĠØ¬Ø§Ø±Ø¬",
        -9.82107332606694
      ],
      [
        "ĠØ¯ÛĮÙĨØ§",
        -9.821385419421993
      ],
      [
        "ĠÙĤÛĮØ¯",
        -9.821572685511024
      ],
      [
        "ĠØ¬ÛĮØªØ§",
        -9.821665402289462
      ],
      [
        "ĠØ¢Ø«Ø§Ø±",
        -9.82192729623246
      ],
      [
        "F",
        -9.82242022193933
      ],
      [
        "ÙĪØ¯",
        -9.823768824578126
      ],
      [
        "ĠØ´ÙħØ§Ø±ÛĮ",
        -9.823941881459293
      ],
      [
        "ĠØ§ÙģØºØ§ÙĨ",
        -9.824439736328785
      ],
      [
        "ÙĪÙĦÛĮ",
        -9.825783051589614
      ],
      [
        "ĠÙĨÚ©Ø§ÙĦ",
        -9.826249946609337
      ],
      [
        "Ø¬Ø±",
        -9.826925831140926
      ],
      [
        "Ù¾Ø³",
        -9.827842668516785
      ],
      [
        "Ø§Ø³ÙĦØ§ÙħÛĮ",
        -9.828265914235981
      ],
      [
        "ĠØªØ¨",
        -9.828872093911896
      ],
      [
        "Ù¾ÙĨØ¬Ø§Ø¨ÛĮ",
        -9.831756171979965
      ],
      [
        "ÙĨØ¯",
        -9.831980413054264
      ],
      [
        "ĠØ³Ø§Ø±ÛĴ",
        -9.832244559797294
      ],
      [
        "ar",
        -9.833035088835219
      ],
      [
        "188",
        -9.833491578466889
      ],
      [
        "ĠØ§ÙĦØ¬Ø²Ø§Ø¦Ø±",
        -9.834217467120862
      ],
      [
        "ĠÙħØ¹ÙħÙĪÙĦÛĮ",
        -9.83489873426798
      ],
      [
        "ĠÚ©ÙħÛĮØ´ÙĨ",
        -9.83512119761028
      ],
      [
        "H",
        -9.835204426396613
      ],
      [
        "ĠØ²ÙħØ¨Ø§Ø¨ÙĪÛĴ",
        -9.83540597169277
      ],
      [
        "ĠØ¯Ø¹ÙĪØª",
        -9.8362188717086
      ],
      [
        "ĠÙĤØ§Ø¶ÛĮ",
        -9.836675935406932
      ],
      [
        "ĠØ±ÛĮÚĪÛĮÙĪ",
        -9.836753951915517
      ],
      [
        "ĠØ§ÙĨØµØ§Ùģ",
        -9.838637306740472
      ],
      [
        "ĠÙ¾ÛģÙĨÚĨÛĴ",
        -9.83900587861298
      ],
      [
        "ĠÙ¹ÛĮÙĪÙ¹",
        -9.839406636777024
      ],
      [
        "ĠÙĨÚ¯Ø±",
        -9.839997494347898
      ],
      [
        "el",
        -9.841440797489142
      ],
      [
        "ĠÙģÙĤÛģ",
        -9.84187032934796
      ],
      [
        "ĠØ±ÙĪÚ©",
        -9.842166382687354
      ],
      [
        "Ø³ÛĮÙĨ",
        -9.842975324678397
      ],
      [
        "ĠÙĪØ±Ú©",
        -9.84387686426549
      ],
      [
        "ĠØ¯ÛĮØªÛĮ",
        -9.844669395052591
      ],
      [
        "ĠÚ¯",
        -9.844782620182443
      ],
      [
        "or",
        -9.845044992736526
      ],
      [
        "ĠØ³Ø²Ø§",
        -9.845528716912431
      ],
      [
        "ÛģØ±",
        -9.845661547518716
      ],
      [
        "ĠD",
        -9.845749710540503
      ],
      [
        "ĠÚ©ÛģÛĮÚº",
        -9.846044812891428
      ],
      [
        "ĠØ³ÛĮÙĨÙ¹Ø±",
        -9.84630473166644
      ],
      [
        "ĠÙģÚ©Ø±",
        -9.846592209137539
      ],
      [
        "ĠØ¬Ø§Ø³Ú©ØªØ§",
        -9.847291192425427
      ],
      [
        "ĠÙħØ«ÙĦØ§",
        -9.847713904864575
      ],
      [
        "Ø¢Ø±Ú©ÙĨØ³Ø§",
        -9.848018790092123
      ],
      [
        "ĠØ´ÙĨØ§Ø®Øª",
        -9.848052977600833
      ],
      [
        "Ø±Ú©Ú¾ØªÛĮ",
        -9.848196746599697
      ],
      [
        "N",
        -9.848808344387777
      ],
      [
        "ĠØ¨ÙĪÙĦÛĮ",
        -9.849387196281809
      ],
      [
        "ĠØ§Ø´Ø§Ø±",
        -9.849589195029537
      ],
      [
        "ĠØ³ÛĮÙĨ",
        -9.850099566754595
      ],
      [
        "re",
        -9.852006017193652
      ],
      [
        "ĠØ¬Ø§ÙħØ¹",
        -9.853759976814642
      ],
      [
        "ĠÙģØ±ÙħØ§ØªÛĴ",
        -9.855928258032495
      ],
      [
        "ĠÛģÙĦ",
        -9.856042146283595
      ],
      [
        "ĠØ§ÙĨØ³Ù¹ÛĮ",
        -9.856323945185173
      ],
      [
        "ĠÙĨÛĮÙ¾Ø§ÙĦ",
        -9.856633641152095
      ],
      [
        "ĠØ§ÙħØ§Ø±Ø§Øª",
        -9.856924301728872
      ],
      [
        "ĠØ¨Ø§ÙĦÚ©ÙĦ",
        -9.857066456221254
      ],
      [
        "ĠØ¨ÛĮØ´ØªØ±",
        -9.857106035693088
      ],
      [
        "ĠÙħÙĨØ³ÙĦÚ©",
        -9.857603156368977
      ],
      [
        "ĠØ§Ø¨ØªØ¯Ø§",
        -9.857856457010746
      ],
      [
        "ĠØ´Ø§Ø®",
        -9.858177926103396
      ],
      [
        "ĠÙĦÚ©Ú¾ÛĴ",
        -9.858245900513822
      ],
      [
        "ĠØ±ÛĮØ§Ø³ØªÛĮ",
        -9.858979469560897
      ],
      [
        "Ú¯Ø§",
        -9.859402334807026
      ],
      [
        "ĠÙħÙĪØ¶ÙĪØ¹",
        -9.860953654665979
      ],
      [
        "ĠØ¯Ø±Ø³",
        -9.861000591907471
      ],
      [
        "ĠØ§Ù¹Ú¾Ø§",
        -9.861308565054328
      ],
      [
        "ĠÙĦÙĪÙ¹",
        -9.861340962267809
      ],
      [
        "ĠØ§ÙĦØ²Ø§Ùħ",
        -9.861535277847185
      ],
      [
        "z",
        -9.86159732428032
      ],
      [
        "Ø§Ø¨ÙĪ",
        -9.861608502270075
      ],
      [
        "ĠØŃÚ©ÙħØ±Ø§ÙĨÛĮ",
        -9.8618360225135
      ],
      [
        "ÚĪÙĪ",
        -9.864150922153037
      ],
      [
        "Ġde",
        -9.864439009595301
      ],
      [
        "ĠØ´ÙĪÛģØ±",
        -9.865246100212381
      ],
      [
        "ÛģÙĨØ¯ÛĮ",
        -9.865481606097934
      ],
      [
        "ĠÙħÙĪØ±Ø®",
        -9.865596418798354
      ],
      [
        "Ø¨Ø§Ø¦ÛĮÚº",
        -9.86603690055792
      ],
      [
        "ĠØªÚ©ÙħÛĮÙĦ",
        -9.867316247239856
      ],
      [
        "ĠÚ¯Ø§ÚĳÛĮ",
        -9.867843195449229
      ],
      [
        "ĠÛģØ§Ø¤Ø³",
        -9.86875678368392
      ],
      [
        "Ø¯Ø³ÙħØ¨Ø±",
        -9.86878974511468
      ],
      [
        "ÙħÙĦ",
        -9.868963836789101
      ],
      [
        "ĠÛģÙĪÚ¯Ø¦ÛĴ",
        -9.870432894641025
      ],
      [
        "ÙħØ§Ø±ÚĨ",
        -9.870568738351329
      ],
      [
        "Ø§ÛĮØ±Ø§ÙĨ",
        -9.870781328191484
      ],
      [
        "ĠØŃØ§Ø¶Ø±",
        -9.870826623259681
      ],
      [
        "ĠÙĪØ§ÙĦ",
        -9.87103374740574
      ],
      [
        "ĠÙħÙĦÛĴ",
        -9.87119377628672
      ],
      [
        "ĠØªØ´Ø¯Ø¯",
        -9.87130492837879
      ],
      [
        "ĠØ¬ÙĨØ³ÛĮ",
        -9.872428111319012
      ],
      [
        "ĠØªÙĨØ§Ø²Ø¹Ø§Øª",
        -9.873975193712825
      ],
      [
        "ĠÙģÙĪØ¬ÛĮÙĪÚº",
        -9.874373100620708
      ],
      [
        "//",
        -9.874480140646243
      ],
      [
        "ĠØªØ¹Ø§ÙĪÙĨ",
        -9.874837135100803
      ],
      [
        "ĠÙ¾ÙĨ",
        -9.87521257837987
      ],
      [
        "Ø¬ÙĪÙĦØ§Ø¦Û",
        -9.875708050766402
      ],
      [
        "ĠØ¯Ø±Ø®ÙĪØ§Ø³Øª",
        -9.876060989130004
      ],
      [
        "ĠÙ¹ÙĪ",
        -9.876085086832427
      ],
      [
        "ĠÚ©ÙĪØ±",
        -9.876181866385053
      ],
      [
        "30",
        -9.87638358183951
      ],
      [
        "ĠØ§ÙĦØ¹ÙĦÙĪÙħ",
        -9.877299823880875
      ],
      [
        "ur",
        -9.878149464175097
      ],
      [
        "ĠÚĪØ§ÙĦØ±",
        -9.879984788720487
      ],
      [
        "ĠØ¨ÛĮÚ©",
        -9.881113809520844
      ],
      [
        "ĠÙģØ§Ø±Ùħ",
        -9.881329104751819
      ],
      [
        "ĠÙĤØ¨Ø±Øµ",
        -9.881394890923891
      ],
      [
        "ÙħØºØ±Ø¨ÛĮ",
        -9.881415966188559
      ],
      [
        "ĠÙħØªØ¹Ø§Ø±Ùģ",
        -9.882005431108261
      ],
      [
        "ĠÙħØ³ÙĪØ±ÛĮ",
        -9.88218984873713
      ],
      [
        "ĠØ¢ØªÛĮ",
        -9.883319635241214
      ],
      [
        "ĠØ¢ÙħØ¯",
        -9.88413347002934
      ],
      [
        "ĠØ³Ø¹Ø¯",
        -9.88414002133383
      ],
      [
        "ĠÙħØ±Ø¯Ùħ",
        -9.884276111228203
      ],
      [
        "ĠØ±ÙĤÙħ",
        -9.884390862897062
      ],
      [
        "ĠØ¬Ø§Ù¾Ø§ÙĨÛĮ",
        -9.885216202883907
      ],
      [
        "ĠØ¢ÙĨÚ©Ú¾",
        -9.886023030986536
      ],
      [
        "Ġ35",
        -9.886343542756016
      ],
      [
        "ÙģØŃØ´",
        -9.887002220553411
      ],
      [
        "ĠÙħØŃØ§ÙģØ¸",
        -9.887003472815739
      ],
      [
        "Ú©Ø§Ø±ÙĪØ¨Ø§Ø±ÛĮ",
        -9.887025174858042
      ],
      [
        "ĠØ³Ø±ÙĪØ³",
        -9.887217696470636
      ],
      [
        "ĠØ§ÙĤØ¯Ø§Ùħ",
        -9.887223141455886
      ],
      [
        "ĠÙĪØ§Ø±",
        -9.887694142714148
      ],
      [
        "ĠØ£",
        -9.888161049163406
      ],
      [
        "ÙħØ¦ÛĮ",
        -9.889827609754265
      ],
      [
        "ĠÙ¾Ø´Ø§ÙĪØ±",
        -9.890424660406287
      ],
      [
        "ĠØ¨Ø¯Ø±",
        -9.8917172183437
      ],
      [
        "Ø§ÙĦÛĮ",
        -9.89172304840087
      ],
      [
        "ÛĮØ²",
        -9.891842195878018
      ],
      [
        "|-",
        -9.892543400004895
      ],
      [
        "ĠØªÛĮØ³Ø±Û",
        -9.892944366326308
      ],
      [
        "ĠÚ©Ø«ÛĮØ±",
        -9.893379556753166
      ],
      [
        "ĠÙħØ²Ø§Ø±",
        -9.8937097144413
      ],
      [
        "Ġ60",
        -9.893757453753206
      ],
      [
        "ĠØ¬Ø±Ø³ÛĮ",
        -9.894034665377239
      ],
      [
        "ĠÙĤØ§Ø¦Ø¯",
        -9.894300366975417
      ],
      [
        "ĠØ¯ÙĨÙĪÚº",
        -9.894403318777314
      ],
      [
        "Ø§ÙĨÛĮØ³ÙĪ",
        -9.89468507830667
      ],
      [
        "ĠÙĪÙĦÛĮ",
        -9.894931995030813
      ],
      [
        "Ø§ÙĨØ§",
        -9.895639328641666
      ],
      [
        "ĠÙ¾Ú¾ÛĮÙĦ",
        -9.896681926091862
      ],
      [
        "ĠÙ¾Ø§Ø±",
        -9.896772316676387
      ],
      [
        "Ø§ÛĮØ´ÛĮØ§",
        -9.89771759187847
      ],
      [
        "ĠØ·Ø¨ÛĮØ¹ÛĮØ§Øª",
        -9.898803892077074
      ],
      [
        "com",
        -9.898896913586087
      ],
      [
        "ro",
        -9.900589158194446
      ],
      [
        "ĠW",
        -9.901822177436733
      ],
      [
        "ĠÙħÛĮØ±Ø§",
        -9.902261561909834
      ],
      [
        "ĠØ§Ø³Ú©ÙĪØ§ÚĪ",
        -9.902727853415827
      ],
      [
        "ĠÙĤØ¯Ùħ",
        -9.902934963587414
      ],
      [
        "ĠØ·ÛĴ",
        -9.903062536189267
      ],
      [
        "ĠØ¹ÙĨÙĪØ§ÙĨ",
        -9.903150621414406
      ],
      [
        "ĠÙģØ±ÙĪØº",
        -9.903297771423702
      ],
      [
        "ĠØ¢Ø¦ÛĮÙĨ",
        -9.90376105714035
      ],
      [
        "ĠØŃÙĦÙĤÛĴ",
        -9.9039133879996
      ],
      [
        "ĠØ±ÙĪÙħÛĮ",
        -9.904280243178343
      ],
      [
        "ĠØ°Ø§Øª",
        -9.905637079812697
      ],
      [
        "ĠØ§ÙĨØ¬ÛĮÙĨØ¦Ø±",
        -9.905842750407894
      ],
      [
        "ĠØ±ÛģØ§Ø¦Ø´",
        -9.905950691320228
      ],
      [
        "Ø±Ø§Ø³ØªÛģ",
        -9.906085040088366
      ],
      [
        "ÚĪÙĨ",
        -9.906210440872934
      ],
      [
        "ĠÛģØ§Úº",
        -9.907484760994794
      ],
      [
        "ĠØ¨Ø±Ø§Ûģ",
        -9.908775104568948
      ],
      [
        "Ø§Ú¯Ø³Øª",
        -9.909521722353785
      ],
      [
        "ĠØ³Ø§ÙħØ§ÙĨ",
        -9.911739089054322
      ],
      [
        "ĠÙħÙĨØ¯Ø±Ø¬Ûģ",
        -9.913136569256375
      ],
      [
        "Ø§Ú©ØªÙĪØ¨Ø±",
        -9.914031886986548
      ],
      [
        "ĠØ¢Ø¨",
        -9.914247905468887
      ],
      [
        "Ú¯Ø§ÙĨ",
        -9.914918920945862
      ],
      [
        "28",
        -9.915319944497634
      ],
      [
        "ÚĪØ±",
        -9.915504992147532
      ],
      [
        "Ø§Ø²",
        -9.916165967581238
      ],
      [
        "ĠØ§Ø¯Ø§Ø±ÙĪÚº",
        -9.916275272730218
      ],
      [
        "ĠÙħØ®Ø§ÙĦÙģØª",
        -9.916285058565725
      ],
      [
        "ĠØ®Ø§ÙĦØ¯",
        -9.917011792781903
      ],
      [
        "ad",
        -9.917105839521115
      ],
      [
        "ĠØªÛģØ°ÛĮØ¨",
        -9.917240722639734
      ],
      [
        "1971",
        -9.917559696326133
      ],
      [
        "ĠÚ©ÛĮÙ¾Ø±",
        -9.917586073564847
      ],
      [
        "ĠØ¨ÙĨØª",
        -9.91770560958535
      ],
      [
        "Ġ34",
        -9.91917690099175
      ],
      [
        "ĠÚ¯Ø¬Ø±Ø§Øª",
        -9.919423138944119
      ],
      [
        "ĠÙħÙĨØ¯",
        -9.919785933189873
      ],
      [
        "ĠÙģØ¶ÙĦ",
        -9.919921354335578
      ],
      [
        "Ø¨Ø§Ø±",
        -9.920054296567583
      ],
      [
        "ÙĪØ§ÙĤØ¹Ø§Øª",
        -9.92027749069034
      ],
      [
        "ĠÙħØ³ÛĮØŃÛĮ",
        -9.920934336239629
      ],
      [
        "ÛģÛĮ",
        -9.920942881397616
      ],
      [
        "ĠÙ¾ØªÛģ",
        -9.921246213076646
      ],
      [
        "ĠÙħØŃØ³ÙĪØ³",
        -9.922933781671587
      ],
      [
        "ĠØ®Ø§ØªÙħ",
        -9.922975441716465
      ],
      [
        "ĠØªØµÙĪÛĮØ±",
        -9.923583028784874
      ],
      [
        "ÙħÙĪØ¬ÙĪØ¯Ûģ",
        -9.923787494921688
      ],
      [
        "ĠØ®ÙĪØ¨ØµÙĪØ±Øª",
        -9.92413616491313
      ],
      [
        "ÙħØ´ÛĮ",
        -9.924432612148708
      ],
      [
        "ĠØ¬ÛĮØ³ÛĮ",
        -9.924769593118878
      ],
      [
        "ĠÚ¯Ø±ÛĮÙĨ",
        -9.925060648101699
      ],
      [
        "ĠÙĨØ¸Ø±ÛĮØ§Øª",
        -9.925657209090092
      ],
      [
        "ĠØŃØ±Ø§Ø±Øª",
        -9.925833098553717
      ],
      [
        "ĠØªØ®ÙĦÛĮÙĤ",
        -9.926406586444926
      ],
      [
        "ch",
        -9.926519562176995
      ],
      [
        "ÙĪÚ©",
        -9.928505884676204
      ],
      [
        "ĠØ¨ÛĮÚ¯Ùħ",
        -9.928669296965765
      ],
      [
        "ĠØ¹ÙħØ±ÙĪ",
        -9.929001772031244
      ],
      [
        "ĠÙ¾Úĳ",
        -9.929432701198635
      ],
      [
        "ĠÙģÙĦØ³ÙģÛĮ",
        -9.929920997304514
      ],
      [
        "Ø³Ø±ÛĮ",
        -9.930687226470178
      ],
      [
        "Ø³ØªÙħØ¨Ø±",
        -9.930956534334017
      ],
      [
        "ÙĤÙĪÙħÛĮ",
        -9.93209841103856
      ],
      [
        "ĠÙħØ³Ø§Ø¬Ø¯",
        -9.932999831748939
      ],
      [
        "ĠØ·ÙĦØ¨Ûģ",
        -9.933423164401137
      ],
      [
        "ĠÙĨÚ©ÙĦ",
        -9.934480014654039
      ],
      [
        "Ø¹Ø§Ùħ",
        -9.93506436933784
      ],
      [
        "Ø§ÙĨÛĴ",
        -9.936193535866597
      ],
      [
        "ĠÛĮØ§Ø¯Ú¯Ø§Ø±",
        -9.936488530169683
      ],
      [
        "Ø§ÛĮØ§",
        -9.93741590340125
      ],
      [
        "ĠÙħÙĦØ§Ø²ÙħØª",
        -9.937586910713955
      ],
      [
        "Ø§ÙħØ§Ùħ",
        -9.937601396119112
      ],
      [
        "ĠÙħÙĤÛĮÙħ",
        -9.939160901833452
      ],
      [
        "į",
        -9.939372376891288
      ],
      [
        "u",
        -9.940733679022518
      ],
      [
        "ĠØ¯ÛĮÙĨÛĮ",
        -9.940902500711752
      ],
      [
        "ĠØ¹Ø¨Ø§Ø³ÛĮ",
        -9.941921570213912
      ],
      [
        "ĠÙĨØ²Ø¯ÛĮÚ©",
        -9.942320342470357
      ],
      [
        "ÙħÙĪ",
        -9.942851264465467
      ],
      [
        "ĠÙĦØ´Ú©Ø±",
        -9.943977624233492
      ],
      [
        "http",
        -9.944600753254269
      ],
      [
        "ĠÙħÛģÛĮÙĨÛĴ",
        -9.944706720171872
      ],
      [
        "ĠØ§ÙĤØ³Ø§Ùħ",
        -9.945712927569529
      ],
      [
        "ĠÙĪØ§Ù¾Ø³ÛĮ",
        -9.945840163699007
      ],
      [
        "ĠÙ¹ÙĪÙ¹",
        -9.946765903210498
      ],
      [
        "ĠØªÙĪØ§ÙĨØ§Ø¦ÛĮ",
        -9.947006791109752
      ],
      [
        "Ø§ÙĨÚ¯Ø±ÛĮØ²",
        -9.947973700259945
      ],
      [
        "ĠÙħÙħØ¨Ø±",
        -9.948152194514217
      ],
      [
        "O",
        -9.94878871859224
      ],
      [
        "ĠØ§ÙĪÙĤØ§Øª",
        -9.949185495398021
      ],
      [
        "ĠÙĪÙģØ§ÙĤÛĮ",
        -9.949256305598881
      ],
      [
        "ĠØ¬ÛĮÙĨ",
        -9.949718082696272
      ],
      [
        "ĠØ¨Ø¯",
        -9.94975126837605
      ],
      [
        "ĠÚ©ÙħØ§ÙĦ",
        -9.950400781279779
      ],
      [
        "ĠÙĦØ§ÙĦ",
        -9.950445732082766
      ],
      [
        "ĠØ±ÛģØªÛĮ",
        -9.950745365584842
      ],
      [
        "ĠØ±Ø§Ø¬Ø§",
        -9.950808214316625
      ],
      [
        "L",
        -9.951401278491998
      ],
      [
        "ĠÚ©ÙĪÙĦÙħØ¨ÛĮØ§",
        -9.951874949249579
      ],
      [
        "ĠÙĦØ§Ø·ÛĮÙĨÛĮ",
        -9.951907017176866
      ],
      [
        "ÛģÛĮÙ¾ÙĦÙĪ",
        -9.952571877267255
      ],
      [
        "ØªØ¹ÙĦÛĮÙħ",
        -9.952736896419008
      ],
      [
        "ĠØ¨Ø§ÙĤØ§Ø¹Ø¯Ûģ",
        -9.953825855259872
      ],
      [
        "ÙĨÙĪÙħØ¨Ø±",
        -9.954098300293046
      ],
      [
        "ĠÚ©ÙħÙ¾ÛĮÙĪÙ¹Ø±",
        -9.95549641471537
      ],
      [
        "ĠÙģØ¶Ø§Ø¦ÛĮ",
        -9.955940171065592
      ],
      [
        "Ù¹ÙĪ",
        -9.957181196351804
      ],
      [
        "ĠÙħÙĦØªÛĮ",
        -9.957239018853558
      ],
      [
        "ĠÙĨÙĪØ§Ø²",
        -9.957797136672502
      ],
      [
        "ĠØªØµÙĨÛĮÙģ",
        -9.958060476555064
      ],
      [
        "st",
        -9.95828734854168
      ],
      [
        "ÛĮÙħ",
        -9.958717854369095
      ],
      [
        "ĠØ³ÙĪØ±Ø¬",
        -9.962415025681986
      ],
      [
        "ĠÙħÛĮ",
        -9.96257340227492
      ],
      [
        "ĠØ¨ÛĮØ¹Øª",
        -9.963300203034068
      ],
      [
        "ĠÙħØŃÙĤÙĤ",
        -9.96430349299579
      ],
      [
        "ĠØ·Ø¨",
        -9.964652672326539
      ],
      [
        "ĠØ³Ø§ÙĨ",
        -9.964941985408855
      ],
      [
        "ĠÚ©Ø´ÛĮ",
        -9.965037243188588
      ],
      [
        "Ø±Ø§Ø¬",
        -9.966145790872266
      ],
      [
        "Ø±Ûģ",
        -9.966665270988381
      ],
      [
        "et",
        -9.966673154146466
      ],
      [
        "ĠØ§ÛĮØ´ÛĮØ§Ø¦ÛĮ",
        -9.966961603326093
      ],
      [
        "ÙĨÛĮØ¨Ø±Ø§Ø³Ú©Ø§",
        -9.967419164606994
      ],
      [
        "ĠØ®Ø§Ú©",
        -9.967855319327974
      ],
      [
        "Ù¾ÙĦ",
        -9.967972343478218
      ],
      [
        "ĠØ§ÛĮÚĪ",
        -9.968260455523636
      ],
      [
        "ĠÙ¾Ø±ÛĮÙħÛĮØ¦Ø±",
        -9.968435956538874
      ],
      [
        "Ø¬ÙĨÚ¯",
        -9.969127404634827
      ],
      [
        "ĠÚ¯ÛĮØª",
        -9.96931150120512
      ],
      [
        "ĠØªØ¬ÙĪÛĮØ²",
        -9.96943060765696
      ],
      [
        "ĠÙĤØ¨ÛĮÙĦÛĴ",
        -9.969665185928294
      ],
      [
        "Ø±ÙĪØ³",
        -9.969987763395777
      ],
      [
        "Ø¢Ø¦ÛĮÚº",
        -9.970381615376594
      ],
      [
        "ÙĨØ²",
        -9.970501998253528
      ],
      [
        "ĠØ·Ø±ÛĮÙĤÛĴ",
        -9.970595063922344
      ],
      [
        "ĠØ¨ØŃØ±",
        -9.970705843009407
      ],
      [
        "ĠØªØŃÙģØ¸",
        -9.97102287140639
      ],
      [
        "ĠÚĨÙĦÛĮ",
        -9.972046613919726
      ],
      [
        "ÙĨØ¯Ú¯Ø§ÙĨ",
        -9.973034723438493
      ],
      [
        "ĠN",
        -9.973497767154566
      ],
      [
        "na",
        -9.974442482055192
      ],
      [
        "189",
        -9.975358043018232
      ],
      [
        "ĠØ¯ÛĮØ±",
        -9.975633162168075
      ],
      [
        "ĠØ§ÙģØ³Ø±",
        -9.975956156476665
      ],
      [
        "ĠÛĮÙĤÛĮÙĨ",
        -9.976276901112058
      ],
      [
        "1973",
        -9.976319356678433
      ],
      [
        "ĠÙħÙĨØ¸ÙĪØ±",
        -9.976561127182295
      ],
      [
        "ĠÛģÛĮÙħÙ¾",
        -9.976663089135283
      ],
      [
        "ĠÙĦÛģØ°Ø§",
        -9.977442023683672
      ],
      [
        "ĠØ³ÙĪØ³Ø§Ø¦Ù¹ÛĮ",
        -9.9775049927958
      ],
      [
        "is",
        -9.978168938540037
      ],
      [
        "ra",
        -9.978229119278211
      ],
      [
        "ĠØ³ÙģÛĮØ¯",
        -9.978432502912142
      ],
      [
        "ĠØŃØ±Ú©Øª",
        -9.978870226993148
      ],
      [
        "#",
        -9.980211792045218
      ],
      [
        "ĠØºØ§Ø²ÛĮ",
        -9.980743416532281
      ],
      [
        "ĠØªØ°Ú©Ø±Ûģ",
        -9.981073273333635
      ],
      [
        "ĠÛģÙĪÚ¯ÛĮ",
        -9.982519946724604
      ],
      [
        "1945",
        -9.982638120637555
      ],
      [
        "ĠØ¨Ø§Ø¨Ø§",
        -9.982812520763378
      ],
      [
        "ĠØ¨Ø±ÛĮ",
        -9.98324738975622
      ],
      [
        "187",
        -9.98353341418344
      ],
      [
        "ÙĪÙħ",
        -9.983890020591426
      ],
      [
        "ĠØ³Ø§Ø±ÛĮ",
        -9.985136839387792
      ],
      [
        "ĠØŃÙĤÛĮÙĤÛĮ",
        -9.98526239198555
      ],
      [
        "Ø¨ÙĨÙĨÛĴ",
        -9.985738293313032
      ],
      [
        "ĠØ³Ø§ÙĦÛģ",
        -9.986153870272902
      ],
      [
        "ĠÙħÛĮØ§Úº",
        -9.986221900029843
      ],
      [
        "ĠØ§Ø¯Ø§Ú©Ø§Ø±ÛĮ",
        -9.986336268945436
      ],
      [
        "ĠØ¬Ø¹ÙģØ±",
        -9.98781763334664
      ],
      [
        "ĠØ³Ø¨Ú¾Ø§",
        -9.988019477021231
      ],
      [
        "ĠØ®Ø·Ø±",
        -9.988541415962098
      ],
      [
        "ĠØ°Ø§ØªÛĮ",
        -9.988727627929137
      ],
      [
        "1940",
        -9.989745272111684
      ],
      [
        "il",
        -9.989977177848807
      ],
      [
        "ĠØªÛĮØ²ÛĮ",
        -9.990454935240948
      ],
      [
        "id",
        -9.99099480999207
      ],
      [
        "ĠÚ©Ø§Ø±ÙĪØ¨Ø§Ø±",
        -9.991794126994591
      ],
      [
        "ĠÛģÙĪÚ¯Ø¦ÛĮ",
        -9.991799768183217
      ],
      [
        "Ø®Ø§ÙĨ",
        -9.992159041501862
      ],
      [
        "ĠØ¨Ø±Ø§Ø¯Ø±ÛĮ",
        -9.992305104221876
      ],
      [
        "ĠØ¯Ø±Ø¨Ø§Ø±",
        -9.992466947010023
      ],
      [
        "Ú©ÙĨØ§ÙĦÙĪØ¬ÛĮ",
        -9.99426398914732
      ],
      [
        "W",
        -9.994591336113778
      ],
      [
        "1974",
        -9.994593079363165
      ],
      [
        "ĠØ¹Ø¨Ø§Ø¯Øª",
        -9.995359173219471
      ],
      [
        "ĠØ¨ÛĮÚĨ",
        -9.995426377699957
      ],
      [
        "ĠØŃØ¶ÙĪØ±",
        -9.996277852311797
      ],
      [
        "ĠÙĪØ§ÙĦØ¯ÛĮÙĨ",
        -9.997437021856445
      ],
      [
        "Ø¦Ø±",
        -9.997585226427383
      ],
      [
        "Ø¹ÙĦÛĮ",
        -9.998566072614171
      ],
      [
        "ĠÙħÙĤØ¯Ø§Ø±",
        -9.999122486853032
      ],
      [
        "ĠØ¹Ø¬Ø§Ø¦Ø¨",
        -9.999848094125714
      ],
      [
        "ĠØ¨Ø®Ø§Ø±ÛĮ",
        -10.000137131806893
      ],
      [
        "ĠØ¨ÙĦØ§",
        -10.000401646093966
      ],
      [
        "ĠØ¨ÙĨØ¯Ø±Ú¯Ø§Ûģ",
        -10.00144705538074
      ],
      [
        "ĠØŃØ±ÙĪÙģ",
        -10.001450387600086
      ],
      [
        "it",
        -10.001690829052333
      ],
      [
        "ĠÛģØ§ÙĦ",
        -10.002566003237192
      ],
      [
        "Ú¯ÙĨ",
        -10.003420636371262
      ],
      [
        "ĠÛģÙĪÚ©Ø±",
        -10.00379905231707
      ],
      [
        "ÙĨÛĮÙĪØ²ÛĮ",
        -10.006304462909846
      ],
      [
        "ity",
        -10.00636455157159
      ],
      [
        "ĠÙĨÙħØ§ÛĮØ§",
        -10.006554480062002
      ],
      [
        "00",
        -10.006637054615595
      ],
      [
        "ĠÙģØ±ÛĮ",
        -10.007456188757931
      ],
      [
        "ĠÙģÙĪØ±Ø§",
        -10.007662367456026
      ],
      [
        "ÙĪÙĨÛĮ",
        -10.00768863764268
      ],
      [
        "ĠØ§ÙĨØ¯Ø§Ø²Ûģ",
        -10.008459717724541
      ],
      [
        "ĠØ±ÛĮÚĪ",
        -10.008464716763754
      ],
      [
        "ĠÙħÙģØªÛĮ",
        -10.008992009063004
      ],
      [
        "ĠØ§ÛĮÙħØ§ÙĨ",
        -10.00900602740787
      ],
      [
        "Ø§Ø¨ÙĨ",
        -10.010331910115854
      ],
      [
        "ĠÙ¾ÛĮÙ¾ÙĦØ²",
        -10.010335185448383
      ],
      [
        "ĠÙħÙħØ¨Ø¦ÛĮ",
        -10.01190860452556
      ],
      [
        "ĠØ¨Ú©Ø±",
        -10.012280960923626
      ],
      [
        "ĠØŃØ¬",
        -10.01250291424066
      ],
      [
        "ĠØªÙħØºØ§",
        -10.012505359420887
      ],
      [
        "ÙĪØª",
        -10.012569776566032
      ],
      [
        "ĠØ¯Ø³ØªØ®Ø·",
        -10.012588608020467
      ],
      [
        "Ø§Ùģ",
        -10.01354601583862
      ],
      [
        "ĠØ¨ØºØ¯Ø§Ø¯",
        -10.013821751883928
      ],
      [
        "ĠÛĮÚ©Ùħ",
        -10.014053689174059
      ],
      [
        "ĠÚ©Ú¾ÙĪ",
        -10.015157033104193
      ],
      [
        "ÛĮØ§ÙĨ",
        -10.015389886376392
      ],
      [
        "ĠØ±Ø®",
        -10.01553139151374
      ],
      [
        "ĠÙ¾Ø±Ø³Øª",
        -10.016597729905566
      ],
      [
        "DNA",
        -10.016814541797881
      ],
      [
        "ĠÚ©ÙħØ§ÙĨÚĪØ±",
        -10.01762182439956
      ],
      [
        "ĠÙ¾Ú©Úĳ",
        -10.017924503388844
      ],
      [
        "ĠØ§Ø¹ØªØ¨Ø§Ø±",
        -10.018452895608691
      ],
      [
        "ÛģÛĴ",
        -10.018966820955104
      ],
      [
        "ĠÚ©ÙĪÚĪ",
        -10.019252927985997
      ],
      [
        "Ù¾Ø§Ø±ÙĦÛĮÙħØ§ÙĨ",
        -10.019276096060796
      ],
      [
        "ĠÙģØ§Ø±Ø³",
        -10.019873017008315
      ],
      [
        "ĠØ¹Ø²ÛĮØ²",
        -10.02021763907421
      ],
      [
        "ĠØ¨Ú©",
        -10.020641595783065
      ],
      [
        "ÙĤØ¯ÛĮÙħ",
        -10.020840658120001
      ],
      [
        "ĠÙģØ±ÙĪØ®Øª",
        -10.021569661312018
      ],
      [
        "ĠØ¯ÛĮÙĪ",
        -10.023053465500546
      ],
      [
        "1930",
        -10.023424119256859
      ],
      [
        "ĠØ¨Ø§Ø¤ÙĦÙĨÚ¯",
        -10.023545331003838
      ],
      [
        "ĠÙĦÙĤØ¨",
        -10.0236884563765
      ],
      [
        "ĠÚ©Ø±Ø¨ÙĦØ§",
        -10.024653755565822
      ],
      [
        "ĠÙĦÚĳÚ©ÛĮ",
        -10.024870151301798
      ],
      [
        "ĠØ§ÙĦÛĮÙĪÙĨ",
        -10.02576991229462
      ],
      [
        "ĠÛģÙ¹",
        -10.025841597366435
      ],
      [
        "ĠØ¨Ø§Ø¤ÙĦØ±",
        -10.025932400815815
      ],
      [
        "ĠØ¨ØŃØ«",
        -10.026096006303398
      ],
      [
        "ÙĲÙĳ",
        -10.026997301722941
      ],
      [
        "ĠÚĨÚ©",
        -10.027222760607657
      ],
      [
        "ÙĤØ¯Ø±ØªÛĮ",
        -10.027601377144244
      ],
      [
        "ÙĦÛĮÚ©ÙĨ",
        -10.029509551081315
      ],
      [
        "ĠØºØ§ÙĦØ¨",
        -10.029602270203949
      ],
      [
        "ĠÙħØ¹Ø§ÙħÙĦØ§Øª",
        -10.029991392338802
      ],
      [
        "ĠÙħØ¹ÛĮØ´Øª",
        -10.030143603014338
      ],
      [
        "Ø§Ø²Ø¨Ú©Ø³ØªØ§ÙĨ",
        -10.03054014496741
      ],
      [
        "Ø³ÛĮØ§Ø³ÛĮ",
        -10.030747935459328
      ],
      [
        "ĠÙ¾ÚĳÚ¾",
        -10.030944142397903
      ],
      [
        "ĠØ¬ÙĨØ³",
        -10.031473182081221
      ],
      [
        "ĠØ§ÙħÙ¾Ø§Ø¦Ø±",
        -10.031575560846147
      ],
      [
        "ĠØ¯Ø§Ø®ÙĦÛģ",
        -10.031913006697547
      ],
      [
        "ÙĪØ§Ø±",
        -10.033342507325116
      ],
      [
        "ly",
        -10.03389895742337
      ],
      [
        "ÚĨØ§",
        -10.03473453756812
      ],
      [
        "ĠØ¯ÙģØ¹",
        -10.035189545353585
      ],
      [
        "ĠØ±ÙĪØŃ",
        -10.035363015993013
      ],
      [
        "ĠÙ¾Ø±ÛĮØ³",
        -10.035745831004972
      ],
      [
        "ĠØ¨Ú¾Ø§Ú¯",
        -10.035832072460433
      ],
      [
        "ĠÙħØ¹ÛĮØ§Ø±",
        -10.035844952938294
      ],
      [
        "ĠÚ¯ÙĦÛĮ",
        -10.036509931652667
      ],
      [
        "ĠÙĪÛĮÙĦ",
        -10.036902663595582
      ],
      [
        "ĠØ§Ø³Ù¹ÛĮÚĪÛĮÙħ",
        -10.037382223384006
      ],
      [
        "ĠØ¨ÛģØ§Ø¯Ø±",
        -10.038326394964084
      ],
      [
        "ĠÚ©Ø§ÙĨÙģØ±ÙĨØ³",
        -10.038457017965218
      ],
      [
        "ĠØ³Ø§Ø²ÛĮ",
        -10.039066382256193
      ],
      [
        "ĠØ¹ÙħØ±Ø§ÙĨ",
        -10.039770097325631
      ],
      [
        "ĠÙħÛģØ±",
        -10.040448942388883
      ],
      [
        "ĠØºØ²ÙĦ",
        -10.040540812136756
      ],
      [
        "ĠØ³Ø±Ø²ÙħÛĮÙĨ",
        -10.041307685447098
      ],
      [
        "Ø³Ø§ÙĨ",
        -10.043740550836525
      ],
      [
        "ÚĪØ§",
        -10.044727495444132
      ],
      [
        "ĠØ§ÙĦÙģ",
        -10.044922749160438
      ],
      [
        "ĠØ´Ø±Ø§Ú©Øª",
        -10.045138470205764
      ],
      [
        "ĠØ§ÙĪØ±ÛĮÚ¯ÙĪÙĨ",
        -10.046113110159638
      ],
      [
        "ĠÚ©ÙĪØ±Ù¹",
        -10.046175315281626
      ],
      [
        "ĠØµØŃØ§Ø¨Ûģ",
        -10.04625444209585
      ],
      [
        "ĠØ³ÙĦÛĮÙħ",
        -10.046734436569043
      ],
      [
        "ĠÙ¾ÙĪØ±Ù¹",
        -10.048077437020636
      ],
      [
        "ĠØ¹Ø¯Ùħ",
        -10.049309897888616
      ],
      [
        "1972",
        -10.049379047711628
      ],
      [
        "Ø²Ùħ",
        -10.04976812646987
      ],
      [
        "ĠÛĮØ§ÙģØªÚ¯Ø§ÙĨ",
        -10.052197964660417
      ],
      [
        "style",
        -10.05219803059692
      ],
      [
        "ĠØ§Ø³Ù¹ÛĮÙ¹",
        -10.052360153299546
      ],
      [
        "ĠÙĤÙĪØ§ÙĨÛĮÙĨ",
        -10.052432375392307
      ],
      [
        "ĠØ¬ÙĦØ§ÙĦ",
        -10.052634382799045
      ],
      [
        "ĠØ³ÚĪÙĨÛĮ",
        -10.052654342065242
      ],
      [
        "V",
        -10.052656369169675
      ],
      [
        "ĠØ¢Ø³Ù¹Ø±ÛĮØ§",
        -10.052733076103788
      ],
      [
        "Ġ32",
        -10.052769195596678
      ],
      [
        "ĠÙĪÚ©Ù¹ÙĪØ±ÛĮ",
        -10.052934661076733
      ],
      [
        "ĠÙ¾Ø±Ø³ØªÛĮ",
        -10.053639320085662
      ],
      [
        "ĠØ¬Ø¯ÙĪØ¬ÛģØ¯",
        -10.053655397900632
      ],
      [
        "ĠÚĨ",
        -10.054197434843257
      ],
      [
        "Ø§ØµØ·ÙĦØ§ØŃØ§Øª",
        -10.054454167476571
      ],
      [
        "ation",
        -10.054811603282094
      ],
      [
        "ĠØ§ÙħØ±",
        -10.054868509650674
      ],
      [
        "ĠØ¯Ø±Ø³Øª",
        -10.054932486720418
      ],
      [
        "ic",
        -10.055010520123464
      ],
      [
        "ĠØ¬ÛĮÙĦ",
        -10.055375703627293
      ],
      [
        "ĠØ§Ø¨ÛģØ§Ùħ",
        -10.055547798010881
      ],
      [
        "ri",
        -10.056206802851506
      ],
      [
        "ĠÙĨÛĮÙĪÛĮØ§Ø±Ú©",
        -10.057136452696774
      ],
      [
        "ÙħÛĮØ±ÛĮ",
        -10.057589369010103
      ],
      [
        "ĠØ¢Ù¾Ø±ÛĮØ´ÙĨ",
        -10.057728845644792
      ],
      [
        "ÛģÙĪ",
        -10.058107513389917
      ],
      [
        "ĠØ¨Ø§ÙĦØ¢Ø®Ø±",
        -10.05868733631538
      ],
      [
        "ĠÙĨØ§ØµØ±",
        -10.058731414294517
      ],
      [
        "di",
        -10.060543308619105
      ],
      [
        "1981",
        -10.060746283620052
      ],
      [
        "Ġ184",
        -10.061138222681311
      ],
      [
        "$",
        -10.061709619953234
      ],
      [
        "ĠÚ©Ø´",
        -10.061926983340054
      ],
      [
        "ĠÚ¯ÙĪØ±ÙĨÙħÙĨÙ¹",
        -10.062474228721594
      ],
      [
        "ÛĮØ´",
        -10.062953561083894
      ],
      [
        "Ú©Ùħ",
        -10.0630257386544
      ],
      [
        "ĠØ²Ø±",
        -10.064407781048427
      ],
      [
        "ĠØ®Ø§ÙĨÛĴ",
        -10.065745516302336
      ],
      [
        "ĠØ§ÛĮØ³Ù¹",
        -10.066353892517213
      ],
      [
        "ĠÚ¯Ø±ÙĪ",
        -10.066726481455845
      ],
      [
        "ĳ",
        -10.06700094449792
      ],
      [
        "ĠØºÙĦØ·",
        -10.067810045279588
      ],
      [
        "ĠÚ©ÙĪÙ¹",
        -10.06829151446781
      ],
      [
        "Ø§Ú¯Ø±",
        -10.068726917547947
      ],
      [
        "Ø§ØªÛĮ",
        -10.069413510100754
      ],
      [
        "ĠØ¨ÛĮÚ¯",
        -10.06945451802124
      ],
      [
        "Ġ191",
        -10.069679684747566
      ],
      [
        "ĠØ³Ø§ØªÚ¾ÛĮ",
        -10.0700660244778
      ],
      [
        "Ø®Ø§Ø±Ø¬Ûģ",
        -10.070926130903757
      ],
      [
        "ĠØ¨Ú¾ÛĮØ¬",
        -10.071346203057796
      ],
      [
        "ĠÚĨØ§ÛģØªÛĴ",
        -10.072173159250287
      ],
      [
        "mina",
        -10.073070382158999
      ],
      [
        "ĠØ§Ø·ÙĦØ§Ø¹",
        -10.073198769304742
      ],
      [
        "ĠÙħÙĪØ¬ÙĪØ¯Ú¯ÛĮ",
        -10.073260386333137
      ],
      [
        "Ġ()",
        -10.074586377312084
      ],
      [
        "ÙħØ¹",
        -10.075017481165105
      ],
      [
        "ĠØ¨Ø³ØªÛĮ",
        -10.075026557084227
      ],
      [
        "ĠÙĨØ§Ù¹",
        -10.075367465993512
      ],
      [
        "ÛĮØ§Øª",
        -10.075822049416129
      ],
      [
        "ĠÙ¾ÛģÙĦÙĪ",
        -10.07593708562445
      ],
      [
        "200",
        -10.076060486076567
      ],
      [
        "ĠÚ¯Ø±Ø¯ÛĮ",
        -10.076865249555219
      ],
      [
        "ĠÙħØ¶Ø§ÙģØ§Øª",
        -10.077354823986381
      ],
      [
        "Ø±Ø§Ùħ",
        -10.077451146510311
      ],
      [
        "ĠØ¯ÛĮÙĪÛĮ",
        -10.07796425182206
      ],
      [
        "ĠÚ©ÙĦÙĪ",
        -10.07828624700515
      ],
      [
        "ĠÚ©Ø±ÙĨØ³ÛĮ",
        -10.078826870919096
      ],
      [
        "ĠØ³Ûģ",
        -10.078979799999058
      ],
      [
        "ĠØ®ÙĪÙģ",
        -10.07901200535446
      ],
      [
        "ĠÚĪØ±Ø¨ÛĮ",
        -10.079236652236524
      ],
      [
        "ÙĬÙĨ",
        -10.079708173107623
      ],
      [
        "ĠØ³ÙĨØ¯",
        -10.079878715546055
      ],
      [
        "ÙģØ§Ø¦Ø¯Ûģ",
        -10.08015508627899
      ],
      [
        "ĠØ±ÙĪØŃØ§ÙĨÛĮ",
        -10.08036331646814
      ],
      [
        "ĠØ±ÙĨ",
        -10.080842221877674
      ],
      [
        "ĠØ³ÙĪØ§ÙĦ",
        -10.081149848812007
      ],
      [
        "ta",
        -10.082305966093855
      ],
      [
        "Ø§ÙĨÚĪÛĮØ§ÙĨØ§",
        -10.082529872351271
      ],
      [
        "Ø§Ø±Ø§Ú©ÛĮÙĨ",
        -10.082536326021607
      ],
      [
        "ĠØ§ØªÙģØ§ÙĤ",
        -10.083034050278789
      ],
      [
        "33",
        -10.083509754295783
      ],
      [
        "ĠÙĦÛĮØªÛĴ",
        -10.08364353401464
      ],
      [
        "ĠØ§ÙĦØ±ØŃÙħÙĨ",
        -10.083816022684886
      ],
      [
        "ĠØ¢ÛģØ³Øª",
        -10.084770322053014
      ],
      [
        "ĠØªÚ¾ÛĮÙ¹Ø±",
        -10.08518098919458
      ],
      [
        "Ú©ÙĪÙ¹",
        -10.085910758461551
      ],
      [
        "Ø§ÙĦÙĦÛģ",
        -10.086083216247928
      ],
      [
        "Ø§Ø³Ø±Ø§Ø¦ÛĮÙĦÛĮ",
        -10.086284199845103
      ],
      [
        "Ù¹Ø³",
        -10.086319285648644
      ],
      [
        "mt",
        -10.0863445977154
      ],
      [
        "ÙĪØ²",
        -10.08702755860654
      ],
      [
        "Ġ||",
        -10.087387063622286
      ],
      [
        "ĠÙħÙĦÚ©Ûģ",
        -10.087433324115104
      ],
      [
        "ĠØ±Ø¯",
        -10.087772736695516
      ],
      [
        "ĠÙħÙĪØ§Ø¯",
        -10.08803673874884
      ],
      [
        "ÙģØ§",
        -10.088597241903539
      ],
      [
        "ĠØµØ¨ØŃ",
        -10.088631047628548
      ],
      [
        "Ġ70",
        -10.089084190062907
      ],
      [
        "ĠÙħÙĨØµÙĪØ¨ÛĴ",
        -10.089188322070349
      ],
      [
        "ĠÙħØŃØ¶",
        -10.089415178432057
      ],
      [
        "ĠØ§ØªØŃØ§Ø¯ÛĮ",
        -10.089460970591647
      ],
      [
        "Ø¨Ø±ÛĮ",
        -10.089537113916244
      ],
      [
        "ĠÙĨØ§Ø±ØªÚ¾",
        -10.090302299720692
      ],
      [
        "ĠÙħØ¸Ø§ÛģØ±Ûģ",
        -10.091230514617866
      ],
      [
        "185",
        -10.091912883554523
      ],
      [
        "ĠÙħØ¹Ø§Ø´Ø±Øª",
        -10.092609085519392
      ],
      [
        "ĠØŃÙģØ§Ø¸Øª",
        -10.093447190696661
      ],
      [
        "ĠÛģÛĮÚĪ",
        -10.093589363046366
      ],
      [
        "v",
        -10.093916703567649
      ],
      [
        "ĠØ³ÙĪÙĦ",
        -10.094091426544024
      ],
      [
        "ĠØ¹ÙĪØ¶",
        -10.094255417558626
      ],
      [
        "ĠØ§ÙĦØ³",
        -10.094321435256553
      ],
      [
        "ĠØ¯Ø³ØªÛĮØ§Ø¨",
        -10.094330858324486
      ],
      [
        "ĠØ¨ÛĮÙĦ",
        -10.0946835283445
      ],
      [
        "ĠÙģØ§Ø¦Ø²",
        -10.095022140200683
      ],
      [
        "ĠÙħØ¹Ø§Ø´Ø±ÛĴ",
        -10.095354384819995
      ],
      [
        "ĠØ¬Ùħ",
        -10.095510602403191
      ],
      [
        "ĠØ²ÙĪÙĨ",
        -10.095817727363853
      ],
      [
        "ĠØŃØ§ÙħÛĮ",
        -10.09590829019681
      ],
      [
        "ĠÙħØµØ±ÛĮ",
        -10.095922638889007
      ],
      [
        "Ø§ÛĴ",
        -10.096716997794422
      ],
      [
        "ĠÙĪÙĦÛĮÙħ",
        -10.096750374890863
      ],
      [
        "ĠØ§ÙĦØŃÙĤ",
        -10.097364780350167
      ],
      [
        "ÙĪØ§ÙĨ",
        -10.098201645707555
      ],
      [
        "ĠØ§ÛĮÚĪÛĮØ´ÙĨ",
        -10.098439632015726
      ],
      [
        "ĠØ³Ø§ÙĦØ§ÙĨÛģ",
        -10.098464314015981
      ],
      [
        "ĠØ¨ÛĮÙħØ§Ø±ÛĮ",
        -10.09878436664263
      ],
      [
        "ĠØ§ÛĮÙĪØ§ÙĨ",
        -10.099472186420737
      ],
      [
        "at",
        -10.10188290160383
      ],
      [
        "Ø´Ø§Ûģ",
        -10.102309844263834
      ],
      [
        "ÙģÙĨ",
        -10.10257061008852
      ],
      [
        "Ø¬Ø§ÙħØ¹Ûģ",
        -10.103450874255785
      ],
      [
        "ĠØ§Ø¯ÛĮØ¨",
        -10.10353967424093
      ],
      [
        "ĠØ¯ÛĮÚ©Ú¾ÙĨÛĴ",
        -10.103620910709502
      ],
      [
        "Ġ80",
        -10.103703150550281
      ],
      [
        "ĠÛģØ³Ù¾Ø§ÙĨÛĮ",
        -10.104605356025903
      ],
      [
        "ĠØ¨ÙĦØ¯ÛĮ",
        -10.104766365961554
      ],
      [
        "ĠØ¹ÙĦØ§Ø¬",
        -10.105536323970558
      ],
      [
        "Ø±Ø§Ø¨Ø·Ûģ",
        -10.1056423212688
      ],
      [
        "Ú©Ø§ÙĨ",
        -10.105745363023631
      ],
      [
        "ĠÚ©Ú¾Ø§ÙĨÛĴ",
        -10.106058948593628
      ],
      [
        "ĠØ¯ÛĮÙĪØ§Ø±",
        -10.10632010114615
      ],
      [
        "ĠØ´Ø§ÛĮØ¯",
        -10.106377886552718
      ],
      [
        "ĠØ®ÛĮØ±",
        -10.106942841364116
      ],
      [
        "Ù¾ÙĪ",
        -10.107086630164984
      ],
      [
        "ĠÙĪÛĴ",
        -10.10729841920327
      ],
      [
        "ĠØ¢Ø±ÚĪØ±",
        -10.10736673143001
      ],
      [
        "Ø°Ø§",
        -10.10978206316131
      ],
      [
        "ĠÛģÙĪÚ¯ÛĮØ§",
        -10.110197258529983
      ],
      [
        "ĠØ¬ÚĳÙĪØ§",
        -10.110906776945754
      ],
      [
        "31",
        -10.11112337194906
      ],
      [
        "Ø§ÙĤ",
        -10.113073384034905
      ],
      [
        "ÙħÛģ",
        -10.113172661599547
      ],
      [
        "ÙĪØ´",
        -10.113539219832532
      ],
      [
        "05",
        -10.113609262104013
      ],
      [
        "ĠÙ¾Ø²ÛĮØ±",
        -10.113758482164648
      ],
      [
        "ĠØªØ§Ø±Ú©ÛĮ",
        -10.114060984936422
      ],
      [
        "ÙħØ§Ø¶ÛĮ",
        -10.115779159206777
      ],
      [
        "ĠØªØµØ¯ÛĮÙĤ",
        -10.116110817936075
      ],
      [
        "ĠÙģØ§Ø±",
        -10.116774384808544
      ],
      [
        "âĢĻâĢĻ",
        -10.116820212302422
      ],
      [
        "Ø¨Ø´ÙħÙĪÙĦ",
        -10.116897786259685
      ],
      [
        "Ù¾Ø±ÙĪÚĪÛĮÙĪØ³Ø±",
        -10.119591053634394
      ],
      [
        "ĠØ¨ÙĪÙĦÙĨÛĴ",
        -10.11965477665082
      ],
      [
        "Ġ33",
        -10.120033735347631
      ],
      [
        "Ø³Ø¨",
        -10.120267338085238
      ],
      [
        "ÙĦØ§Ø¦Ø¨Ø±ÛĮØ±ÛĮ",
        -10.12115181404581
      ],
      [
        "ĠØ¬ÙĨÚ¾",
        -10.121446349980504
      ],
      [
        "ĠØªÛģÙĪØ§Ø±",
        -10.121580547010609
      ],
      [
        "ĠØ´ÛģØ§Ø¯Øª",
        -10.122267214889952
      ],
      [
        "ÛĮØ³Ø§ÚĨÙĪØ³Ù¹Ø³",
        -10.122713397950074
      ],
      [
        "ĠÙ¹Ø±Ø§ÙĨØ³",
        -10.122736390858032
      ],
      [
        "Ø³ÙĨØ¯Ú¾",
        -10.122777315959764
      ],
      [
        "2000",
        -10.123386675289275
      ],
      [
        "ĠØ¯Ø³ØªØ§ÙĪÛĮØ²",
        -10.124335396766657
      ],
      [
        "192",
        -10.124469915665793
      ],
      [
        "ĠØ³ÙĨØ¯Ú¾ÛĮ",
        -10.125389477233877
      ],
      [
        "ĠØ¯ÙģÙĨ",
        -10.125908686359917
      ],
      [
        "ĠÙħØ³ÙĦØŃ",
        -10.12619402745154
      ],
      [
        "Ø§Ú©",
        -10.12676996867492
      ],
      [
        "ĠÙĪØ¶Ø§ØŃØª",
        -10.12690306586095
      ],
      [
        "Ġon",
        -10.129905973828272
      ],
      [
        "Ù¾Ø§Ø±ÙĦÛĮÙħÙĨÙ¹",
        -10.130952996555536
      ],
      [
        "ia",
        -10.13128906551
      ],
      [
        "Ø§Ø¦ÙĨ",
        -10.131463755728577
      ],
      [
        "ĠÚ©ÙĪÙĨ",
        -10.131568748193896
      ],
      [
        "ĠØ¨ÙĨÙĪ",
        -10.131627612842976
      ],
      [
        "ĠÙĨÙĪÛĮØ³",
        -10.132480972220307
      ],
      [
        "ĠÚ©ÛĮØªÚ¾ÙĪÙĦÚ©",
        -10.132775079683519
      ],
      [
        "ĠØ¯Ø§",
        -10.132869797700561
      ],
      [
        "ÙħÙĦØ§Ø¦ÛĮØ´ÛĮØ§",
        -10.133127614271427
      ],
      [
        "ĠØ±Ø³Ùħ",
        -10.133212593786695
      ],
      [
        "ĠØ¯Ø¹Ø§",
        -10.133535907771092
      ],
      [
        "ĠØ®ÙĪØ§ÛģØ´",
        -10.1336001535756
      ],
      [
        "ÙĪÛĮØ³Ù¹",
        -10.134299933166055
      ],
      [
        "190",
        -10.135297578293516
      ],
      [
        "Ø²Ø§",
        -10.136094885401931
      ],
      [
        "ÛĮØ¯",
        -10.136620486420572
      ],
      [
        "ĠØ´Ø§ÙĨØ¯Ø§Ø±",
        -10.136992812422378
      ],
      [
        "ĠØªÛĮØ§Ø±ÛĮ",
        -10.137519601020207
      ],
      [
        "ĠÙħØ±ØªØ¨",
        -10.137807906348907
      ],
      [
        "ĠØ´Ø§ÙĨ",
        -10.137997382471095
      ],
      [
        "ĠØ§ÛĮØ´",
        -10.13805305973187
      ],
      [
        "ĠØ±Ø§Ø¦ÙĦ",
        -10.138408048941729
      ],
      [
        "ĠÙħØ³Ø¹ÙĪØ¯",
        -10.138496402726538
      ],
      [
        "ĠÚ©Ø±Ø§Ùħ",
        -10.138620764236363
      ],
      [
        "ĠÚĪØ¨ÙĦÛĮÙĪ",
        -10.139208416631888
      ],
      [
        "ĠÙħØ³Ø¦ÙĦÛģ",
        -10.139679132920438
      ],
      [
        "ĠÙħØ±Ø§Ú©Ø´",
        -10.140308789008689
      ],
      [
        "ÙħØ§Ø±",
        -10.140408999302174
      ],
      [
        "1964",
        -10.140471354214924
      ],
      [
        "ĠØ¨ÙĦÙĪÚĨ",
        -10.140543348300126
      ],
      [
        "ÙħÙħÙĦÚ©Øª",
        -10.140829746184938
      ],
      [
        "ĠÙħÙĨØ²ÙĦ",
        -10.141011485377376
      ],
      [
        "ÙģØ±Ø§ÙĨØ³",
        -10.1416725109871
      ],
      [
        "ĠØ±ÙĪÙħÙĨ",
        -10.14174998287595
      ],
      [
        "ĠØ¯ÙĦÚĨØ³Ù¾ÛĮ",
        -10.141962557892402
      ],
      [
        "ĠØ·ÙĦØ¨",
        -10.142104129749123
      ],
      [
        "R",
        -10.142874345079067
      ],
      [
        "ĠÙĨÙĪÙ¹",
        -10.144357116075021
      ],
      [
        "ĠÙ¾Ú¾ÙĪÙĦ",
        -10.144871912093784
      ],
      [
        "ĠØªÛģØ±Ø§ÙĨ",
        -10.145634597224284
      ],
      [
        "ĠÙ¾Ø§Ø´Ø§",
        -10.145920625887584
      ],
      [
        "ĠÙ¾Ú¾ÙĦ",
        -10.146742848304084
      ],
      [
        "ĠØªØ´Ø±ÛĮÙģ",
        -10.14765966866725
      ],
      [
        "ĠÙĤØ§Ø¯Ø±ÛĮ",
        -10.147668710928302
      ],
      [
        "ĠØ§ÙĤØªØµØ§Ø¯ÛĮ",
        -10.147852212204942
      ],
      [
        "ĠÙ¾Ûģ",
        -10.148917236068698
      ],
      [
        "ĠÚ©ÙħØ§Ø±",
        -10.149472920901104
      ],
      [
        "Ù¹Ú¾",
        -10.151421688741618
      ],
      [
        "ĠÙĨØ§ÙĤØ§Ø¨ÙĦ",
        -10.151693591413725
      ],
      [
        "se",
        -10.152823696766728
      ],
      [
        "ÙħÙĪØ±",
        -10.153467023887606
      ],
      [
        "ĠÙĤØ·Ø¨",
        -10.154179989281308
      ],
      [
        "Ø³ÙĦØ·ÙĨØª",
        -10.154618048806979
      ],
      [
        "ĠÙħØ§ØŃÙĪÙĦ",
        -10.15514555065736
      ],
      [
        "ĠØ¨ÚĳÚ¾Ø§",
        -10.156671031915483
      ],
      [
        "ĠØ³ÙĪÙħ",
        -10.15750352984992
      ],
      [
        "ÙĨÚĪÙĪÙĨÛĮØ´ÛĮØ§",
        -10.158644949947947
      ],
      [
        "ĠÙĤØ¨Ø±",
        -10.159009319090952
      ],
      [
        "Ù¾ÛģÙĦÛĮ",
        -10.159105165180346
      ],
      [
        "ÙĪÙ¹",
        -10.159260251113125
      ],
      [
        "ĠØ¢Ø³Ø§ÙĨ",
        -10.160615686905732
      ],
      [
        "ĠØ§ØŃØ§Ø¯ÛĮØ«",
        -10.162225393341863
      ],
      [
        "ĠÚ¯Ø±Ùħ",
        -10.162298398070988
      ],
      [
        "Ú©ÙĨØ³",
        -10.162419231853544
      ],
      [
        "ĠØ«Ø¨ÙĪØª",
        -10.162977025481162
      ],
      [
        "Ø¬ÚĳÙĪØ§",
        -10.163268022586841
      ],
      [
        "Ġ36",
        -10.164474401792486
      ],
      [
        "ĠÙĤØ¨Ø±Ø³ØªØ§ÙĨ",
        -10.164538384049845
      ],
      [
        "ĠØ¨Ùħ",
        -10.165067561312103
      ],
      [
        "ĠØ³Ø±Ø¨ÛĮØ§",
        -10.165439416792568
      ],
      [
        "ĠÙħÙĪØ³ÛĮÙĤØ§Ø±",
        -10.165977762343013
      ],
      [
        "ÚĳÛĮ",
        -10.166150094920678
      ],
      [
        "Ø±ÙĨ",
        -10.167072412798165
      ],
      [
        "ĠØ´Ø¹Ø±",
        -10.167227283384445
      ],
      [
        "ĠÙĨÚ¯Ø±Ø§ÙĨÛĮ",
        -10.167710874012178
      ],
      [
        "ĠÚ©Ù¾ØªØ§ÙĨÛĮ",
        -10.167801061748657
      ],
      [
        "ĠØ§ÙħØªÛĮØ§Ø²",
        -10.168058892580738
      ],
      [
        "Ĳ",
        -10.168157245386443
      ],
      [
        "ĠØºÙĪØ±",
        -10.168592977253637
      ],
      [
        "ir",
        -10.169761759614016
      ],
      [
        "Ø¬ÙħÙĪÚº",
        -10.170166112306074
      ],
      [
        "ĠÙģÙĦÙĪØ±ÛĮÚĪØ§",
        -10.170173247692919
      ],
      [
        "ÙĨÚ¯Ø§Ø±",
        -10.170249475368015
      ],
      [
        "ĠØºØ±ÛĮØ¨",
        -10.170250448646978
      ],
      [
        "Ġ41",
        -10.171008175371716
      ],
      [
        "ĠØ³ÙĨÚ¯",
        -10.171829085422019
      ],
      [
        "ĠØ§Ø¬ÙĦØ§Ø³",
        -10.172499834273335
      ],
      [
        "ĠÙħÙĨØ¸Ùħ",
        -10.172937284006348
      ],
      [
        "ĠØ§ØŃØªØ¬Ø§Ø¬",
        -10.17326284606511
      ],
      [
        "ĠÙ¾ÛĮÙ¹Ø±",
        -10.173586567834246
      ],
      [
        "ÙħØ¶Ø§ÙħÛĮÙĨ",
        -10.175076241577916
      ],
      [
        "ĠÙĨÚ¯Ø§Ø±ÛĮ",
        -10.175087640600424
      ],
      [
        "ĠØªÛĮÙĦ",
        -10.175564209068511
      ],
      [
        "ÙģØ§Ø·ÙħÛģ",
        -10.175663546168632
      ],
      [
        "Ø§Ø«Ø±Ø§Øª",
        -10.17593811393099
      ],
      [
        "ÙĦÙĨ",
        -10.17631255485158
      ],
      [
        "ÛĮÚ©Ø§",
        -10.17634638367267
      ],
      [
        "ÚĨÙĪØªÚ¾ÛĮ",
        -10.1773360854126
      ],
      [
        "ĠØ§Ù¹Ú¾",
        -10.177835407034667
      ],
      [
        "ĠJ",
        -10.178258284146903
      ],
      [
        "ÙĪÚĪ",
        -10.178289238447334
      ],
      [
        "ĠØ§ÙĪÙĪØ±",
        -10.178384174728318
      ],
      [
        "Ø¸",
        -10.17857186380532
      ],
      [
        "ĠØ§Ú©Ø§Ø¦ÛĮ",
        -10.178676418898537
      ],
      [
        "ĠØ§ÙĦÙĦ",
        -10.17869586018475
      ],
      [
        "06",
        -10.178876175444827
      ],
      [
        "ĠØŃØµÙĪÙĦ",
        -10.178987832108213
      ],
      [
        "ĠÚ©Ú¾ÚĳÛĴ",
        -10.179448264157937
      ],
      [
        "text",
        -10.179836212521113
      ],
      [
        "ĠÙĦØ³Ù¹",
        -10.179986802249028
      ],
      [
        "ĠÚ©Ú¾ÙĦ",
        -10.180524738230464
      ],
      [
        "Ø²ÛĮ",
        -10.180876974281855
      ],
      [
        "ĠØ³ÙħØ¬Ú¾ØªÛĴ",
        -10.18093062418596
      ],
      [
        "ĠâĢĶ",
        -10.181088213072854
      ],
      [
        "ĠÙ¾Ú¾ÛĮÙĦØ§",
        -10.182298430414168
      ],
      [
        "Ø³Ø§Ø¨ÙĤÛģ",
        -10.183444552589773
      ],
      [
        "Ø¯ÙĦ",
        -10.183474931984009
      ],
      [
        "ĠØ³Ø³Ù¹Ùħ",
        -10.183730457843371
      ],
      [
        "ĠÙħÙĬ",
        -10.183744913647065
      ],
      [
        "ĠÙģØ§ØµÙĦÛĴ",
        -10.184049972710081
      ],
      [
        "Ø£",
        -10.184328127554481
      ],
      [
        "Ġfor",
        -10.184413364409245
      ],
      [
        "Ġ42",
        -10.184565441850197
      ],
      [
        "&",
        -10.185599296962232
      ],
      [
        "º",
        -10.18577812387953
      ],
      [
        "ĠØ§ÛĮØ¬Ø§Ø¯",
        -10.186044041739537
      ],
      [
        "ĠÙĨÛĮÙĪØ²",
        -10.186211676356663
      ],
      [
        "ĠØ³Ø±Ø¨Ø±Ø§ÛģÛĮ",
        -10.187859735634515
      ],
      [
        "ĠÙħÛĮÚĪÛĮÚ©ÙĦ",
        -10.188536121458615
      ],
      [
        "ØªÙħ",
        -10.188941673369204
      ],
      [
        "ĠØªØ§Ø¬",
        -10.189144254741151
      ],
      [
        "ĠÙħØ¬Ú¾",
        -10.189407083875885
      ],
      [
        "Ø³Øª",
        -10.189707180506474
      ],
      [
        "ĠÙģÙĪØ±Ø³",
        -10.189902927012382
      ],
      [
        "ĠÚĨØ§ÙĨØ¯",
        -10.190258460810949
      ],
      [
        "ĠØ¹Ø§Ø¦Ø¯",
        -10.190647320215213
      ],
      [
        "ne",
        -10.190704429194447
      ],
      [
        "ĠÚĪÛĮØ²Ø§Ø¦ÙĨ",
        -10.191586831393703
      ],
      [
        "Ø¯ÙĪØ³Ø±ÛĮ",
        -10.191914260086714
      ],
      [
        "ĠØ§ØªÙĨØ§",
        -10.19214690366459
      ],
      [
        "ĠØ³Ø±Ø®",
        -10.192467854675861
      ],
      [
        "ĠØ³ÛĮØ§Ûģ",
        -10.192558085740794
      ],
      [
        "ÚĨÚ¾",
        -10.193826147409052
      ],
      [
        "ĠÚ©Ø±ÙĪÚĳ",
        -10.19499293343506
      ],
      [
        "ĠØ±ÛĮ",
        -10.195578180958899
      ],
      [
        "ĠØŃÛĮØ¯Ø±",
        -10.195894970415791
      ],
      [
        "ĠØ¹ÙĦÙħØ§Ø¡",
        -10.19598985565261
      ],
      [
        "ĠØ¯Ùħ",
        -10.196394243324418
      ],
      [
        "ĠØ´Ø§",
        -10.196424531947859
      ],
      [
        "ĠØ³Ø±ÙħØ§ÛĮÛģ",
        -10.19723062852748
      ],
      [
        "Ø´Ø±",
        -10.197697300110882
      ],
      [
        "ĠØ³Ú©Ø§",
        -10.198466965808997
      ],
      [
        "ĠØªÙĪØ³ÛĮØ¹",
        -10.198595633745912
      ],
      [
        "ĠÚ©Ø±ÙĦÛĮ",
        -10.198899709356475
      ],
      [
        "ĠØ¨Ø¬ÙĦÛĮ",
        -10.19968233576035
      ],
      [
        "Ġ183",
        -10.19987320870986
      ],
      [
        "ĠØ±ÙĪÙ¾ÛĴ",
        -10.20013971159463
      ],
      [
        "ĠØ§Ø³ÙĦØ§ÙħÛĮÛģ",
        -10.200749530845817
      ],
      [
        "ĠÙħØ¹Ø§ÙĪÙĨ",
        -10.201813086085352
      ],
      [
        "1918",
        -10.202699135692118
      ],
      [
        "ĠØ´ÙħØ³",
        -10.202857454755378
      ],
      [
        "ĠØ®Ø±ÛĮØ¯",
        -10.202904834139076
      ],
      [
        "ĠØ³ÙĪØ§Ø±",
        -10.203352980827233
      ],
      [
        "ĠØ¨ÙĪØ³ÙĨÛĮØ§",
        -10.203358916068012
      ],
      [
        "ĠÙĪÛĮÙĨ",
        -10.204224766092251
      ],
      [
        "ĠØ·Ø¨ÛĮ",
        -10.204869291472257
      ],
      [
        "ÚĨØ±",
        -10.205795529850867
      ],
      [
        "Ø®ÙĪØ§ØªÛĮÙĨ",
        -10.206483595010987
      ],
      [
        "ĠÚ©Ø§Ø¦ÙĨØ§Øª",
        -10.207486874592487
      ],
      [
        "Ù¹ÛĮÚ©Ø³Ø§Ø³",
        -10.207911991615406
      ],
      [
        "Ø§ÛĮØ±Ø§ÙĨÛĮ",
        -10.207921232200526
      ],
      [
        "ter",
        -10.208234414991567
      ],
      [
        "ĠØ±ÛĮØ§Ø¶ÛĮ",
        -10.208385119592197
      ],
      [
        "ĠØ¬ÛĮÙħØ²",
        -10.208656288202693
      ],
      [
        "ĠØ³Ú©ÙĪØ§ÚĪ",
        -10.208684054329286
      ],
      [
        "ĠÚ¯ÛĮØ³",
        -10.209998423651394
      ],
      [
        "ÙħÛĮØ±",
        -10.210283666342638
      ],
      [
        "ĠØ®ÙĪØ¨",
        -10.210297861140933
      ],
      [
        "ĠØµØ§Ùģ",
        -10.211432245277635
      ],
      [
        "ÙħØ³ÙĦÙħ",
        -10.211543257572306
      ],
      [
        "ĠÚ©Ø±Ø§ÛĮØ§",
        -10.211587965648318
      ],
      [
        "ĠÚ©ÙħÛĮÙĪÙĨØ³Ù¹",
        -10.21159625936621
      ],
      [
        "ĠÙ¾ÛģÚĨØ§ÙĨ",
        -10.21194932936004
      ],
      [
        "[",
        -10.212060226605342
      ],
      [
        "ĠÚĨÚ©ÙĪØ§ÙĦ",
        -10.21332075053764
      ],
      [
        "ĠÚĨÛĮÚ©",
        -10.213681995600563
      ],
      [
        "eh",
        -10.214674136733308
      ],
      [
        "ĠØ§ÙĦØŃ",
        -10.217377093579909
      ],
      [
        "ĠØ¢Ø±ÙħÛĮÙĨÛĮØ§",
        -10.217551526204048
      ],
      [
        "Ø§Ø³Ø§ØªØ°Ûģ",
        -10.218712870177573
      ],
      [
        "ĠÙĨØ¹Øª",
        -10.219742360573434
      ],
      [
        "186",
        -10.220272713529297
      ],
      [
        "ĠØ§ØŃØ³Ø§Ø³",
        -10.22031183635741
      ],
      [
        "Ø§Ø¬",
        -10.220652967453926
      ],
      [
        "ÙĨÚ©",
        -10.220752580515772
      ],
      [
        "ÙħØ·Ø§Ø¨ÙĤ",
        -10.222331585227408
      ],
      [
        "te",
        -10.223206093358769
      ],
      [
        "ĠÚĨÙĪÚ©",
        -10.224340968591962
      ],
      [
        "ĠØ±ÙĪØ´ÙĨ",
        -10.224380696516139
      ],
      [
        "Ú©ØªØ§Ø¨",
        -10.224728901708557
      ],
      [
        "ĠØ¨Ø§Ø´ÙĨØ¯",
        -10.224753478361306
      ],
      [
        "ĠÙĨÙĤØ´",
        -10.225310501442966
      ],
      [
        "Ġwith",
        -10.225495689757501
      ],
      [
        "ĠÙģÙĨÚ©Ø§Ø±",
        -10.226196124842353
      ],
      [
        "ÙĦØ±",
        -10.226702083345527
      ],
      [
        "ĠØ¢ÙĪØ±",
        -10.22690219126525
      ],
      [
        "ĠÙĤØ±Ø¶",
        -10.227103344191029
      ],
      [
        "Ø§Ø¦",
        -10.227328116821118
      ],
      [
        "Ø¬Ø²ÛĮØ±ÛĴ",
        -10.22859928742875
      ],
      [
        "ÛĮØ³",
        -10.229631095254058
      ],
      [
        "ĠÛģØ²Ø§Ø±ÙĪÚº",
        -10.229725119394839
      ],
      [
        "ĠØ¹Ú©Ø³",
        -10.230041502467106
      ],
      [
        "ĠÙĨÙħØ§Ø¦Ø´",
        -10.230182015420198
      ],
      [
        "Ø§ØªÙĨÛĮ",
        -10.230714362913442
      ],
      [
        "Ø®Ø§ØªÙħÛĴ",
        -10.23073668349359
      ],
      [
        "ĠÙģØ±ÙħØ§",
        -10.230817320078613
      ],
      [
        "ĠÙħØ§Ø±Ø§",
        -10.231739313418043
      ],
      [
        "ĠÙħÚĪÙĦ",
        -10.232686788567388
      ],
      [
        "ĠÙħÙĨÛģ",
        -10.233808343533996
      ],
      [
        "ĠØ§ÙĨÚ¯ÙĦØ´",
        -10.234154683112264
      ],
      [
        "Ø¢Ù¹Ú¾ÙĪÛĮÚº",
        -10.235113822131805
      ],
      [
        "ĠÙģØ±Ø§Ø±",
        -10.235172091315103
      ],
      [
        "ĠÚĨÛĮÙĨÙĦ",
        -10.236295286282527
      ],
      [
        "ĠØ¹Ø§ÙĦÛĮ",
        -10.236297879812367
      ],
      [
        "ĠØ±ÛĮÙĦÛĮØ²",
        -10.23672730575503
      ],
      [
        "Ø¬Ø§Ø¦Ø²Ûģ",
        -10.23683304203335
      ],
      [
        "ĠØ§Ú©Ø±Ùħ",
        -10.237636394972263
      ],
      [
        "ĠØ¬Ø§ÙĨÙĪØ±ÙĪÚº",
        -10.238254694840663
      ],
      [
        "ĠÙĪÛģÛĮ",
        -10.23853151472776
      ],
      [
        "ĠØ¨ÚĨÙ¾ÙĨ",
        -10.239211540060266
      ],
      [
        "ĠÙħØµØ±ÙĪÙģ",
        -10.239411974474994
      ],
      [
        "ÙħØªÙĨØ§Ø³ÙĤØ§Øª",
        -10.240122040224524
      ],
      [
        "ĠØ¨ÙĪÙĦ",
        -10.24062925882727
      ],
      [
        "Úĺ",
        -10.240811067647062
      ],
      [
        "ĠÙ¾ÙĪ",
        -10.241129874309424
      ],
      [
        "ĠÚĨÙĦØªØ§",
        -10.241158539744834
      ],
      [
        "ĠØ§ØŃÚ©Ø§Ùħ",
        -10.242427139398327
      ],
      [
        "ĠØ¯Ø§Ø¯Ø§",
        -10.242453183463336
      ],
      [
        "man",
        -10.24251092587052
      ],
      [
        "Ø¢Ø¦ÛĮ",
        -10.242580734967166
      ],
      [
        "ÙģÛĮÙĦÚĪ",
        -10.242965006879686
      ],
      [
        "1914",
        -10.243109617579842
      ],
      [
        "ĠÙħØ§Ø±Ø´ÙĦ",
        -10.243292875777623
      ],
      [
        "ol",
        -10.243390419768218
      ],
      [
        "ĠØ¹ÙħÙĪÙħØ§",
        -10.243734280590925
      ],
      [
        "ĠÙĨØªØ§Ø¦Ø¬",
        -10.243798295206318
      ],
      [
        "ĠØ¯Ø¨Ø§Ø¤",
        -10.24410376655237
      ],
      [
        "ĠÙĤÙĦØ¹ÛĴ",
        -10.244264728980111
      ],
      [
        "ĠØªØŃÙĦÛĮÙĦ",
        -10.244464239559875
      ],
      [
        "ĠØ¯Ø±Ø¯",
        -10.244471141702059
      ],
      [
        "ĠØ§Ú©",
        -10.244603223384885
      ],
      [
        "ĠØ¨ÙĪØ³",
        -10.244838638332727
      ],
      [
        "ÙĨØ´Ø§ÙĨÛģ",
        -10.245307111330169
      ],
      [
        "ÙĦÛĮÙĨ",
        -10.245444883419367
      ],
      [
        "ĠØªÙĤØ±ÛĮØ¨",
        -10.24560156903338
      ],
      [
        "ĠÙĤØ§Ø³Ùħ",
        -10.24578524212406
      ],
      [
        "ĠÙħÙĨØ³ÙĪØ¨",
        -10.246498348736324
      ],
      [
        "ĠØªÙĪÚĳ",
        -10.248277727022579
      ],
      [
        "Ø²Ø±",
        -10.248997317964697
      ],
      [
        "ĠÚ©Ø§ÙĦÙĪÙĨÛĮ",
        -10.24932363799045
      ],
      [
        "ĠÚĨÙĪ",
        -10.249364510971148
      ],
      [
        "ĠØ´Ø±ÛĮ",
        -10.249855842937858
      ],
      [
        "ĠÙĦØ§Ø¦ÛĴ",
        -10.250337259934291
      ],
      [
        "ĠÛĮØ²ÛĮØ¯",
        -10.251161194412811
      ],
      [
        "ĠÙĨØ§Ø¯Ø±",
        -10.251730620574122
      ],
      [
        "ĠØ§ÙħØ¯Ø§Ø¯",
        -10.252252552355344
      ],
      [
        "ĠØ¨Ø±Ø§Ø²ÛĮÙĦ",
        -10.252535153562594
      ],
      [
        "ĠØ§ÙĪÙĪØ±Ø²",
        -10.25255846261425
      ],
      [
        "2018",
        -10.253131147953656
      ],
      [
        "Ġ90",
        -10.253467678567926
      ],
      [
        "ĠØ§ÙĦØ§Ø³ÙĦØ§Ùħ",
        -10.25375532812578
      ],
      [
        "ĠÚĨØ§ÛģØªØ§",
        -10.254437624184503
      ],
      [
        "ĠÙģÙĪÙĨ",
        -10.254612830123433
      ],
      [
        "ĠØ±Ú©Ú¾ÛĴ",
        -10.254663381842407
      ],
      [
        "Ø§Ø·",
        -10.254942947073076
      ],
      [
        "ĠÙħØ³ØªÙĤØ¨ÙĦ",
        -10.255439246057906
      ],
      [
        "ÙĦÛĮØ³",
        -10.256318210334637
      ],
      [
        "ĠØªØµØ§ÙĪÛĮØ±",
        -10.257917169344395
      ],
      [
        "Ø¹ÙĦÙħ",
        -10.257955014738089
      ],
      [
        "ĠÙĦÚ©Ú¾",
        -10.258963639508181
      ],
      [
        "ĠÚĨÚĨØ§",
        -10.259121245904277
      ],
      [
        "ĠÙħØ§Ø³Ú©ÙĪ",
        -10.259404253421273
      ],
      [
        "Ø¨ÛĴ",
        -10.259661183235778
      ],
      [
        "ĠÙĦÚ©Ú¾ÙĨØ¤",
        -10.25968066235825
      ],
      [
        "Ø¹Ø¨Ø¯",
        -10.260166935874842
      ],
      [
        "ÙģÙĪØ±ÚĪ",
        -10.260401777663759
      ],
      [
        "ma",
        -10.260561187320075
      ],
      [
        "ĠØ§ÛģØªÙħØ§Ùħ",
        -10.26152660999213
      ],
      [
        "2013",
        -10.261803000386298
      ],
      [
        "ÙĤØ¨Ø¶ÛĴ",
        -10.261853303326381
      ],
      [
        "Ø¹Øª",
        -10.263098635903752
      ],
      [
        "ĠØªØ¬Ø±Ø¨Ûģ",
        -10.263148082083422
      ],
      [
        "ĠÙħØ´ÙĨ",
        -10.263361481131042
      ],
      [
        "ĠÚĪØ±",
        -10.263687294768449
      ],
      [
        "ĠØ¯Ø³Øª",
        -10.263708349346091
      ],
      [
        "Ø±Ú©",
        -10.263878540002487
      ],
      [
        "ĠÛĮÙĪÙħ",
        -10.264669146994871
      ],
      [
        "ĠØ§ÙĨØ¯Ø±ÙĪÙĨÛĮ",
        -10.265260911952119
      ],
      [
        "ĠÙĨÙĤØ·Ûģ",
        -10.26537523181571
      ],
      [
        "ĠØ¨ÛĮÙ¹",
        -10.265660401302059
      ],
      [
        "Ø§ÛĮ",
        -10.265683716029322
      ],
      [
        "ĠÙħÛģØ§Ø±Øª",
        -10.265862973526225
      ],
      [
        "Ø§ÙĦÛģ",
        -10.266012269929181
      ],
      [
        "ĠØ®ÙĪØ§Ø¨",
        -10.266132948062054
      ],
      [
        "ĠÙ¾Ø§ÙĨÚĨÙĪÛĮÚº",
        -10.266436758568766
      ],
      [
        "ĠÙģØ§ØªØŃ",
        -10.267260435070934
      ],
      [
        "ÙĪØ±Ø§",
        -10.267898936283636
      ],
      [
        "ĠÙħØ³Ø§ÙģØ±",
        -10.268021854578503
      ],
      [
        "ĠØ§Ø·Ø§ÙĦÙĪÛĮ",
        -10.268371022122615
      ],
      [
        "ĠØ±ØŃÙħØª",
        -10.269228302109417
      ],
      [
        "ĠÚ©ÛĮÙħÙ¾",
        -10.26948845997833
      ],
      [
        "ĠÙħÙĦØ§Ø²Ùħ",
        -10.270454953181094
      ],
      [
        "Ø®ÙģÛĮÛģ",
        -10.270830871723906
      ],
      [
        "ĠØ´Ø¨",
        -10.270868067498581
      ],
      [
        "Ġ37",
        -10.271004018067673
      ],
      [
        "Ø§ÙĦØ¯ÛĮÙĨ",
        -10.271807217937326
      ],
      [
        "Ø³Ú©ÛĮ",
        -10.272042058938574
      ],
      [
        "ĠÙĪØ§Ø¦Ù¹",
        -10.272148634577249
      ],
      [
        "ĠÙĨØ§ÙħÙĪØ±",
        -10.27217334405269
      ],
      [
        "ĠØŃÚ©ÙħØª",
        -10.272614570247892
      ],
      [
        "ĠØ¨Ø§Ø±Ø´",
        -10.273058947978958
      ],
      [
        "Ø°Ø§ØªÛĮ",
        -10.273311504050367
      ],
      [
        "ÙħÙħØ¨Ø¦ÛĮ",
        -10.273349543019034
      ],
      [
        "ĠÙħØ§Ø±Ú©ÛĮÙ¹",
        -10.273710391005562
      ],
      [
        "Ø³ÙĪÙĨÛĴ",
        -10.27391718352267
      ],
      [
        "ĠØ¢Ø±Ù¹",
        -10.274114841862911
      ],
      [
        "ÛģØ§Ø±",
        -10.274458240721408
      ],
      [
        "ĠØ¨Ø±ØµØºÛĮØ±",
        -10.27496240608493
      ],
      [
        "ĠØ§ÚĨÚ¾Ø§",
        -10.275236587484489
      ],
      [
        "ĠÚ©ÙħØ²ÙĪØ±",
        -10.275371640244746
      ],
      [
        "ĠØ³ÙħØ¬Ú¾",
        -10.275524418538321
      ],
      [
        "07",
        -10.276076067833671
      ],
      [
        "Ø¹Ø±ÙĪØ¬",
        -10.276254732960108
      ],
      [
        "08",
        -10.276860735133544
      ],
      [
        "ĠØŃØ¨ÛĮØ¨",
        -10.2769119939111
      ],
      [
        "ĠØ¬ÙĨÚ¯Ø¬ÙĪ",
        -10.277145472382003
      ],
      [
        "ĠÙħÙĪØ¶ÙĪØ¹Ø§Øª",
        -10.277212992737116
      ],
      [
        "ĠÙħÚ©",
        -10.277342903702326
      ],
      [
        "ĠØ§ÙĨÙĤÙĦØ§Ø¨ÛĮ",
        -10.277416419520243
      ],
      [
        "1944",
        -10.277636730321507
      ],
      [
        "Ø³Ø¹ÙĪØ¯ÛĮ",
        -10.278576902760626
      ],
      [
        "Ø§ÙĨØªØ¸Ø§ÙħÛĮÛģ",
        -10.278727821815574
      ],
      [
        "ĠØ±ÙĪÛĮ",
        -10.278967246354956
      ],
      [
        "ĠØ³ÙĪØ§ÙĨØŃ",
        -10.279564814341063
      ],
      [
        "ian",
        -10.27971198277156
      ],
      [
        "1919",
        -10.280086385990778
      ],
      [
        "ĠØ¨Ø§Ø¶Ø§Ø¨Ø·",
        -10.282312732235205
      ],
      [
        "ĠÚĨÙĨØ¯Ø±",
        -10.28266263377843
      ],
      [
        "ĠÙĦØ§ÛĮØ§",
        -10.282745512668459
      ],
      [
        "1939",
        -10.282778235553893
      ],
      [
        "ĠØ¹Ø±Ø¶",
        -10.283229784488167
      ],
      [
        "ĠØ¯Ú©Ú¾Ø§Ø¦ÛĮ",
        -10.283315405434285
      ],
      [
        "1942",
        -10.283324620150758
      ],
      [
        "ĠØ¨Ø±Ø¬",
        -10.283719006918396
      ],
      [
        "ĠØ§Ù¹ÙĦÛĮ",
        -10.283813219607545
      ],
      [
        "ĠÚ©ÙĨÚ¯",
        -10.28434360499721
      ],
      [
        "ĠØ¨Ú¾",
        -10.284497480944612
      ],
      [
        "ĠØ¬ÙĪÚĳ",
        -10.284925224143798
      ],
      [
        "ĠØ§Ø®ØªØ±",
        -10.285536707626354
      ],
      [
        "50",
        -10.2857150226669
      ],
      [
        "Ø±Ø§Ø¬Ø³ØªÚ¾Ø§ÙĨ",
        -10.28572695959311
      ],
      [
        "1941",
        -10.28673087824645
      ],
      [
        "ĠØ¹ÛģØ¯Ûģ",
        -10.287118442812773
      ],
      [
        "ĠÚ©ÛĮÙ¾",
        -10.287590300388331
      ],
      [
        "Ø§ÛĮÙĦ",
        -10.28759410439124
      ],
      [
        "Ø±Ø´ØªÛģ",
        -10.288543568857197
      ],
      [
        "ĠØŃÚ©Ø§Ùħ",
        -10.288555255237995
      ],
      [
        "Ø§Ø¹",
        -10.288602653751976
      ],
      [
        "ĠØ¨Ø§ÙĦÛĮ",
        -10.289236706895004
      ],
      [
        "ĠÛĮØ§Ø±",
        -10.289924335524315
      ],
      [
        "ĠÙħØ²Ø§ØŃÛĮ",
        -10.290565175174109
      ],
      [
        "ĠØ¢Ø¨Ø§Ø¦ÛĮ",
        -10.290813953997542
      ],
      [
        "ĠØ¯Ø±Ø®Øª",
        -10.291179156733858
      ],
      [
        "09",
        -10.2912678789831
      ],
      [
        "ĠÙħÙĦØª",
        -10.291866621357865
      ],
      [
        "to",
        -10.29191418665765
      ],
      [
        "ĠØ¯Ø±ÙĪØ§Ø²ÛĴ",
        -10.29228611146753
      ],
      [
        "ĠØ³Ø§Ø¦ÙĨØ³ÛĮ",
        -10.292592336043192
      ],
      [
        "Ø§ÛĮÙĨ",
        -10.292605020513344
      ],
      [
        "ĠÚ©Ø±Ú©Ù¹Ø±Ø²",
        -10.293183965989503
      ],
      [
        "Ø±ÛĴ",
        -10.293292812417011
      ],
      [
        "ĠÙħÙ¹ÛĮ",
        -10.293417620154703
      ],
      [
        "ÚĪÛĮÙĦ",
        -10.294322310773024
      ],
      [
        "Ã©",
        -10.294702939266163
      ],
      [
        "ĠØ§ÙĨÙ¹Ø±",
        -10.29492407261921
      ],
      [
        "ĠØ¯Ø±Ø§ØµÙĦ",
        -10.295378350200465
      ],
      [
        "ĠÙħØ¹Ø§ÙĪÛĮÛģ",
        -10.296212281512853
      ],
      [
        "ĠÙĨØ´Ø±",
        -10.296437329661053
      ],
      [
        "ul",
        -10.296760817500587
      ],
      [
        "Ø´Ø¹Ø¨ÛĴ",
        -10.297076252561993
      ],
      [
        "ĠÙģÙĦ",
        -10.29728389488648
      ],
      [
        "ĠÚĨÙĨ",
        -10.297288678485923
      ],
      [
        "ÙĪØ§Ø´ÙĨÚ¯Ù¹ÙĨ",
        -10.298169596181683
      ],
      [
        "Ø¢ÙĨ",
        -10.298241181089367
      ],
      [
        "ĠÚĨÛĮØ¦Ø±ÙħÛĮÙĨ",
        -10.298490549201873
      ],
      [
        "Ø¯ÛĮÙĨ",
        -10.29920026533021
      ],
      [
        "</",
        -10.299237076929405
      ],
      [
        "ĠØŃØ§Ø¬ÛĮ",
        -10.299745331008682
      ],
      [
        "ĠÙĨØ§ÙģØ°",
        -10.300085442231348
      ],
      [
        "ÛĮØ¹ÙĨÛĮ",
        -10.300258351329159
      ],
      [
        "ĠÙĨØ¨ÙĪÛĮ",
        -10.300521701062047
      ],
      [
        "ĠÙ¾Ú©ÙĪØ§ÙĨ",
        -10.301039452704863
      ],
      [
        "ti",
        -10.30208530517696
      ],
      [
        "ĠØ¯Ø§Ø³ØªØ§ÙĨ",
        -10.302119111785338
      ],
      [
        "ĠÙ¾ÙĪØ³Ù¹",
        -10.302346409477646
      ],
      [
        "ĠÙ¾ÙĪØ²ÛĮØ´ÙĨ",
        -10.302374468274444
      ],
      [
        "ĠØ¹ÛĮØ³Ø§Ø¦ÛĮ",
        -10.302665991922444
      ],
      [
        "ĠÙĦÛĮÚ©",
        -10.303043072409364
      ],
      [
        "ĠÛĮÚ©",
        -10.304333991734996
      ],
      [
        "ĠÙħØ¸Ø§ÛģØ±",
        -10.304932196089386
      ],
      [
        "ĠÚ©ÛĮÙħØ¨Ø±Ø¬",
        -10.305048962469535
      ],
      [
        "ÛĮÙĨÛĮ",
        -10.305286206333708
      ],
      [
        "ĠÚ¯ÙĪÙĦ",
        -10.305839027374708
      ],
      [
        "03",
        -10.306169147480993
      ],
      [
        "ĠÙħÙĦÙĨÛĴ",
        -10.306723067612516
      ],
      [
        "ĠÙĦÚ¯ÛĮ",
        -10.307326461064813
      ],
      [
        "ĠÙĪÙĤÙĪØ¹",
        -10.30757973129664
      ],
      [
        "ĠÙĪÛĮÚĪÛĮÙĪ",
        -10.307939383761376
      ],
      [
        "ĠØ®ÛĮÙĦ",
        -10.308318539688582
      ],
      [
        "abad",
        -10.308465711688228
      ],
      [
        "um",
        -10.30874385259142
      ],
      [
        "ĠØ²ÛĮØ¯",
        -10.308818027061639
      ],
      [
        "ĠØ¨Ø§Ø²ÙĪ",
        -10.30958065306445
      ],
      [
        "ĠÙĦØ¨Ø§Ø³",
        -10.309651611900282
      ],
      [
        "ĠÙħÙĨÙ¹",
        -10.309791168068156
      ],
      [
        "ĠØ§ÙħÛĮØ¯",
        -10.310701359610402
      ],
      [
        "ĠØ¨ÙĦØºØ§Ø±ÛĮÛģ",
        -10.310830488818521
      ],
      [
        "ĠØ¬Ø±Ùħ",
        -10.311489036231496
      ],
      [
        "ĠÙĤØ·Ø±",
        -10.312569388433321
      ],
      [
        "ĠØ±ÙĪÙħØ§ÙĨÛĮÛģ",
        -10.313221832672184
      ],
      [
        "ÙĦÚ©Ú¾ÙĨÛĴ",
        -10.315168943039815
      ],
      [
        "ÙĪÙĪ",
        -10.315191833651593
      ],
      [
        "ĠØªØ§Ø¬Ø±",
        -10.31524743290909
      ],
      [
        "ĠØ¹ÙħØ§ÙĨ",
        -10.315286373225103
      ],
      [
        "ent",
        -10.31530630692814
      ],
      [
        "ĠØµØ¯ÛĮÙĤ",
        -10.315420389125135
      ],
      [
        "ĠÙħØ§Ø³Ù¹Ø±",
        -10.316178855787872
      ],
      [
        "Ù¾ÙĪØ±Ù¹",
        -10.316630490224398
      ],
      [
        "ĠÙ¹ÛĮÚ©Ø³",
        -10.316863630956782
      ],
      [
        "Ø±ÙĪØ³ÛĮ",
        -10.317023917534843
      ],
      [
        "ĠÙħØ³ÛĮØ³Ù¾ÛĮ",
        -10.317462824344695
      ],
      [
        "ĠØµØ§Ø¯ÙĤ",
        -10.318144058297088
      ],
      [
        "Ú©Ú¾",
        -10.318812958167957
      ],
      [
        "Ú©ÛĮØ±ÛĮØ¦Ø±",
        -10.319097839567473
      ],
      [
        "ĠÙ¾ÙĪÚĨÚ¾Ø§",
        -10.319803381380153
      ],
      [
        "ĠÙħØªØŃØ±Ú©",
        -10.31989245046438
      ],
      [
        "ĠØ±ÙĪÚ©ÙĨÛĴ",
        -10.319970261414829
      ],
      [
        "ĠØ§Ø±Ø¯ÙĨ",
        -10.320395055399871
      ],
      [
        "ĠÛĮÛģÙĪØ¯",
        -10.320619835918091
      ],
      [
        "ÙĨØ§Ú©",
        -10.320646403335445
      ],
      [
        "\"ØĮ",
        -10.321159199012616
      ],
      [
        "j",
        -10.32256424004104
      ],
      [
        "ĠÚ©Ø±Ø¯",
        -10.324147809234901
      ],
      [
        "ĠÙħØ¹Ø§ÙħÙĦ",
        -10.32478111464805
      ],
      [
        "Ú©ÙĪÙģÛģ",
        -10.32503751731694
      ],
      [
        "ĠØ³ÙĨØ§",
        -10.32551750588544
      ],
      [
        "ĠØ³Ø±Ù¾Ø±Ø³Øª",
        -10.325603050820213
      ],
      [
        "ĠÙģØ±ÙħØ§Ø¦ÛĮ",
        -10.326232408723293
      ],
      [
        "ĠÚ¯Ø§ÙĨØ¯Ú¾ÛĮ",
        -10.326386377594151
      ],
      [
        "Ġ45",
        -10.327355566209839
      ],
      [
        "ĠØªÛĮØ³Ø±Ø§",
        -10.32747732018153
      ],
      [
        "ĠØ³Ù¾Ø§ÛģÛĮ",
        -10.328032457517024
      ],
      [
        "ĠÚ©Ø§ÙĦÙħ",
        -10.328318293006571
      ],
      [
        "ĠÙ¾Ø±ÚĨÙħ",
        -10.329734375362836
      ],
      [
        "ĠØ§Ø¦ÛĮØ±",
        -10.330058182967592
      ],
      [
        "ĠÙĪØ±Ø«Ûģ",
        -10.330370894036564
      ],
      [
        "ĠØŃÙĪØµÙĦ",
        -10.330426566768198
      ],
      [
        "ĠØ¨Ø±ÙĤÛĮ",
        -10.330698427637584
      ],
      [
        "Ø§Ù¾ÙĨÛĴ",
        -10.33081867822159
      ],
      [
        "ĠØ§Ø¹ØªÙħØ§Ø¯",
        -10.33083579724023
      ],
      [
        "no",
        -10.33086902498431
      ],
      [
        "ĠÚĨÛĮØª",
        -10.33260796532534
      ],
      [
        "Ø§ÙĦÛĮÚ©Ø´ÙĨ",
        -10.333901219276811
      ],
      [
        "ĠØ¨Ú¾Ø§Ø±ÛĮ",
        -10.333922273190636
      ],
      [
        "ĠØ§ÛĮØ¬ÙĨØ³ÛĮ",
        -10.334305405291182
      ],
      [
        "ĠØ·Ø§ÙĦØ¨Ø§ÙĨ",
        -10.33436373018027
      ],
      [
        "ĠØ¢ÛĮØ§Øª",
        -10.33494943032348
      ],
      [
        "ĠØ®Ø±Ø§Ø¨",
        -10.335257056994658
      ],
      [
        "ĠØµØŃØ§Ø¨ÛĮ",
        -10.335817900373005
      ],
      [
        "ĠØ¨Ø§Ø¯Ø´Ø§ÛģØª",
        -10.336199758512288
      ],
      [
        "ĠØ³ÙĨØ¨Ú¾Ø§ÙĦ",
        -10.336700768376984
      ],
      [
        "ĠØ³ÙĦÙĪÚ©",
        -10.336797386534847
      ],
      [
        "Ġ38",
        -10.336937276918338
      ],
      [
        "ĠØ±Ø³Ø§Ø¦ÛĮ",
        -10.337906586561159
      ],
      [
        "Ø®Ø·ÙĪØ·",
        -10.337956687007114
      ],
      [
        "ĠV",
        -10.338113250268055
      ],
      [
        "Ø³ÛĮÚ©Ø³",
        -10.33919928784649
      ],
      [
        "ĠØ²Ø¨Ø±Ø¯Ø³Øª",
        -10.339210870908673
      ],
      [
        "Ø²Ø±Ø§Ø¹Øª",
        -10.3395816305954
      ],
      [
        "ĠÛģÙħØ±Ø§Ûģ",
        -10.33968992670756
      ],
      [
        "Ø§ÙģØ³Ø§ÙĨÛģ",
        -10.34008034096848
      ],
      [
        "Ø±Ø§ÙĨ",
        -10.340360359299734
      ],
      [
        "ĠØ§ÙĦØ¹",
        -10.340384032750716
      ],
      [
        "ĠØ¯Ø±ÙĪØ§Ø²Ûģ",
        -10.341170245481068
      ],
      [
        "Ø§ÛĮØ´ÛĮØ§Ø¦ÛĮ",
        -10.34176730145693
      ],
      [
        "ĠÙģÛĮØ¦Ø±",
        -10.341843855860187
      ],
      [
        "ĠØ§ÙĦØ¨Øª",
        -10.34195526575138
      ],
      [
        "ÙĦÛĮÚº",
        -10.342145044564692
      ],
      [
        "ĠØ¨Ø§Ø¦ÛĮ",
        -10.342265699727825
      ],
      [
        "1957",
        -10.342330394894677
      ],
      [
        "ĠÙħÙĪÙĦÙĪÛĮ",
        -10.342732288226687
      ],
      [
        "ĠÚ©Ú¾",
        -10.342911069827284
      ],
      [
        "ĠÚ©Ú¾Ø§ÙĨØ§",
        -10.343028028683724
      ],
      [
        "fobox",
        -10.343591500508602
      ],
      [
        "ĠÙĪÙĦØ§Ø¯Øª",
        -10.343613377144145
      ],
      [
        "ÛĮÙ¹",
        -10.34379848143049
      ],
      [
        "ĠÚ©Ø§ÙĨ",
        -10.34387024052499
      ],
      [
        "ÙħÙĪÙĦØ§ÙĨØ§",
        -10.344096661079202
      ],
      [
        "Ġ1920",
        -10.344187616500916
      ],
      [
        "ĠØ§Ø±Ø¨",
        -10.344422855164987
      ],
      [
        "Ø²ÛĮÚ¯ÙĪÙĪÛĮÙĨØ§",
        -10.344441639373162
      ],
      [
        "lo",
        -10.345954542988798
      ],
      [
        "ÚĳØ§",
        -10.346267870547052
      ],
      [
        "ĠÛģÙĨÚ¯Ø±ÛĮ",
        -10.346445723571557
      ],
      [
        "ĠØªÛģ",
        -10.347260915087915
      ],
      [
        "ĠØ¬ÙĨÚ¯ÙĦ",
        -10.347607275558708
      ],
      [
        "ĠØ§ÛĮÙĪØ§Ø±ÚĪØ²",
        -10.349066892218751
      ],
      [
        "Ø§Ù¾Ø±ÛĮÙĦ",
        -10.351336569336272
      ],
      [
        "ĠÙģÙĪØ±ÛĮ",
        -10.351534552843214
      ],
      [
        "2015",
        -10.351668451442613
      ],
      [
        "ĠÚ¯Ú¾Ø±ÛĮÙĦÙĪ",
        -10.352035115849374
      ],
      [
        "ĠØ¯ÛĮÙĪØªØ§",
        -10.352455418940192
      ],
      [
        "ĠØ¹ÙĤØ§Ø¦Ø¯",
        -10.35312701027523
      ],
      [
        "ĠÙ¹Ø±ÛĮÙĨ",
        -10.354023611570423
      ],
      [
        "ĠØ¨ÛĮÙ¹Ú¾",
        -10.35448417585991
      ],
      [
        "Ù¾Ø±ÛĮÙģÛĮÚ©ÚĨØ±",
        -10.355228714185436
      ],
      [
        "ĠØ¬ÙĨÙħ",
        -10.356012883845995
      ],
      [
        "ĠÙģÙĬ",
        -10.356122990827433
      ],
      [
        "ĠÚ¯Ø§ÙĨÛĴ",
        -10.356213859342684
      ],
      [
        "ĠÙ¾ÛĮØ±ÙĪ",
        -10.356227025633926
      ],
      [
        "Ø¨Ø±Ø¹Ú©Ø³",
        -10.356710396865722
      ],
      [
        "ww",
        -10.356834440875431
      ],
      [
        "ĠÚĪÛĮÙĪÚĪ",
        -10.357041285006854
      ],
      [
        "ĠÙħØ¤Ø±Ø®",
        -10.357748705267916
      ],
      [
        "ÙĪÛĮÙĨ",
        -10.358617937882908
      ],
      [
        "ĠØŃØ¯ÙĪØ¯",
        -10.358686056977106
      ],
      [
        "Ù¹ÙĦ",
        -10.359321538934726
      ],
      [
        "ĠØªØŃÙĤÛĮÙĤÛĮ",
        -10.359364112121828
      ],
      [
        "ĠÙħÙĨØ§Ø³Ø¨",
        -10.359407906351786
      ],
      [
        "ĠÚĪÚĨ",
        -10.359523405792137
      ],
      [
        "ĠÙģÙĦØ³ÙģÛģ",
        -10.36036461733355
      ],
      [
        "ĠØ®Ø§Úº",
        -10.36055593934491
      ],
      [
        "ĠØ¨ÙħÙĤØ§Ø¨ÙĦÛģ",
        -10.3607356048784
      ],
      [
        "ÛĮÙĪØ±Ù¾",
        -10.361117137427366
      ],
      [
        "ĠØ§Ø±Ø´Ø§Ø¯",
        -10.36136572466014
      ],
      [
        "ÙĬØ§",
        -10.361404855578417
      ],
      [
        "ĠÙħÙĦÚ©ÛĮØª",
        -10.361525505080742
      ],
      [
        "ĠÚ¯ÙģØªÚ¯ÙĪ",
        -10.361669992389828
      ],
      [
        "ĠNew",
        -10.361832958981706
      ],
      [
        "ĠÚĪØ§ÙĦØ§",
        -10.362085205053564
      ],
      [
        "70",
        -10.362544081034347
      ],
      [
        "ĠÙħÙĪØ±",
        -10.362733393166344
      ],
      [
        "ĠÚ¯ÛĮØ§Ø±Ûģ",
        -10.362969188130403
      ],
      [
        "ĠÙģØ¹Ø§ÙĦÛĮØª",
        -10.363397234255906
      ],
      [
        "ĠÙħÛģØ¯ÛĮ",
        -10.363420355363713
      ],
      [
        "Ø§Ø±Ø¬ÙĨÙ¹Ø§Ø¦ÙĨ",
        -10.363679636459704
      ],
      [
        "ĠØªÛĮØ±",
        -10.36378039096344
      ],
      [
        "ĠÙ¾ÛĮØ§Ø±",
        -10.363809383336374
      ],
      [
        "sh",
        -10.364227181956478
      ],
      [
        "ĠØ¨Ù¹",
        -10.3642654677016
      ],
      [
        "ĠØ¹Ø§ÙħØ±",
        -10.36456513944009
      ],
      [
        "ĠÚ¯Ú¾ÙĨÙ¹ÛĴ",
        -10.364683912623738
      ],
      [
        "ĠÙħÛģØ§Ø¬Ø±",
        -10.365120969072027
      ],
      [
        "ĠØ¹ÛĮØ³ÛĮ",
        -10.365471375257712
      ],
      [
        "ĠÚ¯ÙĨØ¬",
        -10.36562450351466
      ],
      [
        "ĠØ´Ø§Ú¯Ø±Ø¯",
        -10.365744295043546
      ],
      [
        "ĠØ±Ø§Ø¬Ù¾ÙĪØª",
        -10.366807178384256
      ],
      [
        "ĠØ¯Ú©ÙĨ",
        -10.366884132350513
      ],
      [
        "ĠRe",
        -10.367142378078196
      ],
      [
        "ĠÚ©ÛģÙĦØ§ØªØ§",
        -10.367169517625053
      ],
      [
[...]
