{
  "version": "1.0",
  "truncation": null,
  "padding": null,
  "added_tokens": [
    {
      "id": 0,
      "content": "[PAD]",
      "single_word": false,
      "lstrip": false,
      "rstrip": false,
      "normalized": false,
      "special": true
    },
    {
      "id": 1,
      "content": "[BOS]",
      "single_word": false,
      "lstrip": false,
      "rstrip": false,
      "normalized": false,
      "special": true
    },
    {
      "id": 2,
      "content": "[EOS]",
      "single_word": false,
      "lstrip": false,
      "rstrip": false,
      "normalized": false,
      "special": true
    },
    {
      "id": 3,
      "content": "[MASK]",
      "single_word": false,
      "lstrip": false,
      "rstrip": false,
      "normalized": false,
      "special": true
    },
    {
      "id": 4,
      "content": "[SEP]",
      "single_word": false,
      "lstrip": false,
      "rstrip": false,
      "normalized": false,
      "special": true
    },
    {
      "id": 5,
      "content": "[CLS]",
      "single_word": false,
      "lstrip": false,
      "rstrip": false,
      "normalized": false,
      "special": true
    },
    {
      "id": 6,
      "content": "[UNK]",
      "single_word": false,
      "lstrip": false,
      "rstrip": false,
      "normalized": false,
      "special": true
    }
  ],
  "normalizer": {
    "type": "NFKC"
  },
  "pre_tokenizer": {
    "type": "Sequence",
    "pretokenizers": [
      {
        "type": "UnicodeScripts"
      },
      {
        "type": "Digits",
        "individual_digits": false
      },
      {
        "type": "Metaspace",
        "replacement": "▁",
        "add_prefix_space": true
      }
    ]
  },
  "post_processor": null,
  "decoder": {
    "type": "Metaspace",
    "replacement": "▁",
    "add_prefix_space": true
  },
  "model": {
    "type": "Unigram",
    "unk_id": null,
    "vocab": [
      [
        "[PAD]",
        0.0
      ],
      [
        "[BOS]",
        0.0
      ],
      [
        "[EOS]",
        0.0
      ],
      [
        "[MASK]",
        0.0
      ],
      [
        "[SEP]",
        0.0
      ],
      [
        "[CLS]",
        0.0
      ],
      [
        "[UNK]",
        0.0
      ],
      [
        "▁",
        -2.0632205208946317
      ],
      [
        "▁کے",
        -3.4297575609455215
      ],
      [
        "▁میں",
        -3.6436946675770603
      ],
      [
        "▁کی",
        -3.768831832227125
      ],
      [
        "▁اور",
        -4.095183491761011
      ],
      [
        "،",
        -4.134766574304242
      ],
      [
        "▁سے",
        -4.321290911696913
      ],
      [
        "▁کا",
        -4.396200054803778
      ],
      [
        "▁نے",
        -4.739731729072675
      ],
      [
        "▁پر",
        -4.743868219828146
      ],
      [
        "▁اس",
        -4.748755907262552
      ],
      [
        "▁کو",
        -4.774044986545398
      ],
      [
        "▁ایک",
        -4.858350228199486
      ],
      [
        "▁ہے",
        -4.869450970696512
      ],
      [
        "▁ء",
        -5.027576224621711
      ],
      [
        "▁ہے۔",
        -5.084845378518802
      ],
      [
        "ی",
        -5.1000949605682795
      ],
      [
        "وں",
        -5.168531510588524
      ],
      [
        "و",
        -5.273397491968938
      ],
      [
        "(",
        -5.304981472813084
      ],
      [
        ")",
        -5.338907676469072
      ],
      [
        "▁جو",
        -5.444963681865907
      ],
      [
        "ا",
        -5.532942630010693
      ],
      [
        "▁ان",
        -5.644357048192495
      ],
      [
        "▁کہ",
        -5.6523938347239735
      ],
      [
        "ہ",
        -5.711109278565939
      ],
      [
        "▁کیا",
        -5.721877288751186
      ],
      [
        "▁لیے",
        -5.759694333278954
      ],
      [
        "▁بھی",
        -5.766684939384122
      ],
      [
        "ے",
        -5.773021792013921
      ],
      [
        "▁یہ",
        -5.774157770816148
      ],
      [
        "▁کر",
        -5.792872604878017
      ],
      [
        "ن",
        -5.86261477637259
      ],
      [
        "▁وہ",
        -5.869047672048167
      ],
      [
        "۔",
        -5.882488893040572
      ],
      [
        "▁واقع",
        -5.895787074749576
      ],
      [
        "س",
        -5.962962788759391
      ],
      [
        "▁ہیں",
        -5.963153545639397
      ],
      [
        "▁شہر",
        -5.990132539268476
      ],
      [
        "▁ہیں۔",
        -6.0308406307855424
      ],
      [
        "▁جس",
        -6.074193502769921
      ],
      [
        "▁متحدہ",
        -6.089802538503703
      ],
      [
        ":",
        -6.139765765092147
      ],
      [
        "▁کرکٹ",
        -6.140792040792336
      ],
      [
        "-",
        -6.150804443713131
      ],
      [
        "▁بعد",
        -6.161668476911686
      ],
      [
        "▁دیکھیے",
        -6.226314575988393
      ],
      [
        "▁تھا",
        -6.243182846621972
      ],
      [
        "ریاستہائے",
        -6.2535146001640705
      ],
      [
        "▁ساتھ",
        -6.25368505250762
      ],
      [
        "ک",
        -6.255212592662515
      ],
      [
        "\"",
        -6.260599731216265
      ],
      [
        "▁گیا",
        -6.356854959910173
      ],
      [
        "▁ہو",
        -6.366083446738735
      ],
      [
        "▁کرنے",
        -6.372081687396102
      ],
      [
        "▁بن",
        -6.3942800356171485
      ],
      [
        "▁طور",
        -6.406981881658952
      ],
      [
        "▁تھا۔",
        -6.414715246854472
      ],
      [
        "▁ہے۔مزید",
        -6.426827873875146
      ],
      [
        "▁پاکستان",
        -6.431642916027016
      ],
      [
        "▁کاؤنٹی",
        -6.436985195440837
      ],
      [
        "▁تک",
        -6.446876601526943
      ],
      [
        "▁جات",
        -6.464076675838335
      ],
      [
        "▁نہیں",
        -6.471998021714342
      ],
      [
        "▁یا",
        -6.476378363141086
      ],
      [
        "ر",
        -6.484474338571211
      ],
      [
        "ت",
        -6.488022597822686
      ],
      [
        "▁اپنے",
        -6.504052182819647
      ],
      [
        "م",
        -6.52703721689781
      ],
      [
        ".",
        -6.570580054142363
      ],
      [
        "حوالہ",
        -6.5747975248444295
      ],
      [
        "▁آبادی",
        -6.582884552526162
      ],
      [
        "▁والے",
        -6.589687474153001
      ],
      [
        "▁تھے",
        -6.6224809433388305
      ],
      [
        ",",
        -6.64060558061834
      ],
      [
        "▁تو",
        -6.647238626239703
      ],
      [
        "▁والی",
        -6.649638248939814
      ],
      [
        "▁جاتا",
        -6.670028375615869
      ],
      [
        "▁ہونے",
        -6.676661888824976
      ],
      [
        "▁افراد",
        -6.694116431330469
      ],
      [
        "▁تھے۔",
        -6.712922846593104
      ],
      [
        "▁ہی",
        -6.734639669339479
      ],
      [
        "▁مشتمل",
        -6.734701766423855
      ],
      [
        "▁مجموعی",
        -6.741125230295776
      ],
      [
        "▁امریکا",
        -6.746578313188985
      ],
      [
        "▁نام",
        -6.757993431540928
      ],
      [
        "ل",
        -6.765148054716047
      ],
      [
        "▁دیا",
        -6.77524231693574
      ],
      [
        "▁آباد",
        -6.7805768536077675
      ],
      [
        "▁ڈیٹا",
        -6.78752880338515
      ],
      [
        "ز",
        -6.824967506398043
      ],
      [
        "▁زیادہ",
        -6.831300450880914
      ],
      [
        "▁آپ",
        -6.85525503377626
      ],
      [
        "▁ہوئے",
        -6.859180544812439
      ],
      [
        "▁انہوں",
        -6.861090500532715
      ],
      [
        "فہرست",
        -6.871345674254966
      ],
      [
        "▁اپنی",
        -6.874775581667546
      ],
      [
        "▁کیا۔",
        -6.901156937351098
      ],
      [
        "▁حاصل",
        -6.902248615360426
      ],
      [
        "▁سال",
        -6.927303543378676
      ],
      [
        "▁دو",
        -6.9376577861625695
      ],
      [
        "▁صدی",
        -6.938431474776758
      ],
      [
        "▁کھلاڑی",
        -6.944799646957767
      ],
      [
        "▁اللہ",
        -6.96346239403732
      ],
      [
        "▁سب",
        -6.979963884937735
      ],
      [
        "▁جب",
        -6.983848393698809
      ],
      [
        "ب",
        -6.999224288721257
      ],
      [
        "▁تھی",
        -7.017334445270871
      ],
      [
        "▁لیکن",
        -7.0382857091133175
      ],
      [
        "1",
        -7.046298605639873
      ],
      [
        "▁گیا۔",
        -7.046975847825012
      ],
      [
        "▁شامل",
        -7.048905207037814
      ],
      [
        "▁ٹاؤن",
        -7.053296630165304
      ],
      [
        "▁سی",
        -7.062442793893446
      ],
      [
        "▁رکھنے",
        -7.06519660624183
      ],
      [
        "▁محمد",
        -7.066686271795994
      ],
      [
        "نے",
        -7.0702367873054754
      ],
      [
        "▁کرتے",
        -7.070717687102109
      ],
      [
        "5",
        -7.077017533250789
      ],
      [
        "▁ہوا",
        -7.078057771414574
      ],
      [
        "▁پہلے",
        -7.083411712222475
      ],
      [
        "▁اسے",
        -7.084287751584794
      ],
      [
        "▁خلاف",
        -7.097437198151848
      ],
      [
        "▁خان",
        -7.1172002924712245
      ],
      [
        "▁علاقہ",
        -7.1252846902431966
      ],
      [
        "2",
        -7.125586928630431
      ],
      [
        "▁بہت",
        -7.125744458362073
      ],
      [
        "▁سطح",
        -7.1257538994215555
      ],
      [
        "6",
        -7.150209912179452
      ],
      [
        "▁وقت",
        -7.165728322078943
      ],
      [
        "▁مختصر",
        -7.168013645562862
      ],
      [
        "▁تھی۔",
        -7.178360980840798
      ],
      [
        "▁شپ",
        -7.1831420551362495
      ],
      [
        "▁نہ",
        -7.184858115923188
      ],
      [
        "3",
        -7.197160637565993
      ],
      [
        "▁میٹر",
        -7.215461007941032
      ],
      [
        "▁ضلع",
        -7.235707421288584
      ],
      [
        "ان",
        -7.238533099279898
      ],
      [
        "▁کہا",
        -7.24207893954064
      ],
      [
        "▁دی",
        -7.248063134647916
      ],
      [
        "4",
        -7.269688010210272
      ],
      [
        "8",
        -7.2772017245761464
      ],
      [
        "▁مطابقت",
        -7.281502131265524
      ],
      [
        "▁بھارت",
        -7.294338006939428
      ],
      [
        "▁کچھ",
        -7.29932675556906
      ],
      [
        "▁مربع",
        -7.3002476044465965
      ],
      [
        "▁ٹیسٹ",
        -7.315810992216601
      ],
      [
        "▁ہوتا",
        -7.320775139582212
      ],
      [
        "د",
        -7.321715808987346
      ],
      [
        "▁جن",
        -7.328255281380418
      ],
      [
        "7",
        -7.328627885116681
      ],
      [
        "▁رقبہ",
        -7.331149142136839
      ],
      [
        "▁کسی",
        -7.335631349416783
      ],
      [
        "▁جنگ",
        -7.344001104760762
      ],
      [
        "▁خواتین",
        -7.345033017358849
      ],
      [
        "▁وجہ",
        -7.347197393298119
      ],
      [
        "▁گئی",
        -7.3568621292472915
      ],
      [
        "▁استعمال",
        -7.356990228863172
      ],
      [
        "▁گئے",
        -7.36153927490032
      ],
      [
        "▁بلندی",
        -7.367017929672549
      ],
      [
        "▁زبان",
        -7.371793791550028
      ],
      [
        "▁حکومت",
        -7.37542605217898
      ],
      [
        "▁کام",
        -7.37670326463496
      ],
      [
        "▁فہرست",
        -7.394103111104942
      ],
      [
        "▁کیلومیٹر",
        -7.396725822766182
      ],
      [
        "▁طرح",
        -7.410532470903172
      ],
      [
        "▁ٹیم",
        -7.412617101929083
      ],
      [
        "▁قائم",
        -7.418071285735849
      ],
      [
        "▁علی",
        -7.421141416154031
      ],
      [
        "▁طرف",
        -7.425780039469929
      ],
      [
        "▁بین",
        -7.4271215285194785
      ],
      [
        "▁انہیں",
        -7.42790638167342
      ],
      [
        "▁کم",
        -7.434197810489399
      ],
      [
        "▁فلم",
        -7.438471153404906
      ],
      [
        "▁ہوئی",
        -7.449808664375766
      ],
      [
        "▁کی۔",
        -7.455360232113881
      ],
      [
        "▁دور",
        -7.474997313133445
      ],
      [
        "▁آف",
        -7.482354675728496
      ],
      [
        "9",
        -7.508032661239088
      ],
      [
        "▁سو",
        -7.510032479025234
      ],
      [
        "ں",
        -7.517875898002126
      ],
      [
        "▁لینڈ",
        -7.523282238569898
      ],
      [
        "▁دوران",
        -7.525728643859223
      ],
      [
        "▁پیدا",
        -7.534151794368471
      ],
      [
        "▁الاقوامی",
        -7.542377344938101
      ],
      [
        "▁کوئی",
        -7.543967819801553
      ],
      [
        "▁رہے",
        -7.577106499647758
      ],
      [
        "▁ملک",
        -7.58388488615671
      ],
      [
        "▁شروع",
        -7.596990424390382
      ],
      [
        "▁20",
        -7.597132174266035
      ],
      [
        "▁فرانس",
        -7.600825304533068
      ],
      [
        "▁شاہ",
        -7.601449776111462
      ],
      [
        "▁تعلیم",
        -7.603218749801437
      ],
      [
        "▁ہوائی",
        -7.6086314771056305
      ],
      [
        "▁رہائشی",
        -7.627034544235919
      ],
      [
        "▁امریکی",
        -7.636996853729089
      ],
      [
        "▁مقامات",
        -7.647463427098494
      ],
      [
        "▁قومی",
        -7.64831123753075
      ],
      [
        "▁پھر",
        -7.650728303823531
      ],
      [
        "ھ",
        -7.653610985229653
      ],
      [
        "▁صرف",
        -7.6537067677667
      ],
      [
        "▁پیدائش",
        -7.656098824830268
      ],
      [
        "▁مطابق",
        -7.658097645237305
      ],
      [
        "▁پہلی",
        -7.660522042399055
      ],
      [
        "▁ہر",
        -7.661412731481283
      ],
      [
        "▁میچ",
        -7.664936702428479
      ],
      [
        "▁جنوبی",
        -7.672235786291761
      ],
      [
        "▁اسی",
        -7.683648029826687
      ],
      [
        "▁عمر",
        -7.687130460206676
      ],
      [
        "▁پی",
        -7.691590421862571
      ],
      [
        "▁شخصیات",
        -7.69258141361032
      ],
      [
        "▁غیر",
        -7.6964285485758115
      ],
      [
        "▁تمام",
        -7.697054178870406
      ],
      [
        "▁موجود",
        -7.698503175212439
      ],
      [
        "▁رنز",
        -7.701377908550365
      ],
      [
        "▁سمندر",
        -7.701671985435837
      ],
      [
        "▁اسلام",
        -7.707931831175589
      ],
      [
        "ویں",
        -7.7086793606070305
      ],
      [
        "▁تاریخ",
        -7.711877168740308
      ],
      [
        "▁عام",
        -7.712254587103239
      ],
      [
        "▁کرتا",
        -7.714724723829226
      ],
      [
        "مزید",
        -7.716640198279249
      ],
      [
        "▁زندگی",
        -7.717533624589608
      ],
      [
        "ش",
        -7.718157668302178
      ],
      [
        "یہ",
        -7.723899248053943
      ],
      [
        "▁تین",
        -7.723994197355886
      ],
      [
        "▁ایران",
        -7.731436172702198
      ],
      [
        "▁بی",
        -7.737039901592972
      ],
      [
        "▁حضرت",
        -7.739675897776216
      ],
      [
        "▁حصہ",
        -7.744094066469874
      ],
      [
        "▁پیش",
        -7.751291042291971
      ],
      [
        "▁ریلوے",
        -7.752928357649552
      ],
      [
        "▁یونیورسٹی",
        -7.755764896925195
      ],
      [
        "کی",
        -7.759603572003341
      ],
      [
        "ٹ",
        -7.760209576839847
      ],
      [
        "▁ریاست",
        -7.7633989976079825
      ],
      [
        "ون",
        -7.769380342437975
      ],
      [
        "پ",
        -7.776119753044892
      ],
      [
        "ف",
        -7.776335703559919
      ],
      [
        "▁صوبہ",
        -7.777447648306598
      ],
      [
        "ات",
        -7.77815286175821
      ],
      [
        "▁جہاں",
        -7.779709287258104
      ],
      [
        "▁کرنا",
        -7.786492846755978
      ],
      [
        "▁مقام",
        -7.788637939267105
      ],
      [
        "▁کتاب",
        -7.791815438127294
      ],
      [
        "▁بار",
        -7.796706126731431
      ],
      [
        "▁مشہور",
        -7.797637195763885
      ],
      [
        "▁آئی",
        -7.797677743841282
      ],
      [
        "▁ال",
        -7.799204833847936
      ],
      [
        "▁اب",
        -7.805334080303206
      ],
      [
        "نگ",
        -7.81467986817613
      ],
      [
        "▁ربط",
        -7.8196702609426705
      ],
      [
        "▁دوسرے",
        -7.82434307188735
      ],
      [
        "▁درمیان",
        -7.831037448627608
      ],
      [
        "▁کئی",
        -7.833867725918271
      ],
      [
        "ق",
        -7.835177177607225
      ],
      [
        "▁اپنا",
        -7.840269535215272
      ],
      [
        "▁دونوں",
        -7.844440954262801
      ],
      [
        "▁ہوتی",
        -7.845800280927762
      ],
      [
        "▁زمرہ",
        -7.848805810253825
      ],
      [
        "▁مختلف",
        -7.84914234204393
      ],
      [
        "ج",
        -7.852808328863215
      ],
      [
        "▁علاقے",
        -7.853389843663624
      ],
      [
        "▁پنجاب",
        -7.859280670312314
      ],
      [
        "▁لوگوں",
        -7.861639062726152
      ],
      [
        "▁کالج",
        -7.862527401857477
      ],
      [
        "ڈ",
        -7.864265921984426
      ],
      [
        "▁لئے",
        -7.864851549098631
      ],
      [
        "▁ٹی",
        -7.864933888029071
      ],
      [
        "▁خود",
        -7.866107488839132
      ],
      [
        "▁ڈی",
        -7.86858263607108
      ],
      [
        "▁لے",
        -7.873839858340155
      ],
      [
        "ویکی",
        -7.874062479329238
      ],
      [
        "کامنز",
        -7.874370203054182
      ],
      [
        "▁گئے۔",
        -7.875643806862449
      ],
      [
        "▁احمد",
        -7.875705530500122
      ],
      [
        "▁اسٹیشن",
        -7.887604122776921
      ],
      [
        "▁عبد",
        -7.890128253314291
      ],
      [
        "▁جاتی",
        -7.895609549737804
      ],
      [
        "▁دنیا",
        -7.897920175163824
      ],
      [
        "▁ممالک",
        -7.900115521292291
      ],
      [
        "▁یہاں",
        -7.900652663301372
      ],
      [
        "▁رہا",
        -7.90942413660944
      ],
      [
        "▁اہم",
        -7.9123839226588615
      ],
      [
        "▁جا",
        -7.91335887321971
      ],
      [
        "▁دیا۔",
        -7.919220975231266
      ],
      [
        "▁اردو",
        -7.920851433062124
      ],
      [
        "▁ویکی",
        -7.924998333509162
      ],
      [
        "▁لیا",
        -7.9282676862395665
      ],
      [
        "▁فوج",
        -7.930247657470806
      ],
      [
        "▁جانے",
        -7.931560139575087
      ],
      [
        "▁امریکہ",
        -7.937083522896126
      ],
      [
        "یں",
        -7.937513719273268
      ],
      [
        "▁دے",
        -7.939830871562037
      ],
      [
        "/",
        -7.940761714139212
      ],
      [
        "یسویں",
        -7.941259948433926
      ],
      [
        "▁ہوئے۔",
        -7.947482643561903
      ],
      [
        "▁ہم",
        -7.949666236622345
      ],
      [
        "▁پاس",
        -7.9520226114328185
      ],
      [
        "▁ہوا۔",
        -7.95275794823139
      ],
      [
        "▁شہروں",
        -7.955896124364843
      ],
      [
        "اس",
        -7.959347671375465
      ],
      [
        "▁عرب",
        -7.962106415045467
      ],
      [
        "▁امریکافہرست",
        -7.962487229392369
      ],
      [
        "▁روزہ",
        -7.965848891275662
      ],
      [
        "▁فرانسیسی",
        -7.966544026376907
      ],
      [
        "▁امام",
        -7.972040285872975
      ],
      [
        "ع",
        -7.972528642937096
      ],
      [
        "▁بے",
        -7.972721225906135
      ],
      [
        "▁نظر",
        -7.9788384540134025
      ],
      [
        "0",
        -7.979129136712787
      ],
      [
        "▁گھر",
        -7.979979189326857
      ],
      [
        "▁دیگر",
        -7.983370980660629
      ],
      [
        "▁بڑے",
        -7.988956236276092
      ],
      [
        "کا",
        -8.007729478221453
      ],
      [
        "▁سر",
        -8.016907171393617
      ],
      [
        "▁سلطنت",
        -8.017012217185709
      ],
      [
        "▁بات",
        -8.018010734458823
      ],
      [
        "▁آسٹریلیا",
        -8.019236532708224
      ],
      [
        "s",
        -8.019369667743034
      ],
      [
        "▁علیہ",
        -8.020820333129636
      ],
      [
        "'",
        -8.02135142425995
      ],
      [
        "▁مسلم",
        -8.02459928086773
      ],
      [
        "▁دن",
        -8.026853802824053
      ],
      [
        "ضلع",
        -8.030860950095809
      ],
      [
        "▁علاوہ",
        -8.033948653877724
      ],
      [
        "▁چار",
        -8.037149361796905
      ],
      [
        "▁دہائی",
        -8.041735640913654
      ],
      [
        "▁جیسے",
        -8.043742926071044
      ],
      [
        "▁خاندان",
        -8.044420150914574
      ],
      [
        "▁اسمبلی",
        -8.048512486712575
      ],
      [
        "▁پاکستانی",
        -8.05143638777319
      ],
      [
        "تفصیلات",
        -8.051617071017748
      ],
      [
        "▁دوسری",
        -8.056898477143669
      ],
      [
        "▁دریا",
        -8.057297347811254
      ],
      [
        "▁روابط",
        -8.060429744376236
      ],
      [
        "▁ہندوستان",
        -8.063720217551955
      ],
      [
        "▁بارے",
        -8.064150241827011
      ],
      [
        "▁بڑی",
        -8.069638463168324
      ],
      [
        "▁جسے",
        -8.070318743938719
      ],
      [
        "▁سید",
        -8.075645712471651
      ],
      [
        "▁آغاز",
        -8.076455171726444
      ],
      [
        "▁بھارتی",
        -8.08084606031547
      ],
      [
        "▁ہزار",
        -8.08181461320844
      ],
      [
        "▁الدین",
        -8.08208794246345
      ],
      [
        "▁صدر",
        -8.084880087307003
      ],
      [
        "▁بڑا",
        -8.084883770854084
      ],
      [
        "▁قرآن",
        -8.086024252400478
      ],
      [
        "بیرونی",
        -8.093542833216791
      ],
      [
        "▁لوگ",
        -8.094537018861374
      ],
      [
        "▁ابن",
        -8.095213225566622
      ],
      [
        "▁یعنی",
        -8.099798097448826
      ],
      [
        "▁2018",
        -8.109275881094828
      ],
      [
        "▁کرتی",
        -8.113840831477587
      ],
      [
        "▁نقل",
        -8.115505463578781
      ],
      [
        "▁اگر",
        -8.120513475784442
      ],
      [
        "▁عالمی",
        -8.12172573818724
      ],
      [
        "▁کھیل",
        -8.12696502870909
      ],
      [
        "▁کردار",
        -8.128130042515957
      ],
      [
        "▁ایس",
        -8.128862563718354
      ],
      [
        "▁نیو",
        -8.135469607021697
      ],
      [
        "▁مغربی",
        -8.137885247514134
      ],
      [
        "▁جائے",
        -8.138507965599574
      ],
      [
        "▁کار",
        -8.139038378732227
      ],
      [
        "▁جبکہ",
        -8.142868776804393
      ],
      [
        "▁ہوتے",
        -8.145542439070024
      ],
      [
        "▁یونین",
        -8.1459293370673
      ],
      [
        "▁مکمل",
        -8.147702183085167
      ],
      [
        "▁شمالی",
        -8.150208668096665
      ],
      [
        "▁نظام",
        -8.15054292289697
      ],
      [
        "▁ابو",
        -8.153360045363126
      ],
      [
        "▁عمل",
        -8.153983655055878
      ],
      [
        "ور",
        -8.154132562658056
      ],
      [
        "▁197",
        -8.158599362772812
      ],
      [
        "▁)،",
        -8.159500711206523
      ],
      [
        "▁جاری",
        -8.16576960163311
      ],
      [
        "▁سیریز",
        -8.177647321283578
      ],
      [
        "▁سیاست",
        -8.180368838861702
      ],
      [
        "▁دار",
        -8.180507524372892
      ],
      [
        "▁تعلق",
        -8.181521945072395
      ],
      [
        "▁لیگ",
        -8.185346357106404
      ],
      [
        "▁والد",
        -8.186380776194609
      ],
      [
        "؛",
        -8.190625520267075
      ],
      [
        "▁خاص",
        -8.193668633763359
      ],
      [
        "▁علم",
        -8.195596400402707
      ],
      [
        "▁تعمیر",
        -8.19708390721309
      ],
      [
        "▁کپ",
        -8.197945337905171
      ],
      [
        "▁وفات",
        -8.199109875830445
      ],
      [
        "▁بیان",
        -8.199257846051317
      ],
      [
        "▁تر",
        -8.20027411839626
      ],
      [
        "یا",
        -8.20136672339922
      ],
      [
        "▁والا",
        -8.20147694024883
      ],
      [
        "▁جگہ",
        -8.20331345585499
      ],
      [
        "▁دان",
        -8.205579199651645
      ],
      [
        "▁بنا",
        -8.206540253843004
      ],
      [
        "▁لاہور",
        -8.20753467627209
      ],
      [
        "▁تاہم",
        -8.212042955926183
      ],
      [
        "▁وسلم",
        -8.212876806288824
      ],
      [
        "▁درجہ",
        -8.21492322230281
      ],
      [
        "▁گئی۔",
        -8.21501341665893
      ],
      [
        "▁ایم",
        -8.217575623024047
      ],
      [
        "▁مرد",
        -8.224252560242329
      ],
      [
        "▁10",
        -8.22468420363573
      ],
      [
        "▁تاسیسات",
        -8.22604629418835
      ],
      [
        "▁حسین",
        -8.228328856499902
      ],
      [
        "▁کیونکہ",
        -8.22985031159208
      ],
      [
        "گ",
        -8.23280316712631
      ],
      [
        "▁مگر",
        -8.236072191589889
      ],
      [
        "y",
        -8.239562802961808
      ],
      [
        "▁وزیر",
        -8.24181186436859
      ],
      [
        "▁انگلینڈ",
        -8.244528746808172
      ],
      [
        "▁اسکول",
        -8.250201129225267
      ],
      [
        "▁گاؤں",
        -8.251304998138497
      ],
      [
        "▁انگریزی",
        -8.252756928487212
      ],
      [
        "▁سیاسی",
        -8.255901976005587
      ],
      [
        "▁اسلامی",
        -8.259317895177901
      ],
      [
        "▁مارچ",
        -8.260775578041436
      ],
      [
        "▁جی",
        -8.265092302819863
      ],
      [
        "▁شادی",
        -8.268236107047649
      ],
      [
        "▁فلمیں",
        -8.270144658619772
      ],
      [
        "–",
        -8.27444018145197
      ],
      [
        "▁اول",
        -8.278380249738525
      ],
      [
        "▁جنوری",
        -8.283852511556974
      ],
      [
        "▁عظیم",
        -8.287506062232682
      ],
      [
        "کو",
        -8.291631863760776
      ],
      [
        "▁قریب",
        -8.29687452156078
      ],
      [
        "▁رہی",
        -8.29719827287937
      ],
      [
        "▁of",
        -8.29729665901718
      ],
      [
        "ال",
        -8.298870097621483
      ],
      [
        "▁اگست",
        -8.301193957111842
      ],
      [
        "▁ٹیلی",
        -8.314503687763544
      ],
      [
        "▁قبل",
        -8.318413592497654
      ],
      [
        "▁نامکمل",
        -8.319250433818032
      ],
      [
        "▁ہوئی۔",
        -8.323073247851331
      ],
      [
        "لی",
        -8.323440688414953
      ],
      [
        "▁تا",
        -8.324888443007518
      ],
      [
        "▁چین",
        -8.331559537200429
      ],
      [
        "▁تعداد",
        -8.333887792049245
      ],
      [
        "▁اکتوبر",
        -8.334718033270443
      ],
      [
        "▁ترکی",
        -8.337683632561442
      ],
      [
        "▁تھیں۔",
        -8.343977388590858
      ],
      [
        "▁جاتے",
        -8.344549668039473
      ],
      [
        "▁کل",
        -8.346533049522414
      ],
      [
        "▁بہترین",
        -8.350227959974303
      ],
      [
        "▁صاحب",
        -8.351359485447468
      ],
      [
        "▁پانچ",
        -8.352014208103661
      ],
      [
        "▁مضامین",
        -8.353175820210756
      ],
      [
        "▁مدد",
        -8.353200720579592
      ],
      [
        "▁ہاتھ",
        -8.3548739339302
      ],
      [
        "▁مئی",
        -8.355371691374476
      ],
      [
        "▁واپس",
        -8.356045077435962
      ],
      [
        "▁000",
        -8.35905952334342
      ],
      [
        "▁مسجد",
        -8.361168842922366
      ],
      [
        "تا",
        -8.363449010988875
      ],
      [
        "▁19",
        -8.36491258202167
      ],
      [
        "▁مشرقی",
        -8.366391070737716
      ],
      [
        "▁پور",
        -8.368508161308462
      ],
      [
        "▁پہلا",
        -8.3745014386454
      ],
      [
        "▁برطانوی",
        -8.375304451534936
      ],
      [
        "▁ختم",
        -8.375908701848287
      ],
      [
        "▁جون",
        -8.380216940896828
      ],
      [
        "یوں",
        -8.382434812192102
      ],
      [
        "▁ستمبر",
        -8.385458994208834
      ],
      [
        "▁شائع",
        -8.38547120710946
      ],
      [
        "▁دسمبر",
        -8.386079128323935
      ],
      [
        "▁پیدائشیں",
        -8.386803126559316
      ],
      [
        "▁رکن",
        -8.387187111326423
      ],
      [
        "▁گا",
        -8.387642216451232
      ],
      [
        "▁سکتا",
        -8.388014745661796
      ],
      [
        "▁آ",
        -8.388324541800891
      ],
      [
        "▁وی",
        -8.392690076938505
      ],
      [
        "▁بطور",
        -8.39302250954257
      ],
      [
        "▁شدہ",
        -8.393366164894717
      ],
      [
        "▁منتخب",
        -8.394854239953396
      ],
      [
        "▁جولائی",
        -8.395083196712044
      ],
      [
        "▁لا",
        -8.395494846490172
      ],
      [
        "▁تحریک",
        -8.396675510673049
      ],
      [
        "▁شیخ",
        -8.398447818947876
      ],
      [
        "▁نو",
        -8.399463581030433
      ],
      [
        "▁انتقال",
        -8.399685087151042
      ],
      [
        "▁آخری",
        -8.400198236178706
      ],
      [
        "▁ابتدائی",
        -8.404383942716361
      ],
      [
        "▁ذریعہ",
        -8.404596601886855
      ],
      [
        "▁خدمات",
        -8.405294969234813
      ],
      [
        "▁ہوں",
        -8.408201659268213
      ],
      [
        "▁عربی",
        -8.40827730419155
      ],
      [
        "▁قتل",
        -8.412857941907363
      ],
      [
        "▁تقسیم",
        -8.413692647211791
      ],
      [
        "▁نومبر",
        -8.416391432383698
      ],
      [
        "▁گن",
        -8.418371864685593
      ],
      [
        "▁فی",
        -8.422093909746618
      ],
      [
        "▁جمہوریہ",
        -8.424739196493368
      ],
      [
        "▁باز",
        -8.428059495663803
      ],
      [
        "▁کہتے",
        -8.428800347945767
      ],
      [
        "ئی",
        -8.435461791415495
      ],
      [
        "▁سلطان",
        -8.43585432849363
      ],
      [
        "▁کونسل",
        -8.436649355816263
      ],
      [
        "▁او",
        -8.43835487756421
      ],
      [
        "▁ایل",
        -8.439107789000124
      ],
      [
        "▁فتح",
        -8.441287339738277
      ],
      [
        "▁قدیم",
        -8.442031091541262
      ],
      [
        "ى",
        -8.44274128603562
      ],
      [
        "▁تھیں",
        -8.44455720633178
      ],
      [
        "▁حمل",
        -8.444828383718649
      ],
      [
        "چ",
        -8.445926400135303
      ],
      [
        "▁اعظم",
        -8.448493039877203
      ],
      [
        "▁15",
        -8.448718554471832
      ],
      [
        "▁فوجی",
        -8.449635459767435
      ],
      [
        "▁پسند",
        -8.449917738501673
      ],
      [
        "▁فروری",
        -8.450679537828442
      ],
      [
        "▁اپریل",
        -8.453507727464384
      ],
      [
        "▁این",
        -8.459147735621215
      ],
      [
        "▁رہے۔",
        -8.459914234370203
      ],
      [
        "▁ٹوئنٹی",
        -8.462852504048866
      ],
      [
        "▁اختیار",
        -8.463703683692755
      ],
      [
        "▁حیثیت",
        -8.466121810705035
      ],
      [
        "▁حملہ",
        -8.466640604516524
      ],
      [
        "▁برائے",
        -8.467915954855142
      ],
      [
        "▁2019",
        -8.470343819913353
      ],
      [
        "▁زمین",
        -8.47073876755795
      ],
      [
        "▁بنیاد",
        -8.473248338151963
      ],
      [
        "▁کلب",
        -8.473423798473238
      ],
      [
        "کر",
        -8.475340765568568
      ],
      [
        "▁12",
        -8.476056814495621
      ],
      [
        "▁علاقوں",
        -8.47639935721673
      ],
      [
        "▁ذکر",
        -8.476405249540944
      ],
      [
        "ح",
        -8.478682548340398
      ],
      [
        "▁وکٹ",
        -8.484964926828837
      ],
      [
        "▁دوبارہ",
        -8.48558395517507
      ],
      [
        "سی",
        -8.486142401287083
      ],
      [
        "▁2013",
        -8.487921927157632
      ],
      [
        "▁بھائی",
        -8.488422564190849
      ],
      [
        "▁مقامی",
        -8.493857958621374
      ],
      [
        "▁جانب",
        -8.494993188306491
      ],
      [
        "▁ادا",
        -8.495266388206952
      ],
      [
        "▁پارٹی",
        -8.496030523035255
      ],
      [
        "▁ویژن",
        -8.496264438776294
      ],
      [
        "پاکستانی",
        -8.497120589829892
      ],
      [
        "▁قرار",
        -8.50855372188793
      ],
      [
        "▁ارکان",
        -8.509569699517325
      ],
      [
        "▁مولانا",
        -8.510393615546413
      ],
      [
        "▁انجام",
        -8.51114578700901
      ],
      [
        "▁سیزن",
        -8.516016392015228
      ],
      [
        "▁دینے",
        -8.5162145721126
      ],
      [
        "▁شکست",
        -8.518327565968441
      ],
      [
        "▁چند",
        -8.520047542367916
      ],
      [
        "▁بادشاہ",
        -8.520557805282287
      ],
      [
        "▁بال",
        -8.523559732178828
      ],
      [
        "▁کراچی",
        -8.523928035488284
      ],
      [
        "▁کیریئر",
        -8.526070201656577
      ],
      [
        "▁کوشش",
        -8.527846125226048
      ],
      [
        "▁سندھ",
        -8.532396789238991
      ],
      [
        "▁وہاں",
        -8.533839664706642
      ],
      [
        "▁مل",
        -8.536420089234069
      ],
      [
        "▁11",
        -8.537525935542345
      ],
      [
        "▁جان",
        -8.537848465357069
      ],
      [
        "ص",
        -8.538018754230494
      ],
      [
        "▁بنانے",
        -8.53932798312803
      ],
      [
        "▁آزاد",
        -8.540334758336618
      ],
      [
        "▁سرکاری",
        -8.540817458358003
      ],
      [
        "▁سابق",
        -8.541428149415633
      ],
      [
        "▁تیار",
        -8.542037463250718
      ],
      [
        "▁شمار",
        -8.544684051488638
      ],
      [
        "▁بلکہ",
        -8.545228803872954
      ],
      [
        "▁ترقی",
        -8.545310409715794
      ],
      [
        "▁خدا",
        -8.546922237293733
      ],
      [
        "▁ترین",
        -8.548020546905905
      ],
      [
        "▁بنایا",
        -8.55020495376949
      ],
      [
        "▁افریقہ",
        -8.550574123701841
      ],
      [
        "▁ذریعے",
        -8.551767506024659
      ],
      [
        "▁اڈا",
        -8.55294175679729
      ],
      [
        "▁ہند",
        -8.552954513351153
      ],
      [
        "▁پانی",
        -8.553902995132985
      ],
      [
        "▁الینوائے",
        -8.554473905487752
      ],
      [
        "▁شخص",
        -8.557503747541778
      ],
      [
        "▁رکھا",
        -8.56272608905352
      ],
      [
        "ط",
        -8.563083707563276
      ],
      [
        "▁متعلق",
        -8.5634757610276
      ],
      [
        "▁سن",
        -8.56429809911046
      ],
      [
        "▁صوبائی",
        -8.567224361221392
      ],
      [
        "▁زیر",
        -8.568738392634378
      ],
      [
        "▁سری",
        -8.569151644136333
      ],
      [
        "▁آیت",
        -8.571710208200304
      ],
      [
        "▁اڈے",
        -8.572809710920627
      ],
      [
        "▁دل",
        -8.574648109690129
      ],
      [
        "▁ہندوستانی",
        -8.577618049082957
      ],
      [
        "▁کبھی",
        -8.580436574266962
      ],
      [
        "▁14",
        -8.58999754867085
      ],
      [
        "▁وکٹیں",
        -8.590841669585203
      ],
      [
        "▁بلے",
        -8.59167944192206
      ],
      [
        "▁چھ",
        -8.591903065742772
      ],
      [
        "▁سنگھ",
        -8.5941225840581
      ],
      [
        "▁اداکارائیں",
        -8.594385766994481
      ],
      [
        "▁نمبر",
        -8.594891740899202
      ],
      [
        "▁18",
        -8.600808794262255
      ],
      [
        "▁اعلان",
        -8.604119423741203
      ],
      [
        "▁کلاس",
        -8.60508632376062
      ],
      [
        "چھوٹے",
        -8.606512248520675
      ],
      [
        "▁قسم",
        -8.60805754428191
      ],
      [
        "▁بعض",
        -8.608429451164087
      ],
      [
        "▁بند",
        -8.610751785498207
      ],
      [
        "▁رسول",
        -8.613355773561295
      ],
      [
        "▁آخر",
        -8.614159848752744
      ],
      [
        "▁حسن",
        -8.614436362854846
      ],
      [
        "▁نگار",
        -8.614521216339869
      ],
      [
        "▁بنائے",
        -8.614832663024437
      ],
      [
        "▁آر",
        -8.617308678414268
      ],
      [
        "▁مرکزی",
        -8.618943055545214
      ],
      [
        "▁سینٹ",
        -8.620065716301209
      ],
      [
        "▁لکھا",
        -8.621847181645373
      ],
      [
        "▁دیش",
        -8.622791056232042
      ],
      [
        "▁16",
        -8.623050242587926
      ],
      [
        "▁بیٹے",
        -8.625356480824383
      ],
      [
        "▁قانون",
        -8.62568479562179
      ],
      [
        "▁میچوں",
        -8.6258259695931
      ],
      [
        "▁فلمی",
        -8.626464878248957
      ],
      [
        "▁موت",
        -8.62752032292293
      ],
      [
        "▁جانا",
        -8.627991490121193
      ],
      [
        "▁انتخابات",
        -8.633773082897546
      ],
      [
        "▁آج",
        -8.633843727458759
      ],
      [
        "▁تحت",
        -8.633865088241398
      ],
      [
        "▁بنیادی",
        -8.634116846002579
      ],
      [
        "▁پولینڈ",
        -8.6349513332425
      ],
      [
        "▁اننگز",
        -8.636609857116648
      ],
      [
        "▁آزادی",
        -8.638066518340459
      ],
      [
        "انہ",
        -8.638659856942402
      ],
      [
        "▁عالم",
        -8.640192451257333
      ],
      [
        "▁تفصیل",
        -8.64039585292397
      ],
      [
        "▁ویسٹ",
        -8.641460216924182
      ],
      [
        "▁کھلاڑیوں",
        -8.643966568010864
      ],
      [
        "▁لنکا",
        -8.644177793359809
      ],
      [
        "▁17",
        -8.64440453514138
      ],
      [
        "▁جنرل",
        -8.644824493383144
      ],
      [
        "ۂ",
        -8.646009255993453
      ],
      [
        "▁الله",
        -8.648381501013194
      ],
      [
        "▁آئے",
        -8.649257908456324
      ],
      [
        "پاکستان",
        -8.650713352213579
      ],
      [
        "▁فرمایا",
        -8.65081283736134
      ],
      [
        "▁لی",
        -8.65247234316852
      ],
      [
        "▁13",
        -8.655022614083267
      ],
      [
        "▁متعدد",
        -8.656300016331848
      ],
      [
        "▁تم",
        -8.658739129720558
      ],
      [
        "کے",
        -8.661292122789975
      ],
      [
        "▁مسلمان",
        -8.662582259243772
      ],
      [
        "خ",
        -8.664739021386666
      ],
      [
        "▁ڈیبیو",
        -8.665080080462882
      ],
      [
        "ئے",
        -8.665317989967543
      ],
      [
        "‘",
        -8.670489304922611
      ],
      [
        "▁ایسا",
        -8.67127598501155
      ],
      [
        "▁خیال",
        -8.673540759127478
      ],
      [
        "▁لیا۔",
        -8.67482146250457
      ],
      [
        "▁مذہبی",
        -8.677744088020146
      ],
      [
        "▁ادب",
        -8.681685310178022
      ],
      [
        "▁ج",
        -8.68232863402746
      ],
      [
        "▁سفر",
        -8.68233587270933
      ],
      [
        "▁195",
        -8.682383916772945
      ],
      [
        "ؓ",
        -8.684732943850193
      ],
      [
        "▁قابل",
        -8.68928548517428
      ],
      [
        "▁ای",
        -8.691231122785263
      ],
      [
        "▁خانہ",
        -8.692208748623228
      ],
      [
        "▁نیوزی",
        -8.69470724315607
      ],
      [
        "▁از",
        -8.697602738711735
      ],
      [
        "▁شمال",
        -8.698149661756233
      ],
      [
        "▁ایسے",
        -8.70095818702405
      ],
      [
        "▁حکم",
        -8.702072104944307
      ],
      [
        "▁دیتے",
        -8.702476157961803
      ],
      [
        "▁گیند",
        -8.704718142275649
      ],
      [
        "انی",
        -8.707166192634654
      ],
      [
        "▁مسلمانوں",
        -8.709695067303795
      ],
      [
        "▁بلحاظ",
        -8.711824670386244
      ],
      [
        "▁دہلی",
        -8.71268128130933
      ],
      [
        "▁اداکار",
        -8.71268860015919
      ],
      [
        "▁ویب",
        -8.713042349675165
      ],
      [
        "▁تعلیمی",
        -8.714198596833336
      ],
      [
        "▁ورلڈ",
        -8.714590908305249
      ],
      [
        "▁اصل",
        -8.715713718664418
      ],
      [
        "▁قوم",
        -8.716729745209468
      ],
      [
        "▁آیا",
        -8.721235349627845
      ],
      [
        "▁ڈاکٹر",
        -8.72609787264853
      ],
      [
        "▁جدید",
        -8.726310451395962
      ],
      [
        "▁روسی",
        -8.727249745595858
      ],
      [
        "▁عدد",
        -8.728272641239347
      ],
      [
        "▁روس",
        -8.730968143153953
      ],
      [
        "▁کمپنی",
        -8.731984951421442
      ],
      [
        "▁قیام",
        -8.732067893493841
      ],
      [
        "▁عوامی",
        -8.732753230688548
      ],
      [
        "“",
        -8.733402330879663
      ],
      [
        "▁کامیاب",
        -8.734201372759596
      ],
      [
        "▁مقرر",
        -8.736652817964519
      ],
      [
        "▁برطانیہ",
        -8.737450748984902
      ],
      [
        "▁شاعر",
        -8.737902398017452
      ],
      [
        "▁2010",
        -8.739286504320665
      ],
      [
        "▁قبضہ",
        -8.743324989297971
      ],
      [
        "▁انھوں",
        -8.743385182916906
      ],
      [
        "▁25",
        -8.743857492737863
      ],
      [
        "▁جنوب",
        -8.744548519791215
      ],
      [
        "▁بنگلہ",
        -8.747868062915982
      ],
      [
        "▁یہودی",
        -8.748632542646408
      ],
      [
        "▁فرسٹ",
        -8.749640537012207
      ],
      [
        "▁30",
        -8.752067138263225
      ],
      [
        "▁2008",
        -8.753313974922559
      ],
      [
        "▁مینیسوٹا",
        -8.759002834531161
      ],
      [
        "▁تاریخی",
        -8.759017148133351
      ],
      [
        "▁کرکے",
        -8.759164723902625
      ],
      [
        "▁رکھتے",
        -8.759771088869911
      ],
      [
        "▁سات",
        -8.763018057185294
      ],
      [
        "ٹن",
        -8.76332709255537
      ],
      [
        "▁کافی",
        -8.766668552410215
      ],
      [
        "▁وغیرہ",
        -8.768582145047166
      ],
      [
        "▁گروپ",
        -8.772946051707024
      ],
      [
        "▁حق",
        -8.773044013648674
      ],
      [
        "▁فارسی",
        -8.775822295081893
      ],
      [
        "▁اکثر",
        -8.777203770326066
      ],
      [
        "▁موجودہ",
        -8.777239821944555
      ],
      [
        "▁مرکز",
        -8.778360571990794
      ],
      [
        "▁آنے",
        -8.780286305360237
      ],
      [
        "▁لاطینی",
        -8.781890677421522
      ],
      [
        "▁جرمنی",
        -8.782725894402228
      ],
      [
        "▁جماعت",
        -8.784387412210839
      ],
      [
        "▁ذیل",
        -8.785299310468195
      ],
      [
        "▁لندن",
        -8.785611498612806
      ],
      [
        "▁ہدایت",
        -8.786140926814168
      ],
      [
        "*",
        -8.788045934744343
      ],
      [
        "بی",
        -8.789240939869181
      ],
      [
        "▁بھر",
        -8.789923636976736
      ],
      [
        "▁‘‘",
        -8.790277872022008
      ],
      [
        "دی",
        -8.790352816240626
      ],
      [
        "▁ناول",
        -8.791061574995958
      ],
      [
        "▁سلسلہ",
        -8.79200645387859
      ],
      [
        "▁سامنے",
        -8.793738380743287
      ],
      [
        "▁انگریز",
        -8.793846518165417
      ],
      [
        "▁اہل",
        -8.794870132157815
      ],
      [
        "▁بولا",
        -8.795096172821513
      ],
      [
        "▁ایوارڈ",
        -8.79606446249037
      ],
      [
        "▁فن",
        -8.796369999091468
      ],
      [
        "▁السلام",
        -8.798651167017512
      ],
      [
        "بھارت",
        -8.802111774395275
      ],
      [
        "▁2015",
        -8.803019612762967
      ],
      [
        "▁انسان",
        -8.804715675235578
      ],
      [
        "▁صورت",
        -8.80629654522454
      ],
      [
        "▁حدیث",
        -8.80677967601185
      ],
      [
        "▁عليه",
        -8.807111357514584
      ],
      [
        "▁شائر",
        -8.811423934549032
      ],
      [
        "▁2017",
        -8.811750899989384
      ],
      [
        "▁وسطی",
        -8.812087679026659
      ],
      [
        "▁عہد",
        -8.812209635369445
      ],
      [
        "ۃ",
        -8.816399190200068
      ],
      [
        "ائی",
        -8.816802610198176
      ],
      [
        "▁199",
        -8.816922589261322
      ],
      [
        "▁بچوں",
        -8.820276689833552
      ],
      [
        "▁ٹورنامنٹ",
        -8.820912539194117
      ],
      [
        "▁شکل",
        -8.824136714202258
      ],
      [
        "▁باہر",
        -8.82601060490529
      ],
      [
        "▁اندر",
        -8.828406119922924
      ],
      [
        "▁انڈیانا",
        -8.830839171061854
      ],
      [
        "▁موقع",
        -8.830889800270418
      ],
      [
        "▁اینڈ",
        -8.832748801091217
      ],
      [
        "▁لائن",
        -8.834564724615188
      ],
      [
        "▁کلومیٹر",
        -8.837168757153101
      ],
      [
        "▁21",
        -8.839465062073232
      ],
      [
        "▁لفظ",
        -8.839822260789688
      ],
      [
        "▁جنہوں",
        -8.845808384675856
      ],
      [
        "▁حصے",
        -8.847148755197505
      ],
      [
        "یاں",
        -8.850673294459387
      ],
      [
        "▁دی۔",
        -8.852994684992854
      ],
      [
        "”",
        -8.853444233397267
      ],
      [
        "▁قبول",
        -8.853868381897966
      ],
      [
        "▁2016",
        -8.854423946647605
      ],
      [
        "▁فٹ",
        -8.854487538336752
      ],
      [
        "▁حقوق",
        -8.855025230191753
      ],
      [
        "▁انعام",
        -8.856230477799455
      ],
      [
        "▁22",
        -8.858853243880203
      ],
      [
        "▁جامعہ",
        -8.860682902300914
      ],
      [
        "▁انداز",
        -8.861240557873357
      ],
      [
        "▁پہنچ",
        -8.861724102350207
      ],
      [
        "▁نتیجے",
        -8.863705466501932
      ],
      [
        "▁پردیش",
        -8.863799836090505
      ],
      [
        "▁افغانستان",
        -8.864994467393851
      ],
      [
        "▁2014",
        -8.86538076172315
      ],
      [
        "▁مشرق",
        -8.867497908183378
      ],
      [
        "▁’’",
        -8.868457003700348
      ],
      [
        "▁غلام",
        -8.869129136195438
      ],
      [
        "▁سکتے",
        -8.869268122077294
      ],
      [
        "▁مشی",
        -8.869901220867716
      ],
      [
        "▁نئی",
        -8.872874254770874
      ],
      [
        "▁اضلاع",
        -8.874109214543301
      ],
      [
        "▁اوسط",
        -8.876907302865423
      ],
      [
        "▁ایسی",
        -8.877656212583805
      ],
      [
        "▁ظاہر",
        -8.878838433905607
      ],
      [
        "▁ریکارڈ",
        -8.8811173848266
      ],
      [
        "▁امیر",
        -8.882246785264833
      ],
      [
        "▁فراہم",
        -8.882783795530178
      ],
      [
        "▁اسرائیل",
        -8.883137700940907
      ],
      [
        "▁چھوڑ",
        -8.889096516808163
      ],
      [
        "▁سوویت",
        -8.893230110408112
      ],
      [
        "سعودی",
        -8.896808176028145
      ],
      [
        "▁ترک",
        -8.89834032776076
      ],
      [
        "▁حیات",
        -8.898934685892092
      ],
      [
        "▁نئے",
        -8.899372498388386
      ],
      [
        "▁روایت",
        -8.899913669708647
      ],
      [
        "▁2021",
        -8.90015388686525
      ],
      [
        "▁جلد",
        -8.90083202717058
      ],
      [
        "▁ہلاک",
        -8.902022733864026
      ],
      [
        "▁الگ",
        -8.90314579411067
      ],
      [
        "▁اداکارہ",
        -8.90370788558722
      ],
      [
        "▁عمارات",
        -8.90586204484674
      ],
      [
        "▁درج",
        -8.906596266901154
      ],
      [
        "▁تاکہ",
        -8.908313678166127
      ],
      [
        "▁مملکت",
        -8.90834927227836
      ],
      [
        "▁شریف",
        -8.910075186542775
      ],
      [
        "▁مین",
        -8.910093753394944
      ],
      [
        "▁حکمران",
        -8.910898192054814
      ],
      [
        "▁گا۔",
        -8.911228330070971
      ],
      [
        "▁معلومات",
        -8.911843983530616
      ],
      [
        "▁آئیووا",
        -8.912768028103933
      ],
      [
        "▁صلی",
        -8.912901040599218
      ],
      [
        "▁میری",
        -8.916977811048968
      ],
      [
        "▁کردہ",
        -8.918160579551516
      ],
      [
        "▁اثر",
        -8.918842119389078
      ],
      [
        "▁فیصلہ",
        -8.920370136722257
      ],
      [
        "▁کتب",
        -8.92101756149742
      ],
      [
        "▁انڈیز",
        -8.925616606007619
      ],
      [
        "▁مت",
        -8.92670507285334
      ],
      [
        "▁2020",
        -8.926941246129406
      ],
      [
        "▁23",
        -8.931096349870444
      ],
      [
        "▁24",
        -8.931907746499608
      ],
      [
        "▁گے",
        -8.932088148777526
      ],
      [
        "▁فیصد",
        -8.93753907187186
      ],
      [
        "▁تعلقات",
        -8.937976923900548
      ],
      [
        "▁2011",
        -8.9383516453883
      ],
      [
        "▁انٹرنیشنل",
        -8.938805272286118
      ],
      [
        "▁پوری",
        -8.943797023696439
      ],
      [
        "▁ڈے",
        -8.9441342272277
      ],
      [
        "▁سابقہ",
        -8.944579533744035
      ],
      [
        "▁لینے",
        -8.945477932802948
      ],
      [
        "▁ضرورت",
        -8.946177358837227
      ],
      [
        "▁نیشنل",
        -8.946980362453509
      ],
      [
        "ول",
        -8.94701305143691
      ],
      [
        "▁رہ",
        -8.949184576402695
      ],
      [
        "▁سورہ",
        -8.950926766042382
      ],
      [
        "▁ہندو",
        -8.952115048139829
      ],
      [
        "▁ترجمہ",
        -8.952943671330692
      ],
      [
        "▁دیکھا",
        -8.957248383914175
      ],
      [
        "▁چکے",
        -8.96166944612304
      ],
      [
        "▁بغیر",
        -8.961725055522175
      ],
      [
        "▁باوجود",
        -8.961805664944652
      ],
      [
        "▁شام",
        -8.9626254933296
      ],
      [
        "▁مصر",
        -8.96475344452425
      ],
      [
        "▁2012",
        -8.967213146700644
      ],
      [
        "▁با",
        -8.969298535041796
      ],
      [
        "▁ادارے",
        -8.971041624681506
      ],
      [
        "جغرافیہ",
        -8.972739037363946
      ],
      [
        "▁اگرچہ",
        -8.973149143949943
      ],
      [
        "▁کینیڈا",
        -8.97410477573631
      ],
      [
        "گی",
        -8.975201237693021
      ],
      [
        "▁مذہب",
        -8.976454463564446
      ],
      [
        "▁شاعری",
        -8.97707085231445
      ],
      [
        "▁2007",
        -8.977071721496996
      ],
      [
        "▁داخل",
        -8.97839486681568
      ],
      [
        "▁انسانی",
        -8.978488466272013
      ],
      [
        "▁میل",
        -8.978950809537
      ],
      [
        "▁ملا",
        -8.979959183900434
      ],
      [
        "▁دورہ",
        -8.97999604157469
      ],
      [
        "▁کامیابی",
        -8.98321954998451
      ],
      [
        "▁سائنس",
        -8.984584343169887
      ],
      [
        "▁دس",
        -8.985598251207032
      ],
      [
        "▁کشمیر",
        -8.9867611180262
      ],
      [
        "▁شاہی",
        -8.987436752945845
      ],
      [
        "▁تحصیل",
        -8.987922730688917
      ],
      [
        "▁اعزاز",
        -8.98860612893599
      ],
      [
        "▁حد",
        -8.989975963201271
      ],
      [
        "▁جمع",
        -8.990084619057255
      ],
      [
        "▁دریائے",
        -8.992335197282642
      ],
      [
        "▁طاقت",
        -8.993029138585808
      ],
      [
        "▁حملے",
        -8.994861259779045
      ],
      [
        "▁189",
        -8.996245643589564
      ],
      [
        "▁50",
        -8.99735726861771
      ],
      [
        "▁مار",
        -9.002206508592694
      ],
      [
        "▁دوسرا",
        -9.004233189030002
      ],
      [
        "▁خاتون",
        -9.00490359578514
      ],
      [
        "▁سائٹ",
        -9.005176739709523
      ],
      [
        "▁حال",
        -9.005592518749287
      ],
      [
        "▁معلوم",
        -9.00618128687363
      ],
      [
        "▁رنگ",
        -9.006284392004153
      ],
      [
        "▁ایف",
        -9.006798335050528
      ],
      [
        "▁تنظیم",
        -9.009770713826493
      ],
      [
        "▁رائے",
        -9.01033933213592
      ],
      [
        "ء",
        -9.010503521286891
      ],
      [
        "▁والوں",
        -9.011090712274314
      ],
      [
        "▁26",
        -9.01208996477992
      ],
      [
        "▁ایشیا",
        -9.014534118078483
      ],
      [
        "▁عثمانی",
        -9.017033484195034
      ],
      [
        "▁مغرب",
        -9.017999075102786
      ],
      [
        "▁آؤٹ",
        -9.020460446411041
      ],
      [
        "▁اتحاد",
        -9.020688438730627
      ],
      [
        "▁مقصد",
        -9.025548678383213
      ],
      [
        "لا",
        -9.026416482513707
      ],
      [
        "▁میدان",
        -9.028156090784147
      ],
      [
        "▁۔۔۔",
        -9.030383065196492
      ],
      [
        "▁حمایت",
        -9.030702824952083
      ],
      [
        "▁چھوٹا",
        -9.030872725690712
      ],
      [
        "▁قصبہ",
        -9.031346333680279
      ],
      [
        "اب",
        -9.031510622044376
      ],
      [
        "▁ہونا",
        -9.033248409050477
      ],
      [
        "▁باقی",
        -9.03540607309578
      ],
      [
        "اور",
        -9.035663604700533
      ],
      [
        "▁معروف",
        -9.037425451005634
      ],
      [
        "▁ہائی",
        -9.037732794117028
      ],
      [
        "امریکی",
        -9.038431965416471
      ],
      [
        "▁؟",
        -9.03885964005113
      ],
      [
        "▁بندی",
        -9.040313974821487
      ],
      [
        "2009",
        -9.041536579358038
      ],
      [
        "▁نا",
        -9.041930217384232
      ],
      [
        "▁187",
        -9.042093347236372
      ],
      [
        "▁خط",
        -9.042611433057898
      ],
      [
        "▁وطن",
        -9.043340788915172
      ],
      [
        "▁میر",
        -9.044936450545253
      ],
      [
        "▁جرمن",
        -9.045952959706623
      ],
      [
        "▁اجازت",
        -9.048955179607233
      ],
      [
        "ٹی",
        -9.048991538519202
      ],
      [
        "▁پروگرام",
        -9.049797590045895
      ],
      [
        "▁27",
        -9.050060067917766
      ],
      [
        "▁مصنف",
        -9.051317519877966
      ],
      [
        "▁جواب",
        -9.052372433568637
      ],
      [
        "▁سمجھا",
        -9.056733920722188
      ],
      [
        "▁دین",
        -9.05734950257369
      ],
      [
        "▁نسل",
        -9.058831822290696
      ],
      [
        "▁28",
        -9.060278345192716
      ],
      [
        "▁مقابلے",
        -9.062506015089175
      ],
      [
        "▁گی",
        -9.064273998172048
      ],
      [
        "▁تبدیل",
        -9.066574839805673
      ],
      [
        "▁منتقل",
        -9.067554065395244
      ],
      [
        "سٹ",
        -9.06945326846496
      ],
      [
        "▁چنانچہ",
        -9.072605931564869
      ],
      [
        "▁شہری",
        -9.072797012377896
      ],
      [
        "▁تشکیل",
        -9.073478339550157
      ],
      [
        "▁ذیلی",
        -9.077647695747476
      ],
      [
        "▁سانچہ",
        -9.078051865535185
      ],
      [
        "e",
        -9.07948670218547
      ],
      [
        "▁فلموں",
        -9.079521148387434
      ],
      [
        "▁واقعات",
        -9.08021971851581
      ],
      [
        "▁ہجری",
        -9.080880670918184
      ],
      [
        "▁چینی",
        -9.081664384717266
      ],
      [
        "▁مقابلہ",
        -9.086392963075296
      ],
      [
        "ي",
        -9.089188216710376
      ],
      [
        "▁ثابت",
        -9.089317002153324
      ],
      [
        "▁عوام",
        -9.091672479677186
      ],
      [
        "▁انڈیا",
        -9.092997463184062
      ],
      [
        "▁ملکی",
        -9.096612400842986
      ],
      [
        "▁مراد",
        -9.096887565855269
      ],
      [
        "ه",
        -9.097429319317293
      ],
      [
        "▁رہا۔",
        -9.097672627087048
      ],
      [
        "▁واحد",
        -9.097700827964545
      ],
      [
        "▁پاک",
        -9.098001561264274
      ],
      [
        "▁2000",
        -9.09803022598184
      ],
      [
        "▁ابی",
        -9.098121168643631
      ],
      [
        "▁بغاوت",
        -9.102256352164488
      ],
      [
        "▁دائیں",
        -9.105343442907976
      ],
      [
        "▁کہانی",
        -9.105432802930173
      ],
      [
        "▁سا",
        -9.105687020876193
      ],
      [
        "▁عورت",
        -9.106224160722903
      ],
      [
        "▁ایرانی",
        -9.10706114178936
      ],
      [
        "▁الفاظ",
        -9.107447193309728
      ],
      [
        "▁نمائندگی",
        -9.10882347005689
      ],
      [
        "▁نور",
        -9.109844971574093
      ],
      [
        "▁آل",
        -9.112028781465929
      ],
      [
        "آسٹریلیا",
        -9.112966051218779
      ],
      [
        "▁زمانے",
        -9.113359741561146
      ],
      [
        "▁گو",
        -9.114881996828133
      ],
      [
        "▁بیٹی",
        -9.115108235546426
      ],
      [
        "▁انڈین",
        -9.115198418801876
      ],
      [
        "▁جامعات",
        -9.115290251685158
      ],
      [
        "▁لاکھ",
        -9.116227818339578
      ],
      [
        "▁ثانی",
        -9.118790990220747
      ],
      [
        "▁متاثر",
        -9.120534177073663
      ],
      [
        "▁ادارہ",
        -9.12077594888117
      ],
      [
        "▁یارک",
        -9.122630861972231
      ],
      [
        "▁بر",
        -9.12308596409381
      ],
      [
        "▁کیلیفورنیا",
        -9.12392382204485
      ],
      [
        "▁2006",
        -9.124156559709352
      ],
      [
        "▁پیغام",
        -9.124507910738274
      ],
      [
        "▁کپتان",
        -9.124968904505113
      ],
      [
        "1990",
        -9.12913777996244
      ],
      [
        "▁کریں",
        -9.129656388566726
      ],
      [
        "▁کھیلے",
        -9.129782612366808
      ],
      [
        "▁یورپ",
        -9.129993963809394
      ],
      [
        "▁من",
        -9.132248570622732
      ],
      [
        "▁آگے",
        -9.135717459307392
      ],
      [
        "ئ",
        -9.1363394150886
      ],
      [
        "▁عمارت",
        -9.138017993237513
      ],
      [
        "a",
        -9.138685776128101
      ],
      [
        "▁افواج",
        -9.138781506079246
      ],
      [
        "▁سنچری",
        -9.139812139822903
      ],
      [
        "▁الم",
        -9.141653111871017
      ],
      [
        "▁نماز",
        -9.143291572247794
      ],
      [
        "▁یافتہ",
        -9.144735036831097
      ],
      [
        "▁دیکھ",
        -9.145857161334943
      ],
      [
        "▁رہنے",
        -9.14598671741856
      ],
      [
        "▁مرتبہ",
        -9.146445900268564
      ],
      [
        "▁دیتا",
        -9.147025798451924
      ],
      [
        "▁انتخاب",
        -9.147721979349258
      ],
      [
        "▁مہم",
        -9.148236399106155
      ],
      [
        "▁G",
        -9.148350606809874
      ],
      [
        "▁صفحات",
        -9.14870380475281
      ],
      [
        "▁گڑھ",
        -9.150637054239176
      ],
      [
        "▁قدر",
        -9.15128158177799
      ],
      [
        "▁قیادت",
        -9.153187391689821
      ],
      [
        "▁حالت",
        -9.153483900066787
      ],
      [
        "▁29",
        -9.154912294751844
      ],
      [
        "▁اوہائیو",
        -9.15540358355336
      ],
      [
        "▁سماجی",
        -9.155734608664346
      ],
      [
        "▁ماہر",
        -9.156938242245223
      ],
      [
        "▁کنساس",
        -9.157262346318793
      ],
      [
        "▁معاہدے",
        -9.158841001888204
      ],
      [
        "2022",
        -9.160560700749446
      ],
      [
        "▁علامت",
        -9.162684008428116
      ],
      [
        "▁چیز",
        -9.162685361096496
      ],
      [
        "▁منظر",
        -9.163864741884412
      ],
      [
        "▁ڈراما",
        -9.166992171715716
      ],
      [
        "▁جہاز",
        -9.169502517731424
      ],
      [
        "▁صل",
        -9.169623227312387
      ],
      [
        "▁پیر",
        -9.16971124464024
      ],
      [
        "▁گروہ",
        -9.170480357225589
      ],
      [
        "▁اہمیت",
        -9.171311651709436
      ],
      [
        "▁جیسا",
        -9.17222210872362
      ],
      [
        "مین",
        -9.172665872964599
      ],
      [
        "▁میرے",
        -9.17387031234875
      ],
      [
        "▁خواجہ",
        -9.174968459647731
      ],
      [
        "▁خدمت",
        -9.176208490543377
      ],
      [
        "▁کرے",
        -9.176901241186226
      ],
      [
        "▁شریک",
        -9.178088559231382
      ],
      [
        "تو",
        -9.178503145069053
      ],
      [
        "▁ہندی",
        -9.17861626262411
      ],
      [
        "▁رہتے",
        -9.179526101424978
      ],
      [
        "▁مدینہ",
        -9.180334720166114
      ],
      [
        "▁بنی",
        -9.181617714446416
      ],
      [
        "ؤں",
        -9.181740685371718
      ],
      [
        "▁کیں۔",
        -9.18573332007248
      ],
      [
        "پر",
        -9.186329621995313
      ],
      [
        "▁جیت",
        -9.187090986306702
      ],
      [
        "▁قلعہ",
        -9.187213005542718
      ],
      [
        "▁186",
        -9.187627077672719
      ],
      [
        "لے",
        -9.187868603849148
      ],
      [
        "▁گورنر",
        -9.189598766202005
      ],
      [
        "▁حوالے",
        -9.192141584724858
      ],
      [
        "▁انتہائی",
        -9.194338067698876
      ],
      [
        "▁آٹھ",
        -9.194596345990329
      ],
      [
        "▁مالک",
        -9.196666983673325
      ],
      [
        "▁روڈ",
        -9.197144807568616
      ],
      [
        "▁مسیح",
        -9.197678990258352
      ],
      [
        "▁حالات",
        -9.200903931201276
      ],
      [
        "▁100",
        -9.202391549144787
      ],
      [
        "▁سخت",
        -9.203377199539053
      ],
      [
        "▁یاد",
        -9.204870035534007
      ],
      [
        "دار",
        -9.205113690960582
      ],
      [
        "▁جاپان",
        -9.206601303644758
      ],
      [
        "پور",
        -9.207021620822363
      ],
      [
        "▁گرد",
        -9.2086748676087
      ],
      [
        "▁گے۔",
        -9.209627472986009
      ],
      [
        "▁یورپی",
        -9.210112480001667
      ],
      [
        "جو",
        -9.210259414863454
      ],
      [
        "▁رات",
        -9.2116934159095
      ],
      [
        "’",
        -9.214072669550324
      ],
      [
        "▁واشنگٹن",
        -9.214563587579597
      ],
      [
        "▁اضافہ",
        -9.215023038087887
      ],
      [
        "▁ساخات",
        -9.217614696941586
      ],
      [
        "▁ساؤتھ",
        -9.21990325412524
      ],
      [
        "▁188",
        -9.220035716119078
      ],
      [
        "▁مغل",
        -9.220537297299218
      ],
      [
        "▁محبت",
        -9.222274868573045
      ],
      [
        "▁زمانہ",
        -9.222406116307813
      ],
      [
        "▁ایچ",
        -9.22244752461468
      ],
      [
        "▁کیرولائنا",
        -9.222649033925286
      ],
      [
        "▁2004",
        -9.22302940737976
      ],
      [
        "▁پارک",
        -9.224702792788836
      ],
      [
        "▁پولیس",
        -9.22501120711138
      ],
      [
        "▁2005",
        -9.225851877870888
      ],
      [
        "▁حلقہ",
        -9.225985682778196
      ],
      [
        "▁باعث",
        -9.228648871205952
      ],
      [
        "▁بہ",
        -9.229388585079828
      ],
      [
        "▁بڑھ",
        -9.23046234339072
      ],
      [
        "▁کتابیں",
        -9.230638430537182
      ],
      [
        "▁بیٹا",
        -9.23080380073692
      ],
      [
        "جی",
        -9.231005178780418
      ],
      [
        "▁ماہ",
        -9.232320235339964
      ],
      [
        "▁موسیقی",
        -9.234527025485763
      ],
      [
        "▁رکھی",
        -9.235804634906405
      ],
      [
        "▁محمود",
        -9.236204958407203
      ],
      [
        "▁صوبے",
        -9.23712154582472
      ],
      [
        "▁ڈگری",
        -9.237169461209604
      ],
      [
        "▁سکتی",
        -9.237717121500305
      ],
      [
        "▁تربیت",
        -9.238224660763096
      ],
      [
        "▁تسلیم",
        -9.24035616024074
      ],
      [
        "▁طویل",
        -9.242806660032924
      ],
      [
        "▁بل",
        -9.243390443387488
      ],
      [
        "▁عراق",
        -9.247596074899468
      ],
      [
        "▁کنٹرول",
        -9.248592562589339
      ],
      [
        "▁مجموعہ",
        -9.248680455406017
      ],
      [
        "▁بینک",
        -9.249957400173933
      ],
      [
        "▁2002",
        -9.250388044861074
      ],
      [
        "n",
        -9.250750971704056
      ],
      [
        "▁روز",
        -9.254731213728663
      ],
      [
        "▁ملی",
        -9.255199208744092
      ],
      [
        "▁چلے",
        -9.25542926480902
      ],
      [
        "▁بتایا",
        -9.255568091061676
      ],
      [
        "▁لگا",
        -9.256310344584675
      ],
      [
        "▁یہی",
        -9.256580420210724
      ],
      [
        "▁در",
        -9.256982089637118
      ],
      [
        "▁ہو۔",
        -9.257000458236424
      ],
      [
        "▁تیز",
        -9.25959224414293
      ],
      [
        "▁مسائل",
        -9.26056474763651
      ],
      [
        "▁ثقافتی",
        -9.261227748120094
      ],
      [
        "▁اولاد",
        -9.261981487188411
      ],
      [
        "▁سردار",
        -9.262682617148082
      ],
      [
        "▁امیدوار",
        -9.262925558871203
      ],
      [
        "▁بلند",
        -9.263104934431752
      ],
      [
        "▁امن",
        -9.264464015030313
      ],
      [
        "▁پیمانے",
        -9.265187771139443
      ],
      [
        "▁ثقافت",
        -9.265841735672412
      ],
      [
        "▁وسیع",
        -9.266021141617186
      ],
      [
        "▁لحاظ",
        -9.266401843082598
      ],
      [
        "▁رام",
        -9.266757232625578
      ],
      [
        "▁نبی",
        -9.267662867543345
      ],
      [
        "▁علامہ",
        -9.267992083195725
      ],
      [
        "▁کارکردگی",
        -9.268550559944243
      ],
      [
        "▁رضی",
        -9.269044608932898
      ],
      [
        "▁بیوی",
        -9.269785064090575
      ],
      [
        "▁کھیلوں",
        -9.27022863297031
      ],
      [
        "▁موسم",
        -9.270717948498461
      ],
      [
        "▁ابراہیم",
        -9.271453697478663
      ],
      [
        "لو",
        -9.273200373492195
      ],
      [
        "t",
        -9.27377587982828
      ],
      [
        "▁چلا",
        -9.274087694163905
      ],
      [
        "▁بانی",
        -9.27451629224834
      ],
      [
        "▁اگلے",
        -9.27496229048738
      ],
      [
        "▁سمیت",
        -9.27738544266069
      ],
      [
        "▁کمیون",
        -9.27805518881372
      ],
      [
        "▁اقبال",
        -9.27848368191415
      ],
      [
        "▁مطلب",
        -9.28215582447186
      ],
      [
        "▁مجھے",
        -9.282410624298521
      ],
      [
        "▁معنی",
        -9.283243762888176
      ],
      [
        "▁کاری",
        -9.283767923472215
      ],
      [
        "d",
        -9.284654564048754
      ],
      [
        "▁ادبی",
        -9.2851887856761
      ],
      [
        "▁مبنی",
        -9.288136779218167
      ],
      [
        "▁چکی",
        -9.289073734478285
      ],
      [
        "▁راج",
        -9.289265026499583
      ],
      [
        "▁پورے",
        -9.29022213672892
      ],
      [
        "▁ماں",
        -9.291604186940607
      ],
      [
        "▁شہرستان",
        -9.293411029193685
      ],
      [
        "▁مشترکہ",
        -9.294417817052024
      ],
      [
        "▁یونانی",
        -9.29535305921175
      ],
      [
        "▁ذمہ",
        -9.297698172738313
      ],
      [
        "▁کھیلا",
        -9.298464998068537
      ],
      [
        "▁انھیں",
        -9.29872816226219
      ],
      [
        "▁بجائے",
        -9.299018690319373
      ],
      [
        "▁192",
        -9.299952329685542
      ],
      [
        "▁مال",
        -9.300245001522883
      ],
      [
        "وہ",
        -9.302268843038924
      ],
      [
        "▁نمایاں",
        -9.302301086787466
      ],
      [
        "▁2003",
        -9.30242608953996
      ],
      [
        "▁جارجیا",
        -9.303974509304581
      ],
      [
        "▁شکار",
        -9.305495205257422
      ],
      [
        "▁خلافت",
        -9.3058101188856
      ],
      [
        "▁شخصیت",
        -9.306151061617038
      ],
      [
        "غ",
        -9.30666468029688
      ],
      [
        "جنوبی",
        -9.307400579762962
      ],
      [
        "▁نژاد",
        -9.307665584391756
      ],
      [
        "▁بورڈ",
        -9.308005753348873
      ],
      [
        "▁رہنما",
        -9.3086631564942
      ],
      [
        "▁محل",
        -9.309104052581837
      ],
      [
        "▁S",
        -9.309250880153028
      ],
      [
        "▁سنیما",
        -9.310472935139734
      ],
      [
        "می",
        -9.310606739925309
      ],
      [
        "▁اسکور",
        -9.312524816018163
      ],
      [
        "▁رو",
        -9.313198464372118
      ],
      [
        "▁محفوظ",
        -9.313385775201732
      ],
      [
        "▁متعلقہ",
        -9.314614868135031
      ],
      [
        "▁185",
        -9.31468702989071
      ],
      [
        "▁واضح",
        -9.315762902027977
      ],
      [
        "▁لڑائی",
        -9.316533549788268
      ],
      [
        "▁پیچھے",
        -9.318718268010558
      ],
      [
        "▁بہتر",
        -9.320500907153765
      ],
      [
        "▁جغرافیہ",
        -9.321816729981881
      ],
      [
        "▁بچے",
        -9.322659698584143
      ],
      [
        "▁ملین",
        -9.324262802793575
      ],
      [
        "غیر",
        -9.325220023586095
      ],
      [
        "▁توجہ",
        -9.327229982871396
      ],
      [
        "▁والدہ",
        -9.327843482876725
      ],
      [
        "▁مثال",
        -9.330413847275478
      ],
      [
        "▁مصنفین",
        -9.334408556549656
      ],
      [
        "▁نامی",
        -9.335500555561797
      ],
      [
        "▁ٹرافی",
        -9.33574678977398
      ],
      [
        "▁حقیقت",
        -9.339594156880862
      ],
      [
        "▁صحت",
        -9.340992312474585
      ],
      [
        "▁تحریر",
        -9.34201161089051
      ],
      [
        "▁ٹیکساس",
        -9.342985066731579
      ],
      [
        "▁ڈویژن",
        -9.34319257967653
      ],
      [
        "▁تحقیق",
        -9.345132641733198
      ],
      [
        "تھ",
        -9.345274290466973
      ],
      [
        "▁پہاڑ",
        -9.351131218284898
      ],
      [
        "▁آدمی",
        -9.35220688533892
      ],
      [
        "▁خلیفہ",
        -9.352900887258777
      ],
      [
        "▁31",
        -9.353623354399069
      ],
      [
        "▁A",
        -9.354715132739905
      ],
      [
        "ام",
        -9.355490689743755
      ],
      [
        "▁40",
        -9.356629905264791
      ],
      [
        "ہائے",
        -9.357268459857659
      ],
      [
        "i",
        -9.357657967140158
      ],
      [
        "▁بیس",
        -9.358372747018052
      ],
      [
        "▁دولت",
        -9.358432557954503
      ],
      [
        "ڈی",
        -9.359347917443978
      ],
      [
        "▁مقبول",
        -9.360111706357964
      ],
      [
        "▁سنہ",
        -9.36132538441317
      ],
      [
        "▁سٹی",
        -9.36337579351681
      ],
      [
        "▁رکھتا",
        -9.363490042579954
      ],
      [
        "▁متن",
        -9.364857060234502
      ],
      [
        "ایک",
        -9.36579653518788
      ],
      [
        "▁ابھی",
        -9.36609156710239
      ],
      [
        "▁شیر",
        -9.366220350980676
      ],
      [
        "▁مع",
        -9.36622867716634
      ],
      [
        "▁شہنشاہ",
        -9.367896202898132
      ],
      [
        "▁ویلز",
        -9.368244816280123
      ],
      [
        "▁آئرلینڈ",
        -9.368463986924763
      ],
      [
        "▁عباس",
        -9.368475970418212
      ],
      [
        "▁پنسلوانیا",
        -9.369149399987897
      ],
      [
        "▁نامزد",
        -9.369193304078932
      ],
      [
        "▁وصول",
        -9.369437574952316
      ],
      [
        "▁انکار",
        -9.37123058731577
      ],
      [
        "ؤ",
        -9.371579304109174
      ],
      [
        "▁بنائے۔",
        -9.373142933117622
      ],
      [
        "▁دیے",
        -9.374626640665943
      ],
      [
        "▁Saint",
        -9.374728247383667
      ],
      [
        "▁بننے",
        -9.376819675941247
      ],
      [
        "▁میک",
        -9.377749500614337
      ],
      [
        "▁اظہار",
        -9.377926276372952
      ],
      [
        "▁طرز",
        -9.378239180661195
      ],
      [
        "▁مکہ",
        -9.378853173126592
      ],
      [
        "بین",
        -9.378984158481224
      ],
      [
        "▁ناکام",
        -9.379391889082717
      ],
      [
        "▁]",
        -9.380624362686357
      ],
      [
        "▁پس",
        -9.380931491094714
      ],
      [
        "▁قبیلہ",
        -9.382648262173662
      ],
      [
        "▁علما",
        -9.383228495246467
      ],
      [
        "▁تباہ",
        -9.383601366846545
      ],
      [
        "▁شو",
        -9.383924739720891
      ],
      [
        "▁مخصوص",
        -9.384687816382876
      ],
      [
        "▁کمیٹی",
        -9.384761243215431
      ],
      [
        "▁شرکت",
        -9.385098516459605
      ],
      [
        "▁چھوٹی",
        -9.38604646684654
      ],
      [
        "▁نہایت",
        -9.386394059706808
      ],
      [
        "▁C",
        -9.386932049624358
      ],
      [
        "▁اختتام",
        -9.387502973151781
      ],
      [
        "▁معاہدہ",
        -9.38767756852988
      ],
      [
        "▁سرحد",
        -9.388859098251585
      ],
      [
        "▁کونسلیں",
        -9.388860021916235
      ],
      [
        "▁اقوام",
        -9.38946875277349
      ],
      [
        "▁کوچ",
        -9.390167452155138
      ],
      [
        "اؤ",
        -9.392357395731217
      ],
      [
        "▁چونکہ",
        -9.392544429226138
      ],
      [
        "▁برس",
        -9.393664453245224
      ],
      [
        "▁ساز",
        -9.393717247150713
      ],
      [
        "ؒ",
        -9.393721425273398
      ],
      [
        "▁نوجوان",
        -9.394766009095843
      ],
      [
        "▁عیسوی",
        -9.395896656096154
      ],
      [
        "▁ہمیشہ",
        -9.395908976884872
      ],
      [
        "▁پا",
        -9.397830616594083
      ],
      [
        "کار",
        -9.39881913895133
      ],
      [
        "▁واقعہ",
        -9.399082214433102
      ],
      [
        "▁مابین",
        -9.399106199039377
      ],
      [
        "▁کردیا",
        -9.40062571212639
      ],
      [
        "▁علمی",
        -9.40438111352956
      ],
      [
        "▁الحکومت",
        -9.40472322101049
      ],
      [
        "ڑ",
        -9.405297450733157
      ],
      [
        "▁1999",
        -9.405606428384635
      ],
      [
        "▁ہسپانوی",
        -9.405624138362016
      ],
      [
        "▁طالب",
        -9.405678371734194
      ],
      [
        "▁لوک",
        -9.409588505374018
      ],
      [
        "▁ضروری",
        -9.409711622142058
      ],
      [
        "▁فائنل",
        -9.410617668001752
      ],
      [
        "▁بنگال",
        -9.410637110812596
      ],
      [
        "▁کمی",
        -9.410850649255659
      ],
      [
        "▁ما",
        -9.411271758048626
      ],
      [
        "رز",
        -9.411628093249721
      ],
      [
        "▁علوم",
        -9.412721525472104
      ],
      [
        "▁صحیح",
        -9.413240538668902
      ],
      [
        "▁جنگی",
        -9.413299752102223
      ],
      [
        "▁برقرار",
        -9.413405503740744
      ],
      [
        "▁خبر",
        -9.414970798383768
      ],
      [
        "وف",
        -9.41500059980015
      ],
      [
        "▁زخمی",
        -9.415403705715349
      ],
      [
        "▁ریل",
        -9.415443890401324
      ],
      [
        "وال",
        -9.415603014393119
      ],
      [
        "▁دورے",
        -9.41642860278862
      ],
      [
        "▁گئیں۔",
        -9.416475780897192
      ],
      [
        "رد",
        -9.418186057166876
      ],
      [
        "▁آواز",
        -9.418873519642222
      ],
      [
        "نہ",
        -9.419001824592101
      ],
      [
        "▁1980",
        -9.420459319444136
      ],
      [
        "▁شمسی",
        -9.421632483297971
      ],
      [
        "▁آتا",
        -9.422309441053537
      ],
      [
        "بر",
        -9.424033133750433
      ],
      [
        "▁پورا",
        -9.424197624004947
      ],
      [
        "▁عہدے",
        -9.425581132214717
      ],
      [
        "▁سامنا",
        -9.425712870891319
      ],
      [
        "▁ایئر",
        -9.426027736842949
      ],
      [
        "▁داری",
        -9.427334662576694
      ],
      [
        "▁جسم",
        -9.427537349187798
      ],
      [
        "▁حالانکہ",
        -9.427989755212721
      ],
      [
        "▁ممتاز",
        -9.428768624858403
      ],
      [
        "▁اعداد",
        -9.430216587173597
      ],
      [
        "▁بنائی",
        -9.43102025300727
      ],
      [
        "▁ہجرت",
        -9.431399325454217
      ],
      [
        "▁عرصے",
        -9.432409898021007
      ],
      [
        "۔حوالہ",
        -9.433538416335285
      ],
      [
        "▁انقلاب",
        -9.433802886362251
      ],
      [
        "▁60",
        -9.434420178357
      ],
      [
        "▁گی۔",
        -9.436814919811027
      ],
      [
        "▁ورجینیا",
        -9.437457617442663
      ],
      [
        "▁قانونی",
        -9.438025479052117
      ],
      [
        "▁دارالحکومت",
        -9.438601738131522
      ],
      [
        "ث",
        -9.439741844815883
      ],
      [
        "▁منصوبہ",
        -9.440081146081226
      ],
      [
        "▁راست",
        -9.44151196387437
      ],
      [
        "▁یوسف",
        -9.443067110416772
      ],
      [
        "▁لکھی",
        -9.443087348715544
      ],
      [
        "▁زندہ",
        -9.443325108330606
      ],
      [
        "▁شرح",
        -9.444101319072303
      ],
      [
        "▁193",
        -9.444520540268277
      ],
      [
        "▁شہید",
        -9.44494809593577
      ],
      [
        "▁پل",
        -9.445286999522207
      ],
      [
        "▁کھیلا۔",
        -9.446538889547309
      ],
      [
        "وری",
        -9.446987732975854
      ],
      [
        "▁نوبل",
        -9.4471304881848
      ],
      [
        "▁مطالعہ",
        -9.447219052080753
      ],
      [
        "▁تلاش",
        -9.449376152109158
      ],
      [
        "▁نواب",
        -9.45007695063738
      ],
      [
        "▁تقریبا",
        -9.45254900528963
      ],
      [
        "▁مضبوط",
        -9.45296686185424
      ],
      [
        "▁نصف",
        -9.452970538979828
      ],
      [
        "[",
        -9.454269096545174
      ],
      [
        "▁باپ",
        -9.454394699266151
      ],
      [
        "▁سنی",
        -9.45455060390261
      ],
      [
        "▁افریقی",
        -9.454624791106028
      ],
      [
        "▁حل",
        -9.455420683260835
      ],
      [
        "▁آن",
        -9.455454719037643
      ],
      [
        "▁فہرستیں",
        -9.456252027925116
      ],
      [
        "▁طریقہ",
        -9.45671904127685
      ],
      [
        "▁اوپر",
        -9.457744438138315
      ],
      [
        "▁نقصان",
        -9.457908655094776
      ],
      [
        "▁نظم",
        -9.458341791862306
      ],
      [
        "▁انتظام",
        -9.460381293402897
      ],
      [
        "اتی",
        -9.461259606979647
      ],
      [
        "▁جزیرہ",
        -9.462602091892865
      ],
      [
        "▁سعید",
        -9.463739249535273
      ],
      [
        "▁2001",
        -9.46386445762319
      ],
      [
        "▁سربراہ",
        -9.466157665822998
      ],
      [
        "▁کلام",
        -9.468047653725522
      ],
      [
        "▁اکیڈمی",
        -9.468171382922357
      ],
      [
        "▁روم",
        -9.468296469232628
      ],
      [
        "▁شیعہ",
        -9.468957521094714
      ],
      [
        "▁زبانوں",
        -9.469400458480294
      ],
      [
        "▁پائی",
        -9.47057255588667
      ],
      [
        "دو",
        -9.471721678125954
      ],
      [
        "▁روایتی",
        -9.473177977850217
      ],
      [
        "▁ڈال",
        -9.477538760947118
      ],
      [
        "▁حیدرآباد",
        -9.478088096009573
      ],
      [
        "▁پروفیسر",
        -9.478243099008928
      ],
      [
        "▁فیصل",
        -9.478425678949025
      ],
      [
        "نیوزی",
        -9.480743092992551
      ],
      [
        "▁سلسلے",
        -9.480879730723625
      ],
      [
        "▁1947",
        -9.481165932302533
      ],
      [
        "▁بخش",
        -9.482843102798876
      ],
      [
        "▁دوم",
        -9.483086075619676
      ],
      [
        "▁مجبور",
        -9.483435037841353
      ],
      [
        "▁کمپنیاں",
        -9.48350440281292
      ],
      [
        "▁آتے",
        -9.48376295737609
      ],
      [
        "▁ترتیب",
        -9.486427809942912
      ],
      [
        "▁خصوصی",
        -9.486681382626296
      ],
      [
        "▁نیا",
        -9.487900553137978
      ],
      [
        "▁اقتدار",
        -9.48905306001684
      ],
      [
        "▁فلسطین",
        -9.490045040195284
      ],
      [
        "▁سکور",
        -9.491566204877737
      ],
      [
        "▁بدھ",
        -9.491963555321062
      ],
      [
        "▁تھائی",
        -9.493218001319466
      ],
      [
        "▁دہشت",
        -9.493516716825404
      ],
      [
        "▁سالوں",
        -9.494377862336592
      ],
      [
        "اری",
        -9.49553430901152
      ],
      [
        "▁صلاحیت",
        -9.496498895145667
      ],
      [
        "▁اکبر",
        -9.497099777680422
      ],
      [
        "▁کتابوں",
        -9.497986790022317
      ],
      [
        "▁قبائل",
        -9.50213122462289
      ],
      [
        "▁پیرس",
        -9.502630856557463
      ],
      [
        "۔ابتدائی",
        -9.503257429819069
      ],
      [
        "▁عبداللہ",
        -9.503390154001043
      ],
      [
        "▁I",
        -9.506954171614153
      ],
      [
        "▁مر",
        -9.507054878738826
      ],
      [
        "▁آبشار",
        -9.50790171943468
      ],
      [
        "▁Canton",
        -9.509740132464612
      ],
      [
        "ٹا",
        -9.510227499925696
      ],
      [
        "▁نتیجہ",
        -9.511252495086868
      ],
      [
        "کہ",
        -9.51151066158347
      ],
      [
        "▁194",
        -9.511952125588389
      ],
      [
        "▁1992",
        -9.512844906704984
      ],
      [
        "الی",
        -9.51379496559956
      ],
      [
        "شی",
        -9.514079012256637
      ],
      [
        "o",
        -9.51501911760656
      ],
      [
        "▁قصبے",
        -9.515504227136585
      ],
      [
        "در",
        -9.516015950239822
      ],
      [
        "▁شدید",
        -9.51749781104135
      ],
      [
        "رو",
        -9.517633953542822
      ],
      [
        "▁تخت",
        -9.51771505993244
      ],
      [
        "▁تفسیر",
        -9.518061181892017
      ],
      [
        "▁دیں",
        -9.518524094485066
      ],
      [
        "▁ہوئیں۔",
        -9.52098119182431
      ],
      [
        "▁شہرت",
        -9.522283441321925
      ],
      [
        "▁پال",
        -9.522576896329877
      ],
      [
        "▁رضا",
        -9.523474819177945
      ],
      [
        "▁محکمہ",
        -9.524203136679635
      ],
      [
        "▁1993",
        -9.524297593498535
      ],
      [
        "▁علاقائی",
        -9.524340436248682
      ],
      [
        "▁نسب",
        -9.524845665126199
      ],
      [
        "l",
        -9.525548892083842
      ],
      [
        "▁گنتی",
        -9.526535083031442
      ],
      [
        "▁دوست",
        -9.528306278329175
      ],
      [
        "▁سکے",
        -9.529333508053782
      ],
      [
        "▁کرکٹر",
        -9.53031368707649
      ],
      [
        "▁نما",
        -9.531073348772189
      ],
      [
        "▁دریافت",
        -9.531110892173118
      ],
      [
        "▁پنجابی",
        -9.531339615297691
      ],
      [
        "▁حصوں",
        -9.531920925956765
      ],
      [
        "جا",
        -9.532892021673726
      ],
      [
        "▁زائد",
        -9.534977327980625
      ],
      [
        "▁جائے۔",
        -9.535210472453505
      ],
      [
        "▁وجود",
        -9.535478458130731
      ],
      [
        "▁پایا",
        -9.53556470782418
      ],
      [
        "▁دشمن",
        -9.53623675485916
      ],
      [
        "▁تراجم",
        -9.53738305168775
      ],
      [
        "▁گراؤنڈ",
        -9.538540195660074
      ],
      [
        "▁کاؤنٹیاں",
        -9.539109539786233
      ],
      [
        "▁عددی",
        -9.541133027518155
      ],
      [
        "▁بزرگ",
        -9.541287079475287
      ],
      [
        "▁بہن",
        -9.54138869198063
      ],
      [
        "ة",
        -9.541843053376674
      ],
      [
        "گو",
        -9.543308738225825
      ],
      [
        "▁عدالت",
        -9.545735906622191
      ],
      [
        "فی",
        -9.54605821421513
      ],
      [
        "▁اخبار",
        -9.54624310961494
      ],
      [
        "▁بلوچستان",
        -9.546478972510306
      ],
      [
        "▁کانگریس",
        -9.54655434223952
      ],
      [
        "▁مرزا",
        -9.5467681384461
      ],
      [
        "▁فضلا",
        -9.546777663937231
      ],
      [
        "▁گئیں",
        -9.546931126219686
      ],
      [
        "▁بازی",
        -9.547058933990773
      ],
      [
        "▁انتخابی",
        -9.547755725200705
      ],
      [
        "▁وادی",
        -9.548046399003182
      ],
      [
        "▁استاد",
        -9.548158952991102
      ],
      [
        "▁کہیں",
        -9.548276621427096
      ],
      [
        "▁پیشہ",
        -9.54844312772203
      ],
      [
        "▁مقاماتویکی",
        -9.548799012794007
      ],
      [
        "ویل",
        -9.548901104737329
      ],
      [
        "▁مخالف",
        -9.550173106778516
      ],
      [
        "▁تیسرے",
        -9.55032388184499
      ],
      [
        "▁پہاڑی",
        -9.55043764046481
      ],
      [
        "پی",
        -9.550695082958953
      ],
      [
        "▁184",
        -9.550738186987932
      ],
      [
        "▁می",
        -9.551973824443934
      ],
      [
        "2023",
        -9.55199532334326
      ],
      [
        "▁تصور",
        -9.553365558908453
      ],
      [
        "1960",
        -9.553692722627636
      ],
      [
        "▁عثمان",
        -9.55471109855805
      ],
      [
        "میں",
        -9.554856836593672
      ],
      [
        "▁تجارتی",
        -9.558579729772454
      ],
      [
        "ہاں",
        -9.558906054279941
      ],
      [
        "▁عثمانیہ",
        -9.558959779198513
      ],
      [
        "▁کوریا",
        -9.559581159275014
      ],
      [
        "▁ہاتھوں",
        -9.559982224214478
      ],
      [
        "▁ملتا",
        -9.561144060625363
      ],
      [
        "▁رکھ",
        -9.561992366666415
      ],
      [
        "▁قدرت",
        -9.563172343349226
      ],
      [
        "ہم",
        -9.563852415530604
      ],
      [
        "▁گل",
        -9.564177398573602
      ],
      [
        "▁مختار",
        -9.564523767575302
      ],
      [
        "▁ایسوسی",
        -9.564950471171464
      ],
      [
        "▁رہتا",
        -9.565117984167742
      ],
      [
        "گا",
        -9.566003963186175
      ],
      [
        "▁ریاستوں",
        -9.56697908337434
      ],
      [
        "ائے",
        -9.567159016040613
      ],
      [
        "▁بیٹنگ",
        -9.56918344785011
      ],
      [
        "▁کنارے",
        -9.569742753823363
      ],
      [
        "▁چکا",
        -9.570418502352918
      ],
      [
        "▁لو",
        -9.570848368100735
      ],
      [
        "▁روانہ",
        -9.571188732774932
      ],
      [
        "▁عرصہ",
        -9.57145257443826
      ],
      [
        "▁ہمارے",
        -9.572176273809147
      ],
      [
        "▁نیز",
        -9.573287208023176
      ],
      [
        "مملکت",
        -9.57445520951092
      ],
      [
        "▁محدود",
        -9.575637938631628
      ],
      [
        "▁!",
        -9.575759555112775
      ],
      [
        "▁نیچے",
        -9.579134890614297
      ],
      [
        "▁P",
        -9.579303006769875
      ],
      [
        "▁وابستہ",
        -9.579898277352061
      ],
      [
        "مر",
        -9.57991199822746
      ],
      [
        "بھارتی",
        -9.581682665527232
      ],
      [
        "▁بس",
        -9.582669055830246
      ],
      [
        "پنجاب",
        -9.583213380391618
      ],
      [
        "▁دیں۔",
        -9.583568638755022
      ],
      [
        "پا",
        -9.583987905835992
      ],
      [
        "چی",
        -9.584467265402758
      ],
      [
        "▁ہتھیار",
        -9.584722359357164
      ],
      [
        "▁مضمون",
        -9.585039944763393
      ],
      [
        "▁نجی",
        -9.586312417325347
      ],
      [
        "▁نامہ",
        -9.58726886028798
      ],
      [
        "▁بہار",
        -9.587478996017209
      ],
      [
        "▁حافظ",
        -9.587790620469699
      ],
      [
        "▁70",
        -9.587963846081452
      ],
      [
        "ٹر",
        -9.588308677906227
      ],
      [
        "▁انگلستان",
        -9.588342597235503
      ],
      [
        "▁کریم",
        -9.588614114546894
      ],
      [
        "▁زور",
        -9.590198229307138
      ],
      [
        "▁آس",
        -9.59028735375743
      ],
      [
        "▁پابندی",
        -9.590584357442076
      ],
      [
        "▁جنہیں",
        -9.591423525592
      ],
      [
        "▁گرفتار",
        -9.591445967308385
      ],
      [
        "انکارپوریٹڈ",
        -9.591454426065082
      ],
      [
        "▁روشنی",
        -9.592945465555538
      ],
      [
        "▁ہسپتال",
        -9.593167744895228
      ],
      [
        "▁سکول",
        -9.594044322186797
      ],
      [
        "شن",
        -9.594065108696045
      ],
      [
        "▁منعقد",
        -9.594955119540732
      ],
      [
        "▁زبانیں",
        -9.595350543847319
      ],
      [
        "k",
        -9.597208732948314
      ],
      [
        "▁راستے",
        -9.597281443826505
      ],
      [
        "▁آذربائیجان",
        -9.597342845164295
      ],
      [
        "کیلیفورنیا",
        -9.598256740719954
      ],
      [
        "▁کیے۔",
        -9.599269960849922
      ],
      [
        "▁تجارت",
        -9.600423234931458
      ],
      [
        "▁1998",
        -9.600567197173001
      ],
      [
        "▁بازار",
        -9.600929792129252
      ],
      [
        "▁فلپائن",
        -9.601071652376557
      ],
      [
        "▁ایشن",
        -9.60240572313154
      ],
      [
        "▁گلوکار",
        -9.602675519274085
      ],
      [
        "▁لکھتے",
        -9.603696511955764
      ],
      [
        "▁نائب",
        -9.604389505025392
      ],
      [
        "▁ام",
        -9.604542691017594
      ],
      [
        "▁تعریف",
        -9.604891857428553
      ],
      [
        "▁سپر",
        -9.605044048976573
      ],
      [
        "▁ملاقات",
        -9.605818636494062
      ],
      [
        "▁صحافی",
        -9.60643360409768
      ],
      [
        "نیو",
        -9.606626322194108
      ],
      [
        "▁80",
        -9.606656887360424
      ],
      [
        "▁انتظامی",
        -9.606769758886777
      ],
      [
        "▁چرچ",
        -9.606810831247797
      ],
      [
        "بل",
        -9.607333974668494
      ],
      [
        "▁نیٹ",
        -9.609706822655752
      ],
      [
        "▁الا",
        -9.610202888338685
      ],
      [
        "▁راولپنڈی",
        -9.610417581553941
      ],
      [
        "▁کہنا",
        -9.61157608091765
      ],
      [
        "انگلستان",
        -9.611584776143122
      ],
      [
        "▁گاہ",
        -9.612137965467792
      ],
      [
        "▁ممکن",
        -9.612497545454467
      ],
      [
        "▁برابر",
        -9.61330874941325
      ],
      [
        "▁Count",
        -9.6135926143061
      ],
      [
        "▁خوش",
        -9.613884391022305
      ],
      [
        "▁1991",
        -9.61441723726759
      ],
      [
        "▁ہےویکی",
        -9.615264644607594
      ],
      [
        "▁باب",
        -9.616157321792429
      ],
      [
        "▁پشاور",
        -9.61693292549209
      ],
      [
        "▁آسٹریلوی",
        -9.617033409882039
      ],
      [
        "آ",
        -9.617690534699843
      ],
      [
        "▁شمولیت",
        -9.618024091993455
      ],
      [
        "▁سکھ",
        -9.618388301112759
      ],
      [
        "▁ہے۔سینٹ",
        -9.618721329908077
      ],
      [
        "▁گر",
        -9.619000881090827
      ],
      [
        "▁اصطلاح",
        -9.619221759402658
      ],
      [
        "سے",
        -9.619501520328678
      ],
      [
        "▁عملی",
        -9.623539943025163
      ],
      [
        "▁اپ",
        -9.624850614555786
      ],
      [
        "▁La",
        -9.62561132434391
      ],
      [
        "▁کھیلے۔",
        -9.626237630094154
      ],
      [
        "▁ملتان",
        -9.626786607005304
      ],
      [
        "▁مستقل",
        -9.627237278912354
      ],
      [
        "▁روایات",
        -9.628470840486315
      ],
      [
        "▁ازاں",
        -9.630101493531344
      ],
      [
        "▁R",
        -9.630209708081509
      ],
      [
        "▁چیف",
        -9.630908441950753
      ],
      [
        "▁ووٹ",
        -9.63114129687275
      ],
      [
        "▁1988",
        -9.631207813929654
      ],
      [
        "▁فرق",
        -9.631481686898422
      ],
      [
        "▁معاشی",
        -9.631706876200239
      ],
      [
        "▁کمیونٹی",
        -9.633719226481892
      ],
      [
        "▁جاپانی",
        -9.634937380921139
      ],
      [
        "▁آگ",
        -9.63555136221579
      ],
      [
        "▁اکثریت",
        -9.636309935339009
      ],
      [
        "▁%",
        -9.637856986036056
      ],
      [
        "▁نسلی",
        -9.638678324498624
      ],
      [
        "▁مالی",
        -9.638811778425625
      ],
      [
        "▁آرمی",
        -9.640620791527626
      ],
      [
        "r",
        -9.641573544813841
      ],
      [
        "▁مدرسہ",
        -9.641828122725546
      ],
      [
        "▁باغ",
        -9.644214881324137
      ],
      [
        "▁تبدیلی",
        -9.64448052095387
      ],
      [
        "▁میکسیکو",
        -9.645450828000964
      ],
      [
        "▁ڈکوٹا",
        -9.646178833029445
      ],
      [
        "▁بائیں",
        -9.646350434091495
      ],
      [
        "▁اوائل",
        -9.646541852520741
      ],
      [
        "▁میڈیا",
        -9.647444665516234
      ],
      [
        "▁183",
        -9.648050878074066
      ],
      [
        "▁پتھر",
        -9.648522944151976
      ],
      [
        "▁پڑا",
        -9.649235407576418
      ],
      [
        "▁مسلسل",
        -9.649636628945517
      ],
      [
        "▁بورو",
        -9.650008687238252
      ],
      [
        "▁کارروائی",
        -9.651038648938224
      ],
      [
        "▁ہار",
        -9.65159984543678
      ],
      [
        "▁پختونخوا",
        -9.652345514744852
      ],
      [
        "▁سڑک",
        -9.652528471417426
      ],
      [
        "▁حامل",
        -9.65507478162849
      ],
      [
        "▁عنہ",
        -9.655132103839378
      ],
      [
        "▁سبب",
        -9.65705556601665
      ],
      [
        "▁دینا",
        -9.657119600731672
      ],
      [
        "▁شہرویکی",
        -9.658598726134805
      ],
      [
        "▁معمولی",
        -9.65930156695481
      ],
      [
        "▁مدت",
        -9.659483747602746
      ],
      [
        "▁فیلڈ",
        -9.659531276257816
      ],
      [
        "▁رفتار",
        -9.660679975799958
      ],
      [
        "▁بو",
        -9.660705915622419
      ],
      [
        "▁پناہ",
        -9.660895249463016
      ],
      [
        "▁نظریہ",
        -9.66214128327969
      ],
      [
        "▁عطا",
        -9.662235171374913
      ],
      [
        "▁سلیمان",
        -9.662586573135346
      ],
      [
        "ولی",
        -9.663342522319642
      ],
      [
        "▁ڈائریکٹر",
        -9.663424640682562
      ],
      [
        "▁ہے۔اس",
        -9.664565349110248
      ],
      [
        "▁سیٹ",
        -9.664907457902716
      ],
      [
        "▁الجزائر",
        -9.665615172754071
      ],
      [
        "▁1950",
        -9.665833467448623
      ],
      [
        "▁انڈر",
        -9.665854430447915
      ],
      [
        "▁دفاع",
        -9.666244887242632
      ],
      [
        "▁مندر",
        -9.666675351528557
      ],
      [
        "▁لگایا",
        -9.66733037548981
      ],
      [
        "▁سارے",
        -9.667453350396464
      ],
      [
        "واں",
        -9.669068302084852
      ],
      [
        "al",
        -9.669955331280125
      ],
      [
        "نام",
        -9.671938571161629
      ],
      [
        "▁جاسکتا",
        -9.672314576099966
      ],
      [
        "▁ریڈیو",
        -9.67274457074865
      ],
      [
        "▁امور",
        -9.673854777085454
      ],
      [
        "▁کمیشن",
        -9.673914161690035
      ],
      [
        "▁رکھتی",
        -9.674451429732711
      ],
      [
        "▁خطے",
        -9.674588625543798
      ],
      [
        "▁جارج",
        -9.675611275903245
      ],
      [
        "▁شعبہ",
        -9.675848811830965
      ],
      [
        "▁مجلس",
        -9.675990275460201
      ],
      [
        "▁نوازا",
        -9.676283202565266
      ],
      [
        "▁خیبر",
        -9.676810133131516
      ],
      [
        "▁رہی۔",
        -9.677250442035106
      ],
      [
        "▁قید",
        -9.67742921355463
      ],
      [
        "▁دیتی",
        -9.678099433912983
      ],
      [
        "▁ابتدا",
        -9.67823997021329
      ],
      [
        "▁افغان",
        -9.678345680749414
      ],
      [
        "▁وسکونسن",
        -9.678905978853425
      ],
      [
        "▁راہ",
        -9.679437638724437
      ],
      [
        "▁جزائر",
        -9.679908971767802
      ],
      [
        "▁زمبابوے",
        -9.68004407405315
      ],
      [
        "▁بیک",
        -9.681081697806121
      ],
      [
        "▁خون",
        -9.681882020861643
      ],
      [
        "▁شماری",
        -9.6820114873269
      ],
      [
        "▁فرماتے",
        -9.683115143546283
      ],
      [
        "نٹ",
        -9.683130900893753
      ],
      [
        "▁مشکل",
        -9.68323785090303
      ],
      [
        "▁سنت",
        -9.683727839740245
      ],
      [
        "▁کاروباری",
        -9.684028424528332
      ],
      [
        "▁انصاف",
        -9.684062971874033
      ],
      [
        "▁اچھی",
        -9.684297915636844
      ],
      [
        "▁جامع",
        -9.684435812360878
      ],
      [
        "▁ماہرین",
        -9.684631256616747
      ],
      [
        "▁ووڈ",
        -9.68463167355552
      ],
      [
        "▁تنقید",
        -9.684863184725995
      ],
      [
        "▁مندرجہ",
        -9.686787868990823
      ],
      [
        "▁صنعت",
        -9.687460259293049
      ],
      [
        "▁ٹیوٹ",
        -9.687592805626991
      ],
      [
        "▁ٹیکنالوجی",
        -9.687840701413908
      ],
      [
        "▁بیشتر",
        -9.688253024493603
      ],
      [
        "▁بالکل",
        -9.688474528887596
      ],
      [
        "▁فقہ",
        -9.688585046789264
      ],
      [
        "▁اشاعت",
        -9.688945555491424
      ],
      [
        "▁سزا",
        -9.691117216708799
      ],
      [
        "▁ہوئیں",
        -9.691373724450616
      ],
      [
        "▁اتر",
        -9.691782798115494
      ],
      [
        "▁منسلک",
        -9.693232414540441
      ],
      [
        "▁وسط",
        -9.693839427401738
      ],
      [
        "▁دفتر",
        -9.694066527183015
      ],
      [
        "▁بدل",
        -9.694571662946924
      ],
      [
        "▁تیسر",
        -9.694932178505955
      ],
      [
        "▁اعلی",
        -9.69507405077181
      ],
      [
        "▁حکمرانی",
        -9.696712617601113
      ],
      [
        "▁جائیں",
        -9.696796219601696
      ],
      [
        "▁T",
        -9.697339511444252
      ],
      [
        "▁بیت",
        -9.697666394472423
      ],
      [
        "▁افریقا",
        -9.697748291768606
      ],
      [
        "بن",
        -9.697909784255787
      ],
      [
        "re",
        -9.69796857663503
      ],
      [
        "جن",
        -9.697994099318853
      ],
      [
        "▁کثیر",
        -9.699253521382365
      ],
      [
        "▁قاضی",
        -9.699606522418895
      ],
      [
        "▁الزام",
        -9.70034063823119
      ],
      [
        "▁میرا",
        -9.700988422964201
      ],
      [
        "▁دعوت",
        -9.70174769083232
      ],
      [
        "▁انسٹی",
        -9.702075149637022
      ],
      [
        "▁بارہ",
        -9.702080391269066
      ],
      [
        "▁45",
        -9.702140570703028
      ],
      [
        "▁ہے۔لا",
        -9.70225842827967
      ],
      [
        "▁شوہر",
        -9.702678388969211
      ],
      [
        "سٹر",
        -9.702745992295325
      ],
      [
        "▁خطاب",
        -9.70286973587601
      ],
      [
        "▁فوجیوں",
        -9.704644954357068
      ],
      [
        "رین",
        -9.704854264366306
      ],
      [
        "▁فارم",
        -9.705024336469808
      ],
      [
        "▁ریاستی",
        -9.705508240948369
      ],
      [
        "▁مو",
        -9.706154937281632
      ],
      [
        "▁امارات",
        -9.710039183446057
      ],
      [
        "▁موضوع",
        -9.71215042781364
      ],
      [
        "▁ذرائع",
        -9.71284994847103
      ],
      [
        "▁نیپال",
        -9.71287080275476
      ],
      [
        "▁تکمیل",
        -9.713349789091478
      ],
      [
        "▁درخواست",
        -9.714102773006257
      ],
      [
        "▁ڈالر",
        -9.714409482969156
      ],
      [
        "▁سکے۔",
        -9.714481218562652
      ],
      [
        "▁ساحل",
        -9.715695371882559
      ],
      [
        "▁لگ",
        -9.716198636645291
      ],
      [
        "▁1994",
        -9.719487897864209
      ],
      [
        "▁نشان",
        -9.720065666309186
      ],
      [
        "▁جنسی",
        -9.720078106782239
      ],
      [
        "▁1989",
        -9.720142802429024
      ],
      [
        "▁آتی",
        -9.72019850873495
      ],
      [
        "▁آثار",
        -9.721853938381756
      ],
      [
        "en",
        -9.72226587426229
      ],
      [
        "▁سروس",
        -9.722779288052834
      ],
      [
        "▁تعاون",
        -9.723307780178146
      ],
      [
        "▁آنحضرت",
        -9.723341802296982
      ],
      [
        "▁وزارت",
        -9.724464758514
      ],
      [
        "تر",
        -9.72544314953964
      ],
      [
        "▁دنوں",
        -9.726690040932136
      ],
      [
        "▁سین",
        -9.726942190007627
      ],
      [
        "▁تب",
        -9.727436164255494
      ],
      [
        "گر",
        -9.727831832253122
      ],
      [
        "▁ولادت",
        -9.72794678925811
      ],
      [
        "▁مردم",
        -9.729521248426956
      ],
      [
        "▁ورک",
        -9.729769270815495
      ],
      [
        "▁بھیجا",
        -9.729831603074219
      ],
      [
        "▁پائے",
        -9.731042750020903
      ],
      [
        "▁فکر",
        -9.731505511272637
      ],
      [
        "▁شعرا",
        -9.73305276231462
      ],
      [
        "▁چیمپئن",
        -9.733075200516327
      ],
      [
        "▁بولی",
        -9.73324997815921
      ],
      [
        "▁O",
        -9.734038202305436
      ],
      [
        "▁آئین",
        -9.734156858610914
      ],
      [
        "▁یمن",
        -9.734482828940168
      ],
      [
        "▁فیض",
        -9.735686683494908
      ],
      [
        "▁درس",
        -9.736129798027585
      ],
      [
        "▁B",
        -9.736567325814638
      ],
      [
        "▁پہنچا",
        -9.738410559598131
      ],
      [
        "▁ریاستیں",
        -9.738804321750484
      ],
      [
        "▁العلوم",
        -9.738824591570951
      ],
      [
        "▁تشدد",
        -9.740115670946587
      ],
      [
        "▁رہائش",
        -9.740387992372721
      ],
      [
        "▁چل",
        -9.74125448341528
      ],
      [
        "▁ہاؤس",
        -9.741471891519707
      ],
      [
        "▁District",
        -9.741670879890371
      ],
      [
        "▁جھیل",
        -9.741848194599262
      ],
      [
        "▁طے",
        -9.742317443875514
      ],
      [
        "▁رومی",
        -9.742463033921979
      ],
      [
        "▁بحیرہ",
        -9.744472250678028
      ],
      [
        "▁ذاتی",
        -9.745636825896309
      ],
      [
        "شمالی",
        -9.746007137683353
      ],
      [
        "▁کارکن",
        -9.748980892181715
      ],
      [
        "▁لگے",
        -9.74995495300265
      ],
      [
        "▁سینٹر",
        -9.75016741655059
      ],
      [
        "▁اسکواڈ",
        -9.750820115769857
      ],
      [
        "▁قیمت",
        -9.752061959265125
      ],
      [
        "▁مبارک",
        -9.752249294432053
      ],
      [
        "▁مزار",
        -9.7527304920336
      ],
      [
        "▁1985",
        -9.752932286422343
      ],
      [
        "▁ہیں۔مزید",
        -9.753515673258267
      ],
      [
        "▁اداروں",
        -9.753833671112607
      ],
      [
        "▁پیداوار",
        -9.753895536768537
      ],
      [
        "▁قدم",
        -9.754908540140267
      ],
      [
        "▁گجرات",
        -9.755450461658238
      ],
      [
        "یات",
        -9.756448565882563
      ],
      [
        "▁بد",
        -9.757067725273558
      ],
      [
        "▁کھلاڑیانگلستان",
        -9.757342489687701
      ],
      [
        "▁1995",
        -9.758389363232128
      ],
      [
        "▁پتہ",
        -9.758484594093888
      ],
      [
        "▁نکال",
        -9.758790480534158
      ],
      [
        "▁مس",
        -9.759499633506406
      ],
      [
        "▁جیسی",
        -9.760091271927395
      ],
      [
        "▁ماڈل",
        -9.760349925761037
      ],
      [
        "وار",
        -9.760498884385683
      ],
      [
        "▁198",
        -9.760705578831246
      ],
      [
        "▁پار",
        -9.761039843571492
      ],
      [
        "▁محسوس",
        -9.761663949623495
      ],
      [
        "ed",
        -9.762090642132549
      ],
      [
        "▁فروغ",
        -9.762326300850878
      ],
      [
        "▁شناخت",
        -9.762478778119922
      ],
      [
        "▁مخالفت",
        -9.76296290393025
      ],
      [
        "▁90",
        -9.763940794321513
      ],
      [
        "▁بقید",
        -9.764555544361945
      ],
      [
        "▁مند",
        -9.765345959754786
      ],
      [
        "▁طلبہ",
        -9.765806966760074
      ],
      [
        "▁نسبت",
        -9.767255225356235
      ],
      [
        "▁سالہ",
        -9.770409912094568
      ],
      [
        "صل",
        -9.771600014297858
      ],
      [
        "▁ہوگا",
        -9.771861986361799
      ],
      [
        "▁مسوری",
        -9.773742920113758
      ],
      [
        "▁مقدس",
        -9.774162017204128
      ],
      [
        "▁تخلیق",
        -9.774693745477851
      ],
      [
        "▁سامان",
        -9.77514438000277
      ],
      [
        "▁اختلاف",
        -9.775579066775364
      ],
      [
        "▁ولی",
        -9.776160631526732
      ],
      [
        "▁روک",
        -9.776800991635428
      ],
      [
        "▁راستہ",
        -9.777306403038857
      ],
      [
        "1979",
        -9.77772627318055
      ],
      [
        "▁اداکاری",
        -9.778275151224818
      ],
      [
        "▁ممبر",
        -9.778771129548272
      ],
      [
        "▁مہینے",
        -9.77918173924041
      ],
      [
        "▁75",
        -9.77960381319954
      ],
      [
        "▁وفاقی",
        -9.77974112185228
      ],
      [
        "▁ایشیائی",
        -9.780011439260361
      ],
      [
        "▁بلا",
        -9.780424432972438
      ],
      [
        "▁مقیم",
        -9.781138918912768
      ],
      [
        "▁تہذیب",
        -9.781767181792413
      ],
      [
        "▁ٹوٹ",
        -9.782206170172424
      ],
      [
        "▁حاضر",
        -9.782488758681396
      ],
      [
        "▁یکم",
        -9.78253075526654
      ],
      [
        "▁نزدیک",
        -9.783367479319248
      ],
      [
        "1987",
        -9.784074504488592
      ],
      [
        "▁سفید",
        -9.784739907305276
      ],
      [
        "▁1971",
        -9.785483372664176
      ],
      [
        "▁ملتی",
        -9.785955746015247
      ],
      [
        "▁35",
        -9.786011863272485
      ],
      [
        "ض",
        -9.786057899175962
      ],
      [
        "▁تنازعات",
        -9.787538236020128
      ],
      [
        "▁رہتی",
        -9.78788176438744
      ],
      [
        "▁واپسی",
        -9.789358303827033
      ],
      [
        "▁باقاعدہ",
        -9.789943726027323
      ],
      [
        "▁آب",
        -9.790639572550687
      ],
      [
        "کرکٹ",
        -9.79133584200505
      ],
      [
        "چین",
        -9.791822493178774
      ],
      [
        "▁چاہیے",
        -9.79239096407898
      ],
      [
        "▁لشکر",
        -9.79391329353839
      ],
      [
        "c",
        -9.79450744427354
      ],
      [
        "▁سعد",
        -9.795250162037009
      ],
      [
        "▁فضل",
        -9.7954561428422
      ],
      [
        "لین",
        -9.79579230309114
      ],
      [
        "▁اوقات",
        -9.797715326967475
      ],
      [
        "ہر",
        -9.797963790426449
      ],
      [
        "▁رپورٹ",
        -9.798654660570678
      ],
      [
        "▁کمپیوٹر",
        -9.799740807313414
      ],
      [
        "▁لہذا",
        -9.800094155864999
      ],
      [
        "▁مطالبہ",
        -9.800776146562491
      ],
      [
        "▁اصول",
        -9.80080771035801
      ],
      [
        "▁ذات",
        -9.801053988937259
      ],
      [
        "▁میاں",
        -9.801188582946242
      ],
      [
        "m",
        -9.801286373495458
      ],
      [
        "▁اسماعیل",
        -9.802324973204092
      ],
      [
        "▁حقیقی",
        -9.80258430920257
      ],
      [
        "▁جرسی",
        -9.804397599935534
      ],
      [
        "▁ایمان",
        -9.804514129753573
      ],
      [
        "▁بنے",
        -9.804656789097146
      ],
      [
        "▁تجویز",
        -9.805549989960411
      ],
      [
        "▁قبیلے",
        -9.806219430167012
      ],
      [
        "▁تصنیف",
        -9.80802945915288
      ],
      [
        "ڈن",
        -9.808194953844922
      ],
      [
        "▁پریمیئر",
        -9.808919510095112
      ],
      [
        "برطانوی",
        -9.809141763946446
      ],
      [
        "متعلقہ",
        -9.809969503747704
      ],
      [
        "▁رقم",
        -9.81006762211591
      ],
      [
        "▁حج",
        -9.811727399076585
      ],
      [
        "ستان",
        -9.812330209090089
      ],
      [
        "▁1986",
        -9.812422368414225
      ],
      [
        "▁سڈنی",
        -9.813776307976084
      ],
      [
        "▁قوت",
        -9.814338533031002
      ],
      [
        "▁طریقے",
        -9.814738965087237
      ],
      [
        "▁کردی",
        -9.81629225092175
      ],
      [
        "▁خالد",
        -9.816408052479776
      ],
      [
        "▁ہوں۔",
        -9.8170202898695
      ],
      [
        "▁یقین",
        -9.81751630183944
      ],
      [
        "▁1984",
        -9.817740392279674
      ],
      [
        "▁نگر",
        -9.818113978585586
      ],
      [
        "گن",
        -9.818461987669664
      ],
      [
        "▁بیگم",
        -9.818774717030127
      ],
      [
        "or",
        -9.819290132030616
      ],
      [
        "▁تحفظ",
        -9.820354237774376
      ],
      [
        "▁the",
        -9.820397556255266
      ],
      [
        "نز",
        -9.82051349319119
      ],
      [
        "▁یونان",
        -9.820714457453473
      ],
      [
        "▁اسرائیلی",
        -9.820950820995368
      ],
      [
        "▁حرکت",
        -9.821087023928268
      ],
      [
        "le",
        -9.821236068290936
      ],
      [
        "▁راجا",
        -9.821896815280095
      ],
      [
        "▁بالا",
        -9.822000518457843
      ],
      [
        "▁بحری",
        -9.822943643720695
      ],
      [
        "▁آئے۔",
        -9.823500924439639
      ],
      [
        "▁آمد",
        -9.824280982542936
      ],
      [
        "▁عبادت",
        -9.825354287586634
      ],
      [
        "▁توانائی",
        -9.82548760115542
      ],
      [
        "▁رخ",
        -9.825636811909309
      ],
      [
        "▁پریس",
        -9.825875472972808
      ],
      [
        "▁سوسائٹی",
        -9.826187149811075
      ],
      [
        "▁سورج",
        -9.827786992413035
      ],
      [
        "▁تیزی",
        -9.828021741870101
      ],
      [
        "▁منظور",
        -9.828825586791744
      ],
      [
        "▁والدین",
        -9.828902574681052
      ],
      [
        "▁نواز",
        -9.830185760923968
      ],
      [
        "▁کرو",
        -9.831460173148168
      ],
      [
        "مل",
        -9.831493453971264
      ],
      [
        "▁ملازمت",
        -9.833319292826294
      ],
      [
        "▁بری",
        -9.833731707484302
      ],
      [
        "▁1982",
        -9.834608466032433
      ],
      [
        "شا",
        -9.835031175892066
      ],
      [
        "▁گیت",
        -9.835258726650345
      ],
      [
        "▁خوبصورت",
        -9.837219643271595
      ],
      [
        "▁سبھا",
        -9.837476791008072
      ],
      [
        "▁حضور",
        -9.837491126197321
      ],
      [
        "▁ساری",
        -9.838350601146058
      ],
      [
        "▁200",
        -9.838725095092173
      ],
      [
        "▁چلی",
        -9.83905814876819
      ],
      [
        "▁عنوان",
        -9.839651737011838
      ],
      [
        "▁لوٹ",
        -9.839843091452831
      ],
      [
        "▁ہل",
        -9.841401609971026
      ],
      [
        "▁براہ",
        -9.841585887456006
      ],
      [
        "▁پیپلز",
        -9.842378413429316
      ],
      [
        "▁ریلویز",
        -9.843101919533325
      ],
      [
        "راج",
        -9.843822536458745
      ],
      [
        "▁لی۔",
        -9.844014140414568
      ],
      [
        "ونی",
        -9.84419433247102
      ],
      [
        "▁ہوکر",
        -9.844281786930502
      ],
      [
        "▁ممبئی",
        -9.845886716588236
      ],
      [
        "▁حساب",
        -9.845889867047525
      ],
      [
        "▁طبیعیات",
        -9.846560383885933
      ],
      [
        "▁کوڈ",
        -9.847673539873941
      ],
      [
        "▁بابا",
        -9.84778841912189
      ],
      [
        "▁جیتنے",
        -9.848591377568134
      ],
      [
        "▁کولمبیا",
        -9.84896662160313
      ],
      [
        "▁قبرص",
        -9.849071066497803
      ],
      [
        "وان",
        -9.85054804954667
      ],
      [
        "▁سان",
        -9.850572637000644
      ],
      [
        "▁بیعت",
        -9.851013312637177
      ],
      [
        "▁دستخط",
        -9.8514655759183
      ],
      [
        "▁کمانڈر",
        -9.853108853041697
      ],
      [
        "▁92",
        -9.85321262419308
      ],
      [
        "مان",
        -9.853554748623674
      ],
      [
        "▁حرارت",
        -9.853678711168055
      ],
      [
        "▁کمال",
        -9.854309871211804
      ],
      [
        "▁تصویر",
        -9.85490336638971
      ],
      [
        "▁کھو",
        -9.855300085481954
      ],
      [
        "▁لقب",
        -9.855350121198887
      ],
      [
        "▁55",
        -9.856314637458986
      ],
      [
        "▁مفتی",
        -9.856478818492059
      ],
      [
        "▁ریڈ",
        -9.856973643491301
      ],
      [
        "▁اقسام",
        -9.857550572405266
      ],
      [
        "▁بلدیات",
        -9.857680086770266
      ],
      [
        "▁تذکرہ",
        -9.858008019302119
      ],
      [
        "▁باؤلنگ",
        -9.85818474282459
      ],
      [
        "▁مسیحی",
        -9.8586580045496
      ],
      [
        "▁متعارف",
        -9.858690470751956
      ],
      [
        "▁فروخت",
        -9.860910775547115
      ],
      [
        "▁اطالیہ",
        -9.861787516262343
      ],
      [
        "▁ہال",
        -9.861790206410305
      ],
      [
        "▁غازی",
        -9.862357333924887
      ],
      [
        "▁اعتبار",
        -9.863094059444098
      ],
      [
        "▁اندازہ",
        -9.864386516431534
      ],
      [
        "▁داخلہ",
        -9.86477423902199
      ],
      [
        "▁الیون",
        -9.864870183654745
      ],
      [
        "g",
        -9.86549424625781
      ],
      [
        "▁بحث",
        -9.866566039524233
      ],
      [
        "▁مقدار",
        -9.866687444895849
      ],
      [
        "ونگ",
        -9.867320400235258
      ],
      [
        "▁بغداد",
        -9.869130777826228
      ],
      [
        "\t",
        -9.870568539794128
      ],
      [
        "▁معاملات",
        -9.871336047175788
      ],
      [
        "▁K",
        -9.871996434465444
      ],
      [
        "ك",
        -9.872426178897133
      ],
      [
        "▁صوفی",
        -9.873402321535515
      ],
      [
        "▁پالیسی",
        -9.873877818537917
      ],
      [
        "▁کشی",
        -9.874209221946435
      ],
      [
        "▁دیر",
        -9.874250021424633
      ],
      [
        "▁اسٹیٹ",
        -9.874829079406847
      ],
      [
        "▁طب",
        -9.875208098946635
      ],
      [
        "▁کانفرنس",
        -9.875942998851265
      ],
      [
        "▁ملکہ",
        -9.876352516908568
      ],
      [
        "▁بالآخر",
        -9.877061412955506
      ],
      [
        "▁1945",
        -9.877887784864097
      ],
      [
        "▁شراکت",
        -9.878100955322399
      ],
      [
        "▁لکھے",
        -9.878138250670938
      ],
      [
        "▁وار",
        -9.879605837665997
      ],
      [
        "▁بخاری",
        -9.879782066465044
      ],
      [
        "▁خارجہ",
        -9.880218731978513
      ],
      [
        "▁کورٹ",
        -9.88092544317352
      ],
      [
        "ظ",
        -9.881063155562039
      ],
      [
        "تھا",
        -9.88216532180298
      ],
      [
        "▁آسٹریا",
        -9.882415122683863
      ],
      [
        "گل",
        -9.882711636719243
      ],
      [
        "▁بہادر",
        -9.884617517824182
      ],
      [
        "▁دینی",
        -9.88503582517691
      ],
      [
        "وین",
        -9.88557451097374
      ],
      [
        "قرون",
        -9.885701347839193
      ],
      [
        "|",
        -9.886520280871398
      ],
      [
        "▁فارس",
        -9.88701058539192
      ],
      [
        "▁افسر",
        -9.887171875780137
      ],
      [
        "▁بکر",
        -9.88731604641944
      ],
      [
        "▁عدم",
        -9.88742606771034
      ],
      [
        "▁نشانہ",
        -9.888200930697108
      ],
      [
        "▁پن",
        -9.88852200264865
      ],
      [
        "▁جدوجہد",
        -9.889324730849712
      ],
      [
        "سری",
        -9.889362109883233
      ],
      [
        "▁جین",
        -9.890055202696157
      ],
      [
        "▁اطالوی",
        -9.891966619849754
      ],
      [
        "▁1920",
        -9.89251504193598
      ],
      [
        "in",
        -9.892656769319398
      ],
      [
        "ولا",
        -9.893971249951637
      ],
      [
        "بار",
        -9.894131718050957
      ],
      [
        "and",
        -9.894975489147086
      ],
      [
        "▁ایسٹ",
        -9.895060015624356
      ],
      [
        "1940",
        -9.895145411415367
      ],
      [
        "▁غالب",
        -9.895195542755129
      ],
      [
        "▁آیا۔",
        -9.896495370196323
      ],
      [
        "▁عزیز",
        -9.896600084542836
      ],
      [
        "▁فری",
        -9.896789800055249
      ],
      [
        "صوبہ",
        -9.897453319690603
      ],
      [
        "▁D",
        -9.898509396306526
      ],
      [
        "▁لال",
        -9.899058920423418
      ],
      [
        "▁نکل",
        -9.899241648898762
      ],
      [
        "▁ہٹ",
        -9.899665526015353
      ],
      [
        "▁1973",
        -9.899792867047676
      ],
      [
        "▁روحانی",
        -9.900071911807714
      ],
      [
        "▁جنس",
        -9.900077783995556
      ],
      [
        "▁بیچ",
        -9.900897024490487
      ],
      [
        "سال",
        -9.901028345446552
      ],
      [
        "1965",
        -9.901458221243665
      ],
      [
        "▁غلط",
        -9.901491582846269
      ],
      [
        "▁درست",
        -9.902217644801901
      ],
      [
        "▁دربار",
        -9.902880901648
      ],
      [
        "▁;",
        -9.904699177885634
      ],
      [
        "▁اموات",
        -9.904713166585822
      ],
      [
        "▁ڈبلیو",
        -9.904814509649274
      ],
      [
        "▁پڑا۔",
        -9.905334505400639
      ],
      [
        "▁سندھی",
        -9.905888267041387
      ],
      [
        "فر",
        -9.906283848939138
      ],
      [
        "▁شاید",
        -9.906592861165691
      ],
      [
        "▁تمغا",
        -9.907657788204055
      ],
      [
        "▁سالانہ",
        -9.90828422375799
      ],
      [
        "▁چاہتے",
        -9.908815701576174
      ],
      [
        "▁موجودگی",
        -9.90885211337805
      ],
      [
        "▁سرزمین",
        -9.908891095843952
      ],
      [
        "▁ولیم",
        -9.908903586637178
      ],
      [
        "ذ",
        -9.90896843221861
      ],
      [
        "▁بم",
        -9.909100115601678
      ],
      [
        "▁اسٹیڈیم",
        -9.909182332874025
      ],
      [
        "▁1930",
        -9.909374690759176
      ],
      [
        "▁کیپر",
        -9.91043930421285
      ],
      [
        "▁عجائب",
        -9.911728661298536
      ],
      [
        "▁اطلاع",
        -9.912678158554906
      ],
      [
        "▁گاڑی",
        -9.913440736615428
      ],
      [
        "▁قوانین",
        -9.915516386720382
      ],
      [
        "▁مہر",
        -9.916419878344266
      ],
      [
        "▁بدر",
        -9.9164594347855
      ],
      [
        "▁سلیم",
        -9.917366834620674
      ],
      [
        "1974",
        -9.919139720690183
      ],
      [
        "▁نہیں۔",
        -9.91937073490416
      ],
      [
        "▁جلال",
        -9.919462257691588
      ],
      [
        "▁سوال",
        -9.919897412542845
      ],
      [
        "▁لیتے",
        -9.921016233205602
      ],
      [
        "▁ملے",
        -9.922514628143706
      ],
      [
        "w",
        -9.922781330247973
      ],
      [
        "▁صحابہ",
        -9.92285974642209
      ],
      [
        "▁بندرگاہ",
        -9.923044081373424
      ],
      [
        "▁محض",
        -9.923245791927894
      ],
      [
        "▁معاشرے",
        -9.923823176872267
      ],
      [
        "▁صبح",
        -9.924893140162132
      ],
      [
        "▁اتحادی",
        -9.92512750853217
      ],
      [
        "▁مظاہرہ",
        -9.925281085376513
      ],
      [
        "▁پہلو",
        -9.925514462000136
      ],
      [
        "▁جڑواں",
        -9.9256970478777
      ],
      [
        "▁روح",
        -9.92572695210753
      ],
      [
        "▁مان",
        -9.925936545955304
      ],
      [
        "▁ناٹ",
        -9.926148750597921
      ],
      [
        "▁فائدہ",
        -9.927170355494443
      ],
      [
        "▁وال",
        -9.92778207510079
      ],
      [
        "▁منصوبے",
        -9.928309725539556
      ],
      [
        "▁تھیٹر",
        -9.928572221551423
      ],
      [
        "▁پورٹ",
        -9.929402499362775
      ],
      [
        "▁بنت",
        -9.929656012213574
      ],
      [
        "▁آہستہ",
        -9.929820787590018
      ],
      [
        "▁عوض",
        -9.931345379657376
      ],
      [
        "▁فائز",
        -9.931509421066178
      ],
      [
        "▁ٹو",
        -9.932962173502771
      ],
      [
        "▁عمرو",
        -9.93306354341416
      ],
      [
        "▁85",
        -9.93317275112728
      ],
      [
        "▁وفیات",
        -9.933424127212964
      ],
      [
        "▁سونے",
        -9.933655470164776
      ],
      [
        "▁ایڈیشن",
        -9.934474485842154
      ],
      [
        "▁حلقے",
        -9.93493015736319
      ],
      [
        "▁1981",
        -9.9350372564287
      ],
      [
        "▁جیل",
        -9.935363776913292
      ],
      [
        "▁شاخ",
        -9.936052639581497
      ],
      [
        "▁1969",
        -9.93699217806692
      ],
      [
        "▁رکھا۔",
        -9.937368979803772
      ],
      [
        "▁دیکھنے",
        -9.937793164013428
      ],
      [
        "▁حفاظت",
        -9.939170295611408
      ],
      [
        "▁93",
        -9.939947350860503
      ],
      [
        "▁ہیڈ",
        -9.941034676045902
      ],
      [
        "▁کاروبار",
        -9.941239865148447
      ],
      [
        "▁سازی",
        -9.94145389377734
      ],
      [
        "▁بچ",
        -9.94192297135374
      ],
      [
        "▁عسکری",
        -9.942230607355025
      ],
      [
        "▁برادری",
        -9.942726003146785
      ],
      [
        "▁نیویارک",
        -9.94388060856943
      ],
      [
        "▁عمران",
        -9.943989943718911
      ],
      [
        "▁معیشت",
        -9.945103172939177
      ],
      [
        "▁آرڈر",
        -9.946092102594795
      ],
      [
        "▁61",
        -9.946152604065468
      ],
      [
        "جڑواں",
        -9.946242814697175
      ],
      [
        "▁48",
        -9.946247486907541
      ],
      [
        "▁ہیمپشائر",
        -9.946593057273232
      ],
      [
        "▁مواد",
        -9.9471398488548
      ],
      [
        "▁بھاگ",
        -9.947498305697852
      ],
      [
        "▁مضامینویکی",
        -9.94765027951005
      ],
      [
        "الینوائے",
        -9.948056959133787
      ],
      [
        "▁سول",
        -9.948406604292638
      ],
      [
        "تاریخ",
        -9.948566285668516
      ],
      [
        "▁حامی",
        -9.949210646587154
      ],
      [
        "▁کھانے",
        -9.949813726113693
      ],
      [
        "▁اتفاق",
        -9.950803837774476
      ],
      [
        "▁پرست",
        -9.951808599770281
      ],
      [
        "وز",
        -9.952059486469814
      ],
      [
        "▁شہادت",
        -9.952807083175223
      ],
      [
        "لندن",
        -9.953269410127934
      ],
      [
        "on",
        -9.955837720505869
      ],
      [
        "▁تصدیق",
        -9.955957401093805
      ],
      [
        "▁مسلح",
        -9.95596919042093
      ],
      [
        "▁بولنے",
        -9.95623134003134
      ],
      [
        "▁کوٹ",
        -9.956339235203448
      ],
      [
        "▁شاندار",
        -9.95642370491107
      ],
      [
        "▁علاج",
        -9.957256415416161
      ],
      [
        "یش",
        -9.959325576417825
      ],
      [
        "▁ایوان",
        -9.959399292463395
      ],
      [
        "▁تارکین",
        -9.95946688737722
      ],
      [
        "▁ٹیموں",
        -9.961524333800542
      ],
      [
        "▁مرتب",
        -9.962543756417077
      ],
      [
        "▁پہنچے",
        -9.96279139320426
      ],
      [
        "خواتین",
        -9.963629303688876
      ],
      [
        "▁دعا",
        -9.96417924680534
      ],
      [
        "▁گرو",
        -9.964672411770579
      ],
      [
        "▁گرین",
        -9.964781198529543
      ],
      [
        "▁باؤلر",
        -9.965210037453769
      ],
      [
        "▁آسان",
        -9.965379724772383
      ],
      [
        "▁سربیا",
        -9.96567114709988
      ],
      [
        "▁بشمول",
        -9.96572123796787
      ],
      [
        "ٹو",
        -9.965722087887205
      ],
      [
        "1972",
        -9.966780338036614
      ],
      [
        "▁دفعہ",
        -9.967085777867066
      ],
      [
        "▁پڑ",
        -9.968083187553201
      ],
      [
        "▁32",
        -9.969045754422098
      ],
      [
        "▁کش",
        -9.969233003302055
      ],
      [
        "مشی",
        -9.970006056355613
      ],
      [
        "▁46",
        -9.97025721122308
      ],
      [
        "▁فار",
        -9.9703793021763
      ],
      [
        "▁مصری",
        -9.971266113586074
      ],
      [
        "▁بحر",
        -9.97127692420656
      ],
      [
        "▁56",
        -9.971919279584597
      ],
      [
        "▁سنچریاں",
        -9.972030830187643
      ],
      [
        "▁خواہش",
        -9.972222435076521
      ],
      [
        "▁پھول",
        -9.972687298020894
      ],
      [
        "محمد",
        -9.97343451653822
      ],
      [
        "▁بیگ",
        -9.973739279496137
      ],
      [
        "▁500",
        -9.975372363506747
      ],
      [
        "mina",
        -9.976297046312895
      ],
      [
        "▁33",
        -9.976485361094793
      ],
      [
        "▁رومن",
        -9.976972424438067
      ],
      [
        "▁آرکنساس",
        -9.977315814036807
      ],
      [
        "▁ہمیں",
        -9.977422947228316
      ],
      [
        "▁طبی",
        -9.97772253897394
      ],
      [
        "اسلام",
        -9.978076555470409
      ],
      [
        "▁خانے",
        -9.978397012966497
      ],
      [
        "▁گورنمنٹ",
        -9.97874078817848
      ],
      [
        "▁جعفر",
        -9.97887881735782
      ],
      [
        "اسی",
        -9.978994049211657
      ],
      [
        "انگ",
        -9.97949165457593
      ],
      [
        "▁سرخ",
        -9.979646894445708
      ],
      [
        "لینڈ",
        -9.98019444468634
      ],
      [
        "▁آپریشن",
        -9.981221145028805
      ],
      [
        "ڈا",
        -9.981352732984305
      ],
      [
        "▁زون",
        -9.981462739329247
      ],
      [
        "▁52",
        -9.981497590739092
      ],
      [
        "▁ناصر",
        -9.983791114886085
      ],
      [
        "▁تشریف",
        -9.9839811380705
      ],
      [
        "کراچی",
        -9.98430542082551
      ],
      [
        "▁خاتمہ",
        -9.985077922292245
      ],
      [
        "▁مسئلہ",
        -9.985717486922596
      ],
      [
        "▁ہوگا۔",
        -9.98614437984783
      ],
      [
        "▁کلو",
        -9.986217113328763
      ],
      [
        "▁پارلیمنٹ",
        -9.987570299584641
      ],
      [
        "▁کیتھولک",
        -9.988164851645656
      ],
      [
        "▁اراکین",
        -9.989101664969038
      ],
      [
        "▁53",
        -9.99046929401964
      ],
      [
        "▁بلدیہ",
        -9.990539539479993
      ],
      [
        "▁جیتا",
        -9.991924915091866
      ],
      [
        "▁کنندگان",
        -9.992181671967584
      ],
      [
        "▁گردی",
        -9.992402882398014
      ],
      [
        "▁مضافات",
        -9.993210555667993
      ],
      [
        "▁معاشرتی",
        -9.99431164504097
      ],
      [
        "▁الرحمن",
        -9.994422517158554
      ],
      [
        "▁دلچسپی",
        -9.99455490022827
      ],
      [
        "▁وکٹوریہ",
        -9.994845288708476
      ],
      [
        "▁E",
        -9.995018961866643
      ],
      [
        "▁کھیلی۔",
        -9.995943057319161
      ],
      [
        "▁51",
        -9.995963362243078
      ],
      [
        "ینی",
        -9.996671243982473
      ],
      [
        "▁پزیر",
        -9.997935503890186
      ],
      [
        "▁دا",
        -9.99793932049457
      ],
      [
        "▁مراکش",
        -9.99879254905537
      ],
      [
        "▁ثبوت",
        -9.998883202511259
      ],
      [
        "▁دفن",
        -9.9993637582687
      ],
      [
        "▁65",
        -9.999578150121938
      ],
      [
        "▁مجھ",
        -9.99972047125342
      ],
      [
        "▁de",
        -9.999971666137277
      ],
      [
        "تھی",
        -9.999995867881905
      ],
      [
        "وٹ",
        -10.000334427665454
      ],
      [
        "▁کپتانی",
        -10.001391224189032
      ],
      [
        "▁پرستی",
        -10.002044400869146
      ],
      [
        "▁اوریگون",
        -10.002846902512868
      ],
      [
        "▁سیاہ",
        -10.004550944355248
      ],
      [
        "▁منظم",
        -10.004607960023359
      ],
      [
        "▁M",
        -10.004658310830404
      ],
      [
        "ران",
        -10.00505970596836
      ],
      [
        "▁غور",
        -10.005867978613523
      ],
      [
        "▁الف",
        -10.005959583033281
      ],
      [
        "h",
        -10.005984509762229
      ],
      [
        "1956",
        -10.00646981489858
      ],
      [
        "▁لسٹ",
        -10.007125553868057
      ],
      [
        "▁رسم",
        -10.007421822068467
      ],
      [
        "▁نگرانی",
        -10.007765354876408
      ],
      [
        "▁وضاحت",
        -10.010732818818703
      ],
      [
        "▁خیر",
        -10.011868476000908
      ],
      [
        "▁قبر",
        -10.012097204729377
      ],
      [
        "▁سرمایہ",
        -10.012616649139396
      ],
      [
        "▁گول",
        -10.012648969630064
      ],
      [
        "▁دستیاب",
        -10.013700184055379
      ],
      [
        "▁امر",
        -10.014840321858308
      ],
      [
        "▁پہ",
        -10.014867849443917
      ],
      [
        "▁کربلا",
        -10.01489387412623
      ],
      [
        "x",
        -10.014969522187913
      ],
      [
        "▁خصوصیات",
        -10.0149843534778
      ],
      [
        "▁اتنا",
        -10.015038292787791
      ],
      [
        "▁کھڑے",
        -10.015280818580177
      ],
      [
        "▁اجلاس",
        -10.01531858474442
      ],
      [
        "ہجری",
        -10.015451826226672
      ],
      [
        "▁خاتمے",
        -10.015959754444042
      ],
      [
        "▁غریب",
        -10.016071900496653
      ],
      [
        "▁گرم",
        -10.016130793658277
      ],
      [
        "▁اثرات",
        -10.016428115119375
      ],
      [
        "مضامین",
        -10.016492311912298
      ],
      [
        "▁ناقابل",
        -10.016938721556404
      ],
      [
        "▁کرام",
        -10.01786724150049
      ],
      [
        "▁چیک",
        -10.01815914813081
      ],
      [
        "▁تیل",
        -10.01908012404965
      ],
      [
        "▁نوٹ",
        -10.020094224931881
      ],
      [
        "▁فاصلے",
        -10.020119486100162
      ],
      [
        "▁الحق",
        -10.020455671511371
      ],
      [
        "▁سمجھتے",
        -10.020669745319065
      ],
      [
        "مغربی",
        -10.021964391991744
      ],
      [
        "▁ماسکو",
        -10.021973962475677
      ],
      [
        "▁تیاری",
        -10.022050122486121
      ],
      [
        "▁الب",
        -10.022065809236597
      ],
      [
        "▁روپے",
        -10.022489671133513
      ],
      [
        "1967",
        -10.022611285906418
      ],
      [
        "▁حملوں",
        -10.023060664572675
      ],
      [
        "▁حروف",
        -10.023184348418383
      ],
      [
        "▁36",
        -10.023662184163456
      ],
      [
        "▁میڈیکل",
        -10.024824337499386
      ],
      [
        "▁سند",
        -10.025350299870173
      ],
      [
        "▁سربراہی",
        -10.025782927578913
      ],
      [
        "▁سوار",
        -10.025942016364269
      ],
      [
        "▁قبرستان",
        -10.025979667122094
      ],
      [
        "▁ہسپانیہ",
        -10.026398094271496
      ],
      [
        "▁72",
        -10.026759330793045
      ],
      [
        "▁بنو",
        -10.026959879400998
      ],
      [
        "▁مساجد",
        -10.027358321934898
      ],
      [
        "▁عائد",
        -10.027737981012475
      ],
      [
        "▁دیوی",
        -10.029014133092351
      ],
      [
        "▁پاشا",
        -10.029534300605581
      ],
      [
        "▁کروڑ",
        -10.029708418131175
      ],
      [
        "▁83",
        -10.031351663271476
      ],
      [
        "▁مستقبل",
        -10.031853544988586
      ],
      [
        "▁٪",
        -10.032298696487103
      ],
      [
        "▁توسیع",
        -10.03318507773799
      ],
      [
        "▁بچپن",
        -10.033226140064897
      ],
      [
        "▁لائبریری",
        -10.033442002475061
      ],
      [
        "▁یادگار",
        -10.033693103023527
      ],
      [
        "▁ڈیزائن",
        -10.034352213500835
      ],
      [
        "▁بیل",
        -10.035163796509725
      ],
      [
        "چا",
        -10.036035342046695
      ],
      [
        "▁81",
        -10.036617138646289
      ],
      [
        "▁مڈل",
        -10.037272766321237
      ],
      [
        "▁کھیلتے",
        -10.03788258415106
      ],
      [
        "▁نشستیں",
        -10.038166419311066
      ],
      [
        "▁فورس",
        -10.038552145979727
      ],
      [
        "▁پروڈیوسر",
        -10.039686724740726
      ],
      [
        "▁طلب",
        -10.041609943638132
      ],
      [
        "جامعہ",
        -10.04293834399332
      ],
      [
        "روس",
        -10.043629899675192
      ],
      [
        "▁سسٹم",
        -10.043651265463437
      ],
      [
        "▁سکواڈ",
        -10.043711063991815
      ],
      [
        "▁بلوچ",
        -10.043958178409024
      ],
      [
        "▁چاند",
        -10.044391080377013
      ],
      [
        "▁ہزاروں",
        -10.044893544173773
      ],
      [
        "▁عباسی",
        -10.045036200748507
      ],
      [
        "اوہائیو",
        -10.045493231483048
      ],
      [
        "رام",
        -10.046120573265926
      ],
      [
        "بنگلہ",
        -10.047466143416042
      ],
      [
        "خان",
        -10.047467091168592
      ],
      [
        "▁ماحول",
        -10.047509100065422
      ],
      [
        "▁تاج",
        -10.047520073058498
      ],
      [
        "ہے",
        -10.047541454586426
      ],
      [
        "▁کھیلی",
        -10.047738139591921
      ],
      [
        "ڈر",
        -10.047954862921584
      ],
      [
        "▁شعر",
        -10.048706772951453
      ],
      [
        "▁گیس",
        -10.048721973699426
      ],
      [
        "▁بجلی",
        -10.048815955982487
      ],
      [
        "▁1964",
        -10.04895490554597
      ],
      [
        "▁روشن",
        -10.050738891648315
      ],
      [
        "▁بوسنیا",
        -10.051213801392873
      ],
      [
        "▁کمار",
        -10.05202737655295
      ],
      [
        "▁شک",
        -10.05241430716783
      ],
      [
        "▁=",
        -10.053385704652849
      ],
      [
        "▁دم",
        -10.053981234787823
      ],
      [
        "▁جیمز",
        -10.054170632849937
      ],
      [
        "▁37",
        -10.054459528334636
      ],
      [
        "▁لڑکی",
        -10.054507329404696
      ],
      [
        "ندی",
        -10.05485654837876
      ],
      [
        "سان",
        -10.055551013839409
      ],
      [
        "1968",
        -10.056463003198942
      ],
      [
        "▁ماضی",
        -10.056499660094897
      ],
      [
        "▁ویل",
        -10.056530990773213
      ],
      [
        "▁انگلش",
        -10.057440604821984
      ],
      [
        "▁بیٹ",
        -10.058107642874404
      ],
      [
        "▁54",
        -10.058405712617574
      ],
      [
        "یری",
        -10.058482533710166
      ],
      [
        "▁انتظامیہ",
        -10.058863355796833
      ],
      [
        "▁_",
        -10.058940373524942
      ],
      [
        "▁معیار",
        -10.059253017123286
      ],
      [
        "یٹ",
        -10.059649412800248
      ],
      [
        "▁صاف",
        -10.059736900601642
      ],
      [
        "▁in",
        -10.060130000866042
      ],
      [
        "1946",
        -10.061296783580923
      ],
      [
        "▁پو",
        -10.062305664260888
      ],
      [
        "▁مزاحیہ",
        -10.062809727269565
      ],
      [
        "1962",
        -10.063061233918772
      ],
      [
        "▁L",
        -10.06333590357876
      ],
      [
        "▁قریبی",
        -10.063806003935046
      ],
      [
        "▁کرنسی",
        -10.06392029619488
      ],
      [
        "▁وہیں",
        -10.06420201789512
      ],
      [
        "علی",
        -10.064248158467926
      ],
      [
        "▁حصول",
        -10.064471519833093
      ],
      [
        "▁جزیرے",
        -10.064574026737457
      ],
      [
        "ائن",
        -10.06464139092018
      ],
      [
        "▁مارا",
        -10.064741232063053
      ],
      [
        "سویں",
        -10.06478036001894
      ],
      [
        "فورڈ",
        -10.065429619373049
      ],
      [
        "▁پھل",
        -10.065933392070816
      ],
      [
        "▁فلوریڈا",
        -10.065981156515363
      ],
      [
        "▁لکھنؤ",
        -10.066345847891156
      ],
      [
        "▁خوب",
        -10.066626832033082
      ],
      [
        "▁بستی",
        -10.066639302980445
      ],
      [
        "▁قطب",
        -10.067062301696012
      ],
      [
        "▁اندرونی",
        -10.067374675317108
      ],
      [
        "▁اوور",
        -10.067706410151578
      ],
      [
        "▁تہران",
        -10.067901259364124
      ],
      [
        "▁جانوروں",
        -10.068094530858417
      ],
      [
        "▁کمیونسٹ",
        -10.06834544938016
      ],
      [
        "چر",
        -10.068463368294008
      ],
      [
        "▁ریاضی",
        -10.068741465691424
      ],
      [
        "▁34",
        -10.068940373640974
      ],
      [
        "▁جنھو",
        -10.069739229300316
      ],
      [
        "▁بیماری",
        -10.070243208330647
      ],
      [
        "▁73",
        -10.071156568966316
      ],
      [
        "▁ریلیز",
        -10.07156085673583
      ],
      [
        "▁اشارہ",
        -10.071684989865954
      ],
      [
        "▁F",
        -10.07201482902472
      ],
      [
        "▁47",
        -10.072260596260797
      ],
      [
        "سید",
        -10.072272706255784
      ],
      [
        "▁اٹلی",
        -10.073045478311425
      ],
      [
        "er",
        -10.073243600810068
      ],
      [
        "▁دادا",
        -10.074326962341893
      ],
      [
        "is",
        -10.074830209932523
      ],
      [
        "▁چلتا",
        -10.074909521958542
      ],
      [
        "▁74",
        -10.076216643230051
      ],
      [
        "▁چکوال",
        -10.076251625695804
      ],
      [
        "▁اتنی",
        -10.077092012577854
      ],
      [
        "▁64",
        -10.07802783731018
      ],
      [
        "▁ویتنام",
        -10.0787722452343
      ],
      [
        "▁مارشل",
        -10.07895870401838
      ],
      [
        "▁پانچویں",
        -10.079224745873393
      ],
      [
        "▁42",
        -10.079494306960733
      ],
      [
        "▁فرار",
        -10.079591701177087
      ],
      [
        "▁179",
        -10.080032742840284
      ],
      [
        "▁1949",
        -10.081501544964294
      ],
      [
        "▁سائنسی",
        -10.081671931853602
      ],
      [
        "b",
        -10.081854668541254
      ],
      [
        "▁حیدر",
        -10.082054482702024
      ],
      [
        "▁کینٹکی",
        -10.08221462070319
      ],
      [
        "▁اوورز",
        -10.08278909853994
      ],
      [
        "ڈو",
        -10.083392959905147
      ],
      [
        "▁نیوز",
        -10.084790049883104
      ],
      [
        "▁دباؤ",
        -10.085502334757887
      ],
      [
        "▁سوم",
        -10.086105679377445
      ],
      [
        "پل",
        -10.087035985698359
      ],
      [
        "▁آور",
        -10.087182784967117
      ],
      [
        "▁شان",
        -10.087406450267117
      ],
      [
        "▁دست",
        -10.087475883138453
      ],
      [
        "فحش",
        -10.087677747047586
      ],
      [
        "▁حکومتی",
        -10.088750021184655
      ],
      [
        "بری",
        -10.089084817435896
      ],
      [
        "▁66",
        -10.089355747792037
      ],
      [
        "▁گلی",
        -10.090478653178867
      ],
      [
        "▁چاہتا",
        -10.091020559096744
      ],
      [
        "▁کمزور",
        -10.091588020053745
      ],
      [
        "▁پھیلا",
        -10.092021645226712
      ],
      [
        "▁59",
        -10.092041486058939
      ],
      [
        "▁57",
        -10.092981850389187
      ],
      [
        "▁کیپ",
        -10.093155638837588
      ],
      [
        "▁برصغیر",
        -10.093876299146674
      ],
      [
        "▁عکس",
        -10.094356306068153
      ],
      [
        "▁معاون",
        -10.094910823392965
      ],
      [
        "▁پیدائشیںاک",
        -10.0968533319817
      ],
      [
        "▁چینل",
        -10.09690284327231
      ],
      [
        "▁امتیاز",
        -10.097609671080745
      ],
      [
        "▁نادر",
        -10.097741201530795
      ],
      [
        "اردو",
        -10.09788737276693
      ],
      [
        "▁اچھا",
        -10.09915855399537
      ],
      [
        "▁قبضے",
        -10.099486426594238
      ],
      [
        "▁1963",
        -10.099777485786564
      ],
      [
        "یشن",
        -10.099873123008896
      ],
      [
        "▁تحلیل",
        -10.101467585314534
      ],
      [
        "▁ضد",
        -10.101537396380234
      ],
      [
        "لاہور",
        -10.101688248087086
      ],
      [
        "ارا",
        -10.101799577547045
      ],
      [
        "▁مسافر",
        -10.10180629409082
      ],
      [
        "1961",
        -10.102003938597086
      ],
      [
        "▁کیمپ",
        -10.1020657919034
      ],
      [
        "▁باضابطہ",
        -10.102370150718858
      ],
      [
        "▁امداد",
        -10.103301151088946
      ],
      [
        "▁مشن",
        -10.103584898586263
      ],
      [
        "▁قائد",
        -10.104105730285745
      ],
      [
        "▁آرٹ",
        -10.104423146731435
      ],
      [
        "▁خواب",
        -10.104475040478158
      ],
      [
        "▁وہی",
        -10.104780822835828
      ],
      [
        "▁اہتمام",
        -10.105007979261776
      ],
      [
        "مار",
        -10.10543868622758
      ],
      [
        "▁دیو",
        -10.10678086229721
      ],
      [
        "▁44",
        -10.106974894744408
      ],
      [
        "▁تصاویر",
        -10.107264128242228
      ],
      [
        "ایشیا",
        -10.10731951340437
      ],
      [
        "▁عہدہ",
        -10.107382080283694
      ],
      [
        "▁38",
        -10.10770863465442
      ],
      [
        "نڈ",
        -10.10773601744569
      ],
      [
        "فن",
        -10.108152221269906
      ],
      [
        "▁دراصل",
        -10.108270578792002
      ],
      [
        "▁برٹش",
        -10.108384241770104
      ],
      [
        "▁چک",
        -10.108810222678297
      ],
      [
        "▁پکڑ",
        -10.109195209982865
      ],
      [
        "▁شمس",
        -10.10952311985153
      ],
      [
        "▁لیک",
        -10.109682238812162
      ],
      [
        "▁احتجاج",
        -10.110048183286258
      ],
      [
        "▁نشست",
        -10.110798365985781
      ],
      [
        "▁86",
        -10.110968867883127
      ],
      [
        "▁تجربہ",
        -10.111019860946776
      ],
      [
        "▁مہارت",
        -10.111255884737856
      ],
      [
        "▁مارے",
        -10.111377408450068
      ],
      [
        "▁منسوب",
        -10.111422394966942
      ],
      [
        "▁عرض",
        -10.112201743519346
      ],
      [
        "1918",
        -10.112733141713402
      ],
      [
        "▁نامور",
        -10.113640600491138
      ],
      [
        "▁شعبے",
        -10.113837292407347
      ],
      [
        "▁عیسائی",
        -10.11400932666632
      ],
      [
        "ؔ",
        -10.114609650531715
      ],
      [
        "▁نتائج",
        -10.1149073553714
      ],
      [
        "▁یافتگان",
        -10.1149482941042
      ],
      [
        "▁پوسٹ",
        -10.115019125434383
      ],
      [
        "▁مسعود",
        -10.115318815499219
      ],
      [
        "▁دکھائی",
        -10.115581315690683
      ],
      [
        "▁اسلامیہ",
        -10.115680446087682
      ],
      [
        "▁300",
        -10.116236162108919
      ],
      [
        "▁احادیث",
        -10.116737694760173
      ],
      [
        "لان",
        -10.116767731755468
      ],
      [
        "▁نقطہ",
        -10.117026469867692
      ],
      [
        "▁آبائی",
        -10.117209710127899
      ],
      [
        "▁دیکھیں",
        -10.11773245946928
      ],
      [
        "▁مہاراشٹر",
        -10.118561929474787
      ],
      [
        "▁نمائش",
        -10.119195122911734
      ],
      [
        "▁علماء",
        -10.120383518451003
      ],
      [
        "▁بالی",
        -10.120532204129342
      ],
      [
        "وفات",
        -10.120748354224077
      ],
      [
        "▁منٹ",
        -10.120833351225883
      ],
      [
        "ing",
        -10.120993426690237
      ],
      [
        "ائ",
        -10.12161969916191
      ],
      [
        "▁رہیں",
        -10.121664048071011
      ],
      [
        "▁ادیب",
        -10.123399577047412
      ],
      [
        "▁پوزیشن",
        -10.124695414802911
      ],
      [
        "▁موضوعات",
        -10.12507159287831
      ],
      [
        "▁آلہ",
        -10.125160931056882
      ],
      [
        "آٹھویں",
        -10.12533852885601
      ],
      [
        "an",
        -10.125480482770882
      ],
      [
        "▁ازبکستان",
        -10.125930103516072
      ],
      [
        "▁درجے",
        -10.126024568320378
      ],
      [
        "▁چچا",
        -10.12710218721217
      ],
      [
        "▁وائٹ",
        -10.12729236409008
      ],
      [
        "▁کرکٹرز",
        -10.127938407253534
      ],
      [
        "▁اقتصادی",
        -10.128293331018353
      ],
      [
        "▁منہ",
        -10.129233459983112
      ],
      [
        "▁معاویہ",
        -10.130177666643693
      ],
      [
        "▁چیئرمین",
        -10.135063844792047
      ],
      [
        "▁خفیہ",
        -10.135625793912254
      ],
      [
        "▁نافذ",
        -10.136281943945384
      ],
      [
        "▁حکام",
        -10.137167881387544
      ],
      [
        "▁را",
        -10.137417141043965
      ],
      [
        "▁حاجی",
        -10.138657330749783
      ],
      [
        "▁رائل",
        -10.138767967507594
      ],
      [
        "▁لکھ",
        -10.13947139334752
      ],
      [
        "▁H",
        -10.140243386112349
      ],
      [
        "▁امپائر",
        -10.140321261868863
      ],
      [
        "▁قلعے",
        -10.140752729901383
      ],
      [
        "▁49",
        -10.141455095242705
      ],
      [
        "▁فون",
        -10.141704951869286
      ],
      [
        "▁ملنے",
        -10.141996375311924
      ],
      [
        "▁بنایا۔",
        -10.14210333359479
      ],
      [
        "▁قاسم",
        -10.142679092643107
      ],
      [
        "▁مٹی",
        -10.142835163609332
      ],
      [
        "▁پوچھا",
        -10.143826285662174
      ],
      [
        "▁لکھنے",
        -10.144170263151096
      ],
      [
        "▁ہنگری",
        -10.144333845067173
      ],
      [
        "▁ماسٹر",
        -10.145067390181207
      ],
      [
        "▁ہے۔فہرست",
        -10.145833870073307
      ],
      [
        "▁دروازے",
        -10.146902389428199
      ],
      [
        "▁خطرہ",
        -10.147075873747376
      ],
      [
        "▁عروج",
        -10.147529065283694
      ],
      [
        "▁بھیج",
        -10.147796978445701
      ],
      [
        "▁1942",
        -10.148103652403602
      ],
      [
        "▁خراب",
        -10.14846128302601
      ],
      [
        "▁43",
        -10.148956064339982
      ],
      [
        "▁متحرک",
        -10.149416069589865
      ],
      [
        "▁امید",
        -10.151622246066129
      ],
      [
        "▁فاطمہ",
        -10.151626916758358
      ],
      [
        "▁حدود",
        -10.151743968966066
      ],
      [
        "▁باشندوں",
        -10.153205027796211
      ],
      [
        "▁گیارہ",
        -10.153389527817229
      ],
      [
        "▁کریں۔",
        -10.153710819639974
      ],
      [
        "▁91",
        -10.15376908497315
      ],
      [
        "▁مصروف",
        -10.153887758548933
      ],
      [
        "▁البتہ",
        -10.154845344063563
      ],
      [
        "▁69",
        -10.155070694992848
      ],
      [
        "▁حکمت",
        -10.15542542490434
      ],
      [
        "▁تیسرا",
        -10.155672225633303
      ],
      [
        "▁جائزہ",
        -10.155898547941982
      ],
      [
        "ینا",
        -10.156643017528337
      ],
      [
        "▁روکنے",
        -10.157315628023298
      ],
      [
        "▁68",
        -10.157707582745196
      ],
      [
        "▁84",
        -10.15799181293168
      ],
      [
        "▁88",
        -10.158037102554758
      ],
      [
        "▁N",
        -10.15886711981898
      ],
      [
        "▁بھاری",
        -10.158941431821589
      ],
      [
        "الہ",
        -10.15905611210985
      ],
      [
        "▁بلغاریہ",
        -10.160622647259625
      ],
      [
        "▁مولوی",
        -10.161085850910059
      ],
      [
        "▁بنگالی",
        -10.161315192358142
      ],
      [
        "▁حوصل",
        -10.162120644706345
      ],
      [
        "▁زبردست",
        -10.162444952568453
      ],
      [
        "▁چندر",
        -10.162991230152471
      ],
      [
        "▁تاجر",
        -10.163494258578917
      ],
      [
        "▁کالم",
        -10.16385796317537
      ],
      [
        "▁1941",
        -10.16397063737319
      ],
      [
        "▁بازو",
        -10.164330256644892
      ],
      [
        "▁نظریات",
        -10.16440867676899
      ],
      [
        "▁طالبان",
        -10.164613893281516
      ],
      [
        "▁1939",
        -10.164816901595454
      ],
      [
        "▁)|",
        -10.164968418388957
      ],
      [
        "▁ایوارڈز",
        -10.167706574252108
      ],
      [
        "▁77",
        -10.168561639420028
      ],
      [
        "▁خوف",
        -10.16859229666169
      ],
      [
        "▁لباس",
        -10.168626212296173
      ],
      [
        "▁گاندھی",
        -10.169447243908328
      ],
      [
        "▁کوفہ",
        -10.17043637702265
      ],
      [
        "▁ملکیت",
        -10.170463549572208
      ],
      [
        "▁رومانیہ",
        -10.171234507366236
      ],
      [
        "▁اعتماد",
        -10.171974934415452
      ],
      [
        "▁ساحلی",
        -10.172280785569363
      ],
      [
        "▁سپاہی",
        -10.172618177062827
      ],
      [
        "▁نارتھ",
        -10.173212571336824
      ],
      [
        "th",
        -10.17355120025319
      ],
      [
        "ڈین",
        -10.17378918691263
      ],
      [
        "▁بارش",
        -10.173874011834513
      ],
      [
        "ئر",
        -10.173882247660714
      ],
      [
        "۔مزید",
        -10.173956752379553
      ],
      [
        "▁دیوار",
        -10.174260811958554
      ],
      [
        "▁1914",
        -10.174414319026713
      ],
      [
        "▁سنگ",
        -10.174474684468827
      ],
      [
        "▁اردن",
        -10.174507306870238
      ],
      [
        "▁1966",
        -10.17488496906997
      ],
      [
        "▁کائنات",
        -10.174962960214812
      ],
      [
        "▁ممکنہ",
        -10.175273171581159
      ],
      [
        "▁1952",
        -10.175428359420618
      ],
      [
        "▁چاہیے۔",
        -10.175479582792796
      ],
      [
        "▁فوری",
        -10.175592804694912
      ],
      [
        "▁غزل",
        -10.175794715337467
      ],
      [
        "▁کھانا",
        -10.175801856174326
      ],
      [
        "▁گھریلو",
        -10.17652608557169
      ],
      [
        "▁87",
        -10.176592676559874
      ],
      [
        "▁انقلابی",
        -10.176760649749294
      ],
      [
        "▁1944",
        -10.177576764826611
      ],
      [
        "st",
        -10.177589037297956
      ],
      [
        "▁مسیسپی",
        -10.17761958248719
      ],
      [
        "▁انٹر",
        -10.178500713783908
      ],
      [
        "▁برج",
        -10.178906548944536
      ],
      [
        "▁89",
        -10.180599686624522
      ],
      [
        "▁ہمراہ",
        -10.180718174337095
      ],
      [
        "▁بگ",
        -10.181023815733742
      ],
      [
        "میر",
        -10.181046242380676
      ],
      [
        "▁بٹ",
        -10.181355934956603
      ],
      [
        "▁96",
        -10.18160985280215
      ],
      [
        "▁نشر",
        -10.182526875412776
      ],
      [
        "▁جم",
        -10.183453297692282
      ],
      [
        "▁اداکارائیںامریک",
        -10.184018728800691
      ],
      [
        "▁71",
        -10.184454192491149
      ],
      [
        "▁احساس",
        -10.184567593963443
      ],
      [
        "▁توڑ",
        -10.18499034593611
      ],
      [
        "▁95",
        -10.185603332403293
      ],
      [
        "▁94",
        -10.18564547515519
      ],
      [
        "از",
        -10.185959566311197
      ],
      [
        "▁رسائی",
        -10.186068080358496
      ],
      [
        "▁تحقیقی",
        -10.186459002920056
      ],
      [
        "دین",
        -10.187149999104559
      ],
      [
        "▁قطر",
        -10.18716474169029
      ],
      [
        "▁گانے",
        -10.18740816448675
      ],
      [
        "▁ڈربی",
        -10.18779805747453
      ],
      [
        "▁انڈونیشیا",
        -10.188461405730326
      ],
      [
        "▁1919",
        -10.18890245689235
      ],
      [
        "▁بوس",
        -10.188977447577646
      ],
      [
        "▁آیات",
        -10.189065369861183
      ],
      [
        "▁82",
        -10.189128674168646
      ],
      [
        "▁مناسب",
        -10.189347096576586
      ],
      [
        "▁حبیب",
        -10.189675218444322
      ],
      [
        "▁عمان",
        -10.189743733606468
      ],
      [
        "▁گھنٹے",
        -10.189746369716953
      ],
      [
        "▁پھیل",
        -10.18999424062497
      ],
      [
        "▁ہوم",
        -10.190255833737893
      ],
      [
        "▁دروازہ",
        -10.190274492526953
      ],
      [
        "▁178",
        -10.190610964194295
      ],
      [
        "▁پرانے",
        -10.190730126238956
      ],
      [
        "▁سلوک",
        -10.19125809774075
      ],
      [
        "▁بھگ",
        -10.191546280673187
      ],
      [
        "▁سرے",
        -10.192002116749794
      ],
      [
        "▁نیبراسکا",
        -10.192314160142356
      ],
      [
        "▁جموں",
        -10.192736316006622
      ],
      [
        "▁اختر",
        -10.192748685652866
      ],
      [
        "▁وآلہ",
        -10.194330002658603
      ],
      [
        "▁شب",
        -10.194738869425262
      ],
      [
        "▁برعکس",
        -10.195812289529485
      ],
      [
        "▁وقوع",
        -10.19581946880594
      ],
      [
        "▁الیکشن",
        -10.19689570426704
      ],
      [
        "▁بمطابق",
        -10.197297432938358
      ],
      [
        "▁رشتہ",
        -10.197579265384004
      ],
      [
        "▁بمقابلہ",
        -10.197793096600575
      ],
      [
        "▁ہرزیگووینا",
        -10.19828875888739
      ],
      [
        "▁درخت",
        -10.198607632580908
      ],
      [
        "▁ورثہ",
        -10.199777858061445
      ],
      [
        "▁رکھے",
        -10.19980473512416
      ],
      [
        "▁جنم",
        -10.200281237745227
      ],
      [
        "▁اکرم",
        -10.200784838450456
      ],
      [
        "▁کہلاتا",
        -10.20080214085842
      ],
      [
        "▁عراقی",
        -10.201173971811912
      ],
      [
        "▁شہزادہ",
        -10.201258244432728
      ],
      [
        "▁کیمبرج",
        -10.201478284923885
      ],
      [
        "▁سولہ",
        -10.202892276109488
      ],
      [
        "کور",
        -10.203359054449683
      ],
      [
        "▁یزید",
        -10.203785922723025
      ],
      [
        "▁سرگرمیوں",
        -10.204590801928262
      ],
      [
        "▁گفتگو",
        -10.204764551544075
      ],
      [
        "▁یوم",
        -10.205363342322679
      ],
      [
        "▁جانشین",
        -10.20620479011884
      ],
      [
        "▁رہیں۔",
        -10.206222314748178
      ],
      [
        "▁1951",
        -10.206246100094742
      ],
      [
        "▁فرائض",
        -10.206254947705872
      ],
      [
        "▁پہچان",
        -10.20650542911526
      ],
      [
        "▁برازیل",
        -10.207351157507237
      ],
      [
        "▁پیار",
        -10.207360086462018
      ],
      [
        "▁ميں",
        -10.207810079181236
      ],
      [
        "▁برف",
        -10.208563071537082
      ],
      [
        "▁150",
        -10.209553995615106
      ],
      [
        "▁یہود",
        -10.209709175384525
      ],
      [
        "▁یقینی",
        -10.209872334028422
      ],
      [
        "▁لایا",
        -10.209937089168983
      ],
      [
        "▁صادق",
        -10.210231607825053
      ],
      [
        "▁دکن",
        -10.210349208110095
      ],
      [
        "p",
        -10.210375707768529
      ],
      [
        "▁قرض",
        -10.21038532415335
      ],
      [
        "▁کنگ",
        -10.21086483809176
      ],
      [
        "ra",
        -10.211430452153923
      ],
      [
        "▁عقائد",
        -10.21143807812007
      ],
      [
        "▁58",
        -10.211875691768626
      ],
      [
        "▁الج",
        -10.212860008473855
      ],
      [
        "▁بائی",
        -10.212896463149269
      ],
      [
        "▁کردیا۔",
        -10.213312530340893
      ],
      [
        "▁چارلس",
        -10.21334407070178
      ],
      [
        "▁مواقع",
        -10.214811961458842
      ],
      [
        "▁U",
        -10.215274612382023
      ],
      [
        "▁پانے",
        -10.215652294392711
      ],
      [
        "▁ارشاد",
        -10.215871746528105
      ],
      [
        "▁سنا",
        -10.216187386377939
      ],
      [
        "واشنگٹن",
        -10.2185511613914
      ],
      [
        "مینیسوٹا",
        -10.218556172651503
      ],
      [
        "▁67",
        -10.218658447905451
      ],
      [
        "▁00",
        -10.218771062175563
      ],
      [
        "▁39",
        -10.219116022527208
      ],
      [
        "قومی",
        -10.21972338426542
      ],
      [
        "▁79",
        -10.219787803432325
      ],
      [
        "▁ارب",
        -10.220379211906202
      ],
      [
        "▁سینئر",
        -10.220422344268929
      ],
      [
        "پن",
        -10.221604636573748
      ],
      [
        "افغانستان",
        -10.222048629115411
      ],
      [
        "▁سکندر",
        -10.222105330364922
      ],
      [
        "▁کھیلتا",
        -10.22224257714156
      ],
      [
        "▁بلیک",
        -10.222637832152216
      ],
      [
        "▁ڈیوڈ",
        -10.22347288789108
      ],
      [
        "▁چلنے",
        -10.223823328167523
      ],
      [
        "▁راجپوت",
        -10.22494937594184
      ],
      [
        "ڑی",
        -10.22507291084835
      ],
      [
        "▁تقریب",
        -10.225136629376042
      ],
      [
        "ونا",
        -10.225295732026401
      ],
      [
        "▁خلیج",
        -10.226538718678713
      ],
      [
        "مور",
        -10.226548744125147
      ],
      [
        "گان",
        -10.226828268036805
      ],
      [
        "▁موسیقار",
        -10.227385026798366
      ],
      [
        "▁تینوں",
        -10.227856765459764
      ],
      [
        "▁شری",
        -10.227865147354372
      ],
      [
        "▁محنت",
        -10.228113999650402
      ],
      [
        "▁41",
        -10.22822799728043
      ],
      [
        "▁ملا۔",
        -10.228318615283289
      ],
      [
        "ہندوستان",
        -10.228960309379552
      ],
      [
        "▁دیکھتے",
        -10.229036306101008
      ],
      [
        "ادی",
        -10.229134665200856
      ],
      [
        "▁180",
        -10.229492004290368
      ],
      [
        "دسویں",
        -10.23091422562317
      ],
      [
        "▁افسانہ",
        -10.231375714597863
      ],
      [
        "▁ڈچ",
        -10.231944959913523
      ],
      [
        "▁چوتھے",
        -10.232090504059704
      ],
      [
        "▁کھلاڑیبھارت",
        -10.232539426042297
      ],
      [
        "▁ظلم",
        -10.232985886969676
      ],
      [
        "▁آرٹس",
        -10.233349545317305
      ],
      [
        "الدین",
        -10.233497491991102
      ],
      [
        "▁ہماری",
        -10.233706743664843
      ],
      [
        "1957",
        -10.233754504632756
      ],
      [
        "▁جرم",
        -10.233934974622152
      ],
      [
        "▁انیس",
        -10.234315736314468
      ],
      [
        "▁سمجھ",
        -10.234408207953472
      ],
      [
        "▁برقی",
        -10.234480784824036
      ],
      [
        "▁چیت",
        -10.23480915271581
      ],
      [
        "▁جمہوری",
        -10.236562089479797
      ],
      [
        "▁پیغمبر",
        -10.237221930629225
      ],
      [
        "1953",
        -10.237284116358031
      ],
      [
        "▁صوبوں",
        -10.237372527276937
      ],
      [
        "▁مہدی",
        -10.238258488814942
      ],
      [
        "z",
        -10.238603493434354
      ],
      [
        "▁اقدامات",
        -10.239050373879897
      ],
      [
        "▁گناہ",
        -10.23906258347025
      ],
      [
        "▁پیرو",
        -10.239451115371
      ],
      [
        "▁حکیم",
        -10.240569425804381
      ],
      [
        "▁کابل",
        -10.241634543321647
      ],
      [
        "▁جانور",
        -10.242464261839563
      ],
      [
        "▁زید",
        -10.242743780691912
      ],
      [
        "▁عامر",
        -10.242933409146282
      ],
      [
        "li",
        -10.243133775651707
      ],
      [
        "▁62",
        -10.244216325926292
      ],
      [
        "▁1937",
        -10.244369929360085
      ],
      [
        "ٹیکساس",
        -10.245010955739888
      ],
      [
        "▁تیس",
        -10.245499755818777
      ],
      [
        "▁جانی",
        -10.246530448473587
      ],
      [
        "ورا",
        -10.247186535761543
      ],
      [
        "ٹری",
        -10.24733484540986
      ],
      [
        "▁مزاحمت",
        -10.247532758857101
      ],
      [
        "▁ہے۔یہ",
        -10.247560984100708
      ],
      [
        "▁شریعت",
        -10.248076203886836
      ],
      [
        "▁کینٹ",
        -10.249134645034623
      ],
      [
        "▁کٹ",
        -10.249261756355374
      ],
      [
        "▁داؤد",
        -10.249630630881843
      ],
      [
        "▁فرما",
        -10.249645378877439
      ],
      [
        "▁پائی۔",
        -10.249710962985507
      ],
      [
        "▁کوششوں",
        -10.25026057955667
      ],
      [
        "▁انہی",
        -10.25058933581335
      ],
      [
        "▁فیصلے",
        -10.250777641513222
      ],
      [
        "▁بھٹو",
        -10.251354125891238
      ],
      [
        "▁بول",
        -10.251749549884238
      ],
      [
        "▁خرید",
        -10.251858072652507
      ],
      [
        "▁یار",
        -10.252594411033085
      ],
      [
        "▁بائبل",
        -10.252794525952305
      ],
      [
        "▁لائے",
        -10.253299703362725
      ],
      [
        "▁چن",
        -10.253732632483185
      ],
      [
        "▁خاں",
        -10.254593138975881
      ],
      [
        "▁انجمن",
        -10.254799026366381
      ],
      [
        "▁نبوی",
        -10.25484321624508
      ],
      [
        "▁دہ",
        -10.254891956531681
      ],
      [
        "▁قلم",
        -10.254967524350901
      ],
      [
        "▁خاطر",
        -10.255963369011479
      ],
      [
        "▁اساتذہ",
        -10.25599092486893
      ],
      [
        "▁پرچم",
        -10.256181613770503
      ],
      [
        "▁ڈرامے",
        -10.25648791650442
      ],
      [
        "▁وزن",
        -10.256622535273653
      ],
      [
        "f",
        -10.25809350995301
      ],
      [
        "▁زر",
        -10.258606407822718
      ],
      [
        "▁گیم",
        -10.259528806706038
      ],
      [
        "▁سور",
        -10.259711796106338
      ],
      [
        "▁ڈیرہ",
        -10.259894513832034
      ],
      [
        "▁78",
        -10.260030768907535
      ],
      [
        "زم",
        -10.260578420568914
      ],
      [
        "▁زوال",
        -10.261587315867096
      ],
      [
        "▁درد",
        -10.262129839090715
      ],
      [
        "▁شوق",
        -10.26336969452794
      ],
      [
        "شپ",
        -10.263941676733896
      ],
      [
        "▁فعالیت",
        -10.264294192568414
      ],
      [
        "▁شر",
        -10.265851648602482
      ],
      [
        "▁سمت",
        -10.266593059769097
      ],
      [
        "▁مجید",
        -10.267584000588377
      ],
      [
        "▁بہاؤ",
        -10.267893146656556
      ],
      [
        "▁کھا",
        -10.268443120019779
      ],
      [
        "▁تہوار",
        -10.268647531750116
      ],
      [
        "▁ہٹا",
        -10.26864800395769
      ],
      [
        "▁فاتح",
        -10.270874900276008
      ],
      [
        "▁قدیمہ",
        -10.271313505911788
      ],
      [
        "▁ملتے",
        -10.271580584968978
      ],
      [
        "▁صحابی",
        -10.272928417554331
      ],
      [
        "▁ظفر",
        -10.273608460098307
      ],
      [
        "at",
        -10.274204395081096
      ],
      [
        "▁پریفیکچر",
        -10.274516123846858
      ],
      [
        "▁شی",
        -10.27455838570342
      ],
      [
        "▁جہلم",
        -10.275256601671153
      ],
      [
        "▁تمہارے",
        -10.275587739369602
      ],
      [
        "▁اصحاب",
        -10.275788950655896
      ],
      [
        "▁ماتحت",
        -10.276125840838333
      ],
      [
        "▁یوکرین",
        -10.276266836683822
      ],
      [
        "▁تدریس",
        -10.277004660304064
      ],
      [
        "u",
        -10.27701185189196
      ],
      [
        "▁جنگل",
        -10.277121640157759
      ],
      [
        "▁رہنماؤں",
        -10.280156784650623
      ],
      [
        "حضرت",
        -10.280270094704584
      ],
      [
        "▁سیر",
        -10.280485883966733
      ],
      [
        "▁برا",
        -10.280995680640132
      ],
      [
        "▁قول",
        -10.28149545025962
      ],
      [
        "ڑا",
        -10.281580581659167
      ],
      [
        "▁ملائیشیا",
        -10.282084603620728
      ],
      [
        "▁آتش",
        -10.282434798132595
      ],
      [
        "▁ریٹائرمنٹ",
        -10.282699042488703
      ],
      [
        "شر",
        -10.2830778118308
      ],
      [
        "▁وین",
        -10.283167442174314
      ],
      [
        "▁فلسطینی",
        -10.283319639261777
      ],
      [
        "▁جناح",
        -10.283393419990421
      ],
      [
        "▁ہیرو",
        -10.283423562672468
      ],
      [
        "▁دہی",
        -10.284150975209505
      ],
      [
        "▁ہوگئے",
        -10.28438165289681
      ],
      [
        "▁پرورش",
        -10.284797199008892
      ],
      [
        "▁شا",
        -10.285654585575617
      ],
      [
        "▁99",
        -10.285888563516856
      ],
      [
        "▁سلام",
        -10.287624995325906
      ],
      [
        "▁اعتراف",
        -10.2879867093021
      ],
      [
        "▁1938",
        -10.288000232812905
      ],
      [
        "ٹل",
        -10.288298665898953
      ],
      [
        "▁اٹھا",
        -10.28885725567379
      ],
      [
        "▁متبادل",
        -10.289071695051685
      ],
      [
        "▁خطوط",
        -10.289540935306313
      ],
      [
        "▁بھ",
        -10.28965855772854
      ],
      [
        "فیلڈ",
        -10.289784771259093
      ],
      [
        "جان",
        -10.290048868946851
      ],
      [
        "▁چوتھی",
        -10.290596807218451
      ],
      [
        "کوٹ",
        -10.291172778705201
      ],
      [
        "▁W",
        -10.291413860243201
      ],
      [
        "▁تنظیمیں",
        -10.292094453385031
      ],
      [
        "▁آئیں",
        -10.292555323062915
      ],
      [
        "▁لگتا",
        -10.292587356657798
      ],
      [
        "▁روزنامہ",
        -10.292607253550987
      ],
      [
        "▁نگاری",
        -10.292632757299787
      ],
      [
        "نین",
        -10.294944465484482
      ],
      [
        "▁داستان",
        -10.295340163903257
      ],
      [
        "▁76",
        -10.29566665985896
      ],
      [
        "▁لبنان",
        -10.295978068940332
      ],
      [
        "▁گنج",
        -10.29710638645027
      ],
      [
        "▁ٹیکس",
        -10.297229130930193
      ],
      [
        "▁انجن",
        -10.297370751433958
      ],
      [
        "▁علمائے",
        -10.298254106178945
      ],
      [
        "▁فرزند",
        -10.298354917854244
      ],
      [
        "▁اولمپکس",
        -10.298363813366407
      ],
      [
        "▁ایکشن",
        -10.298392857313328
      ],
      [
        "▁صدارتی",
        -10.298776388971753
      ],
      [
        "▁مکان",
        -10.30062907654557
      ],
      [
        "▁ٹینیسی",
        -10.300780885740398
      ],
      [
        "▁فرد",
        -10.301388971038847
      ],
      [
        "▁امتحان",
        -10.301746157197323
      ],
      [
        "▁سفیر",
        -10.301778715432519
      ],
      [
        "▁اصلاح",
        -10.30181293822632
      ],
      [
        "▁سوانح",
        -10.302045875875912
      ],
      [
        "▁اخبارات",
        -10.302538808527114
      ],
      [
        "▁میوزیم",
        -10.303291388636506
      ],
      [
        "▁پندرہ",
        -10.30390958473264
      ],
      [
        "▁جناب",
        -10.304327588828233
      ],
      [
        "▁تیرہ",
        -10.304761614400775
      ],
      [
        "▁مارکیٹ",
        -10.304960245819679
      ],
      [
        "ابو",
        -10.305051391802188
      ],
      [
        "سین",
        -10.305926957328486
      ],
      [
        "▁191",
        -10.30611252835385
      ],
      [
        "▁1917",
        -10.30615551027157
      ],
      [
        "▁عزت",
        -10.306520732447987
      ],
      [
        "▁اشعار",
        -10.309744832043112
      ],
      [
        "اکیسوی",
        -10.3098362468286
      ],
      [
        "▁پبلک",
        -10.310002229960725
      ],
      [
        "▁زراعت",
        -10.310257051862507
      ],
      [
        "▁ءمیں",
        -10.311354004644556
      ],
      [
        "یار",
        -10.311528039209374
      ],
      [
        "چھ",
        -10.311969508546255
      ],
      [
        "▁الح",
        -10.31221021374872
      ],
      [
        "▁قاہرہ",
        -10.313243701136109
      ],
      [
        "▁1921",
        -10.31342948045921
      ],
      [
        "▁الع",
        -10.313519991700863
      ],
      [
        "▁سیاحتی",
        -10.31460849947127
      ],
      [
        "▁نویس",
        -10.315047281814545
      ],
      [
        "▁کوالیفائر",
        -10.315121167631975
      ],
      [
        "تری",
        -10.315204311245727
      ],
      [
        "ar",
        -10.315357427058949
      ],
      [
        "ھا",
        -10.315432524759519
      ],
      [
        "▁دیوبند",
        -10.31551142626256
      ],
      [
        "▁ویڈیو",
        -10.315775912070041
      ],
      [
        "▁عبور",
        -10.315906419896258
      ],
      [
        "▁بڑھا",
        -10.315908466195765
      ],
      [
        "▁جسمانی",
        -10.315947645610319
      ],
      [
        "▁ابہام",
        -10.316611913507668
      ],
      [
        "شاہ",
        -10.317064985051946
      ],
      [
        "▁رب",
        -10.317723427087753
      ],
      [
        "▁کرایا",
        -10.318119698831921
      ],
      [
        "فل",
        -10.31817031270186
      ],
      [
        "▁کینیا",
        -10.3182042465724
      ],
      [
        "▁اچھے",
        -10.318800633009165
      ],
      [
        "▁ایوب",
        -10.319300905961615
      ],
      [
        "▁عائشہ",
        -10.319917888892164
      ],
      [
        "▁تیر",
        -10.32019142001225
      ],
      [
        "▁خیل",
        -10.320714946031112
      ],
      [
        "▁زیارت",
        -10.321066110645315
      ],
      [
        "▁ارادہ",
        -10.321262236477935
      ],
      [
        "▁آصف",
        -10.321622476683675
      ],
      [
        "▁ہاکی",
        -10.322324465297822
      ],
      [
        "▁فنکار",
        -10.32301325249648
      ],
      [
        "▁چوک",
        -10.323077256842561
      ],
      [
        "▁دیوان",
        -10.323438513632244
      ],
      [
        "▁اصلاحات",
        -10.323944057856902
      ],
      [
        "▁اسحاق",
        -10.324270640769146
      ],
      [
        "▁نیم",
        -10.3243612040345
      ],
      [
        "▁بولر",
        -10.324731904189905
      ],
      [
        "▁گنی",
        -10.325192311368973
      ],
      [
        "▁لانے",
        -10.325601708819075
      ],
      [
        "▁نازل",
        -10.325885249574128
      ],
      [
        "عد",
        -10.326958891546802
      ],
      [
        "آپ",
        -10.326969902978398
      ],
      [
        "▁مارٹن",
        -10.327223410576547
      ],
      [
        "▁پیٹر",
        -10.328104583735108
      ],
      [
        "▁ڈیم",
        -10.328178294486708
      ],
      [
        "بھی",
        -10.328440120979145
      ],
      [
        "سب",
        -10.328803578731506
      ],
      [
        "▁کیلئے",
        -10.329106114867443
      ],
      [
        "▁لین",
        -10.32949677618432
      ],
      [
        "▁اوپن",
        -10.329580328008465
      ],
      [
        "▁الس",
        -10.330038684538478
      ],
      [
        "▁سیالکوٹ",
        -10.33016479356196
      ],
      [
        "▁وزڈن",
        -10.330421628332214
      ],
      [
        "▁کاموں",
        -10.330942478062846
      ],
      [
        "▁عبرانی",
        -10.331065285922858
      ],
      [
        "▁مرحوم",
        -10.331179646100743
      ],
      [
        "▁1922",
        -10.331208382933061
      ],
      [
        "▁مرحلے",
        -10.331412505923177
      ],
      [
        "▁مقاصد",
        -10.331980621781085
      ],
      [
        "▁سہولت",
        -10.33199578232907
      ],
      [
        "▁مرض",
        -10.333561576347602
      ],
      [
        "عبد",
        -10.333577208031116
      ],
      [
        "▁تمل",
        -10.334107164714053
      ],
      [
        "▁98",
        -10.334245476940502
      ],
      [
        "▁تاسیساتویکی",
        -10.334266187810428
      ],
      [
        "1943",
        -10.334381107846532
      ],
      [
        "اللہ",
        -10.33475427195653
      ],
      [
        "▁میٹروپولیٹن",
        -10.334777105113332
      ],
      [
        "جس",
        -10.334919976139062
      ],
      [
        "ہار",
        -10.335119945810597
      ],
      [
        "▁حاکم",
        -10.335374749454465
      ],
      [
        "▁گری",
        -10.335827385542824
      ],
      [
        "▁فلسفہ",
        -10.335852829685908
      ],
      [
        "▁ریٹائر",
        -10.3359321296855
      ],
      [
        "▁منی",
        -10.336221566737215
      ],
      [
        "ھو",
        -10.336261203497124
      ],
      [
        "بیرون",
        -10.336788237729603
      ],
      [
        "▁چاندی",
        -10.337120194637377
      ],
      [
        "▁عشق",
        -10.337476166237854
      ],
      [
        "▁شاگرد",
        -10.337560352638384
      ],
      [
        "▁پڑھنے",
        -10.337739817418788
      ],
      [
        "ur",
        -10.338699451205812
      ],
      [
        "▁ارد",
        -10.339166707343228
      ],
      [
        "▁رکھی۔",
        -10.33920311075201
      ],
      [
        "▁ترمیم",
        -10.339292978817038
      ],
      [
        "▁آفس",
        -10.339352490713459
      ],
      [
        "مع",
        -10.339562400298618
      ],
      [
        "▁بمبئی",
        -10.340322363073582
      ],
      [
        "▁گیر",
        -10.341105544622518
      ],
      [
        "▁ڈرا",
        -10.341945200775445
      ],
      [
        "▁معاملہ",
        -10.34214057335603
      ],
      [
        "▁خراسان",
        -10.342514220342256
      ],
      [
        "▁الاسلام",
        -10.34253047082031
      ],
      [
        "▁صنعتی",
        -10.342663337083433
      ],
      [
        "▁دکھایا",
        -10.342719984569044
      ],
      [
        "é",
        -10.343512760546599
      ],
      [
        "▁معاملے",
        -10.344375882937697
      ],
      [
        "▁دیہی",
        -10.344424140574786
      ],
      [
        "بان",
        -10.344902911660917
      ],
      [
        "▁رقص",
        -10.344939758536064
      ],
      [
        "▁قادری",
        -10.345792978054735
      ],
      [
        "▁منڈی",
        -10.346870514686437
      ],
      [
        "▁پڑھ",
        -10.347007028558519
      ],
      [
        "فرانسیسی",
        -10.347699884883191
      ],
      [
        "▁خیالات",
        -10.348912818383035
      ],
      [
        "ڑھ",
        -10.349160107663433
      ],
      [
        "▁محروم",
        -10.35050669014202
      ],
      [
        "▁مینار",
        -10.350731395213426
      ],
      [
        "▁خاندانی",
        -10.351511135745003
      ],
      [
        "▁ڈو",
        -10.351955307750298
      ],
      [
        "یرا",
        -10.352107316420263
      ],
      [
        "▁ٹرین",
        -10.352205178230447
      ],
      [
        "▁استنبول",
        -10.352385474852653
      ],
      [
        "▁وسائل",
        -10.352399488548427
      ],
      [
        "▁میزبانی",
        -10.35240737369988
      ],
      [
        "▁سوچ",
        -10.353197276858497
      ],
      [
        "▁دیہات",
        -10.353934052536138
      ],
      [
        "▁ایٹ",
        -10.35424287420987
      ],
      [
        "ریا",
        -10.354295163405409
      ],
      [
        "▁مداخلت",
        -10.354714983928167
      ],
      [
        "▁حزب",
        -10.354715737656155
      ],
      [
        "▁آندھرا",
        -10.35640345439364
      ],
      [
        "▁ایڈیٹر",
        -10.357782392295459
      ],
      [
        "یئر",
        -10.358013288776675
      ],
      [
        "▁صفحہ",
        -10.35820079439016
      ],
      [
        "ترکی",
        -10.359473638577509
      ],
      [
        "▁فل",
        -10.360025922280713
      ],
      [
        "▁مشورہ",
        -10.36196390102875
      ],
      [
        "▁تی",
        -10.362144416812486
      ],
      [
        "دوسری",
        -10.363091172023468
      ],
      [
        "▁مرکوز",
        -10.363452248820813
      ],
      [
        "▁منافع",
        -10.363578466715733
      ],
      [
        "▁قبائلی",
        -10.363649894316481
      ],
      [
        "▁مقابلوں",
        -10.36373895025083
      ],
      [
        "جنگ",
        -10.364268979663308
      ],
      [
        "▁کالونی",
        -10.364455796650176
      ],
      [
        "▁بنے۔",
        -10.364521268231162
      ],
      [
        "▁لگے۔",
        -10.364571545872852
      ],
      [
        "رگ",
        -10.365281969159962
      ],
      [
        "▁اسپین",
        -10.3654131345833
      ],
      [
        "▁سوا",
        -10.365481514690302
      ],
      [
        "مت",
        -10.365877999101109
      ],
      [
        "مقالے",
        -10.365901680545221
      ],
      [
        "ایشیائی",
        -10.365902895223536
      ],
      [
        "▁بولنگ",
        -10.366959871173599
      ],
      [
        "▁کلاسیکی",
        -10.367057156221932
      ],
      [
        "▁آمدنی",
        -10.367345954965183
      ],
      [
        "▁انصاری",
        -10.368405826604693
      ],
      [
        "▁نبوت",
        -10.369423332998538
      ],
      [
        "▁پایہ",
        -10.369728664600313
      ],
      [
        "سینٹ",
        -10.36982664298706
      ],
      [
        "▁مقدمہ",
        -10.370105188912945
      ],
      [
        "▁پڑتا",
        -10.370586209993757
      ],
      [
        "▁فلسفی",
        -10.370749817076547
      ],
      [
        "ولادت",
        -10.371688967592824
      ],
      [
        "▁یوگنڈا",
        -10.371722382172372
      ],
      [
        "▁کابینہ",
        -10.37178679307693
      ],
      [
        "▁فخر",
        -10.37231430086202
      ],
      [
        "▁آغا",
        -10.372906531803604
      ],
      [
        "▁جمال",
        -10.373458032939268
      ],
      [
        "▁رواج",
        -10.373515745673213
      ],
      [
        "▁سنسکرت",
        -10.373540012761824
      ],
      [
        "▁ایڈ",
        -10.373690175201173
      ],
      [
        "▁1932",
        -10.373716253048695
      ],
      [
        "▁کولوراڈو",
        -10.373740027367672
      ],
      [
        "▁V",
        -10.375249419288863
      ],
      [
        "es",
        -10.375948742199366
      ],
      [
        "▁تصانیف",
        -10.377006302762135
      ],
      [
        "▁ایجوکیشن",
        -10.377627473303505
      ],
      [
        "▁فو",
        -10.378032488770359
      ],
      [
        "▁پہاڑوں",
        -10.378106159569874
      ],
      [
        "پہلی",
        -10.378130534379011
      ],
      [
        "▁فیروز",
        -10.378949816055153
      ],
      [
        "▁دمشق",
        -10.378986311780743
      ],
      [
        "▁شعب",
        -10.379577322612896
      ],
      [
        "▁ہیپلو",
        -10.379998352261728
      ],
      [
        "▁تصوف",
        -10.3800786656364
      ],
      [
        "▁ساتھیوں",
        -10.380085512400996
      ],
      [
        "▁پشتو",
        -10.38050619518992
      ],
      [
        "ural",
        -10.380547962413953
      ],
      [
        "▁متوفی",
        -10.38056577451745
      ],
      [
        "▁میوزک",
        -10.381156354944867
      ],
      [
        "▁400",
        -10.381285292883982
      ],
      [
        "▁مور",
        -10.382013243712667
      ],
      [
        "▁تقریر",
        -10.382080592204364
      ],
      [
        "▁شدت",
        -10.382091259856416
      ],
      [
        "▁کامل",
        -10.38315497532125
      ],
      [
        "▁ٹاپ",
        -10.383600565966168
      ],
      [
        "▁صدیق",
        -10.384805471747356
      ],
      [
        "▁بنانا",
        -10.385026461089295
      ],
      [
        "▁اکیس",
        -10.38518902467432
      ],
      [
        "ma",
        -10.385908560976716
      ],
      [
        "▁63",
        -10.386453709937935
      ],
      [
        "▁سیف",
        -10.38693312764075
      ],
      [
        "▁مشرف",
        -10.387162090331994
      ],
      [
        "▁مارک",
        -10.3871860636443
      ],
      [
        "▁رسالہ",
        -10.387249901696183
      ],
      [
        "▁الحسن",
        -10.387406201905748
      ],
      [
        "▁طاقتور",
        -10.38770073924879
      ],
      [
        "▁گھرانے",
        -10.387994274868237
      ],
      [
        "▁رکھنا",
        -10.388312849294962
      ],
      [
        "▁گروہوں",
        -10.388450683981103
      ],
      [
        "▁سرگرم",
        -10.388611075292644
      ],
      [
        "▁ریسرچ",
        -10.388934188382638
      ],
      [
        "▁ہارون",
        -10.38963057281758
      ],
      [
        "▁میٹرو",
        -10.390529026402444
      ],
      [
        "DNA",
        -10.390732734854975
      ],
      [
        "▁عقیدہ",
        -10.390780780867987
      ],
      [
        "▁پیری",
        -10.392201089363002
      ],
      [
        "ابی",
        -10.392217686548378
      ],
      [
        "▁چودہ",
        -10.393225410476976
      ],
      [
        "▁وکیل",
        -10.3935163653586
      ],
      [
        "▁وزرائے",
        -10.393701966944914
      ],
      [
        "▁کلی",
        -10.393756483301964
      ],
      [
        "▁تبلیغ",
        -10.39444228320972
      ],
      [
        "ممبئی",
        -10.394903841622195
      ],
      [
        "▁اشرف",
        -10.395159131468835
      ],
      [
        "▁اہلکار",
        -10.395827880102647
      ],
      [
        "▁معاشیات",
        -10.39694916700483
      ],
      [
        "▁لکڑی",
        -10.397117410502103
      ],
      [
        "▁جوہر",
        -10.397599068758193
      ],
      [
        "▁بحریہ",
        -10.397994479055228
      ],
      [
        "▁محلہ",
        -10.39811389811354
      ],
      [
        "زر",
        -10.398540643462379
      ],
      [
        "▁سنبھال",
        -10.398542622536642
      ],
      [
        "▁سیکرٹری",
        -10.398698097446228
      ],
      [
        "▁فعال",
        -10.39918725624477
      ],
      [
        "▁مجمع",
        -10.399258949056989
      ],
      [
        "▁گرما",
        -10.399589729262425
      ],
      [
        "▁1929",
        -10.399614103641213
      ],
      [
        "▁محاذ",
        -10.399786514358194
      ],
      [
        "▁صحافت",
        -10.399787177277236
      ],
      [
        "us",
        -10.400055204387359
      ],
      [
        "▁پارلیمان",
        -10.40012020820456
      ],
      [
        "▁سترہ",
        -10.400370940994208
      ],
      [
        "▁مہمان",
        -10.400404206746476
      ],
      [
        "▁مورخین",
        -10.400412390978978
      ],
      [
        "▁بحال",
        -10.400854167462438
      ],
      [
        "▁رمضان",
        -10.401949730034845
      ],
      [
        "▁بھائیوں",
        -10.402040333520294
      ],
      [
        "▁فضائی",
        -10.402086089657994
      ],
      [
        "▁کرلی",
        -10.402275407876683
      ],
      [
        "▁گریجویشن",
        -10.402823979794368
      ],
      [
        "نگٹن",
        -10.402965662229008
      ],
      [
        "▁محافظہ",
        -10.40304585495047
      ],
      [
        "▁بچہ",
        -10.403236320259538
      ],
      [
        "▁منزل",
        -10.403312765078585
      ],
      [
        "▁تباہی",
        -10.403340386794172
      ],
      [
        "▁تالیف",
        -10.403616047805038
      ],
      [
        "▁ناتھ",
        -10.404095062156893
      ],
      [
        "▁1933",
        -10.40416978710558
      ],
      [
        "▁بہاولپور",
        -10.404913157245726
      ],
      [
        "▁گولی",
        -10.405191241951464
      ],
      [
        "▁فاؤنڈیشن",
        -10.405268021325597
      ],
      [
        "▁جہاد",
        -10.405361285410486
      ],
      [
        "▁قابو",
        -10.40537996351445
      ],
      [
        "ڈیل",
        -10.405467583204626
      ],
      [
        "▁وقف",
        -10.40562403646208
      ],
      [
        "▁باری",
        -10.406306009298063
      ],
      [
        "▁محدث",
        -10.406845618035348
      ],
      [
        "ایران",
        -10.406875341359942
      ],
      [
        "▁سفارت",
        -10.406981377029876
      ],
      [
        "▁منصور",
        -10.407063479905581
      ],
      [
        "▁ائیر",
        -10.407098716412827
      ],
      [
        "▁قریش",
        -10.407194920115552
      ],
      [
        "▁ادائیگی",
        -10.40770158428693
      ],
      [
        "سٹن",
        -10.40772117740715
      ],
      [
        "▁مسترد",
        -10.407778166517055
      ],
      [
        "▁صالح",
        -10.407964794362261
      ],
      [
        "▁کرد",
        -10.40808554828631
      ],
      [
        "na",
        -10.408185397436629
      ],
      [
        "▁شرف",
        -10.409473055821334
      ],
      [
        "▁جج",
        -10.410661831238542
      ],
      [
        "▁پلیٹ",
        -10.410778456720726
      ],
      [
        "▁میچز",
        -10.41171212572651
      ],
      [
        "▁پچاس",
        -10.41178647706348
      ],
      [
        "▁اشیاء",
        -10.412652840878327
      ],
      [
        "لنگ",
        -10.412912654966739
      ],
      [
        "▁آرام",
        -10.413077474967086
      ],
      [
        "▁مساوات",
        -10.413221791708828
      ],
      [
        "▁آدم",
        -10.414064751594955
      ],
      [
        "▁معیاری",
        -10.414142533207375
      ],
      [
        "▁سافٹ",
        -10.414182039159051
      ],
      [
        "▁زرعی",
        -10.41539776696482
      ],
      [
        "▁1934",
        -10.415674676233955
      ],
      [
        "▁چالیس",
        -10.416010657251348
      ],
      [
        "▁شراب",
        -10.416733191420855
      ],
      [
        "▁کہنے",
        -10.417955925022312
      ],
      [
        "▁سیاح",
        -10.418021538930905
      ],
      [
        "▁ٹائم",
        -10.418170038363236
      ],
      [
        "▁شیو",
        -10.418802592829577
      ],
      [
        "▁وجوہات",
        -10.41885386892293
      ],
      [
        "▁اٹک",
        -10.419233401364053
      ],
      [
        "▁بحران",
        -10.419872053205264
      ],
      [
        "یلی",
        -10.420046377987722
      ],
      [
        "▁ہے۔تاریخ",
        -10.420994171503985
      ],
      [
        "▁وعدہ",
        -10.42108579478953
      ],
      [
        "▁مذاہب",
        -10.421095479771264
      ],
      [
        "انڈیانا",
        -10.421706465947803
      ],
      [
        "▁کھڑا",
        -10.42198289973176
      ],
      [
        "▁1931",
        -10.422322310253595
      ],
      [
        "▁چی",
        -10.422686234485658
      ],
      [
        "la",
        -10.422698064200548
      ],
      [
        "▁کھ",
        -10.423688385859895
      ],
      [
        "▁فارغ",
        -10.423792976700772
      ],
      [
        "▁آکر",
        -10.423815985386373
      ],
      [
        "▁راؤ",
        -10.424803228068566
      ],
      [
        "▁بڑھتی",
        -10.425002051673326
      ],
      [
        "▁کیچ",
        -10.425341728936651
      ],
      [
        "▁چو",
        -10.425636127504077
      ],
      [
        "▁نیدرلینڈز",
        -10.426046920510224
      ],
      [
        "▁گوئی",
        -10.426157420954699
      ],
      [
        "▁عین",
        -10.426170963025616
      ],
      [
        "▁رحمہ",
        -10.426682415399771
      ],
      [
        "▁نیک",
        -10.426840966948028
      ],
      [
[...]
