{
  "version": "1.0",
  "truncation": null,
  "padding": null,
  "added_tokens": [
    {
      "id": 0,
      "content": "[PAD]",
      "single_word": false,
      "lstrip": false,
      "rstrip": false,
      "normalized": false,
      "special": true
    },
    {
      "id": 1,
      "content": "[BOS]",
      "single_word": false,
      "lstrip": false,
      "rstrip": false,
      "normalized": false,
      "special": true
    },
    {
      "id": 2,
      "content": "[EOS]",
      "single_word": false,
      "lstrip": false,
      "rstrip": false,
      "normalized": false,
      "special": true
    },
    {
      "id": 3,
      "content": "[MASK]",
      "single_word": false,
      "lstrip": false,
      "rstrip": false,
      "normalized": false,
      "special": true
    },
    {
      "id": 4,
      "content": "[SEP]",
      "single_word": false,
      "lstrip": false,
      "rstrip": false,
      "normalized": false,
      "special": true
    },
    {
      "id": 5,
      "content": "[CLS]",
      "single_word": false,
      "lstrip": false,
      "rstrip": false,
      "normalized": false,
      "special": true
    },
    {
      "id": 6,
      "content": "[UNK]",
      "single_word": false,
      "lstrip": false,
      "rstrip": false,
      "normalized": false,
      "special": true
    }
  ],
  "normalizer": {
    "type": "NFKC"
  },
  "pre_tokenizer": {
    "type": "Sequence",
    "pretokenizers": [
      {
        "type": "UnicodeScripts"
      },
      {
        "type": "Digits",
        "individual_digits": false
      },
      {
        "type": "Metaspace",
        "replacement": "▁",
        "add_prefix_space": true
      }
    ]
  },
  "post_processor": null,
  "decoder": {
    "type": "Metaspace",
    "replacement": "▁",
    "add_prefix_space": true
  },
  "model": {
    "type": "Unigram",
    "unk_id": null,
    "vocab": [
      [
        "[PAD]",
        0.0
      ],
      [
        "[BOS]",
        0.0
      ],
      [
        "[EOS]",
        0.0
      ],
      [
        "[MASK]",
        0.0
      ],
      [
        "[SEP]",
        0.0
      ],
      [
        "[CLS]",
        0.0
      ],
      [
        "[UNK]",
        0.0
      ],
      [
        "▁",
        -1.784124403720515
      ],
      [
        ".",
        -3.6770248205560385
      ],
      [
        "e",
        -3.691169545269508
      ],
      [
        "s",
        -3.868383428416294
      ],
      [
        ",",
        -3.9019310593021768
      ],
      [
        "▁di",
        -3.9340156658863723
      ],
      [
        "▁for",
        -3.950884344994183
      ],
      [
        "▁wey",
        -4.184429751980275
      ],
      [
        "▁dey",
        -4.26433828227993
      ],
      [
        "a",
        -4.455090432328909
      ],
      [
        "▁an",
        -4.543242609858234
      ],
      [
        "▁of",
        -4.580346268577346
      ],
      [
        "▁na",
        -4.793936962610136
      ],
      [
        "y",
        -4.83078796244938
      ],
      [
        "▁dem",
        -4.873042245413014
      ],
      [
        "l",
        -4.983166622537087
      ],
      [
        "i",
        -5.049013701956792
      ],
      [
        "t",
        -5.113653440488621
      ],
      [
        "▁bi",
        -5.119916260644526
      ],
      [
        "▁am",
        -5.266478550716059
      ],
      [
        "▁to",
        -5.278001173258101
      ],
      [
        "r",
        -5.337302881847945
      ],
      [
        "▁go",
        -5.343566701495188
      ],
      [
        "n",
        -5.344861290797981
      ],
      [
        "o",
        -5.391890814578185
      ],
      [
        "▁E",
        -5.436413226760954
      ],
      [
        "-",
        -5.487066187385715
      ],
      [
        "▁\"",
        -5.507340055694612
      ],
      [
        "▁in",
        -5.633227294498104
      ],
      [
        "on",
        -5.63586993458529
      ],
      [
        "▁kom",
        -5.6475515259694795
      ],
      [
        "in",
        -5.6703960016218735
      ],
      [
        "▁(",
        -5.680538765395698
      ],
      [
        "▁im",
        -5.693681569019912
      ],
      [
        "er",
        -5.71487428244884
      ],
      [
        "d",
        -5.733037012029742
      ],
      [
        "▁no",
        -5.733729878411541
      ],
      [
        "u",
        -5.7584076611498505
      ],
      [
        "▁and",
        -5.762870032284814
      ],
      [
        "▁201",
        -5.763868626508549
      ],
      [
        "▁Na",
        -5.780389642497133
      ],
      [
        "▁one",
        -5.782913391068067
      ],
      [
        "▁)",
        -5.78563836486093
      ],
      [
        "an",
        -5.791220294634416
      ],
      [
        "▁as",
        -5.8017964645392235
      ],
      [
        "▁get",
        -5.8550962564538755
      ],
      [
        "▁pipul",
        -5.873241640549991
      ],
      [
        "▁don",
        -5.874884758978402
      ],
      [
        "k",
        -5.9209073095729705
      ],
      [
        "▁Di",
        -5.943860934473545
      ],
      [
        "▁sey",
        -5.947881087447522
      ],
      [
        "p",
        -5.964901103316689
      ],
      [
        "▁mek",
        -5.994049114273637
      ],
      [
        "▁Naija",
        -6.022354343295037
      ],
      [
        "▁bon",
        -6.027661638650774
      ],
      [
        "ri",
        -6.077653105056567
      ],
      [
        "f",
        -6.140781362497628
      ],
      [
        "al",
        -6.145292493394193
      ],
      [
        "▁shi",
        -6.161833679170295
      ],
      [
        "▁du",
        -6.16732507517704
      ],
      [
        "▁tok",
        -6.191714830463778
      ],
      [
        "▁For",
        -6.195545610507666
      ],
      [
        "3",
        -6.222503145364546
      ],
      [
        "▁wel",
        -6.231280718152336
      ],
      [
        "1",
        -6.250354114447851
      ],
      [
        "▁I",
        -6.258029777696054
      ],
      [
        "m",
        -6.268459248711164
      ],
      [
        "▁wit",
        -6.281623446447759
      ],
      [
        "▁fim",
        -6.2891491681734735
      ],
      [
        "9",
        -6.325756504754997
      ],
      [
        "g",
        -6.334754046157328
      ],
      [
        "ing",
        -6.345852817073661
      ],
      [
        "5",
        -6.365358448340768
      ],
      [
        "▁A",
        -6.369526810723832
      ],
      [
        "2",
        -6.373311068942364
      ],
      [
        "8",
        -6.393002375161011
      ],
      [
        "▁fo",
        -6.394093637785081
      ],
      [
        "h",
        -6.400829523753015
      ],
      [
        "▁wok",
        -6.4152225999740145
      ],
      [
        "re",
        -6.423379256522013
      ],
      [
        "▁pesin",
        -6.437821687443195
      ],
      [
        "0",
        -6.454079715285177
      ],
      [
        "▁wen",
        -6.474507028797836
      ],
      [
        "7",
        -6.480488690231431
      ],
      [
        "▁200",
        -6.481985448593141
      ],
      [
        "▁from",
        -6.4886932914882225
      ],
      [
        "ch",
        -6.51573646131222
      ],
      [
        "▁S",
        -6.519150346784174
      ],
      [
        "▁nem",
        -6.528546826954332
      ],
      [
        "b",
        -6.532151513349994
      ],
      [
        "c",
        -6.534133612229029
      ],
      [
        "▁tek",
        -6.5376883208481225
      ],
      [
        "6",
        -6.540831110675126
      ],
      [
        "▁stat",
        -6.550455409017334
      ],
      [
        "▁Stet",
        -6.561225805647352
      ],
      [
        "▁Dem",
        -6.561273971158436
      ],
      [
        "▁de",
        -6.579267955828407
      ],
      [
        "▁'",
        -6.607337880852799
      ],
      [
        "▁P",
        -6.6280466778206115
      ],
      [
        "di",
        -6.631527969790566
      ],
      [
        "la",
        -6.641674837336173
      ],
      [
        "▁stil",
        -6.649525720239226
      ],
      [
        "▁win",
        -6.653238939249261
      ],
      [
        "▁year",
        -6.654425104389128
      ],
      [
        "ra",
        -6.66962844787753
      ],
      [
        "en",
        -6.678214367997974
      ],
      [
        "▁the",
        -6.679279107906994
      ],
      [
        "▁C",
        -6.686168428297042
      ],
      [
        "▁fom",
        -6.693578994570542
      ],
      [
        "z",
        -6.701269367769935
      ],
      [
        "▁ha",
        -6.70249644148659
      ],
      [
        "ta",
        -6.704949214149466
      ],
      [
        "▁fest",
        -6.719147436331449
      ],
      [
        "▁199",
        -6.720166292534341
      ],
      [
        "or",
        -6.744100029780428
      ],
      [
        "▁do",
        -6.755049656545908
      ],
      [
        "▁skul",
        -6.766386760956301
      ],
      [
        "ma",
        -6.778432257745173
      ],
      [
        "▁K",
        -6.779458089680948
      ],
      [
        "4",
        -6.781691731460052
      ],
      [
        "le",
        -6.790090191999075
      ],
      [
        "▁fit",
        -6.799476278376706
      ],
      [
        "▁kol",
        -6.808343988298335
      ],
      [
        "▁T",
        -6.811208140112568
      ],
      [
        "st",
        -6.814353107231703
      ],
      [
        "▁Naijá",
        -6.819044421475505
      ],
      [
        "▁inside",
        -6.8289766832553935
      ],
      [
        "de",
        -6.830111291062482
      ],
      [
        "et",
        -6.830461052241472
      ],
      [
        "▁N",
        -6.845761480572283
      ],
      [
        "▁198",
        -6.847834736753147
      ],
      [
        "w",
        -6.8586823201877865
      ],
      [
        "▁B",
        -6.862399550444693
      ],
      [
        "▁dat",
        -6.862585474070272
      ],
      [
        "▁song",
        -6.867651378453884
      ],
      [
        "▁bikos",
        -6.8707593190038345
      ],
      [
        "▁pikin",
        -6.874897895519916
      ],
      [
        "▁G",
        -6.896143527884737
      ],
      [
        "▁sabi",
        -6.904621441153027
      ],
      [
        "▁dia",
        -6.9101870512149794
      ],
      [
        "▁akt",
        -6.92344592211338
      ],
      [
        "▁O",
        -6.928269009114169
      ],
      [
        "da",
        -6.934883614103694
      ],
      [
        "nt",
        -6.935862600982121
      ],
      [
        "▁Nigeria",
        -6.941384977814461
      ],
      [
        "ot",
        -6.946213578626533
      ],
      [
        "ro",
        -6.94691350655903
      ],
      [
        "na",
        -6.950669618045281
      ],
      [
        "▁Shi",
        -6.961806229846028
      ],
      [
        "ka",
        -6.965554519863991
      ],
      [
        "▁pipu",
        -6.984651084451435
      ],
      [
        "▁bifor",
        -6.988674392012444
      ],
      [
        "▁202",
        -6.992552400890814
      ],
      [
        "▁State",
        -7.004024744576185
      ],
      [
        "▁In",
        -7.009813680963995
      ],
      [
        "A",
        -7.043773332825287
      ],
      [
        "ke",
        -7.044617798719781
      ],
      [
        "un",
        -7.050029160266909
      ],
      [
        "▁be",
        -7.051197080764812
      ],
      [
        "bo",
        -7.05506915285836
      ],
      [
        "▁wan",
        -7.071940925181609
      ],
      [
        "ment",
        -7.072294694616262
      ],
      [
        "▁papa",
        -7.0748179960309505
      ],
      [
        "mi",
        -7.099739239998989
      ],
      [
        "wa",
        -7.107241324994013
      ],
      [
        "▁join",
        -7.114019641532885
      ],
      [
        "li",
        -7.121884710028378
      ],
      [
        "like",
        -7.121947557376312
      ],
      [
        "▁plenti",
        -7.127086965376809
      ],
      [
        "▁insaid",
        -7.129151500618171
      ],
      [
        "▁kon",
        -7.141776179183845
      ],
      [
        "ba",
        -7.143451827522582
      ],
      [
        "▁yuz",
        -7.152150863885161
      ],
      [
        "es",
        -7.158165756498065
      ],
      [
        "th",
        -7.178639349260885
      ],
      [
        "▁Wen",
        -7.179801812451657
      ],
      [
        "▁197",
        -7.1817533848411985
      ],
      [
        "▁Co",
        -7.18351871366454
      ],
      [
        "▁time",
        -7.194727342848147
      ],
      [
        "j",
        -7.196102106963608
      ],
      [
        "▁tins",
        -7.199414555883963
      ],
      [
        "and",
        -7.208785243781272
      ],
      [
        "ni",
        -7.209299731193483
      ],
      [
        "▁rait",
        -7.221362148329391
      ],
      [
        "▁smo",
        -7.222333388277659
      ],
      [
        "ce",
        -7.238602985397415
      ],
      [
        "ti",
        -7.242328344318633
      ],
      [
        "▁Ka",
        -7.244897658145899
      ],
      [
        "od",
        -7.2479112274273785
      ],
      [
        "▁196",
        -7.259689152085305
      ],
      [
        "bi",
        -7.263539334685813
      ],
      [
        "▁University",
        -7.267830878127867
      ],
      [
        "ish",
        -7.2691063992726255
      ],
      [
        "▁M",
        -7.288209053401702
      ],
      [
        "▁W",
        -7.289110916820632
      ],
      [
        "▁U",
        -7.293557555116297
      ],
      [
        "ola",
        -7.296048460217162
      ],
      [
        "lo",
        -7.297142631153208
      ],
      [
        "▁Im",
        -7.299885993975073
      ],
      [
        "▁abaut",
        -7.303488924223866
      ],
      [
        "▁Lego",
        -7.303660461585498
      ],
      [
        "▁meni",
        -7.310208261195668
      ],
      [
        "▁F",
        -7.315214393953615
      ],
      [
        "▁enta",
        -7.323237666498769
      ],
      [
        "ion",
        -7.328985863725938
      ],
      [
        "ji",
        -7.33003750384975
      ],
      [
        "▁Ade",
        -7.330370788160426
      ],
      [
        "▁Afrika",
        -7.331090136894214
      ],
      [
        "▁D",
        -7.331361744753117
      ],
      [
        "pe",
        -7.331409644464978
      ],
      [
        "▁two",
        -7.360027952928739
      ],
      [
        "▁mam",
        -7.361712573956946
      ],
      [
        "▁The",
        -7.361959730745934
      ],
      [
        "v",
        -7.362089361187543
      ],
      [
        "to",
        -7.3627704236891285
      ],
      [
        "is",
        -7.365168219624036
      ],
      [
        "us",
        -7.36733025846376
      ],
      [
        "▁sho",
        -7.3691562525794
      ],
      [
        "▁sing",
        -7.370865109898065
      ],
      [
        "▁pley",
        -7.373325953375089
      ],
      [
        "ar",
        -7.373783957351661
      ],
      [
        "▁Lagos",
        -7.37887708035259
      ],
      [
        "du",
        -7.383451872970738
      ],
      [
        "▁rish",
        -7.390100101561093
      ],
      [
        "vi",
        -7.395252213139906
      ],
      [
        "pa",
        -7.40270410801894
      ],
      [
        "▁Mar",
        -7.404278300986544
      ],
      [
        "▁so",
        -7.404963656942967
      ],
      [
        "▁Ma",
        -7.405269875261444
      ],
      [
        "▁afta",
        -7.418817499879921
      ],
      [
        "▁som",
        -7.422098698977536
      ],
      [
        "te",
        -7.422777336521192
      ],
      [
        "▁muzik",
        -7.442864768130612
      ],
      [
        "oda",
        -7.444352437839468
      ],
      [
        "ed",
        -7.448658336928452
      ],
      [
        "▁how",
        -7.4487638600980075
      ],
      [
        "▁difren",
        -7.456900694054073
      ],
      [
        "shon",
        -7.458184720544948
      ],
      [
        "ian",
        -7.461862932695541
      ],
      [
        "▁:",
        -7.462923926697174
      ],
      [
        "at",
        -7.467953619575197
      ],
      [
        "▁with",
        -7.477136317427355
      ],
      [
        "ur",
        -7.477381535195933
      ],
      [
        "▁rilis",
        -7.480867369101844
      ],
      [
        "▁).",
        -7.483680442337134
      ],
      [
        "ko",
        -7.488246836902461
      ],
      [
        "do",
        -7.490641623509959
      ],
      [
        "we",
        -7.502958853514062
      ],
      [
        "▁pass",
        -7.503147520001354
      ],
      [
        "ia",
        -7.519767529402107
      ],
      [
        "mo",
        -7.521555117774403
      ],
      [
        "▁La",
        -7.524524212050135
      ],
      [
        "va",
        -7.5261598894854265
      ],
      [
        "ga",
        -7.526985730704838
      ],
      [
        "▁On",
        -7.528333491437687
      ],
      [
        "it",
        -7.535460631600322
      ],
      [
        "▁kolet",
        -7.540276958265519
      ],
      [
        "bu",
        -7.5420497573087335
      ],
      [
        "x",
        -7.545964194859493
      ],
      [
        "▁dis",
        -7.552004671924808
      ],
      [
        "finish",
        -7.553081069436354
      ],
      [
        "▁leta",
        -7.558119891902837
      ],
      [
        "▁kpa",
        -7.560109277516769
      ],
      [
        "▁moni",
        -7.593322438266913
      ],
      [
        "ir",
        -7.598079887215884
      ],
      [
        "▁rekod",
        -7.61309062347504
      ],
      [
        "▁pipo",
        -7.613135655200533
      ],
      [
        "land",
        -7.6153477749104805
      ],
      [
        "▁buk",
        -7.621859409836972
      ],
      [
        "be",
        -7.628132353228244
      ],
      [
        "▁giv",
        -7.628612708511108
      ],
      [
        "▁Afta",
        -7.633930219228805
      ],
      [
        "hi",
        -7.641218742528622
      ],
      [
        "▁say",
        -7.64305745901942
      ],
      [
        "▁V",
        -7.648639521740812
      ],
      [
        "ve",
        -7.651229764346557
      ],
      [
        "▁Pipul",
        -7.655148145242878
      ],
      [
        "▁sekond",
        -7.659507425968698
      ],
      [
        "▁big",
        -7.671924023967432
      ],
      [
        "▁oda",
        -7.676270976410873
      ],
      [
        "▁but",
        -7.678335828760285
      ],
      [
        "▁kontri",
        -7.681367140316625
      ],
      [
        "▁May",
        -7.687740100125323
      ],
      [
        "▁chenj",
        -7.699160748121891
      ],
      [
        "▁Abi",
        -7.699708576385234
      ],
      [
        "ent",
        -7.7031240931704215
      ],
      [
        "ku",
        -7.706338649378152
      ],
      [
        "kom",
        -7.710865551129868
      ],
      [
        "▁pat",
        -7.712994031617522
      ],
      [
        "mba",
        -7.715413501716567
      ],
      [
        "▁Jul",
        -7.7159575477937885
      ],
      [
        "▁An",
        -7.721825818457909
      ],
      [
        "▁2020",
        -7.7297921294454754
      ],
      [
        "ki",
        -7.733315288888709
      ],
      [
        "om",
        -7.736855245426677
      ],
      [
        "ja",
        -7.73952848249651
      ],
      [
        "▁famili",
        -7.741598805821773
      ],
      [
        "ly",
        -7.741697290705699
      ],
      [
        "me",
        -7.742618721173821
      ],
      [
        "▁Africa",
        -7.744354096295561
      ],
      [
        "E",
        -7.750671910174121
      ],
      [
        "▁H",
        -7.760270852077753
      ],
      [
        "▁stodi",
        -7.764160986896195
      ],
      [
        "fi",
        -7.767544693548186
      ],
      [
        "▁Octob",
        -7.76895574200325
      ],
      [
        "▁bodi",
        -7.774141535293646
      ],
      [
        "sh",
        -7.777806697691476
      ],
      [
        "as",
        -7.778334645590603
      ],
      [
        "▁195",
        -7.784716935719598
      ],
      [
        "don",
        -7.787315435630233
      ],
      [
        "S",
        -7.788862275032063
      ],
      [
        "▁Yunivasiti",
        -7.793371960190916
      ],
      [
        "▁way",
        -7.7965222308431015
      ],
      [
        "▁Re",
        -7.802725309969878
      ],
      [
        "▁old",
        -7.80860769079091
      ],
      [
        "ru",
        -7.8111978676550065
      ],
      [
        "son",
        -7.812647454292505
      ],
      [
        "▁As",
        -7.8165071511504465
      ],
      [
        "▁langwej",
        -7.818397734677398
      ],
      [
        "ha",
        -7.819912332225779
      ],
      [
        "▁Ben",
        -7.820788254393869
      ],
      [
        "ist",
        -7.824797983862313
      ],
      [
        "▁we",
        -7.826778174560106
      ],
      [
        "po",
        -7.831586208498707
      ],
      [
        "▁kari",
        -7.838621669971376
      ],
      [
        "▁bot",
        -7.838944678783902
      ],
      [
        "▁folo",
        -7.839105845205936
      ],
      [
        "▁wuma",
        -7.842658500719643
      ],
      [
        "▁School",
        -7.843990767739108
      ],
      [
        "▁Mo",
        -7.849387616544355
      ],
      [
        "▁oga",
        -7.850314202689096
      ],
      [
        "em",
        -7.852988494094078
      ],
      [
        "▁Apri",
        -7.860308565306577
      ],
      [
        "▁wetin",
        -7.8610274255700885
      ],
      [
        "man",
        -7.861150666718741
      ],
      [
        "▁or",
        -7.861568399310588
      ],
      [
        "▁Da",
        -7.861952454065591
      ],
      [
        "ju",
        -7.866514892241754
      ],
      [
        "▁re",
        -7.8751569702891935
      ],
      [
        "▁at",
        -7.8751939473480155
      ],
      [
        "▁grup",
        -7.886438832454032
      ],
      [
        "▁popula",
        -7.892906185664327
      ],
      [
        "▁Januar",
        -7.897336876278203
      ],
      [
        "C",
        -7.900128100822497
      ],
      [
        "▁Novemb",
        -7.902837664237817
      ],
      [
        "am",
        -7.907431647179706
      ],
      [
        "▁Jun",
        -7.912000545152284
      ],
      [
        "▁ples",
        -7.912347283094162
      ],
      [
        "ck",
        -7.913093398044318
      ],
      [
        "▁Septemb",
        -7.913911564661788
      ],
      [
        "▁awod",
        -7.913921462559733
      ],
      [
        "go",
        -7.916396015051799
      ],
      [
        "▁man",
        -7.917685198967964
      ],
      [
        "if",
        -7.917850414111436
      ],
      [
        "ho",
        -7.919734181548602
      ],
      [
        "ge",
        -7.923288195542932
      ],
      [
        "▁2014",
        -7.923739042473224
      ],
      [
        "▁pas",
        -7.925663272925125
      ],
      [
        "O",
        -7.928442037547314
      ],
      [
        "bom",
        -7.928960994148193
      ],
      [
        "▁St",
        -7.93413223393365
      ],
      [
        "tin",
        -7.934767023641859
      ],
      [
        "pi",
        -7.944875360624828
      ],
      [
        "▁J",
        -7.946892135486526
      ],
      [
        "▁Ro",
        -7.948360093132149
      ],
      [
        "▁rid",
        -7.948661376358478
      ],
      [
        "▁put",
        -7.949390672757942
      ],
      [
        "▁August",
        -7.953689402428355
      ],
      [
        "hep",
        -7.9563748612330825
      ],
      [
        "▁18",
        -7.96354550184331
      ],
      [
        "▁play",
        -7.976880721290195
      ],
      [
        "▁stet",
        -7.981488695464305
      ],
      [
        "▁Ba",
        -7.982164058461628
      ],
      [
        "ver",
        -7.98534853213486
      ],
      [
        "▁singa",
        -7.988597482582454
      ],
      [
        "end",
        -7.99265986013469
      ],
      [
        "▁bin",
        -7.998557815400216
      ],
      [
        "wo",
        -7.99992892094866
      ],
      [
        "▁com",
        -8.004674043970844
      ],
      [
        "▁New",
        -8.007362750705084
      ],
      [
        "▁Le",
        -8.007627800674866
      ],
      [
        "ci",
        -8.01101620813759
      ],
      [
        "ca",
        -8.01277892224055
      ],
      [
        "ic",
        -8.017380399118174
      ],
      [
        "im",
        -8.023388323404891
      ],
      [
        "▁Ibad",
        -8.025823648598474
      ],
      [
        "▁Li",
        -8.027983858282816
      ],
      [
        "▁L",
        -8.028348772010158
      ],
      [
        "ate",
        -8.028598223477191
      ],
      [
        "▁wota",
        -8.032271229514894
      ],
      [
        "▁onda",
        -8.033950098443146
      ],
      [
        "▁thre",
        -8.040490354738475
      ],
      [
        "ari",
        -8.043241646639672
      ],
      [
        "▁Yoruba",
        -8.044660958326208
      ],
      [
        "▁Ogun",
        -8.046742766245778
      ],
      [
        "▁United",
        -8.05108197789557
      ],
      [
        "▁all",
        -8.05294580793614
      ],
      [
        "co",
        -8.057557003576477
      ],
      [
        "▁bak",
        -8.058591344232088
      ],
      [
        "ubu",
        -8.060812800653725
      ],
      [
        "age",
        -8.06586499516391
      ],
      [
        "tor",
        -8.067959984076463
      ],
      [
        "▁lik",
        -8.070648243555771
      ],
      [
        "llege",
        -8.07067570435201
      ],
      [
        "▁album",
        -8.076923391494535
      ],
      [
        "▁tori",
        -8.077209328881723
      ],
      [
        "▁Bu",
        -8.079343863728768
      ],
      [
        "ation",
        -8.081216591141946
      ],
      [
        "tu",
        -8.082497399587055
      ],
      [
        "ze",
        -8.082732475223823
      ],
      [
        "▁Tin",
        -8.084229574778695
      ],
      [
        "▁mata",
        -8.084276450328478
      ],
      [
        "ry",
        -8.085865537544402
      ],
      [
        "▁up",
        -8.086624369356795
      ],
      [
        "N",
        -8.087266457606264
      ],
      [
        "▁Ak",
        -8.087314544455214
      ],
      [
        "sha",
        -8.087940505481813
      ],
      [
        "▁Decembe",
        -8.090130302343152
      ],
      [
        "▁again",
        -8.097111718930304
      ],
      [
        "▁15",
        -8.098627121178676
      ],
      [
        "il",
        -8.098933522164762
      ],
      [
        "iti",
        -8.103415986362615
      ],
      [
        "▁194",
        -8.104590285450186
      ],
      [
        "T",
        -8.105510728125797
      ],
      [
        "▁Kan",
        -8.109552795126083
      ],
      [
        "▁aktres",
        -8.112659733656567
      ],
      [
        "lu",
        -8.113353629490202
      ],
      [
        "▁loka",
        -8.115051536765911
      ],
      [
        "▁show",
        -8.12019398559157
      ],
      [
        "▁Lon",
        -8.122674417704474
      ],
      [
        "gi",
        -8.124622335514927
      ],
      [
        "▁ova",
        -8.125310760142046
      ],
      [
        "P",
        -8.131321133263173
      ],
      [
        "▁Fo",
        -8.131704907184407
      ],
      [
        "ah",
        -8.138975033911656
      ],
      [
        "▁Feb",
        -8.144680263028722
      ],
      [
        "ive",
        -8.144910730528643
      ],
      [
        "pun",
        -8.145124133706021
      ],
      [
        "▁Edo",
        -8.146080187787371
      ],
      [
        "▁19",
        -8.15132638803362
      ],
      [
        "▁sef",
        -8.151794229881748
      ],
      [
        "▁Dey",
        -8.151901045324012
      ],
      [
        "▁by",
        -8.158465752020039
      ],
      [
        "▁West",
        -8.1593340807587
      ],
      [
        "ruar",
        -8.1604584065497
      ],
      [
        "▁mari",
        -8.161009422718035
      ],
      [
        "▁To",
        -8.164618265063805
      ],
      [
        "▁Nigerian",
        -8.168188231175694
      ],
      [
        "iri",
        -8.169541081664832
      ],
      [
        "nge",
        -8.1696804190791
      ],
      [
        "▁No",
        -8.17341961052737
      ],
      [
        "▁10",
        -8.173440465289499
      ],
      [
        "▁Engl",
        -8.174668036672605
      ],
      [
        "um",
        -8.174725015092417
      ],
      [
        "no",
        -8.176492112579012
      ],
      [
        "▁Baba",
        -8.1797398013486
      ],
      [
        "ers",
        -8.181003271549756
      ],
      [
        "▁Olu",
        -8.181753165359321
      ],
      [
        "▁David",
        -8.187845318308215
      ],
      [
        "▁taim",
        -8.188016060375922
      ],
      [
        "also",
        -8.188538163769959
      ],
      [
        "▁17",
        -8.189554636198178
      ],
      [
        "▁All",
        -8.195295228174164
      ],
      [
        "▁him",
        -8.196024786292835
      ],
      [
        "▁Best",
        -8.196856489306727
      ],
      [
        "▁fa",
        -8.201572315890537
      ],
      [
        "▁Se",
        -8.204667913529999
      ],
      [
        "band",
        -8.208304109178972
      ],
      [
        "▁pro",
        -8.20835304655655
      ],
      [
        "▁Fa",
        -8.209981037822448
      ],
      [
        "▁co",
        -8.213545982260637
      ],
      [
        "▁playa",
        -8.21404744997789
      ],
      [
        "▁Or",
        -8.214367654935533
      ],
      [
        "mu",
        -8.21535074224256
      ],
      [
        "▁parti",
        -8.216200461554294
      ],
      [
        "▁Jo",
        -8.218821588515624
      ],
      [
        "▁rol",
        -8.21906566977371
      ],
      [
        "D",
        -8.219273263017968
      ],
      [
        "▁life",
        -8.21969047810673
      ],
      [
        "tic",
        -8.22508782282404
      ],
      [
        "▁fight",
        -8.233050325825785
      ],
      [
        "▁Ar",
        -8.235847597704975
      ],
      [
        "nd",
        -8.236902344121916
      ],
      [
        "▁So",
        -8.238271857043475
      ],
      [
        "L",
        -8.23899070726499
      ],
      [
        "▁th",
        -8.243185130384418
      ],
      [
        "▁million",
        -8.248068328012856
      ],
      [
        "▁give",
        -8.251042600035102
      ],
      [
        "wu",
        -8.254528519005653
      ],
      [
        "▁Sa",
        -8.258255330261534
      ],
      [
        "ut",
        -8.258297341373364
      ],
      [
        "ashon",
        -8.259690077677217
      ],
      [
        "▁Mi",
        -8.261580782206348
      ],
      [
        "M",
        -8.26370918039223
      ],
      [
        "▁memba",
        -8.265562682269353
      ],
      [
        "▁Ha",
        -8.271651662423082
      ],
      [
        "▁Delta",
        -8.272129700375825
      ],
      [
        "leshon",
        -8.274276972445609
      ],
      [
        "▁aria",
        -8.274917572742568
      ],
      [
        "I",
        -8.278133733795183
      ],
      [
        ";",
        -8.279779634890783
      ],
      [
        "▁gro",
        -8.281888385767939
      ],
      [
        "ff",
        -8.28585975109902
      ],
      [
        "▁chu",
        -8.287310861210191
      ],
      [
        "▁Me",
        -8.287837495577119
      ],
      [
        "▁Z",
        -8.293292441351184
      ],
      [
        "▁14",
        -8.297453852021068
      ],
      [
        "▁Nation",
        -8.297827875676365
      ],
      [
        "ight",
        -8.298204466446304
      ],
      [
        "min",
        -8.306978016100135
      ],
      [
        "▁tradishona",
        -8.31146953131794
      ],
      [
        "▁Nollywo",
        -8.312436215091395
      ],
      [
        "B",
        -8.313888153243935
      ],
      [
        "ng",
        -8.315143962201914
      ],
      [
        "▁onli",
        -8.31633989337116
      ],
      [
        "▁out",
        -8.316754067040309
      ],
      [
        "▁tu",
        -8.317032722523653
      ],
      [
        "▁Su",
        -8.319965195045413
      ],
      [
        "▁yunivasiti",
        -8.321010902659136
      ],
      [
        "▁she",
        -8.321307720318071
      ],
      [
        "▁Dis",
        -8.321827916809866
      ],
      [
        "▁12",
        -8.323051238515086
      ],
      [
        "▁Oy",
        -8.324100918544474
      ],
      [
        "▁Oba",
        -8.324665850987655
      ],
      [
        "▁Bo",
        -8.32776561784393
      ],
      [
        "▁niu",
        -8.330765084750713
      ],
      [
        "▁Ola",
        -8.331835961090402
      ],
      [
        "▁Mr",
        -8.33561283215093
      ],
      [
        "▁De",
        -8.335946634557306
      ],
      [
        "sin",
        -8.336304696642864
      ],
      [
        "▁first",
        -8.337649272726
      ],
      [
        "▁match",
        -8.337654830152335
      ],
      [
        "gbe",
        -8.33919974271736
      ],
      [
        "▁state",
        -8.34037270121635
      ],
      [
        "men",
        -8.341253605209161
      ],
      [
        "▁br",
        -8.342506970139016
      ],
      [
        "▁R",
        -8.343817858930484
      ],
      [
        "▁area",
        -8.346513924080243
      ],
      [
        "tion",
        -8.346901869451482
      ],
      [
        "▁Al",
        -8.349701014756416
      ],
      [
        "met",
        -8.354570372827983
      ],
      [
        "▁day",
        -8.36118780956178
      ],
      [
        "▁sopot",
        -8.363725233046331
      ],
      [
        "▁Ta",
        -8.365938712120633
      ],
      [
        "ren",
        -8.368596040512891
      ],
      [
        "ton",
        -8.368714995509826
      ],
      [
        "▁16",
        -8.374314178434638
      ],
      [
        "day",
        -8.374700189127974
      ],
      [
        "▁make",
        -8.379593765898246
      ],
      [
        "▁/",
        -8.380369918882968
      ],
      [
        "▁sta",
        -8.383227229189362
      ],
      [
        "▁goal",
        -8.383755918568369
      ],
      [
        "iv",
        -8.387524931516595
      ],
      [
        "▁start",
        -8.391760334651384
      ],
      [
        "▁produs",
        -8.397736862668859
      ],
      [
        "▁El",
        -8.398847136831272
      ],
      [
        "shion",
        -8.401465037958431
      ],
      [
        "▁wi",
        -8.410630954709053
      ],
      [
        "shi",
        -8.410968929243783
      ],
      [
        "▁sel",
        -8.411989809786999
      ],
      [
        "▁Skul",
        -8.417362955775602
      ],
      [
        "▁four",
        -8.419028764563846
      ],
      [
        "▁come",
        -8.421224154211
      ],
      [
        "au",
        -8.421397044135457
      ],
      [
        "▁Ra",
        -8.423528288066226
      ],
      [
        "▁Bi",
        -8.426150851006351
      ],
      [
        "▁skore",
        -8.426615439651268
      ],
      [
        "▁Part",
        -8.42677676705804
      ],
      [
        "▁Esan",
        -8.427924319192133
      ],
      [
        "low",
        -8.428582869685062
      ],
      [
        "▁too",
        -8.428898628976984
      ],
      [
        "▁govame",
        -8.43245801394998
      ],
      [
        "▁presido",
        -8.4359394514901
      ],
      [
        "▁Govame",
        -8.436200242698721
      ],
      [
        "▁Ko",
        -8.438902447414337
      ],
      [
        "▁20",
        -8.44087121116327
      ],
      [
        "▁beta",
        -8.441616077600976
      ],
      [
        "our",
        -8.44326555381232
      ],
      [
        "▁gra",
        -8.443582515139571
      ],
      [
        "ach",
        -8.44452534437423
      ],
      [
        "▁see",
        -8.446289085956106
      ],
      [
        "laik",
        -8.447193813323373
      ],
      [
        "ol",
        -8.448194393080794
      ],
      [
        "▁Bell",
        -8.450915121775523
      ],
      [
        "▁dai",
        -8.451598272797515
      ],
      [
        "F",
        -8.451807384524127
      ],
      [
        "ter",
        -8.451945369490899
      ],
      [
        "▁Y",
        -8.452804827670414
      ],
      [
        "▁house",
        -8.454908781176801
      ],
      [
        "ord",
        -8.455967805172815
      ],
      [
        "hu",
        -8.456017460944032
      ],
      [
        "▁law",
        -8.456135248721356
      ],
      [
        "▁Am",
        -8.46098547326021
      ],
      [
        "▁Naij",
        -8.461465496109959
      ],
      [
        "▁town",
        -8.464087178993196
      ],
      [
        "▁well",
        -8.464332596316126
      ],
      [
        "▁kompini",
        -8.464602945877203
      ],
      [
        "▁tel",
        -8.464859072294615
      ],
      [
        "▁Bank",
        -8.465725225730193
      ],
      [
        "▁193",
        -8.467251543683371
      ],
      [
        "▁Ri",
        -8.467438022406965
      ],
      [
        "▁11",
        -8.467496333520415
      ],
      [
        "ong",
        -8.468140130998414
      ],
      [
        "▁Akin",
        -8.469178544346962
      ],
      [
        "und",
        -8.476088918648106
      ],
      [
        "still",
        -8.476655435844322
      ],
      [
        "ship",
        -8.479432655888983
      ],
      [
        "▁Awards",
        -8.486312711036383
      ],
      [
        "je",
        -8.488529341380953
      ],
      [
        "▁mor",
        -8.48899161012508
      ],
      [
        "▁Be",
        -8.489289403657416
      ],
      [
        "▁South",
        -8.490090875963276
      ],
      [
        "jo",
        -8.493913121361832
      ],
      [
        "▁own",
        -8.493954344026687
      ],
      [
        "▁game",
        -8.494162110874132
      ],
      [
        "▁part",
        -8.495712919877677
      ],
      [
        "▁hand",
        -8.497656167523
      ],
      [
        "rin",
        -8.49993814233061
      ],
      [
        "gh",
        -8.500774201225354
      ],
      [
        "▁Art",
        -8.50330040810843
      ],
      [
        "ful",
        -8.503805699588401
      ],
      [
        "à",
        -8.503926186155796
      ],
      [
        "ik",
        -8.506244297111499
      ],
      [
        "▁pata",
        -8.50716960069116
      ],
      [
        "▁some",
        -8.51003586643088
      ],
      [
        "▁ste",
        -8.511542238204806
      ],
      [
        "▁Pa",
        -8.514427727109025
      ],
      [
        "▁hos",
        -8.520348356521652
      ],
      [
        "▁Amerika",
        -8.52423148214773
      ],
      [
        "▁klub",
        -8.524232288952478
      ],
      [
        "ary",
        -8.524805112087378
      ],
      [
        "▁tin",
        -8.524945494992206
      ],
      [
        "▁Akwa",
        -8.525487614618893
      ],
      [
        "ity",
        -8.530398894026538
      ],
      [
        "▁even",
        -8.531529157634576
      ],
      [
        "é",
        -8.532660654224856
      ],
      [
        "▁hol",
        -8.532985428847406
      ],
      [
        "▁government",
        -8.534540702648812
      ],
      [
        "▁bizness",
        -8.534952470834025
      ],
      [
        "▁25",
        -8.537062033857861
      ],
      [
        "▁top",
        -8.537726005062634
      ],
      [
        "▁Mu",
        -8.542985528720688
      ],
      [
        "▁Fela",
        -8.545082046485026
      ],
      [
        "▁spik",
        -8.545090393334096
      ],
      [
        "▁Man",
        -8.546605339981163
      ],
      [
        "eshon",
        -8.551210488843228
      ],
      [
        "▁aktor",
        -8.554443931731281
      ],
      [
        "ill",
        -8.555743495902309
      ],
      [
        "njo",
        -8.556278034037726
      ],
      [
        "▁African",
        -8.557264641207944
      ],
      [
        "▁local",
        -8.566163869399963
      ],
      [
        "▁30",
        -8.568565848334156
      ],
      [
        "▁evri",
        -8.569858561111491
      ],
      [
        "ac",
        -8.571047142203073
      ],
      [
        "DP",
        -8.571252695779496
      ],
      [
        "G",
        -8.571404594003969
      ],
      [
        "ial",
        -8.572895035352891
      ],
      [
        "▁Brit",
        -8.574352807988106
      ],
      [
        "▁Igbo",
        -8.578369210232847
      ],
      [
        "ala",
        -8.585725883710133
      ],
      [
        "▁North",
        -8.588071305329532
      ],
      [
        "▁digri",
        -8.588169487988498
      ],
      [
        "▁People",
        -8.588277798040643
      ],
      [
        "▁toge",
        -8.588907041785427
      ],
      [
        "▁Awod",
        -8.589708852411485
      ],
      [
        "zi",
        -8.590597804316797
      ],
      [
        "gun",
        -8.595114232866539
      ],
      [
        "▁Minist",
        -8.59874686114071
      ],
      [
        "twin",
        -8.606947551596186
      ],
      [
        "est",
        -8.60736776284044
      ],
      [
        "▁sin",
        -8.607747242929866
      ],
      [
        "▁pa",
        -8.60896744857386
      ],
      [
        "▁Kom",
        -8.613178485202138
      ],
      [
        "▁among",
        -8.615400487311256
      ],
      [
        "▁God",
        -8.617326974119964
      ],
      [
        "R",
        -8.618076528017374
      ],
      [
        "▁futbol",
        -8.618079888287337
      ],
      [
        "ej",
        -8.618823025601158
      ],
      [
        "▁vidio",
        -8.621084326293303
      ],
      [
        "ture",
        -8.621408384083232
      ],
      [
        "duna",
        -8.622092456680534
      ],
      [
        "▁work",
        -8.622603253563469
      ],
      [
        "tey",
        -8.623441534452322
      ],
      [
        "▁He",
        -8.624371524334727
      ],
      [
        "wi",
        -8.624771848028882
      ],
      [
        "▁Wo",
        -8.62510836475725
      ],
      [
        "▁eni",
        -8.625357938084964
      ],
      [
        "ern",
        -8.628878427392404
      ],
      [
        "▁he",
        -8.633414347760688
      ],
      [
        "han",
        -8.635128171062235
      ],
      [
        "▁forma",
        -8.637113514535072
      ],
      [
        "▁Iko",
        -8.638257554053977
      ],
      [
        "▁fes",
        -8.640713271709654
      ],
      [
        "▁fu",
        -8.642117026226252
      ],
      [
        "▁World",
        -8.643938268938271
      ],
      [
        "▁Muzik",
        -8.643939287922816
      ],
      [
        "▁albom",
        -8.644713383858083
      ],
      [
        "▁broda",
        -8.644768606213018
      ],
      [
        "▁Ok",
        -8.64684709999175
      ],
      [
        "hen",
        -8.647574719467123
      ],
      [
        "up",
        -8.64967133894638
      ],
      [
        "port",
        -8.651382093580498
      ],
      [
        "ance",
        -8.652657560907993
      ],
      [
        "▁liv",
        -8.653714595077725
      ],
      [
        "▁con",
        -8.654000144643401
      ],
      [
        "about",
        -8.655613263850416
      ],
      [
        "ous",
        -8.656866130461488
      ],
      [
        "PC",
        -8.664686825798052
      ],
      [
        "gin",
        -8.667891704224656
      ],
      [
        "▁pawa",
        -8.669135074545538
      ],
      [
        "▁Do",
        -8.670824197691235
      ],
      [
        "ell",
        -8.671205886607478
      ],
      [
        "ph",
        -8.673421621976788
      ],
      [
        "000",
        -8.678953084120256
      ],
      [
        "▁sign",
        -8.679259096900232
      ],
      [
        "▁wie",
        -8.682020720729048
      ],
      [
        "cha",
        -8.686859645553199
      ],
      [
        "za",
        -8.69043860521373
      ],
      [
        "les",
        -8.690473228882865
      ],
      [
        "▁League",
        -8.691288475457448
      ],
      [
        "▁Kuti",
        -8.69131117874782
      ],
      [
        "▁music",
        -8.691312525060093
      ],
      [
        "wife",
        -8.691833174617507
      ],
      [
        "ley",
        -8.695010628992621
      ],
      [
        "tiku",
        -8.695103486267573
      ],
      [
        "▁produsa",
        -8.695198091408754
      ],
      [
        "▁kop",
        -8.69895713604432
      ],
      [
        "▁tish",
        -8.701488246796092
      ],
      [
        "▁Univasiti",
        -8.703478748074849
      ],
      [
        "aya",
        -8.707315337476167
      ],
      [
        "▁rili",
        -8.708482533994957
      ],
      [
        "▁Obi",
        -8.709843009864596
      ],
      [
        "der",
        -8.712623685426532
      ],
      [
        "▁now",
        -8.715166576439835
      ],
      [
        "▁Ghana",
        -8.71584112112457
      ],
      [
        "stop",
        -8.716003304666726
      ],
      [
        "▁po",
        -8.717734880153465
      ],
      [
        "▁21",
        -8.719221564766933
      ],
      [
        "▁13",
        -8.719775509528024
      ],
      [
        "▁Ni",
        -8.720267270297928
      ],
      [
        "▁tim",
        -8.720301250191612
      ],
      [
        "▁min",
        -8.722137755481434
      ],
      [
        "▁Abuja",
        -8.728579339627956
      ],
      [
        "▁Ab",
        -8.733891232498369
      ],
      [
        "▁TV",
        -8.740907752240311
      ],
      [
        "▁mit",
        -8.741391184967128
      ],
      [
        "▁US",
        -8.741679561043258
      ],
      [
        "▁Music",
        -8.74196001396984
      ],
      [
        "▁100",
        -8.742473734225396
      ],
      [
        "▁Jam",
        -8.744360284989657
      ],
      [
        "▁her",
        -8.74527738931172
      ],
      [
        "mol",
        -8.752658833580888
      ],
      [
        "▁pepa",
        -8.75426406949721
      ],
      [
        "▁River",
        -8.754279091754174
      ],
      [
        "▁call",
        -8.754564048316599
      ],
      [
        "▁City",
        -8.755460430497601
      ],
      [
        "▁plai",
        -8.75718897950593
      ],
      [
        "▁Omo",
        -8.761704813412102
      ],
      [
        "▁musik",
        -8.766791981804964
      ],
      [
        "▁sekod",
        -8.766792324362378
      ],
      [
        "▁klim",
        -8.767503407865888
      ],
      [
        "▁Bal",
        -8.769145452941531
      ],
      [
        "\"",
        -8.769516233587396
      ],
      [
        "▁raita",
        -8.771473057032813
      ],
      [
        "▁hau",
        -8.771994320871693
      ],
      [
        "mon",
        -8.77231322028582
      ],
      [
        "▁best",
        -8.774270043278872
      ],
      [
        "ret",
        -8.775620715988083
      ],
      [
        "▁Je",
        -8.777817814739958
      ],
      [
        "▁President",
        -8.779948078423514
      ],
      [
        "▁Academ",
        -8.779948135300884
      ],
      [
        "▁village",
        -8.779970664783306
      ],
      [
        "▁How",
        -8.779973451573802
      ],
      [
        "▁kamp",
        -8.780566954912878
      ],
      [
        "▁East",
        -8.782598523137999
      ],
      [
        "▁Bifo",
        -8.786285292898205
      ],
      [
        "hari",
        -8.786433419500383
      ],
      [
        "▁muvi",
        -8.787761644682686
      ],
      [
        "▁sem",
        -8.789987416486852
      ],
      [
        "▁Men",
        -8.790338329702697
      ],
      [
        "▁Wol",
        -8.791252422323058
      ],
      [
        "▁Niger",
        -8.79206075438207
      ],
      [
        "▁International",
        -8.79328145544445
      ],
      [
        "▁film",
        -8.793298980912382
      ],
      [
        "▁ogbo",
        -8.794013509030094
      ],
      [
        "▁Go",
        -8.796415166234897
      ],
      [
        "all",
        -8.797928147952776
      ],
      [
        "ig",
        -8.800936669155096
      ],
      [
        "▁live",
        -8.80098227754986
      ],
      [
        "▁me",
        -8.806203230206988
      ],
      [
        "▁Democra",
        -8.806795004803352
      ],
      [
        "▁wold",
        -8.806804117940471
      ],
      [
        "▁Nashonal",
        -8.808656410083437
      ],
      [
        "▁wod",
        -8.808882669020061
      ],
      [
        "▁22",
        -8.81008616805223
      ],
      [
        "side",
        -8.81084550501234
      ],
      [
        "▁Sha",
        -8.811460349988796
      ],
      [
        "▁where",
        -8.814495201801677
      ],
      [
        "▁Som",
        -8.815659290921465
      ],
      [
        "▁Govern",
        -8.819267803701779
      ],
      [
        "▁York",
        -8.8205032683327
      ],
      [
        "▁len",
        -8.824468015517574
      ],
      [
        "awa",
        -8.829058064058756
      ],
      [
        "▁King",
        -8.832403093363997
      ],
      [
        "ven",
        -8.832706560239814
      ],
      [
        "▁Congres",
        -8.834399531498237
      ],
      [
        "lor",
        -8.834772192420782
      ],
      [
        "rd",
        -8.838007735892713
      ],
      [
        "▁kpata",
        -8.83924617094762
      ],
      [
        "bodi",
        -8.84111587657458
      ],
      [
        "▁si",
        -8.843009992791334
      ],
      [
        "▁rul",
        -8.84310470717509
      ],
      [
        "ney",
        -8.84375865733293
      ],
      [
        "▁Port",
        -8.84811237462936
      ],
      [
        "▁Adam",
        -8.84935658204029
      ],
      [
        "▁Lo",
        -8.850996556457481
      ],
      [
        "▁Ife",
        -8.851481269813648
      ],
      [
        "ikos",
        -8.8555753905833
      ],
      [
        "ose",
        -8.85991972730438
      ],
      [
        "▁akto",
        -8.860810201011386
      ],
      [
        "gbo",
        -8.861695383323791
      ],
      [
        "▁Car",
        -8.861930337968932
      ],
      [
        "kan",
        -8.864774447132218
      ],
      [
        "tional",
        -8.865020626741341
      ],
      [
        "▁San",
        -8.866567759089858
      ],
      [
        "▁23",
        -8.86680291550416
      ],
      [
        "▁Wi",
        -8.867373188749895
      ],
      [
        "▁Oko",
        -8.872386462151649
      ],
      [
        "rich",
        -8.874307288207383
      ],
      [
        "▁Os",
        -8.874631515427891
      ],
      [
        "▁Dr",
        -8.87963609421676
      ],
      [
        "▁192",
        -8.880815029487097
      ],
      [
        "sho",
        -8.881107259236561
      ],
      [
        "▁191",
        -8.881283913506781
      ],
      [
        "▁take",
        -8.882361140444356
      ],
      [
        "▁One",
        -8.886074265129995
      ],
      [
        "▁govno",
        -8.886287847901574
      ],
      [
        "▁Science",
        -8.891951772677068
      ],
      [
        "▁pafom",
        -8.891953626554242
      ],
      [
        "▁Peter",
        -8.892094327409339
      ],
      [
        "▁Ingl",
        -8.893304042913229
      ],
      [
        "▁Hi",
        -8.894375589856065
      ],
      [
        "▁dareto",
        -8.894898825639661
      ],
      [
        "▁Kari",
        -8.896481677283816
      ],
      [
        "shop",
        -8.896777393074915
      ],
      [
        "▁2000",
        -8.897285192737094
      ],
      [
        "let",
        -8.8995038063824
      ],
      [
        "tter",
        -8.90023658888133
      ],
      [
        "ction",
        -8.903439316014463
      ],
      [
        "bola",
        -8.904996459381902
      ],
      [
        "▁Ob",
        -8.90663959031299
      ],
      [
        "▁vote",
        -8.90732496846385
      ],
      [
        "▁John",
        -8.907417479359196
      ],
      [
        "▁plan",
        -8.90748386379635
      ],
      [
        "▁Osun",
        -8.908846723319135
      ],
      [
        "rest",
        -8.911316852949517
      ],
      [
        "que",
        -8.912181920521423
      ],
      [
        "H",
        -8.91724956213524
      ],
      [
        "▁Ad",
        -8.91906418411568
      ],
      [
        "▁Br",
        -8.919102886138386
      ],
      [
        "▁wak",
        -8.927810070224732
      ],
      [
        "▁kot",
        -8.927875759407026
      ],
      [
        "sef",
        -8.932750590381122
      ],
      [
        "▁satifik",
        -8.937760508183825
      ],
      [
        "muv",
        -8.940171726944358
      ],
      [
        "▁You",
        -8.940847700027167
      ],
      [
        "▁gree",
        -8.941090384821628
      ],
      [
        "uze",
        -8.944409962961029
      ],
      [
        "▁Pro",
        -8.944718064797005
      ],
      [
        "▁pama",
        -8.946577329305983
      ],
      [
        "nne",
        -8.946848073230447
      ],
      [
        "▁ex",
        -8.946997293824062
      ],
      [
        "▁tea",
        -8.947749006389676
      ],
      [
        "▁war",
        -8.948391372761765
      ],
      [
        "▁bor",
        -8.949545962671682
      ],
      [
        "▁Chief",
        -8.953081512297633
      ],
      [
        "FA",
        -8.953704438258761
      ],
      [
        "▁luk",
        -8.954302923016193
      ],
      [
        "▁niuz",
        -8.955371696093467
      ],
      [
        "▁gel",
        -8.956761442557273
      ],
      [
        "▁29",
        -8.957038022509233
      ],
      [
        "▁Bola",
        -8.958080136763297
      ],
      [
        "▁late",
        -8.95834899644494
      ],
      [
        "▁bad",
        -8.959589778884295
      ],
      [
        "ice",
        -8.959725898637723
      ],
      [
        "▁Ru",
        -8.960988269062284
      ],
      [
        "ies",
        -8.962383199815331
      ],
      [
        "▁Nna",
        -8.963896927385177
      ],
      [
        "test",
        -8.965585255331494
      ],
      [
        "▁Kole",
        -8.967324207064035
      ],
      [
        "▁month",
        -8.969079005648403
      ],
      [
        "▁stori",
        -8.969119532970659
      ],
      [
        "east",
        -8.969186662618249
      ],
      [
        "▁Cup",
        -8.970844790298695
      ],
      [
        "▁politish",
        -8.971602816191668
      ],
      [
        "for",
        -8.972101869669528
      ],
      [
        "▁kontro",
        -8.978193133534468
      ],
      [
        "cent",
        -8.97939941551595
      ],
      [
        "▁side",
        -8.981228047320387
      ],
      [
        "▁pla",
        -8.984156874536556
      ],
      [
        "osi",
        -8.98670175265487
      ],
      [
        "ide",
        -8.989399133109814
      ],
      [
        "▁king",
        -8.991819202598716
      ],
      [
        "kun",
        -8.99234819419408
      ],
      [
        "▁happ",
        -8.992380845002835
      ],
      [
        "▁gov",
        -8.99577549585003
      ],
      [
        "▁dans",
        -8.997243016422797
      ],
      [
        "▁Loka",
        -8.999026289177682
      ],
      [
        "▁General",
        -9.001433403919505
      ],
      [
        "▁France",
        -9.001438302061398
      ],
      [
        "gue",
        -9.00213689126393
      ],
      [
        "▁''",
        -9.002186485766522
      ],
      [
        "▁most",
        -9.002269904502928
      ],
      [
        "tain",
        -9.002942843955568
      ],
      [
        "▁kind",
        -9.003313300840029
      ],
      [
        "ric",
        -9.003519247525453
      ],
      [
        "▁Ay",
        -9.012621708790029
      ],
      [
        "▁onti",
        -9.013741270772426
      ],
      [
        "ud",
        -9.016923338970166
      ],
      [
        "▁Ike",
        -9.018102998041812
      ],
      [
        "▁hafet",
        -9.018128942477706
      ],
      [
        "▁season",
        -9.018180615845855
      ],
      [
        "olu",
        -9.018195503038733
      ],
      [
        "▁24",
        -9.020806535550074
      ],
      [
        "▁27",
        -9.021758322517574
      ],
      [
        "ence",
        -9.02195507519281
      ],
      [
        "iya",
        -9.0221050105606
      ],
      [
        "gba",
        -9.02241876474978
      ],
      [
        "▁las",
        -9.02486310152543
      ],
      [
        "▁tich",
        -9.02642934467908
      ],
      [
        "ram",
        -9.026798236016205
      ],
      [
        "lif",
        -9.028236974625932
      ],
      [
        "▁aktin",
        -9.0299652280457
      ],
      [
        "▁Award",
        -9.031096283017739
      ],
      [
        "▁Ph",
        -9.031472671650524
      ],
      [
        "▁Don",
        -9.033342981488449
      ],
      [
        "á",
        -9.034837388384823
      ],
      [
        "▁Badagry",
        -9.035049113061586
      ],
      [
        "▁26",
        -9.038551827385794
      ],
      [
        "▁kip",
        -9.03988676499534
      ],
      [
        "olo",
        -9.039984152343246
      ],
      [
        "ress",
        -9.041109813300752
      ],
      [
        "▁kontrol",
        -9.042405167250955
      ],
      [
        "oko",
        -9.04453468976503
      ],
      [
        "▁Lu",
        -9.044991895766136
      ],
      [
        "▁Fal",
        -9.045096845477884
      ],
      [
        "▁use",
        -9.046071309016352
      ],
      [
        "▁bifo",
        -9.047202153038514
      ],
      [
        "▁band",
        -9.050668780323413
      ],
      [
        "try",
        -9.050675434497833
      ],
      [
        "▁She",
        -9.053609779496972
      ],
      [
        "▁Fren",
        -9.053878910348168
      ],
      [
        "▁50",
        -9.056209240167638
      ],
      [
        "▁gri",
        -9.058432934478745
      ],
      [
        "▁Kon",
        -9.059225242325262
      ],
      [
        "▁govnor",
        -9.059311498666965
      ],
      [
        "ther",
        -9.059662632551305
      ],
      [
        "▁Cha",
        -9.064298943793718
      ],
      [
        "▁Associat",
        -9.069834403967175
      ],
      [
        "▁frend",
        -9.069845474677507
      ],
      [
        "▁final",
        -9.069879967597783
      ],
      [
        "▁Obasa",
        -9.070497663312118
      ],
      [
        "ick",
        -9.070966821426383
      ],
      [
        "▁gada",
        -9.070983835659137
      ],
      [
        "femi",
        -9.070984714270544
      ],
      [
        "▁skat",
        -9.07305027795713
      ],
      [
        "▁28",
        -9.074042822091997
      ],
      [
        "J",
        -9.07554970785728
      ],
      [
        "▁Iya",
        -9.078412545296471
      ],
      [
        "aso",
        -9.08108727090729
      ],
      [
        "▁daret",
        -9.084421972076816
      ],
      [
        "$",
        -9.087691491869329
      ],
      [
        "▁Daniel",
        -9.087691980332362
      ],
      [
        "▁program",
        -9.087692028595814
      ],
      [
        "▁human",
        -9.08782286316676
      ],
      [
        "▁Europe",
        -9.087851598330195
      ],
      [
        "▁FIF",
        -9.087925602979464
      ],
      [
        "▁biliv",
        -9.08804060724971
      ],
      [
        "other",
        -9.08969028738014
      ],
      [
        "▁fish",
        -9.090697611562645
      ],
      [
        "▁main",
        -9.093534312105778
      ],
      [
        "ble",
        -9.095138855801256
      ],
      [
        "▁mare",
        -9.098461141434221
      ],
      [
        "U",
        -9.101558417346823
      ],
      [
        "▁nid",
        -9.103361978208923
      ],
      [
        "▁Awo",
        -9.104347711799715
      ],
      [
        "▁Progressive",
        -9.105873310125553
      ],
      [
        "▁Muhammad",
        -9.105873339533334
      ],
      [
        "▁kontrat",
        -9.1058743695232
      ],
      [
        "▁vilej",
        -9.105877729024845
      ],
      [
        "▁taitu",
        -9.105880641191256
      ],
      [
        "▁House",
        -9.105891917980744
      ],
      [
        "▁Fu",
        -9.10599739000018
      ],
      [
        "▁group",
        -9.106543563784367
      ],
      [
        "red",
        -9.106556670169219
      ],
      [
        "▁siti",
        -9.107666963092914
      ],
      [
        "▁bank",
        -9.110664322716186
      ],
      [
        "▁sport",
        -9.111457865006415
      ],
      [
        "▁Law",
        -9.112444546525799
      ],
      [
        "▁Aja",
        -9.11351621779664
      ],
      [
        "▁hot",
        -9.114086538834659
      ],
      [
        "ctor",
        -9.115517661362391
      ],
      [
        "nes",
        -9.11580650355175
      ],
      [
        "▁set",
        -9.119418167704861
      ],
      [
        "sea",
        -9.120775512913486
      ],
      [
        "hala",
        -9.12083737042751
      ],
      [
        "▁Ibr",
        -9.12545622306355
      ],
      [
        "line",
        -9.126490834024496
      ],
      [
        "▁Mari",
        -9.126593903067173
      ],
      [
        "▁post",
        -9.126895506575888
      ],
      [
        "lin",
        -9.127132437908132
      ],
      [
        "▁Ag",
        -9.128072910972914
      ],
      [
        "▁190",
        -9.128616479921675
      ],
      [
        "ite",
        -9.12913725365581
      ],
      [
        "oyin",
        -9.129584250454116
      ],
      [
        "▁Hausa",
        -9.130336786189154
      ],
      [
        "bio",
        -9.133401586015308
      ],
      [
        "▁Ali",
        -9.134347032153013
      ],
      [
        "ston",
        -9.134987331321934
      ],
      [
        "▁lid",
        -9.13506643951137
      ],
      [
        "▁Chi",
        -9.13599800746508
      ],
      [
        "▁Chin",
        -9.136499169478283
      ],
      [
        "way",
        -9.136998606049845
      ],
      [
        "▁Aba",
        -9.138948963194343
      ],
      [
        "▁Federa",
        -9.139770401635374
      ],
      [
        "▁Abeokuta",
        -9.143259753217983
      ],
      [
        "▁poblish",
        -9.143259779245932
      ],
      [
        "ology",
        -9.143478385373834
      ],
      [
        "▁High",
        -9.143536751424822
      ],
      [
        "▁six",
        -9.144084588386368
      ],
      [
        "té",
        -9.145400871353155
      ],
      [
        "▁Bar",
        -9.14781165327863
      ],
      [
        "▁Big",
        -9.148588792361803
      ],
      [
        "rime",
        -9.151787192690048
      ],
      [
        "▁Hu",
        -9.154183281379424
      ],
      [
        "q",
        -9.154488409108057
      ],
      [
        "▁feature",
        -9.162490711812767
      ],
      [
        "▁Govno",
        -9.162491273292112
      ],
      [
        "▁know",
        -9.162491854562749
      ],
      [
        "▁polis",
        -9.16281931567634
      ],
      [
        "ative",
        -9.16486794503586
      ],
      [
        "▁Star",
        -9.16496336405014
      ],
      [
        "▁train",
        -9.166658175396124
      ],
      [
        "▁kil",
        -9.167448379135607
      ],
      [
        "▁Tori",
        -9.168888113918523
      ],
      [
        "cate",
        -9.169614559382525
      ],
      [
        "ect",
        -9.17108264972035
      ],
      [
        "▁Mary",
        -9.172426651848394
      ],
      [
        "ore",
        -9.172446131819257
      ],
      [
        "▁tal",
        -9.173551830164376
      ],
      [
        "chie",
        -9.179205382550743
      ],
      [
        "ade",
        -9.180144727897662
      ],
      [
        "act",
        -9.180612467041257
      ],
      [
        "▁Ogede",
        -9.182103642250212
      ],
      [
        "▁Movie",
        -9.18217027884358
      ],
      [
        "▁writ",
        -9.182271599926814
      ],
      [
        "▁laif",
        -9.182965215910073
      ],
      [
        "▁Good",
        -9.183295456745222
      ],
      [
        "wankw",
        -9.186120198728302
      ],
      [
        "▁Sin",
        -9.186175950413341
      ],
      [
        "nsaid",
        -9.186782854243894
      ],
      [
        "▁Isa",
        -9.18710234498397
      ],
      [
        "▁karia",
        -9.187961277971377
      ],
      [
        "ited",
        -9.190204368687468
      ],
      [
        "oll",
        -9.19082773092066
      ],
      [
        "K",
        -9.191886140907387
      ],
      [
        "bia",
        -9.19258843330728
      ],
      [
        "Y",
        -9.19530566281737
      ],
      [
        "▁Du",
        -9.196236911112555
      ],
      [
        "con",
        -9.197478694265858
      ],
      [
        "▁Sam",
        -9.197793596439286
      ],
      [
        "ambr",
        -9.201284011259201
      ],
      [
        "▁biznes",
        -9.201311378981377
      ],
      [
        "▁Institute",
        -9.202098365566199
      ],
      [
        "▁president",
        -9.202098529803834
      ],
      [
        "▁small",
        -9.202111218646428
      ],
      [
        "▁honor",
        -9.20211526052281
      ],
      [
        "sahin",
        -9.202356952497954
      ],
      [
        "▁kingdom",
        -9.202526861491993
      ],
      [
        "▁kolsho",
        -9.202852206856253
      ],
      [
        "CC",
        -9.20429536574136
      ],
      [
        "▁Adek",
        -9.205527913377997
      ],
      [
        "▁sinio",
        -9.205685305564863
      ],
      [
        "▁189",
        -9.20834656203667
      ],
      [
        "▁Ala",
        -9.21046190124265
      ],
      [
        "▁pre",
        -9.210692084611916
      ],
      [
        "▁Oni",
        -9.215782584675187
      ],
      [
        "▁Uni",
        -9.219565878318736
      ],
      [
        "▁Ch",
        -9.224044197584918
      ],
      [
        "▁persi",
        -9.22470169917606
      ],
      [
        "ura",
        -9.229353296459573
      ],
      [
        "ayo",
        -9.229375959880015
      ],
      [
        "isi",
        -9.229626414953517
      ],
      [
        "right",
        -9.233153428490905
      ],
      [
        "▁den",
        -9.235994307121494
      ],
      [
        "ical",
        -9.24247039920266
      ],
      [
        "▁Church",
        -9.24334077892588
      ],
      [
        "▁Plent",
        -9.243423258001268
      ],
      [
        "▁south",
        -9.246917083704169
      ],
      [
        "ija",
        -9.247119063724485
      ],
      [
        "▁Miss",
        -9.250224773035498
      ],
      [
        "▁Pr",
        -9.25025520742855
      ],
      [
        "Na",
        -9.256388373199346
      ],
      [
        "tak",
        -9.256558345573845
      ],
      [
        "▁Odu",
        -9.256570223145147
      ],
      [
        "cy",
        -9.260923054104516
      ],
      [
        "▁name",
        -9.26357194703877
      ],
      [
        "▁times",
        -9.264327799501306
      ],
      [
        "▁And",
        -9.264386133076481
      ],
      [
        "▁Entertain",
        -9.264616485074313
      ],
      [
        "▁build",
        -9.264617707111125
      ],
      [
        "▁Prince",
        -9.26462191445423
      ],
      [
        "elease",
        -9.264794531321952
      ],
      [
        "▁find",
        -9.264849562244269
      ],
      [
        "▁Uzo",
        -9.264869783142705
      ],
      [
        "▁sista",
        -9.26489907135646
      ],
      [
        "poblik",
        -9.265498288043807
      ],
      [
        "▁posishon",
        -9.26568426041315
      ],
      [
        "▁Akpa",
        -9.26725170187508
      ],
      [
        "ingdom",
        -9.26751432003234
      ],
      [
        "▁Oluse",
        -9.269095291578676
      ],
      [
        "▁you",
        -9.274181670109765
      ],
      [
        "▁wet",
        -9.27438973117652
      ],
      [
        "kin",
        -9.277409014354944
      ],
      [
        "▁Nu",
        -9.27831814173884
      ],
      [
        "▁America",
        -9.281532842018468
      ],
      [
        "▁boi",
        -9.283628394060912
      ],
      [
        "▁Ug",
        -9.285324092674367
      ],
      [
        "▁Bachelor",
        -9.28635562128959
      ],
      [
        "▁Primar",
        -9.28637338644268
      ],
      [
        "▁Folklor",
        -9.286465650062986
      ],
      [
        "▁gud",
        -9.286789018116954
      ],
      [
        "▁waif",
        -9.286935258049576
      ],
      [
        "▁Ju",
        -9.287316741909416
      ],
      [
        "ard",
        -9.287884077551833
      ],
      [
        "unle",
        -9.288149155592766
      ],
      [
        "▁If",
        -9.29072730800586
      ],
      [
        "▁Fim",
        -9.291410828129443
      ],
      [
        "▁Act",
        -9.29326875623026
      ],
      [
        "▁Hol",
        -9.294804232822717
      ],
      [
        "▁til",
        -9.296755550606832
      ],
      [
        "pata",
        -9.303245364590005
      ],
      [
        "▁Abu",
        -9.305578803985892
      ],
      [
        "outh",
        -9.307852187180547
      ],
      [
        "▁Fir",
        -9.307989499021632
      ],
      [
        "▁William",
        -9.308577820059796
      ],
      [
        "▁Engineer",
        -9.308577823253371
      ],
      [
        "▁eleshion",
        -9.308591144652418
      ],
      [
        "▁market",
        -9.308661105705559
      ],
      [
        "▁kors",
        -9.30897816771311
      ],
      [
        "▁artist",
        -9.308987626815037
      ],
      [
        "▁Aktres",
        -9.30985715543618
      ],
      [
        "▁ofis",
        -9.310660300085061
      ],
      [
        "▁komedi",
        -9.311087555888378
      ],
      [
        "roup",
        -9.3129821196726
      ],
      [
        "rate",
        -9.314406370503203
      ],
      [
        "▁Gre",
        -9.315471366554181
      ],
      [
        "wale",
        -9.315762418492268
      ],
      [
        "▁Oke",
        -9.31612874751455
      ],
      [
        "▁Sen",
        -9.3169878823386
      ],
      [
        "▁pik",
        -9.317370148668878
      ],
      [
        "▁EF",
        -9.318873741628025
      ],
      [
        "▁Ber",
        -9.319632567379958
      ],
      [
        "view",
        -9.320103650614406
      ],
      [
        "lim",
        -9.323199160931416
      ],
      [
        "▁haus",
        -9.324891427263946
      ],
      [
        "▁hele",
        -9.327324380566289
      ],
      [
        "▁politis",
        -9.327516735983863
      ],
      [
        "▁car",
        -9.32829664253841
      ],
      [
        "▁Hen",
        -9.330244258586331
      ],
      [
        "[",
        -9.331305083193588
      ],
      [
        "▁video",
        -9.331311999296071
      ],
      [
        "▁medisin",
        -9.33131881991735
      ],
      [
        "▁church",
        -9.331328306993903
      ],
      [
        "▁slave",
        -9.331341985308153
      ],
      [
        "▁Yunifasiti",
        -9.331367379809107
      ],
      [
        "▁chorch",
        -9.331390100530218
      ],
      [
        "▁gofnor",
        -9.331511684190893
      ],
      [
        "▁Qu",
        -9.331725450563999
      ],
      [
        "ness",
        -9.337120868574086
      ],
      [
        "▁Eke",
        -9.337311072686767
      ],
      [
        "fter",
        -9.340565952965614
      ],
      [
        "▁konsa",
        -9.341961280197957
      ],
      [
        "koti",
        -9.34331371269506
      ],
      [
        "nik",
        -9.344905894981565
      ],
      [
        "▁Aji",
        -9.345329254283772
      ],
      [
        "far",
        -9.346500924290183
      ],
      [
        "araun",
        -9.353280753573188
      ],
      [
        "▁YouTube",
        -9.354560897907696
      ],
      [
        "▁Presido",
        -9.354560908504782
      ],
      [
        "▁George",
        -9.354561044413146
      ],
      [
        "▁second",
        -9.354561405409655
      ],
      [
        "graduate",
        -9.354563452140049
      ],
      [
        "▁Agege",
        -9.354578063146795
      ],
      [
        "▁model",
        -9.354578800144635
      ],
      [
        "▁free",
        -9.354793614392086
      ],
      [
        "▁Osim",
        -9.355201617111906
      ],
      [
        "round",
        -9.356643167953134
      ],
      [
        "▁At",
        -9.356655432990351
      ],
      [
        "uku",
        -9.35777682391517
      ],
      [
        "ham",
        -9.358120634834217
      ],
      [
        "shonal",
        -9.359365425502975
      ],
      [
        "▁Fem",
        -9.359419802567112
      ],
      [
        "▁Ije",
        -9.359928288646161
      ],
      [
        "▁Ap",
        -9.361542434109007
      ],
      [
        "▁produce",
        -9.368290564352405
      ],
      [
        "out",
        -9.369625775013027
      ],
      [
        "W",
        -9.37003750586793
      ],
      [
        "opun",
        -9.374576091902341
      ],
      [
        "▁odas",
        -9.374722301944693
      ],
      [
        "▁Boy",
        -9.376561445438547
      ],
      [
        "▁stude",
        -9.377435282270405
      ],
      [
        "▁record",
        -9.378373264331707
      ],
      [
        "▁new",
        -9.378620078155805
      ],
      [
        "▁series",
        -9.378939289616207
      ],
      [
        "▁Govme",
        -9.379171494688531
      ],
      [
        "▁drama",
        -9.379349223768019
      ],
      [
        "board",
        -9.379350855415638
      ],
      [
        "ure",
        -9.37961851037893
      ],
      [
        "▁Area",
        -9.379724061281422
      ],
      [
        "▁Riva",
        -9.379749917441803
      ],
      [
        "amog",
        -9.381499542474376
      ],
      [
        "▁Fi",
        -9.384818747560388
      ],
      [
        "▁buy",
        -9.386967232319753
      ],
      [
        "▁art",
        -9.387738583445135
      ],
      [
        "▁Adebo",
        -9.389886631310617
      ],
      [
        "time",
        -9.391161184628034
      ],
      [
        "▁eye",
        -9.39121541490962
      ],
      [
        "▁boy",
        -9.392204083734619
      ],
      [
        "▁Poli",
        -9.392518745436348
      ],
      [
        "▁Olo",
        -9.39379468633655
      ],
      [
        "ory",
        -9.395697370321162
      ],
      [
        "▁sell",
        -9.39584360247321
      ],
      [
        "▁lida",
        -9.396837876333395
      ],
      [
        "▁popular",
        -9.398089139471288
      ],
      [
        "▁Commission",
        -9.402761972165504
      ],
      [
        "▁presidet",
        -9.402762340573567
      ],
      [
        "▁arenj",
        -9.402766476933266
      ],
      [
        "▁Messi",
        -9.402771153046725
      ],
      [
        "▁klas",
        -9.402932956790833
      ],
      [
        "▁Sho",
        -9.402972317885585
      ],
      [
        "▁Life",
        -9.403033992552862
      ],
      [
        "▁Canad",
        -9.403166839359868
      ],
      [
        "▁teem",
        -9.40335087507566
      ],
      [
        "▁wom",
        -9.403396369120177
      ],
      [
        "ON",
        -9.404115033710017
      ],
      [
        "▁pay",
        -9.406828204274877
      ],
      [
        "ult",
        -9.406880328899856
      ],
      [
        "▁primari",
        -9.407520654356773
      ],
      [
        "▁80",
        -9.40819655682042
      ],
      [
        "▁doktor",
        -9.408408816724481
      ],
      [
        "▁Sabi",
        -9.40884103880327
      ],
      [
        "▁Mos",
        -9.411223364891802
      ],
      [
        "▁Ori",
        -9.412401881185739
      ],
      [
        "gori",
        -9.413348000862946
      ],
      [
        "ukwu",
        -9.413867632417697
      ],
      [
        "▁Some",
        -9.419225370500834
      ],
      [
        "UE",
        -9.42343369139392
      ],
      [
        "▁school",
        -9.427760742857597
      ],
      [
        "▁Enug",
        -9.427762114081949
      ],
      [
        "▁politika",
        -9.427764670305367
      ],
      [
        "▁differen",
        -9.42777679907124
      ],
      [
        "▁seven",
        -9.427928207860045
      ],
      [
        "▁host",
        -9.429008905004373
      ],
      [
        "▁befor",
        -9.429453312388583
      ],
      [
        "▁Jim",
        -9.430907366341522
      ],
      [
        "▁Lay",
        -9.43166529312161
      ],
      [
        "▁farm",
        -9.432685226436522
      ],
      [
        "▁Ekp",
        -9.433997058339582
      ],
      [
        "▁31",
        -9.435882520408615
      ],
      [
        "lik",
        -9.437383572492847
      ],
      [
        "reach",
        -9.437802390923057
      ],
      [
        "▁Ari",
        -9.442756341882358
      ],
      [
        "▁maket",
        -9.44408831053749
      ],
      [
        "▁Lim",
        -9.446211409966006
      ],
      [
        "▁Mil",
        -9.447199863045933
      ],
      [
        "▁Dok",
        -9.450950592165396
      ],
      [
        "AN",
        -9.452034373740279
      ],
      [
        "▁chairman",
        -9.453401775359321
      ],
      [
        "▁Akademi",
        -9.453402106904667
      ],
      [
        "▁Japan",
        -9.45340252417639
      ],
      [
        "▁klob",
        -9.453407287321088
      ],
      [
        "▁professo",
        -9.453448707503032
      ],
      [
        "▁milit",
        -9.453451203388717
      ],
      [
        "▁edukashon",
        -9.454407319166048
      ],
      [
        "▁Bill",
        -9.454432234864141
      ],
      [
        "▁place",
        -9.454637203469222
      ],
      [
        "BC",
        -9.455342331537247
      ],
      [
        "▁plu",
        -9.456321359427553
      ],
      [
        "ahim",
        -9.457741871815912
      ],
      [
        "▁Klu",
        -9.459040263797965
      ],
      [
        "▁Theat",
        -9.46002614618478
      ],
      [
        "▁futbola",
        -9.46033464779055
      ],
      [
        "ID",
        -9.461477498078361
      ],
      [
        "▁Tim",
        -9.461496485762
      ],
      [
        "word",
        -9.463511628704946
      ],
      [
        "▁Tem",
        -9.463880421930778
      ],
      [
        "▁Oda",
        -9.466992034687854
      ],
      [
        "▁Eki",
        -9.470103086459176
      ],
      [
        "▁Of",
        -9.47047980728953
      ],
      [
        "AC",
        -9.472784856918416
      ],
      [
        "▁Pipu",
        -9.472872744447818
      ],
      [
        "▁plent",
        -9.474143189038426
      ],
      [
        "▁Loc",
        -9.475738071864402
      ],
      [
        "isin",
        -9.47773335336539
      ],
      [
        "í",
        -9.478262782066391
      ],
      [
        "▁single",
        -9.479406977578211
      ],
      [
        "▁Republic",
        -9.479717479978822
      ],
      [
        "▁Kolsho",
        -9.479723754178224
      ],
      [
        "▁Ronald",
        -9.47972910760103
      ],
      [
        "▁histri",
        -9.479736252536782
      ],
      [
        "kal",
        -9.479797985449078
      ],
      [
        "bakar",
        -9.479814562703629
      ],
      [
        "▁Chukwu",
        -9.479827426945349
      ],
      [
        "▁head",
        -9.479857594590744
      ],
      [
        "▁edukeshon",
        -9.480455259791185
      ],
      [
        "▁Jane",
        -9.481411443667124
      ],
      [
        "▁Har",
        -9.483316667746504
      ],
      [
        "▁high",
        -9.483482462526192
      ],
      [
        "enturi",
        -9.485586776315488
      ],
      [
        "kpo",
        -9.486550991787077
      ],
      [
        "▁Ayo",
        -9.48961021400848
      ],
      [
        "fam",
        -9.489834674657567
      ],
      [
        "▁west",
        -9.490009823214804
      ],
      [
        "log",
        -9.490271836172983
      ],
      [
        "yode",
        -9.490585254192068
      ],
      [
        "▁run",
        -9.49427472805553
      ],
      [
        "▁Spa",
        -9.49457568182918
      ],
      [
        "▁Ode",
        -9.497428776731745
      ],
      [
        "▁Fash",
        -9.49987983488119
      ],
      [
        "med",
        -9.500024782089929
      ],
      [
        "▁famil",
        -9.50036236205641
      ],
      [
        "▁str",
        -9.500492413068056
      ],
      [
        "▁Dat",
        -9.501089630659816
      ],
      [
        "▁Nair",
        -9.505718075147445
      ],
      [
        "lic",
        -9.506707135132654
      ],
      [
        "▁Education",
        -9.506744571374995
      ],
      [
        "▁Business",
        -9.50674460069987
      ],
      [
        "▁Niuz",
        -9.506753687554454
      ],
      [
        "▁ontop",
        -9.506758348641016
      ],
      [
        "▁Christian",
        -9.507266050297563
      ],
      [
        "▁student",
        -9.507916852454608
      ],
      [
        "▁fait",
        -9.508887493621286
      ],
      [
        "wood",
        -9.510168228168517
      ],
      [
        "▁Abra",
        -9.511016879489123
      ],
      [
        "▁vo",
        -9.513461939578656
      ],
      [
        "▁kain",
        -9.51443935149645
      ],
      [
        "▁Sk",
        -9.514741749796444
      ],
      [
        "▁mid",
        -9.515226662034912
      ],
      [
        "llion",
        -9.518572486211621
      ],
      [
        "riti",
        -9.52012899734812
      ],
      [
        "▁Air",
        -9.520288422786756
      ],
      [
        "▁Oyin",
        -9.522841770408654
      ],
      [
        "▁leg",
        -9.523394968568713
      ],
      [
        "cul",
        -9.527844726942547
      ],
      [
        "▁Fan",
        -9.528337365443104
      ],
      [
        "eople",
        -9.533205307970121
      ],
      [
        "▁indostri",
        -9.534522369894287
      ],
      [
        "▁Foundation",
        -9.534522762911266
      ],
      [
        "▁ocean",
        -9.534547551231798
      ],
      [
        "▁ripot",
        -9.534989090328608
      ],
      [
        "TV",
        -9.53567829654839
      ],
      [
        "▁degree",
        -9.536198453309035
      ],
      [
        "UN",
        -9.536590542396407
      ],
      [
        "▁Umu",
        -9.537386569269627
      ],
      [
        "▁dra",
        -9.538103211126296
      ],
      [
        "into",
        -9.538845324750296
      ],
      [
        "cast",
        -9.542215096285483
      ],
      [
        "pot",
        -9.543798246835031
      ],
      [
        "SC",
        -9.543966329096065
      ],
      [
        "▁sit",
        -9.544921922714343
      ],
      [
        "▁redi",
        -9.548174434175582
      ],
      [
        "▁Owo",
        -9.548329905215287
      ],
      [
        "TA",
        -9.549821626287871
      ],
      [
        "▁event",
        -9.551680432184165
      ],
      [
        "▁digre",
        -9.55610906718311
      ],
      [
        "mix",
        -9.558847385676014
      ],
      [
        "▁Day",
        -9.55908815919615
      ],
      [
        "▁studio",
        -9.563093869420017
      ],
      [
        "▁Festival",
        -9.563094018185874
      ],
      [
        "▁festival",
        -9.563102996544968
      ],
      [
        "▁Atlant",
        -9.563110238618593
      ],
      [
        "▁Girl",
        -9.563148024998217
      ],
      [
        "▁Super",
        -9.563241829460551
      ],
      [
        "▁Emem",
        -9.56329357628415
      ],
      [
        "▁north",
        -9.563391128136741
      ],
      [
        "▁Paul",
        -9.563652203904978
      ],
      [
        "▁Kwar",
        -9.564598531396877
      ],
      [
        "▁adv",
        -9.565102887934628
      ],
      [
        "▁travul",
        -9.565616538031788
      ],
      [
        "▁siknes",
        -9.565867925388329
      ],
      [
        "▁Ahm",
        -9.566439153302078
      ],
      [
        "▁tradishon",
        -9.566523989046534
      ],
      [
        "▁op",
        -9.567182802659426
      ],
      [
        "▁kore",
        -9.567440147617713
      ],
      [
        "▁thir",
        -9.568090433152095
      ],
      [
        "▁Song",
        -9.568367294803847
      ],
      [
        "▁American",
        -9.569490029138874
      ],
      [
        "sany",
        -9.572091955930416
      ],
      [
        "▁Akan",
        -9.572743345396322
      ],
      [
        "▁Mal",
        -9.572903314488107
      ],
      [
        "▁Ile",
        -9.573316502111627
      ],
      [
        "how",
        -9.577008757609871
      ],
      [
        "▁eight",
        -9.578196983729672
      ],
      [
        "▁Ram",
        -9.582106052288683
      ],
      [
        "bell",
        -9.584462977412223
      ],
      [
        "▁Indian",
        -9.584886082445482
      ],
      [
        "rop",
        -9.586186156578357
      ],
      [
        "▁cho",
        -9.58690552522243
      ],
      [
        "jor",
        -9.587850977642248
      ],
      [
        "fess",
        -9.589241862941808
      ],
      [
        "row",
        -9.589970032339206
      ],
      [
        "kach",
        -9.592075234355566
      ],
      [
        "▁Assembl",
        -9.59250548377476
      ],
      [
        "▁Harcourt",
        -9.592505488816132
      ],
      [
        "▁Council",
        -9.592505536489519
      ],
      [
        "▁COV",
        -9.592505805754847
      ],
      [
        "▁Sekond",
        -9.592506800117704
      ],
      [
        "▁levu",
        -9.592511739003893
      ],
      [
        "▁kandid",
        -9.592512907241266
      ],
      [
        "▁televish",
        -9.592513614782423
      ],
      [
        "▁kontini",
        -9.59253996907495
      ],
      [
        "▁marri",
        -9.592543101857201
      ],
      [
        "▁Sayens",
        -9.592543215949851
      ],
      [
        "▁girl",
        -9.592545690322353
      ],
      [
        "▁hospit",
        -9.592588002658864
      ],
      [
        "▁Segun",
        -9.593377208620161
      ],
      [
        "▁Silv",
        -9.593662973217661
      ],
      [
        "four",
        -9.594096369048897
      ],
      [
        "▁Warri",
        -9.59448906360084
      ],
      [
        "▁gif",
        -9.595768940393539
      ],
      [
        "▁Sport",
        -9.596527792174676
      ],
      [
        "▁Ojo",
        -9.596529375247137
      ],
      [
        "▁grow",
        -9.596764559612527
      ],
      [
        "▁yong",
        -9.596812828234091
      ],
      [
        "▁Agba",
        -9.597289527985584
      ],
      [
        "▁pu",
        -9.600011298649218
      ],
      [
        "mago",
        -9.600152528307559
      ],
      [
        "▁disis",
        -9.600767210889632
      ],
      [
        "▁tell",
        -9.604113551946138
      ],
      [
        "'",
        -9.604286241306289
      ],
      [
        "▁cap",
        -9.605398379876975
      ],
      [
        "▁Roya",
        -9.605702012107697
      ],
      [
        "▁Rem",
        -9.605860354400972
      ],
      [
        "real",
        -9.605870433864014
      ],
      [
        "▁Polic",
        -9.606352605495168
      ],
      [
        "▁tran",
        -9.60865541498929
      ],
      [
        "▁won",
        -9.60992874439059
      ],
      [
        "▁Ogu",
        -9.616437456868614
      ],
      [
        "▁cit",
        -9.618966478362282
      ],
      [
        "▁his",
        -9.622562858459872
      ],
      [
        "▁Societ",
        -9.622810287079522
      ],
      [
        "▁Gramma",
        -9.622811175823845
      ],
      [
        "▁Year",
        -9.622868259811744
      ],
      [
        "▁Scot",
        -9.622898121156346
      ],
      [
        "graph",
        -9.622919679172062
      ],
      [
        "▁trit",
        -9.623068831920586
      ],
      [
        "▁young",
        -9.623277752638266
      ],
      [
        "pupp",
        -9.62328274137497
      ],
      [
        "▁Hush",
        -9.623531335042815
      ],
      [
        "▁jos",
        -9.623570952888867
      ],
      [
        "prise",
        -9.623756679110976
      ],
      [
        "▁Ahmad",
        -9.624808751067665
      ],
      [
        "▁Emp",
        -9.62507956302378
      ],
      [
        "▁youth",
        -9.625819779421727
      ],
      [
        "▁add",
        -9.626405346347788
      ],
      [
        "▁Ebu",
        -9.628838123919707
      ],
      [
        "ung",
        -9.629484121976255
      ],
      [
        "bayo",
        -9.629722306533004
      ],
      [
        "▁ple",
        -9.630594672633453
      ],
      [
        "bert",
        -9.63203439210239
      ],
      [
        "▁beat",
        -9.632367859142446
      ],
      [
        "▁Del",
        -9.633883213475933
      ],
      [
        "▁Ama",
        -9.635628300404132
      ],
      [
        "ealth",
        -9.635903708615142
      ],
      [
        "Bad",
        -9.636505315971162
      ],
      [
        "remi",
        -9.638585820107815
      ],
      [
        "▁sik",
        -9.642170304155908
      ],
      [
        "odun",
        -9.645050899941898
      ],
      [
        "For",
        -9.64653234037608
      ],
      [
        "▁tru",
        -9.647458337657117
      ],
      [
        "nny",
        -9.647659283903801
      ],
      [
        "media",
        -9.648982435627694
      ],
      [
        "▁Sim",
        -9.652086522902367
      ],
      [
        "▁Jazz",
        -9.654058613936838
      ],
      [
        "▁kwik",
        -9.654063538653322
      ],
      [
        "▁Zaria",
        -9.654076596985757
      ],
      [
        "▁German",
        -9.654080617652241
      ],
      [
        "▁sarf",
        -9.654138215733798
      ],
      [
        "▁Gben",
        -9.654165893330902
      ],
      [
        "▁Victor",
        -9.654338440166606
      ],
      [
        "▁Western",
        -9.654973320616863
      ],
      [
        "▁fall",
        -9.655178059836121
      ],
      [
        "▁Rufa",
        -9.655226451988511
      ],
      [
        "▁Top",
        -9.655569807761083
      ],
      [
        "▁Game",
        -9.655674173098646
      ],
      [
        "bí",
        -9.655793012159016
      ],
      [
        "leke",
        -9.655980336056201
      ],
      [
        "▁Wey",
        -9.65622300809484
      ],
      [
        "▁Musa",
        -9.65668819249704
      ],
      [
        "kwu",
        -9.656792128051599
      ],
      [
        "hester",
        -9.656833630223323
      ],
      [
        "vill",
        -9.658166788308206
      ],
      [
        "▁Hadi",
        -9.659504851214926
      ],
      [
        "▁risa",
        -9.660943069897417
      ],
      [
        "▁Christ",
        -9.664834616546552
      ],
      [
        "▁Oluwa",
        -9.665591358474156
      ],
      [
        "kati",
        -9.665737957544394
      ],
      [
        "▁produc",
        -9.668140898152734
      ],
      [
        "▁Red",
        -9.670344003997254
      ],
      [
        "▁ten",
        -9.671396725101385
      ],
      [
        "▁Justi",
        -9.67335731041584
      ],
      [
        "self",
        -9.67357059276266
      ],
      [
        "▁Sow",
        -9.673996570397911
      ],
      [
        "▁inter",
        -9.677901455364474
      ],
      [
        ")",
        -9.681938184189598
      ],
      [
        "▁bai",
        -9.682499397721612
      ],
      [
        "ogun",
        -9.682775293512492
      ],
      [
        "suo",
        -9.683998297639508
      ],
      [
        "▁ambassador",
        -9.686316572877793
      ],
      [
        "▁Adadevo",
        -9.686316573782015
      ],
      [
        "▁Technolog",
        -9.686316616098999
      ],
      [
        "▁Kannywood",
        -9.686316642410885
      ],
      [
        "▁Kristen",
        -9.68631670476042
      ],
      [
        "▁Chairman",
        -9.686316970529802
      ],
      [
        "▁Record",
        -9.686318988879883
      ],
      [
        "▁kapita",
        -9.686319466258237
      ],
      [
        "▁Joseph",
        -9.68632210998132
      ],
      [
        "▁Louis",
        -9.686324876781065
      ],
      [
        "▁Film",
        -9.686343028904329
      ],
      [
        "▁hanima",
        -9.686348631618063
      ],
      [
        "▁Queen",
        -9.686366446581966
      ],
      [
        "▁Pipo",
        -9.686374170730938
      ],
      [
        "▁award",
        -9.686393628018289
      ],
      [
        "▁promot",
        -9.686412302987392
      ],
      [
        "▁Financ",
        -9.686506967089041
      ],
      [
        "▁Masta",
        -9.686712298381284
      ],
      [
        "▁Centr",
        -9.686957971171786
      ],
      [
        "▁move",
        -9.68703706394145
      ],
      [
        "▁down",
        -9.687147387949917
      ],
      [
        "ootball",
        -9.68770045915409
      ],
      [
        "▁Dang",
        -9.688828783046665
      ],
      [
        "▁stadium",
        -9.689426274664712
      ],
      [
        "▁Osho",
        -9.689752473709925
      ],
      [
        "ofnor",
        -9.69027896277957
      ],
      [
        "tik",
        -9.690355047355835
      ],
      [
        "▁Anna",
        -9.69664024221362
      ],
      [
        "pesi",
        -9.697816938437475
      ],
      [
        "▁star",
        -9.700922994025783
      ],
      [
        "▁Abim",
        -9.701753003654813
      ],
      [
        "▁Mama",
        -9.703404770184758
      ],
      [
        "▁pain",
        -9.703622062554834
      ],
      [
        "cal",
        -9.704506669757999
      ],
      [
        "▁kill",
        -9.705039065985671
      ],
      [
        "▁tink",
        -9.705432114198215
      ],
      [
        "▁Lig",
        -9.706130656670705
      ],
      [
        "▁Liv",
        -9.707650614952446
      ],
      [
        "▁Barr",
        -9.707724322672682
      ],
      [
        "▁Yu",
        -9.708199635811136
      ],
      [
        "shua",
        -9.708375325396556
      ],
      [
        "▁fac",
        -9.710181495264061
      ],
      [
        "▁Studi",
        -9.715938913710463
      ],
      [
        "ency",
        -9.716396168060399
      ],
      [
        "NC",
        -9.71852582425918
      ],
      [
        "evelopme",
        -9.718705911236881
      ],
      [
        "▁Champion",
        -9.71943550319258
      ],
      [
        "▁divelop",
        -9.719650200509504
      ],
      [
        "▁Muslim",
        -9.719657310655048
      ],
      [
        "▁ezampu",
        -9.719659488155125
      ],
      [
        "▁Russia",
        -9.71968811830106
      ],
      [
        "▁podus",
        -9.719711767905268
      ],
      [
        "▁Brother",
        -9.71993265586731
      ],
      [
        "▁Championship",
        -9.720437683336407
      ],
      [
        "▁Johnson",
        -9.720757956856133
      ],
      [
        "▁ground",
        -9.720963769301473
      ],
      [
        "▁36",
        -9.727811503520293
      ],
      [
        "▁moto",
        -9.728080952752851
      ],
      [
        "ough",
        -9.73007138726051
      ],
      [
        "▁Oga",
        -9.730941062031565
      ],
      [
        "▁Sal",
        -9.731464363302786
      ],
      [
        "lade",
        -9.73258812055015
      ],
      [
        "uel",
        -9.73688670545212
      ],
      [
        "ound",
        -9.739244975344945
      ],
      [
        "▁pak",
        -9.739256610571069
      ],
      [
        "▁sens",
        -9.739276250998335
      ],
      [
        "▁direct",
        -9.73943228699287
      ],
      [
        "▁Oshi",
        -9.739950829295292
      ],
      [
        "▁Simi",
        -9.740246074226604
      ],
      [
        "▁Head",
        -9.744433710718269
      ],
      [
        "▁Chil",
        -9.74574773209321
      ],
      [
        "▁Her",
        -9.749808476010664
      ],
      [
        "DS",
        -9.752457136689497
      ],
      [
        "blo",
        -9.753921195518275
      ],
      [
        "ó",
        -9.754132664829049
      ],
      [
        "▁Service",
        -9.754132730749888
      ],
      [
        "▁Fedira",
        -9.75413934621858
      ],
      [
        "▁Cross",
        -9.754142398185511
      ],
      [
        "▁Alex",
        -9.754210362893685
      ],
      [
        "▁sopos",
        -9.754222942784626
      ],
      [
        "▁Gold",
        -9.75422898586296
      ],
      [
        "▁Waterson",
        -9.754383113622325
      ],
      [
        "▁Hospital",
        -9.754570906725778
      ],
      [
        "organ",
        -9.754622801383956
      ],
      [
        "▁orijin",
        -9.754663328834475
      ],
      [
        "▁Sanwo",
        -9.755006621311404
      ],
      [
        "wume",
        -9.75551496515064
      ],
      [
        "aid",
        -9.75590323520899
      ],
      [
        "▁lisin",
        -9.756508814768438
      ],
      [
        "shora",
        -9.758154319557173
      ],
      [
        "▁Adego",
        -9.758225956095597
      ],
      [
        "▁hard",
        -9.758396310940364
      ],
      [
        "▁Olami",
        -9.758482334165784
      ],
      [
        "▁mak",
        -9.758544045729984
      ],
      [
        "▁War",
        -9.766307787739512
      ],
      [
        "serve",
        -9.768742609480768
      ],
      [
        "▁Asia",
        -9.77037511855037
      ],
      [
        "IT",
        -9.777012115541108
      ],
      [
        "▁siri",
        -9.781265630195161
      ],
      [
        "app",
        -9.783706600239345
      ],
      [
        "elevision",
        -9.78866221269121
      ],
      [
        "▁Olympic",
        -9.789846950597358
      ],
      [
        "xecutiv",
        -9.789846969997509
      ],
      [
        "▁Barcelon",
        -9.789847070179608
      ],
      [
        "▁world",
        -9.78984714095835
      ],
      [
        "▁politiks",
        -9.78984751238253
      ],
      [
        "▁Mercy",
        -9.78985429857249
      ],
      [
        "▁label",
        -9.789861942925873
      ],
      [
        "▁advais",
        -9.789864950703159
      ],
      [
        "▁title",
        -9.78989271092832
      ],
      [
        "▁Magic",
        -9.789894761171505
      ],
      [
        "▁Afola",
        -9.789897790940845
      ],
      [
        "▁near",
        -9.790179551630386
      ],
      [
        "▁lead",
        -9.790461928380317
      ],
      [
        "▁evriwi",
        -9.790489771448213
      ],
      [
        "IV",
        -9.790750374110981
      ],
      [
        "qui",
        -9.790807722095447
      ],
      [
        "neva",
        -9.790887939958957
      ],
      [
        "▁Tun",
        -9.79173473018518
      ],
      [
        "▁Sound",
        -9.792718725092492
      ],
      [
        "▁Yek",
        -9.793784328314551
      ],
      [
        "mobi",
        -9.796449419907383
      ],
      [
        "▁70",
        -9.797230309473955
      ],
      [
        "vais",
        -9.797441642369044
      ],
      [
        "▁Wet",
        -9.799219316348957
      ],
      [
        "gida",
        -9.802196344592067
      ],
      [
        "mber",
        -9.802219326462756
      ],
      [
        "raft",
        -9.802357089205593
      ],
      [
        "▁term",
        -9.805803736167714
      ],
      [
        "▁bol",
        -9.80664965240309
      ],
      [
        "bra",
        -9.808247186860653
      ],
      [
        "▁MC",
        -9.809508943054894
      ],
      [
        "ook",
        -9.809581037964525
      ],
      [
        "ext",
        -9.813230954686825
      ],
      [
        "▁stag",
        -9.820152967461297
      ],
      [
        "unny",
        -9.820658642729814
      ],
      [
        "tisha",
        -9.82068346143824
      ],
      [
        "tadium",
        -9.823346778729942
      ],
      [
        "ago",
        -9.825521590092807
      ],
      [
        "▁sam",
        -9.825984480058004
      ],
      [
        "▁Commit",
        -9.826884259314395
      ],
      [
        "▁Premier",
        -9.826890253389394
      ],
      [
        "▁Black",
        -9.826894530034439
      ],
      [
        "▁langue",
        -9.826895619490555
      ],
      [
        "▁kompetish",
        -9.826907612102353
      ],
      [
        "▁Professo",
        -9.826919304905477
      ],
      [
        "▁Jackson",
        -9.827079301086854
      ],
      [
        "▁strong",
        -9.827162740723727
      ],
      [
        "esign",
        -9.827396433828108
      ],
      [
        "▁week",
        -9.827540106526946
      ],
      [
        "▁Medic",
        -9.82761609294317
      ],
      [
        "▁trib",
        -9.827905316243923
      ],
      [
        "▁Umar",
        -9.827951897569857
      ],
      [
        "▁Thom",
        -9.828016373215565
      ],
      [
        "▁Sosa",
        -9.828117894958098
      ],
      [
        "▁Saint",
        -9.828160451278565
      ],
      [
        "▁Broda",
        -9.828555663959277
      ],
      [
        "book",
        -9.828593447226353
      ],
      [
        "▁Portug",
        -9.829297930468728
      ],
      [
        "▁home",
        -9.830681015448231
      ],
      [
        "▁Fati",
        -9.830930481894162
      ],
      [
        "▁Kup",
        -9.8309685928018
      ],
      [
        "▁Tex",
        -9.835936399207753
      ],
      [
        "▁Cho",
        -9.837891580699784
      ],
      [
        "flu",
        -9.841106238495769
      ],
      [
        "▁fain",
        -9.844505141774544
      ],
      [
        "▁Rub",
        -9.845916272045834
      ],
      [
        "▁Alab",
        -9.863920370749492
      ],
      [
        "Q",
        -9.864360490059777
      ],
      [
        "▁Univers",
        -9.864840774921426
      ],
      [
        "▁Economic",
        -9.865345527502951
      ],
      [
        "▁Dahome",
        -9.865354636755658
      ],
      [
        "▁drink",
        -9.86535467884188
      ],
      [
        "▁ritaya",
        -9.86535544760839
      ],
      [
        "▁komuniti",
        -9.865364597293725
      ],
      [
        "▁Grace",
        -9.865366160377432
      ],
      [
        "▁person",
        -9.865373208172146
      ],
      [
        "▁Afro",
        -9.865426587871958
      ],
      [
        "▁Elizabet",
        -9.865452267406528
      ],
      [
        "▁visit",
        -9.865494537693568
      ],
      [
        "▁Plate",
        -9.865506938895614
      ],
      [
        "▁back",
        -9.86632415190751
      ],
      [
        "mission",
        -9.866331494471625
      ],
      [
        "▁Wale",
        -9.866814179158597
      ],
      [
        "▁Chel",
        -9.867543987544577
      ],
      [
        "FR",
        -9.86881365517883
      ],
      [
        "▁Vai",
        -9.869461278876054
      ],
      [
        "▁Tek",
        -9.870592761772993
      ],
      [
        "▁Manc",
        -9.872480528908106
      ],
      [
        "▁found",
        -9.873280999993339
      ],
      [
        "▁Him",
        -9.874150455388161
      ],
      [
        "▁Vic",
        -9.875476246639426
      ],
      [
        "▁Wum",
        -9.876457815372527
      ],
      [
        "▁Headi",
        -9.87649660024624
      ],
      [
        "▁sinc",
        -9.879170639446283
      ],
      [
        "▁love",
        -9.882309937783752
      ],
      [
        "▁Sad",
        -9.883653266657404
      ],
      [
        "▁web",
        -9.891650234854287
      ],
      [
        "umel",
        -9.893453141356677
      ],
      [
        "ensi",
        -9.895966362010853
      ],
      [
        "eboy",
        -9.900947451431104
      ],
      [
        "▁Jacob",
        -9.90534557671916
      ],
      [
        "▁Secondar",
        -9.905345635738067
      ],
      [
        "▁yoruba",
        -9.905345645052309
      ],
      [
        "▁folklore",
        -9.905349940351634
      ],
      [
        "▁photo",
        -9.90535186051692
      ],
      [
        "▁jenera",
        -9.905353075889327
      ],
      [
        "▁guita",
        -9.905555819523547
      ],
      [
        "uthori",
        -9.905694225866434
      ],
      [
        "▁Dareto",
        -9.905869443391037
      ],
      [
        "▁alway",
        -9.906215784280239
      ],
      [
        "▁sex",
        -9.906293727776044
      ],
      [
        "▁grand",
        -9.906454889625916
      ],
      [
        "▁numb",
        -9.90650470147221
      ],
      [
        "ford",
        -9.906807075206698
      ],
      [
        "▁UK",
        -9.90681184209993
      ],
      [
        "▁Fuji",
        -9.906857510012642
      ],
      [
        "▁open",
        -9.907437559066981
      ],
      [
        "▁Prime",
        -9.90829624298631
      ],
      [
        "▁chop",
        -9.909072894805893
      ],
      [
        "ijin",
        -9.910657833136252
      ],
      [
        "▁kosh",
        -9.911005473378411
      ],
      [
        "tenni",
        -9.914353636716871
      ],
      [
        "▁Siti",
        -9.916450526183915
      ],
      [
        "▁direkt",
        -9.917630985375629
      ],
      [
        "▁Allian",
        -9.917814978837239
      ],
      [
        "▁Sara",
        -9.917933740573673
      ],
      [
        "mmer",
        -9.91805414063326
      ],
      [
        "oul",
        -9.927904509222445
      ],
      [
        "▁Mor",
        -9.937088942212954
      ],
      [
        "heti",
        -9.937364358444354
      ],
      [
        "▁trai",
        -9.939206238346157
      ],
      [
        "▁Gar",
        -9.943945369753834
      ],
      [
        "EP",
        -9.944710816522464
      ],
      [
        "▁]]",
        -9.947012192708575
      ],
      [
        "▁Georgia",
        -9.947012239315855
      ],
      [
        "▁Afrobeat",
        -9.94701255344823
      ],
      [
        "▁governor",
        -9.947013077376877
      ],
      [
        "▁Anglican",
        -9.947015721948288
      ],
      [
        "▁Islam",
        -9.947019439071205
      ],
      [
        "▁follow",
        -9.947066965834964
      ],
      [
        "▁minute",
        -9.947083475213285
      ],
      [
        "master",
        -9.94725088109055
      ],
      [
        "▁member",
        -9.947286803802674
      ],
      [
        "▁water",
        -9.947757393670669
      ],
      [
        "▁chief",
        -9.94780759481924
      ],
      [
        "▁politic",
        -9.948262416205022
      ],
      [
        "▁Acc",
        -9.9483051194062
      ],
      [
        "▁dash",
        -9.94857553483232
      ],
      [
        "asmus",
        -9.948700676631296
      ],
      [
        "▁saf",
        -9.949289304656562
      ],
      [
        "▁Certifi",
        -9.950218171603174
      ],
      [
        "▁pastor",
        -9.950730158534125
      ],
      [
        "▁Inter",
        -9.952974888827242
      ],
      [
        "yemi",
        -9.953367894468721
      ],
      [
        "▁Dako",
        -9.954278167205295
      ],
      [
        "ieve",
        -9.955785235334247
      ],
      [
        "▁Love",
        -9.956079825477207
      ],
      [
        "dorin",
        -9.957556000020478
      ],
      [
        "▁Ogb",
        -9.95894798468208
      ],
      [
        "▁Baye",
        -9.962923021938305
      ],
      [
        "▁becom",
        -9.963456622004962
      ],
      [
        "▁Kesh",
        -9.965168919391074
      ],
      [
        "prisin",
        -9.965176624388171
      ],
      [
        "▁shar",
        -9.965851263776823
      ],
      [
        "outhern",
        -9.966332097970756
      ],
      [
        "▁transf",
        -9.967413628410219
      ],
      [
        "ebel",
        -9.972128894253505
      ],
      [
        "▁Live",
        -9.97497781290287
      ],
      [
        "roni",
        -9.978735908637164
      ],
      [
        "▁Jone",
        -9.979295519450725
      ],
      [
        "▁Wel",
        -9.982088867342492
      ],
      [
        "mate",
        -9.985052668081895
      ],
      [
        "V",
        -9.990369185478135
      ],
      [
        "▁Michael",
        -9.990490779746144
      ],
      [
        "▁inklud",
        -9.990490974742734
      ],
      [
        "▁break",
        -9.990494936505845
      ],
      [
        "▁Roberts",
        -9.990503661260274
      ],
      [
        "search",
        -9.990521026823146
      ],
      [
        "▁region",
        -9.99052357056354
      ],
      [
        "▁soshal",
        -9.990535268064406
      ],
      [
        "league",
        -9.990564877748612
      ],
      [
        "▁Beaut",
        -9.990596538047553
      ],
      [
        "▁Dipatme",
        -9.990606795669274
      ],
      [
        "▁Master",
        -9.990654246511358
      ],
      [
        "▁ezam",
        -9.990764301804187
      ],
      [
        "▁Island",
        -9.990946076819688
      ],
      [
        "▁assist",
        -9.991120216594593
      ],
      [
        "▁drum",
        -9.991152437555655
      ],
      [
        "▁Social",
        -9.99172140650448
      ],
      [
        "▁who",
        -9.991908751487784
      ],
      [
        "▁Television",
        -9.99194142592782
      ],
      [
        "▁klin",
        -9.992387300906675
      ],
      [
        "PP",
        -9.99248286450577
      ],
      [
        "luck",
        -9.993029465289581
      ],
      [
        "pool",
        -9.99312111878843
      ],
      [
        "▁Governor",
        -9.994455909366685
      ],
      [
        "teknik",
        -9.994801132718134
      ],
      [
        "▁Alade",
        -9.996307592638434
      ],
      [
        "▁Fini",
        -9.996407672799016
      ],
      [
        "▁Stud",
        -9.996652971199198
      ],
      [
        "AF",
        -9.997751397936282
      ],
      [
        "▁Yab",
        -9.997973117216798
      ],
      [
        "▁Chik",
        -10.002121614151418
      ],
      [
        "tekia",
        -10.00775879681103
      ],
      [
        "▁Trad",
        -10.00799460743092
      ],
      [
        "kov",
        -10.01376082721065
      ],
      [
        "kool",
        -10.032733580327463
      ],
      [
        "univasiti",
        -10.034366961742471
      ],
      [
        "▁Abdullah",
        -10.03594500058607
      ],
      [
        "▁universit",
        -10.035945015031638
      ],
      [
        "▁District",
        -10.035945103374814
      ],
      [
        "▁Power",
        -10.035946002123291
      ],
      [
        "▁elekt",
        -10.035957185264847
      ],
      [
        "▁Sunday",
        -10.035959577208795
      ],
      [
        "speshal",
        -10.035963318932858
      ],
      [
        "▁prati",
        -10.035965540107775
      ],
      [
        "▁minista",
        -10.0359859316379
      ],
      [
        "▁Otti",
        -10.036061734078164
      ],
      [
        "▁compan",
        -10.036147528183644
      ],
      [
        "▁Yak",
        -10.036158943040512
      ],
      [
        "▁hakus",
        -10.036277440987718
      ],
      [
        "▁Yemi",
        -10.036322067738613
      ],
      [
        "▁Chart",
        -10.036327759375643
      ],
      [
        "▁klos",
        -10.036398214247562
      ],
      [
        "▁chek",
        -10.036519678271093
      ],
      [
        "▁Arsen",
        -10.036765096624695
      ],
      [
        "▁kompos",
        -10.03682509794549
      ],
      [
        "▁Pop",
        -10.037723629693442
      ],
      [
        "▁Hild",
        -10.037958256940243
      ],
      [
        "feyin",
        -10.03807416322449
      ],
      [
        "▁hour",
        -10.038179201289665
      ],
      [
        "▁Hall",
        -10.038213431113878
      ],
      [
        "▁riso",
        -10.038615907400258
      ],
      [
        "▁Barbe",
        -10.03941417839649
      ],
      [
        "▁FM",
        -10.040062158253338
      ],
      [
        "▁Face",
        -10.040717492346026
      ],
      [
        "▁Nashiona",
        -10.041051391865636
      ],
      [
        "▁manej",
        -10.043011308045683
      ],
      [
        "ball",
        -10.044070618211379
      ],
      [
        "▁whe",
        -10.048829649049798
      ],
      [
        "(",
        -10.057942347990213
      ],
      [
        "uchi",
        -10.061635681814014
      ],
      [
        "pasto",
        -10.061755128548633
      ],
      [
        "▁Senat",
        -10.062201060341968
      ],
      [
        "▁Folk",
        -10.083463236476511
      ],
      [
        "X",
        -10.083564046651734
      ],
      [
        "▁Egypt",
        -10.08356407126031
      ],
      [
        "▁Urhobo",
        -10.083564072630992
      ],
      [
        "▁industri",
        -10.083564217220383
      ],
      [
        "▁Assistan",
        -10.083564518680795
      ],
      [
        "aliforni",
        -10.083564715746492
      ],
      [
        "▁diploma",
        -10.083565029451837
      ],
      [
        "▁kristen",
        -10.083565517449408
      ],
      [
        "technic",
        -10.083566515507746
      ],
      [
        "▁Instag",
        -10.083571437469834
      ],
      [
        "▁Gbaja",
        -10.083573201244002
      ],
      [
        "▁Region",
        -10.083586703616582
      ],
      [
        "▁Oshinow",
        -10.083596484569716
      ],
      [
        "▁editor",
        -10.083613395714186
      ],
      [
        "umuyi",
        -10.083623652198867
      ],
      [
        "▁score",
        -10.08363009418681
      ],
      [
        "▁bizines",
        -10.083642682249135
      ],
      [
        "▁Alhaj",
        -10.083797624718187
      ],
      [
        "▁Sentra",
        -10.083922944437127
      ],
      [
        "▁Chance",
        -10.084013782882797
      ],
      [
        "▁propat",
        -10.084047227985005
      ],
      [
        "▁Administration",
        -10.084076688753461
      ],
      [
        "▁Human",
        -10.084609765917268
      ],
      [
        "▁senator",
        -10.084678592214567
      ],
      [
        "▁develop",
        -10.084930420939843
      ],
      [
        "▁Manage",
        -10.085169912607336
      ],
      [
        "▁Paris",
        -10.085184982873397
      ],
      [
        "▁Angel",
        -10.085667612470415
      ],
      [
        "▁just",
        -10.085900990540138
      ],
      [
        "▁Directo",
        -10.08594619043626
      ],
      [
        "▁joj",
        -10.087956994269048
      ],
      [
        "▁earl",
        -10.089753236092251
      ],
      [
        "▁Pep",
        -10.09302078143848
      ],
      [
        "▁Camp",
        -10.093222125574055
      ],
      [
        "▁India",
        -10.09666650631236
      ],
      [
        "ruler",
        -10.113975668235689
      ],
      [
        "▁Chris",
        -10.116064199155455
      ],
      [
        "▁manij",
        -10.122957016782145
      ],
      [
        "▁trad",
        -10.12866364101016
      ],
      [
        "£",
        -10.133564046651735
      ],
      [
        "▁Representative",
        -10.13356404665179
      ],
      [
        "▁Cambridge",
        -10.133564046681595
      ],
      [
        "▁Public",
        -10.133564059464122
      ],
      [
        "▁Leicester",
        -10.133564060446735
      ],
      [
        "▁ekonomi",
        -10.13356411164002
      ],
      [
        "▁Middle",
        -10.133564167285012
      ],
      [
        "▁Diploma",
        -10.133564184178617
      ],
      [
        "▁communit",
        -10.133564770532871
      ],
      [
        "▁Inyang",
        -10.133567343182738
      ],
      [
        "▁Brown",
        -10.133573640465215
      ],
      [
        "▁Radio",
        -10.133597986972482
      ],
      [
        "▁Biznes",
        -10.13360002478033
      ],
      [
        "▁court",
        -10.133602769019053
      ],
      [
        "▁Jenera",
        -10.133606556883796
      ],
      [
        "▁Mohamm",
        -10.133658877931223
      ],
      [
        "▁Quav",
        -10.133837348313921
      ],
      [
        "▁corre",
        -10.133898435471009
      ],
      [
        "▁short",
        -10.134093489630807
      ],
      [
        "▁intanashonal",
        -10.134168368575875
      ],
      [
        "▁Count",
        -10.134352424117301
      ],
      [
        "▁creat",
        -10.134978941038693
      ],
      [
        "▁Mosho",
        -10.13590366524988
      ],
      [
        "▁Klime",
        -10.136119250848681
      ],
      [
        "▁Togo",
        -10.136493463737986
      ],
      [
        "ompini",
        -10.137434764759544
      ],
      [
        "▁Makin",
        -10.139456318289067
      ],
      [
        "▁kompan",
        -10.144781134971037
      ],
      [
        "ehind",
        -10.146250123916424
      ],
      [
        "▁risin",
        -10.14766019207535
      ],
      [
        "▁risash",
        -10.151807099479118
      ],
      [
        "▁intavi",
        -10.159530560404598
      ],
      [
        "pper",
        -10.161756941982265
      ],
      [
        "mpt",
        -10.173221112998462
      ],
      [
        "▁Comp",
        -10.183689949478934
      ],
      [
        "▁White",
        -10.186013505222565
      ],
      [
        "▁Independen",
        -10.186195628147786
      ],
      [
        "▁Emmanuel",
        -10.1861956324092
      ],
      [
        "▁include",
        -10.186195690084071
      ],
      [
        "▁Global",
        -10.186195790294315
      ],
      [
        "▁industry",
        -10.186195858574997
      ],
      [
        "▁Museum",
        -10.186196519883952
      ],
      [
        "▁perform",
        -10.186199323245386
      ],
      [
        "▁selibr",
        -10.186208566652848
      ],
      [
        "pecial",
        -10.186219141019484
      ],
      [
        "▁Anthon",
        -10.186232541164907
      ],
      [
        "▁Town",
        -10.186234301479818
      ],
      [
        "▁chart",
        -10.18628326086161
      ],
      [
        "▁kpatakpat",
        -10.186285683316731
      ],
      [
        "▁Davis",
        -10.186375857400227
      ],
      [
        "▁malaria",
        -10.186417371553752
      ],
      [
        "▁Choice",
        -10.186418112090694
      ],
      [
        "▁Agbor",
        -10.186555240713318
      ],
      [
        "▁Universiti",
        -10.186637277808957
      ],
      [
        "▁election",
        -10.186772565860966
      ],
      [
        "▁dipatme",
        -10.187003036005311
      ],
      [
        "▁Teni",
        -10.187013877088935
      ],
      [
        "▁pupi",
        -10.187147127643778
      ],
      [
        "▁fift",
        -10.187886056665029
      ],
      [
        "▁Vie",
        -10.18830729697197
      ],
      [
        "▁skol",
        -10.188949539593406
      ],
      [
        "▁nine",
        -10.189455701369033
      ],
      [
        "▁Anya",
        -10.19053294802507
      ],
      [
        "▁chang",
        -10.195299795998208
      ],
      [
        "▁jonalis",
        -10.197870120949986
      ],
      [
        "ampu",
        -10.212629271947012
      ],
      [
        "▁Bibl",
        -10.213206514136683
      ],
      [
        "▁Elect",
        -10.213843981313264
      ],
      [
        "memba",
        -10.213873230292393
      ],
      [
        "field",
        -10.241579427643396
      ],
      [
        "€",
        -10.24175118115466
      ],
      [
        "ọ",
        -10.241751181154662
      ],
      [
        "thnomusicolog",
        -10.2417511811549
      ],
      [
        "▁McCalla",
        -10.241751181210187
      ],
      [
        "▁Virsalad",
        -10.24175118126775
      ],
      [
        "▁magazine",
        -10.241751181738973
      ],
      [
        "▁Chealsea",
        -10.241751200166844
      ],
      [
        "▁Ozarovsk",
        -10.241751224262547
      ],
      [
        "ndigenous",
        -10.241751270622306
      ],
      [
        "▁Biafra",
        -10.241751472777832
      ],
      [
        "epartment",
        -10.241751924325534
      ],
      [
        "▁Office",
        -10.241755007103176
      ],
      [
        "▁relijo",
        -10.241755366297177
      ],
      [
        "▁Guard",
        -10.241760643677278
      ],
      [
        "▁kontinet",
        -10.241763057539469
      ],
      [
        "▁Edukesh",
        -10.241772802911896
      ],
      [
        "▁earth",
        -10.241811102203597
      ],
      [
        "▁Baby",
        -10.241863464166439
      ],
      [
        "▁Congo",
        -10.24189971045807
      ],
      [
        "▁Swed",
        -10.241937623439654
      ],
      [
        "wenty",
        -10.241990642508117
      ],
      [
        "▁Village",
        -10.242034780488396
      ],
      [
        "mark",
        -10.24204988200574
      ],
      [
        "▁Work",
        -10.242128518955926
      ],
      [
        "▁Board",
        -10.242395245482722
      ],
      [
        "▁Civi",
        -10.242444689284989
      ],
      [
        "▁folk",
        -10.242631666014963
      ],
      [
        "▁medal",
        -10.24266651919508
      ],
      [
        "ukka",
        -10.242748942764173
      ],
      [
        "▁enjoi",
        -10.24288481367705
      ],
      [
        "town",
        -10.245090418858172
      ],
      [
        "ocial",
        -10.245496038764015
      ],
      [
        "▁Gamb",
        -10.251463280741735
      ],
      [
        "fron",
        -10.256341465882063
      ],
      [
        "brand",
        -10.270236237807394
      ],
      [
        "▁nex",
        -10.28609642280728
      ],
      [
        "▁primar",
        -10.28899265189438
      ],
      [
        "▁muzish",
        -10.299965449416371
      ],
      [
        "ö",
        -10.300574710566426
      ],
      [
        "▁Affair",
        -10.300574800467464
      ],
      [
        "▁Canzian",
        -10.300574911131232
      ],
      [
        "▁international",
        -10.300575012710539
      ],
      [
        "▁includin",
        -10.300575049562159
      ],
      [
        "▁Methodis",
        -10.300575135699031
      ],
      [
        "▁Richard",
        -10.300575813405121
      ],
      [
        "▁vairus",
        -10.30057589911053
      ],
      [
        "▁leshura",
        -10.3005759070325
      ],
      [
        "▁traditional",
        -10.300575919691722
      ],
      [
        "▁profeso",
        -10.30057827424694
      ],
      [
        "▁spirit",
        -10.300578950150586
      ],
      [
        "▁support",
        -10.30058014127184
      ],
      [
        "▁Cuban",
        -10.300582890980392
      ],
      [
        "▁Scottish",
        -10.30058414831043
      ],
      [
        "▁Ebony",
        -10.30058471809473
      ],
      [
        "▁Album",
        -10.300585894204666
      ],
      [
        "peshial",
        -10.300589587916562
      ],
      [
        "▁track",
        -10.300589860462695
      ],
      [
        "▁Rekod",
        -10.300621015623259
      ],
      [
        "▁Walke",
        -10.3006229422694
      ],
      [
        "friend",
        -10.300628448463938
      ],
      [
        "▁Witch",
        -10.30063244615793
      ],
      [
        "▁Kemp",
        -10.300636202905196
      ],
      [
        "ocese",
        -10.300638523238346
      ],
      [
        "▁Faith",
        -10.300654021444242
      ],
      [
        "▁style",
        -10.300658781226266
      ],
      [
        "▁Adenira",
        -10.300667858082637
      ],
      [
        "▁Drama",
        -10.300712174610979
      ],
      [
        "▁Madri",
        -10.300720832109935
      ],
      [
        "▁point",
        -10.300769174899129
      ],
      [
        "▁Genev",
        -10.300804131197037
      ],
      [
        "Igbu",
        -10.300886878250266
      ],
      [
        "▁voice",
        -10.300916561193937
      ],
      [
        "▁priz",
        -10.300933035619302
      ],
      [
        "▁teble",
        -10.300980899763598
      ],
      [
        "▁prish",
        -10.300988327592313
      ],
      [
        "▁Comput",
        -10.301074787676157
      ],
      [
        "▁Stodi",
        -10.301146787050335
      ],
      [
        "▁Penn",
        -10.301644995770271
      ],
      [
        "▁Grove",
        -10.302403963089164
      ],
      [
        "▁Priz",
        -10.30253927627454
      ],
      [
        "▁Cott",
        -10.302697096964444
      ],
      [
        "▁rilijio",
        -10.30348052469963
      ],
      [
        "▁Tran",
        -10.303649618888482
      ],
      [
        "▁Nort",
        -10.307194969457885
      ],
      [
        "celle",
        -10.308553125514882
      ],
      [
        "Pipul",
        -10.317005647060409
      ],
      [
        "▁Obol",
        -10.339679543017182
      ],
      [
        "▁evriti",
        -10.33991175534226
      ],
      [
        "oblik",
        -10.360471186715184
      ],
      [
        "ẹ",
        -10.363074710566432
      ],
      [
        "▁headquarter",
        -10.36307471056661
      ],
      [
        "▁Magazin",
        -10.363074767608214
      ],
      [
        "▁engineer",
        -10.36307492269797
      ],
      [
        "▁Command",
        -10.3630757153839
      ],
      [
        "▁Profeso",
        -10.363075780271632
      ],
      [
        "▁collect",
        -10.363077652166416
      ],
      [
        "ganization",
        -10.36308104202977
      ],
      [
        "▁Southwest",
        -10.36308138657126
      ],
      [
        "▁Deput",
        -10.36308182622875
      ],
      [
        "ekutiv",
        -10.363083612495451
      ],
      [
        "▁Sahara",
        -10.363087463935566
      ],
      [
        "▁Rijion",
        -10.363094697906622
      ],
      [
        "▁learn",
        -10.363096987997288
      ],
      [
        "science",
        -10.363103829957936
      ],
      [
        "▁kostom",
        -10.363116675287158
      ],
      [
        "▁feel",
        -10.363125045906372
      ],
      [
        "▁projet",
        -10.363128081602772
      ],
      [
        "▁Grand",
        -10.363210334281252
      ],
      [
        "▁paper",
        -10.363231971029712
      ],
      [
        "▁hajos",
        -10.363256446852612
      ],
      [
        "▁Hotel",
        -10.36330556150633
      ],
      [
        "▁agri",
        -10.363329423192889
      ],
      [
        "▁klot",
        -10.363485645717686
      ],
      [
        "▁Miche",
        -10.364170071200343
      ],
      [
        "▁Wande",
        -10.364277500487159
      ],
      [
        "▁Febuar",
        -10.364481121126083
      ],
      [
        "▁Phyn",
        -10.365569953735779
      ],
      [
        "▁Oyeto",
        -10.365705303400587
      ],
      [
        "▁Cath",
        -10.367574927957978
      ],
      [
        "▁Steve",
        -10.36900219358547
      ],
      [
        "▁Waha",
        -10.371442407700645
      ],
      [
        "▁Ivo",
        -10.372355329706988
      ],
      [
        "▁Arab",
        -10.375294108375138
      ],
      [
        "▁Staf",
        -10.385786268809417
      ],
      [
        "▁Makar",
        -10.393047461995378
      ],
      [
        "▁Water",
        -10.429429241823032
      ],
      [
        "|",
        -10.429741377233107
      ],
      [
        "#",
        -10.429741377233107
      ],
      [
        "ì",
        -10.429741377233107
      ],
      [
        "▁Ekonomik",
        -10.429741377504318
      ],
      [
        "▁Phillip",
        -10.429741398782742
      ],
      [
        "▁Secretar",
        -10.429741437118278
      ],
      [
        "▁Brigitt",
        -10.42974145908175
      ],
      [
        "▁Communication",
        -10.429741481006118
      ],
      [
        "▁Edukashon",
        -10.429741495206997
      ],
      [
        "▁privat",
        -10.429742164943963
      ],
      [
        "▁important",
        -10.429742476584458
      ],
      [
        "▁akaunt",
        -10.429742816764774
      ],
      [
        "▁Margaret",
        -10.42974348373366
      ],
      [
        "▁southwest",
        -10.429744759057446
      ],
      [
        "▁Frank",
        -10.429745172441601
      ],
      [
        "▁kweshon",
        -10.429749779489434
      ],
      [
        "▁Spanish",
        -10.429751497344768
      ],
      [
        "▁child",
        -10.42975155542371
      ],
      [
        "▁agenst",
        -10.42975189719693
      ],
      [
        "▁figor",
        -10.42975301845627
      ],
      [
        "▁Cultur",
        -10.42975621862773
      ],
      [
        "▁Viewer",
        -10.429765646819195
      ],
      [
        "▁Heart",
        -10.429768913679698
      ],
      [
        "▁blak",
        -10.429772093370612
      ],
      [
        "▁Club",
        -10.429780378629015
      ],
      [
        "▁attend",
        -10.42978222835367
      ],
      [
        "▁origin",
        -10.42978783718128
      ],
      [
        "▁power",
        -10.429799409498681
      ],
      [
        "▁kaunt",
        -10.42982570346915
      ],
      [
        "▁Ocean",
        -10.429825872050808
      ],
      [
        "▁Center",
        -10.429847128163898
      ],
      [
        "▁park",
        -10.429903104246714
      ],
      [
        "nburg",
        -10.429919628763528
      ],
      [
        "▁Corp",
        -10.430001438771464
      ],
      [
        "▁masta",
        -10.430007718805225
      ],
      [
        "▁promis",
        -10.430047166258586
      ],
      [
        "▁elect",
        -10.430195642874242
      ],
      [
        "▁influen",
        -10.430343453836976
      ],
      [
        "▁Keya",
        -10.430418401672712
      ],
      [
        "NEC",
        -10.430625552300555
      ],
      [
        "attle",
        -10.432210767124202
      ],
      [
        "▁Clar",
        -10.43241957204176
      ],
      [
        "▁Guin",
        -10.432461615928574
      ],
      [
        "roblem",
        -10.43450030721416
      ],
      [
        "▁Ilori",
        -10.439309634999091
      ],
      [
        "ofisa",
        -10.450640003452339
      ],
      [
        "▁betw",
        -10.453655845826852
      ],
      [
        "▁dokto",
        -10.484541200637898
      ],
      [
        "▁posish",
        -10.49866933930249
      ],
      [
        "▁quarter",
        -10.501169949066188
      ],
      [
        "▁Douglas",
        -10.501169949775951
      ],
      [
        "▁represent",
        -10.501169949902973
      ],
      [
        "▁Cameroon",
        -10.501169952167114
      ],
      [
        "▁appoint",
        -10.501169995957444
      ],
      [
        "▁business",
        -10.501170022020718
      ],
      [
        "▁Terminal",
        -10.501170031166481
      ],
      [
        "▁Commun",
        -10.501170079774845
      ],
      [
        "▁Oghara",
        -10.501170161186852
      ],
      [
        "▁service",
        -10.501170207034718
      ],
      [
        "▁websait",
        -10.501170213832882
      ],
      [
        "Edward",
        -10.501170544187787
      ],
      [
        "▁Owerri",
        -10.501170768565487
      ],
      [
        "▁Udokwu",
        -10.501170878548496
      ],
      [
        "▁project",
        -10.501170964179511
      ],
      [
        "▁Fellow",
        -10.501170988703564
      ],
      [
        "▁platform",
        -10.50117189394877
      ],
      [
        "▁tradishion",
        -10.501172875256831
      ],
      [
        "▁Patrick",
        -10.50117309148239
      ],
      [
        "▁Mogaji",
        -10.50117523134213
      ],
      [
        "▁appear",
        -10.50117610023283
      ],
      [
        "▁fedira",
        -10.501177131200366
      ],
      [
        "▁bachelo",
        -10.501177333256388
      ],
      [
        "▁Break",
        -10.501179057709658
      ],
      [
        "▁Ihean",
        -10.501179986117226
      ],
      [
        "▁premier",
        -10.501184887363902
      ],
      [
        "▁prais",
        -10.501186564981376
      ],
      [
        "ylvan",
        -10.501190899000974
      ],
      [
        "▁Slave",
        -10.501209310839382
      ],
      [
        "▁deput",
        -10.501233600614778
      ],
      [
        "▁Guil",
        -10.501239850506959
      ],
      [
        "▁intanash",
        -10.50129957851889
      ],
      [
        "▁Angli",
        -10.501307428032096
      ],
      [
        "▁Media",
        -10.501350438692333
      ],
      [
        "▁Usman",
        -10.501381523136061
      ],
      [
        "tandard",
        -10.501581082132434
      ],
      [
        "▁Gregor",
        -10.501595626806534
      ],
      [
        "▁Azik",
        -10.50199651415167
      ],
      [
        "hampionship",
        -10.503243036781974
      ],
      [
        "▁actres",
        -10.504687615994616
      ],
      [
        "▁Zang",
        -10.506084491414983
      ],
      [
        "▁arres",
        -10.514594733843293
      ],
      [
        "horch",
        -10.51729166852446
      ],
      [
        "Beat",
        -10.526749554038338
      ],
      [
        "▁travu",
        -10.571166160316935
      ],
      [
        "▁Eliza",
        -10.577954050327268
      ],
      [
        "▁Francis",
        -10.578093030562567
      ],
      [
        "▁Corneli",
        -10.57809304780538
      ],
      [
        "▁announce",
        -10.578093112912985
      ],
      [
        "▁Baptist",
        -10.578093148827586
      ],
      [
        "▁Brazil",
        -10.578093260046654
      ],
      [
        "▁Oghare",
        -10.578093377386498
      ],
      [
        "▁concert",
        -10.578093437171088
      ],
      [
        "▁fellow",
        -10.578093598326355
      ],
      [
        "▁Rosenb",
        -10.578095920866957
      ],
      [
        "▁produksh",
        -10.578096557671548
      ],
      [
        "ontinental",
        -10.578097031508031
      ],
      [
        "AMB",
        -10.578097158264734
      ],
      [
        "▁jazz",
        -10.578097656278713
      ],
      [
        "▁translet",
        -10.578103339639236
      ],
      [
        "ahifod",
        -10.57810704035273
      ],
      [
        "▁Agricultur",
        -10.578107490221786
      ],
      [
        "▁Vallad",
        -10.578108046769191
      ],
      [
        "▁Memori",
        -10.578112601313538
      ],
      [
        "▁Tibet",
        -10.578116270127621
      ],
      [
        "▁Commerc",
        -10.578124768804416
      ],
      [
        "▁Smith",
        -10.578131508802775
      ],
      [
        "▁Dream",
        -10.57816611617444
      ],
      [
        "▁Pikin",
        -10.578172444616019
      ],
      [
        "▁Apart",
        -10.57820090656304
      ],
      [
        "sburg",
        -10.578230485402159
      ],
      [
        "cross",
        -10.578249477439211
      ],
      [
        "MBA",
        -10.578269862969897
      ],
      [
        "▁medika",
        -10.578324665283246
      ],
      [
        "▁positi",
        -10.578349535921753
      ],
      [
        "▁Appl",
        -10.578716373066992
      ],
      [
        "urname",
        -10.602326653099414
      ],
      [
        "▁Isok",
        -10.61797834394839
      ],
      [
        "Just",
        -10.634522061457739
      ],
      [
        "▁champion",
        -10.657534135783711
      ],
      [
        "unifasiti",
        -10.661190890976744
      ],
      [
        "ú",
        -10.661426358918252
      ],
      [
        "▁Agrikolsho",
        -10.661426358986485
      ],
      [
        "dministrative",
        -10.661426358998872
      ],
      [
        "▁Shansellor",
        -10.661426360251683
      ],
      [
        "▁Gjendine",
        -10.661426360468331
      ],
      [
        "▁Enjinia",
        -10.661426372409533
      ],
      [
        "▁kidnap",
        -10.661426463735639
      ],
      [
        "▁akademi",
        -10.661426473162898
      ],
      [
        "▁Wolfsburg",
        -10.661426733733096
      ],
      [
        "▁institush",
        -10.6614267787425
      ],
      [
        "▁Grimm",
        -10.661426900819603
      ],
      [
        "▁Washing",
        -10.661426986860837
      ],
      [
        "▁Gospel",
        -10.661427072938148
      ],
      [
        "▁Adegboye",
        -10.661427342156443
      ],
      [
        "▁return",
        -10.661430145491497
      ],
      [
        "▁Industr",
        -10.661432904726773
      ],
      [
        "▁Shuga",
        -10.661434911521594
      ],
      [
        "▁Fulani",
        -10.66144014594019
      ],
      [
        "▁nominate",
        -10.661440846373084
      ],
      [
        "▁kalenda",
        -10.661443201925792
      ],
      [
        "▁Eagle",
        -10.661451139069936
      ],
      [
        "▁Trust",
        -10.66145321115724
      ],
      [
        "▁close",
        -10.661453860557852
      ],
      [
        "▁kontinu",
        -10.66146793961055
      ],
      [
        "▁Vicker",
        -10.66147600758421
      ],
      [
        "▁large",
        -10.661489988767608
      ],
      [
        "▁savan",
        -10.661539649218671
      ],
      [
        "▁Politish",
        -10.66155901691747
      ],
      [
        "▁pramar",
        -10.661566109099558
      ],
      [
        "▁Litera",
        -10.661587244617795
      ],
      [
        "▁Televish",
        -10.661592225637124
      ],
      [
        "▁Confe",
        -10.661791500934058
      ],
      [
        "Jenif",
        -10.661894671747698
      ],
      [
        "▁leav",
        -10.663261095611983
      ],
      [
        "novel",
        -10.664171057894364
      ],
      [
        "ountain",
        -10.665570530971127
      ],
      [
        "▁Norw",
        -10.680567467938964
      ],
      [
        "▁edukash",
        -10.74868721354683
      ],
      [
        "ntanashonal",
        -10.751230035545294
      ],
      [
        "▁instrume",
        -10.751293213529687
      ],
      [
        "è",
        -10.752335449827614
      ],
      [
        "–",
        -10.752335449827614
      ],
      [
        "å",
        -10.752335449827614
      ],
      [
        "ä",
        -10.752335449827616
      ],
      [
        "▁MBGN",
        -10.752335450337348
      ],
      [
        "▁presidensh",
        -10.75233547535057
      ],
      [
        "▁wedding",
        -10.752335961985176
      ],
      [
        "▁secret",
        -10.75233646266684
      ],
      [
        "▁Algeria",
        -10.752337411135986
      ],
      [
        "▁langua",
        -10.752338686228002
      ],
      [
        "squa",
        -10.752342310874347
      ],
      [
        "▁Program",
        -10.752344365303303
      ],
      [
        "▁Direkto",
        -10.752346194542923
      ],
      [
        "▁komplit",
        -10.752356365118402
      ],
      [
        "▁kataka",
        -10.752357870107724
      ],
      [
        "▁repise",
        -10.752419022110839
      ],
      [
        "▁Futbol",
        -10.752425827630066
      ],
      [
        "▁gofme",
        -10.813613031631617
      ],
      [
        "nkwo",
        -10.836889315909719
      ],
      [
        "nstitution",
        -10.84882591509975
      ],
      [
        "▁Ojuelegba",
        -10.852335449920044
      ],
      [
        "▁LASU",
        -10.852335450639865
      ],
      [
        "▁newspaper",
        -10.852335450731374
      ],
      [
        "▁Newspaper",
        -10.85233545418415
      ],
      [
        "▁intaprit",
        -10.85233548053269
      ],
      [
        "▁independen",
        -10.852335483722351
      ],
      [
        "▁Merchant",
        -10.852335495246582
      ],
      [
        "▁Mongolia",
        -10.85233588157652
      ],
      [
        "▁Project",
        -10.852336145730986
      ],
      [
        "▁Provinc",
        -10.852336260139001
      ],
      [
        "▁Ransom",
        -10.852336526345885
      ],
      [
        "▁akount",
        -10.852336554631426
      ],
      [
        "▁Division",
        -10.852336822030884
      ],
      [
        "▁channel",
        -10.852337006119825
      ],
      [
        "▁OOU",
        -10.852337674308266
      ],
      [
        "▁Chenow",
        -10.852337856858759
      ],
      [
        "▁Hawaii",
        -10.852337876510145
      ],
      [
        "sexualit",
        -10.852338017590974
      ],
      [
        "▁Seeger",
        -10.852340732809806
      ],
      [
        "▁Petrol",
        -10.852340988538407
      ],
      [
        "▁Physic",
        -10.85234559590923
      ],
      [
        "▁Hungar",
        -10.852396731334998
      ],
      [
        "nominashon",
        -10.852398751541747
      ],
      [
        "▁Riplob",
        -10.852405434852606
      ],
      [
        "nvestment",
        -10.85241624387762
      ],
      [
        "Lekki",
        -10.852456648846768
      ],
      [
        "natoria",
        -10.852881791524117
      ],
      [
        "▁informash",
        -10.853238940993354
      ],
      [
        "▁koropsh",
        -10.853280548511608
      ],
      [
        "▁Italia",
        -10.853286364134753
      ],
      [
        "▁institut",
        -10.8558575924502
      ],
      [
        "angwej",
        -10.962316635285841
      ],
      [
        "“",
        -10.963446560941973
      ],
      [
        "”",
        -10.963446560941973
      ],
      [
        "▁Environment",
        -10.963446560958435
      ],
      [
        "▁establish",
        -10.963446561260358
      ],
      [
        "▁Administrash",
        -10.963446561377658
      ],
      [
        "▁Revolution",
        -10.963446561399476
      ],
      [
        "▁Language",
        -10.963446569848033
      ],
      [
        "▁musishian",
        -10.963446592015565
      ],
      [
        "▁hoganas",
        -10.96344662077825
      ],
      [
        "▁sponsor",
        -10.963446626276621
      ],
      [
        "▁enjinia",
        -10.963446695896568
      ],
      [
        "▁council",
        -10.963446698832465
      ],
      [
        "▁Journal",
        -10.963446807148012
      ],
      [
        "▁distribut",
        -10.963446857640577
      ],
      [
        "rganisashion",
        -10.96344690893551
      ],
      [
        "▁official",
        -10.963446991764817
      ],
      [
        "▁public",
        -10.963447040865898
      ],
      [
        "▁Scholar",
        -10.963447055452745
      ],
      [
        "▁neibor",
        -10.963447388894647
      ],
      [
        "▁Ogbomos",
        -10.963447682800005
      ],
      [
        "▁associat",
        -10.963448484839212
      ],
      [
        "▁pandemi",
        -10.963449098739225
      ],
      [
        "▁Croatia",
        -10.9634501217835
      ],
      [
        "nstruction",
        -10.963450176066226
      ],
      [
        "▁Jamaica",
        -10.96345570356723
      ],
      [
        "▁songwrit",
        -10.963458609680895
      ],
      [
        "▁Kongres",
        -10.96359437893441
      ],
      [
        "▁Corporat",
        -10.964291372739593
      ],
      [
        "halenj",
        -10.96481196271929
      ],
      [
        "▁Memb",
        -10.989816856446295
      ],
      [
        "▁edukesh",
        -11.084830658809611
      ],
      [
        "ampaign",
        -11.08821427450324
      ],
      [
        "\t",
        -11.088446560951077
      ],
      [
        "_",
        -11.088446560951077
      ],
      [
        "ù",
        -11.088446560951077
      ],
      [
        "ø",
        -11.08844656095108
      ],
      [
        "▁qualify",
        -11.088446561022122
      ],
      [
        "▁evanjeli",
        -11.088446561407228
      ],
      [
        "▁Trinidad",
        -11.088446562169143
      ],
      [
        "▁experience",
        -11.088446562816868
      ],
      [
        "▁journalis",
        -11.088446563558572
      ],
      [
        "▁Australia",
        -11.088446563810663
      ],
      [
        "▁celebrate",
        -11.08844656477669
      ],
      [
        "▁investige",
        -11.088446584137667
      ],
      [
        "▁Liberland",
        -11.088446641635585
      ],
      [
        "▁Netherland",
        -11.088446677483388
      ],
      [
        "▁celebrit",
        -11.088446681998018
      ],
      [
        "▁computer",
        -11.088446683110803
      ],
      [
        "▁Ethiop",
        -11.088446816012526
      ],
      [
        "▁Kalakut",
        -11.088450348900206
      ],
      [
        "▁Bashelo",
        -11.088454104359403
      ],
      [
        "▁tempu",
        -11.088456728792053
      ],
      [
        "publik",
        -11.088457076149126
      ],
      [
        "▁eleksh",
        -11.088667169447483
      ],
      [
        "▁Satifik",
        -11.094074205700393
      ],
      [
        "rganasash",
        -11.114214912264464
      ],
      [
        "ò",
        -11.231303703808221
      ],
      [
        "▁Philosoph",
        -11.231303703809992
      ],
      [
        "▁Practitioner",
        -11.231303703856899
      ],
      [
        "▁hoganaz",
        -11.231303709356194
      ],
      [
        "ALCO",
        -11.231303710601017
      ],
      [
        "▁Anthropolog",
        -11.231303726921244
      ],
      [
        "▁Gabriel",
        -11.231303731002033
      ],
      [
        "▁Divelopme",
        -11.23130378504492
      ],
      [
        "▁Squar",
        -11.231303929726312
      ],
      [
        "▁Eatonvil",
        -11.23130563590629
      ],
      [
        "Whitefield",
        -11.231861650041564
      ],
      [
        "dministration",
        -11.39606673698615
      ],
      [
        "ntrepreneur",
        -11.39797037048554
      ],
      [
        "▁Igbabonelimhin",
        -11.397970370514846
      ],
      [
        ">",
        -11.397970370514848
      ],
      [
        "<",
        -11.397970370514848
      ],
      [
        "dministrator",
        -11.397970370592091
      ],
      [
        "▁Mathematic",
        -11.397970371484266
      ],
      [
        "▁Parliament",
        -11.39797037250925
      ],
      [
        "▁Progresiv",
        -11.397970375823483
      ],
      [
        "▁Indipenden",
        -11.397970378544162
      ],
      [
        "▁contribut",
        -11.397970394349123
      ],
      [
        "▁Apostoli",
        -11.39797047164414
      ],
      [
        "/",
        -11.413633975250391
      ],
      [
        "°",
        -11.597970370514847
      ],
      [
        "ṣ",
        -11.597970370514847
      ],
      [
        "▁YABATEC",
        -11.597970370514847
      ],
      [
        "administrash",
        -11.597970375915784
      ],
      [
        "Z",
        -11.657740580681995
      ],
      [
        ":",
        -11.664395364650861
      ],
      [
        "Ì",
        -11.847970370474888
      ],
      [
        "ü",
        -11.847970370514846
      ],
      [
        "ô",
        -11.847970370514846
      ],
      [
        "ñ",
        -11.847970370514847
      ],
      [
        "‘",
        -11.847970370514847
      ],
      [
        "É",
        -12.181303703808222
      ],
      [
        "ï",
        -12.18130370384818
      ],
      [
        "•",
        -12.18130370384818
      ],
      [
        "₦",
        -12.18130370384818
      ],
      [
        "′",
        -12.18130370384818
      ],
      [
        "￼",
        -12.18130370384818
      ],
      [
        "—",
        -12.18130370384818
      ],
      [
        "=",
        -12.18130370384818
      ],
      [
        "▁Krivopolenova",
        -12.18130370384818
      ],
      [
        "ō",
        -12.681303703848176
      ],
      [
        "≈",
        -12.68130370384818
      ],
      [
        "ɔ",
        -12.68130370384818
      ],
      [
        "č",
        -12.68130370384818
      ],
      [
        "Ø",
        -12.68130370384818
      ],
      [
        "ĭ",
        -12.68130370384818
      ],
      [
        "ë",
        -12.68130370384818
      ],
      [
        "ụ",
        -12.68130370384818
      ],
      [
        "î",
        -13.667803703848179
      ],
      [
        "ª",
        -13.667903703848179
      ],
      [
        "Ĩ",
        -13.66800370384818
      ],
      [
        "Ý",
        -13.66810370384818
      ],
      [
        "Ŀ",
        -13.66820370384818
      ],
      [
        "¾",
        -13.66830370384818
      ],
      [
        "Ľ",
        -13.66840370384818
      ],
      [
        "¨",
        -13.66850370384818
      ],
      [
        "³",
        -13.668603703848179
      ],
      [
        "Õ",
        -13.668703703848179
      ],
      [
        "Ẹ",
        -13.66880370384818
      ],
      [
        "Ń",
        -13.66890370384818
      ],
      [
        "Ê",
        -13.66900370384818
      ],
      [
        "ĝ",
        -13.66910370384818
      ],
      [
        "Ĥ",
        -13.66920370384818
      ],
      [
        "Ă",
        -13.669303703848179
      ],
      [
        "ķ",
        -13.669403703848179
      ],
      [
        "Ġ",
        -13.66950370384818
      ],
      [
        "ļ",
        -13.66960370384818
      ],
      [
        "µ",
        -13.66970370384818
      ],
      [
        "Ě",
        -13.66980370384818
      ],
      [
        "º",
        -13.66990370384818
      ],
      [
        "Ù",
        -13.67000370384818
      ],
      [
        "ĉ",
        -13.670103703848179
      ],
      [
        "Ē",
        -13.670203703848179
      ],
      [
        "ß",
        -13.67030370384818
      ],
      [
        "ĕ",
        -13.67040370384818
      ],
      [
        "ð",
        -13.67050370384818
      ],
      [
        "¡",
        -13.67060370384818
      ],
      [
        "û",
        -13.67070370384818
      ],
      [
        "ħ",
        -13.670803703848179
      ],
      [
        "%",
        -13.670903703848179
      ],
      [
        "§",
        -13.671003703848179
      ],
      [
        "¯",
        -13.67110370384818
      ],
      [
        "²",
        -13.67120370384818
      ],
      [
        "¦",
        -13.67130370384818
      ],
      [
        "ĩ",
        -13.67140370384818
      ],
      [
        "½",
        -13.67150370384818
      ],
      [
        "Ĝ",
        -13.671603703848179
      ],
      [
        "Ė",
        -13.671703703848179
      ],
      [
        "¥",
        -13.67180370384818
      ],
      [
        "’",
        -13.67190370384818
      ],
      [
        "]",
        -13.67200370384818
      ],
      [
        "´",
        -13.67210370384818
      ],
      [
        "Ĺ",
        -13.67220370384818
      ],
      [
        "ċ",
        -13.67230370384818
      ],
      [
        "¹",
        -13.672403703848179
      ],
      [
        "Ĳ",
        -13.672503703848179
      ],
      [
        "Ú",
        -13.67260370384818
      ],
      [
        "õ",
        -13.67270370384818
      ],
      [
        "Ô",
        -13.67280370384818
      ],
      [
        "Ñ",
        -13.67290370384818
      ],
      [
        "ě",
        -13.67300370384818
      ],
      [
        "ŀ",
        -13.673103703848179
      ],
      [
        "Į",
        -13.673203703848179
      ],
      [
        "ĥ",
        -13.67330370384818
      ],
      [
        "Ð",
        -13.67340370384818
      ],
      [
        "ď",
        -13.67350370384818
      ],
      [
        "Č",
        -13.67360370384818
      ],
      [
        "Ę",
        -13.67370370384818
      ],
      [
        "İ",
        -13.67380370384818
      ],
      [
        "Ğ",
        -13.673903703848179
      ],
      [
        "Û",
        -13.674003703848179
      ],
      [
        "Á",
        -13.67410370384818
      ],
      [
        "æ",
        -13.67420370384818
      ],
      [
        "ġ",
        -13.67430370384818
      ],
      [
        "?",
        -13.67440370384818
      ],
      [
        "ĺ",
        -13.67450370384818
      ],
      [
        "÷",
        -13.67460370384818
      ],
      [
        "Ą",
        -13.674703703848179
      ],
      [
        "Þ",
        -13.674803703848179
      ],
      [
        "ė",
        -13.67490370384818
      ],
      [
        "©",
        -13.67500370384818
      ],
      [
        "@",
        -13.67510370384818
      ],
      [
        "ý",
        -13.67520370384818
      ],
      [
        "ă",
        -13.67530370384818
      ],
      [
        "ē",
        -13.675403703848179
      ],
      [
        "Ü",
        -13.675503703848179
      ],
      [
        "Ë",
        -13.67560370384818
      ],
      [
        "^",
        -13.67570370384818
      ],
      [
        "Đ",
        -13.67580370384818
      ],
      [
        "ģ",
        -13.67590370384818
      ],
      [
        "ľ",
        -13.67600370384818
      ],
      [
        "¼",
        -13.67610370384818
      ],
      [
        "*",
        -13.676203703848179
      ],
      [
        "ĳ",
        -13.676303703848179
      ],
      [
        "ĵ",
        -13.67640370384818
      ],
      [
        "ğ",
        -13.67650370384818
      ],
      [
        "Ö",
        -13.67660370384818
      ],
      [
        "Â",
        -13.67670370384818
      ],
      [
        "«",
        -13.67680370384818
      ],
      [
        "Í",
        -13.676903703848179
      ],
      [
        "¿",
        -13.677003703848179
      ],
      [
        "Å",
        -13.677103703848179
      ],
      [
        "Ć",
        -13.67720370384818
      ],
      [
        "Ã",
        -13.67730370384818
      ],
      [
        "Ä",
        -13.67740370384818
      ],
      [
        "Ď",
        -13.67750370384818
      ],
      [
        "È",
        -13.67760370384818
      ],
      [
        "¸",
        -13.677703703848179
      ],
      [
        "ÿ",
        -13.677803703848179
      ],
      [
        "ć",
        -13.67790370384818
      ],
      [
        "Ĕ",
        -13.67800370384818
      ],
      [
        "¤",
        -13.67810370384818
      ],
      [
        "&",
        -13.67820370384818
      ],
      [
        "Ĉ",
        -13.67830370384818
      ],
      [
        "Ĵ",
        -13.67840370384818
      ],
      [
        "±",
        -13.678503703848179
      ],
      [
        "À",
        -13.678603703848179
      ],
      [
        "ĸ",
        -13.67870370384818
      ],
      [
        "þ",
        -13.67880370384818
      ],
      [
        "Ṣ",
        -13.67890370384818
      ],
      [
        "¬",
        -13.67900370384818
      ],
      [
        "Ģ",
        -13.67910370384818
      ],
      [
        "Ọ",
        -13.679203703848179
      ],
      [
        "\\",
        -13.679303703848179
      ],
      [
        "Ļ",
        -13.67940370384818
      ],
      [
        "Ħ",
        -13.67950370384818
      ],
      [
        "¶",
        -13.67960370384818
      ],
      [
        "Ķ",
        -13.67970370384818
      ],
      [
        "Ī",
        -13.67980370384818
      ],
      [
        "!",
        -13.67990370384818
      ],
      [
        "į",
        -13.680003703848179
      ],
      [
        "ī",
        -13.680103703848179
      ],
      [
        "ą",
        -13.68020370384818
      ],
      [
        "¢",
        -13.68030370384818
      ],
      [
        "Ā",
        -13.68040370384818
      ],
      [
        "ç",
        -13.68050370384818
      ],
      [
        "đ",
        -13.68060370384818
      ],
      [
        "Ċ",
        -13.68070370384818
      ],
      [
        "Ĭ",
        -13.680803703848179
      ],
      [
        "Ł",
        -13.680903703848179
      ],
      [
        "Ï",
        -13.68100370384818
      ],
      [
        "Ó",
        -13.68110370384818
      ],
      [
        "®",
        -13.68120370384818
      ],
      [
        "Æ",
        -13.681303703808233
      ],
      [
        "ı",
        -13.68130370384818
      ],
      [
        "»",
        -13.68130370384818
      ],
      [
        "Ò",
        -13.68130370384818
      ],
      [
        "š",
        -13.68130370384818
      ],
      [
        "â",
        -13.68130370384818
      ],
      [
        "ā",
        -13.68130370384818
      ],
      [
        "ū",
        -13.68130370384818
      ],
      [
        "ń",
        -13.68130370384818
      ],
      [
        "{",
        -13.68130370384818
      ],
      [
        "~",
        -13.68130370384818
      ],
      [
        "Ç",
        -13.68130370384818
      ],
      [
        "ɛ",
        -13.68130370384818
      ],
      [
        "ê",
        -13.68130370384818
      ],
      [
        "ę",
        -13.68130370384818
      ],
      [
        "`",
        -13.68130370384818
      ],
      [
        "Î",
        -13.68130370384818
      ],
      [
        "·",
        -13.68130370384818
      ],
      [
        "×",
        -13.68130370384818
      ],
      [
        "ã",
        -13.68130370384818
      ],
      [
        "+",
        -13.68130370384818
      ],
      [
        "}",
        -13.68130370384818
      ],
      [
        "ł",
        -13.68130370384818
      ]
    ]
  }
}