{
  "version": "1.0",
  "truncation": null,
  "padding": null,
  "added_tokens": [
    {
      "id": 0,
      "content": "[PAD]",
      "single_word": false,
      "lstrip": false,
      "rstrip": false,
      "normalized": false,
      "special": true
    },
    {
      "id": 1,
      "content": "[BOS]",
      "single_word": false,
      "lstrip": false,
      "rstrip": false,
      "normalized": false,
      "special": true
    },
    {
      "id": 2,
      "content": "[EOS]",
      "single_word": false,
      "lstrip": false,
      "rstrip": false,
      "normalized": false,
      "special": true
    },
    {
      "id": 3,
      "content": "[MASK]",
      "single_word": false,
      "lstrip": false,
      "rstrip": false,
      "normalized": false,
      "special": true
    },
    {
      "id": 4,
      "content": "[CLS]",
      "single_word": false,
      "lstrip": false,
      "rstrip": false,
      "normalized": false,
      "special": true
    },
    {
      "id": 5,
      "content": "[SEP]",
      "single_word": false,
      "lstrip": false,
      "rstrip": false,
      "normalized": false,
      "special": true
    },
    {
      "id": 6,
      "content": "[UNK]",
      "single_word": false,
      "lstrip": false,
      "rstrip": false,
      "normalized": false,
      "special": true
    }
  ],
  "normalizer": {
    "type": "NFKC"
  },
  "pre_tokenizer": {
    "type": "Sequence",
    "pretokenizers": [
      {
        "type": "UnicodeScripts"
      },
      {
        "type": "Digits",
        "individual_digits": false
      },
      {
        "type": "Metaspace",
        "replacement": "▁",
        "add_prefix_space": true,
        "prepend_scheme": "always"
      }
    ]
  },
  "post_processor": {
    "type": "TemplateProcessing",
    "single": [
      {
        "SpecialToken": {
          "id": "[CLS]",
          "type_id": 0
        }
      },
      {
        "Sequence": {
          "id": "A",
          "type_id": 0
        }
      },
      {
        "SpecialToken": {
          "id": "[SEP]",
          "type_id": 0
        }
      }
    ],
    "pair": [
      {
        "SpecialToken": {
          "id": "[CLS]",
          "type_id": 0
        }
      },
      {
        "Sequence": {
          "id": "A",
          "type_id": 0
        }
      },
      {
        "SpecialToken": {
          "id": "[SEP]",
          "type_id": 0
        }
      },
      {
        "Sequence": {
          "id": "B",
          "type_id": 1
        }
      },
      {
        "SpecialToken": {
          "id": "[SEP]",
          "type_id": 1
        }
      }
    ],
    "special_tokens": {
      "[CLS]": {
        "id": "[CLS]",
        "ids": [
          1
        ],
        "tokens": [
          "[CLS]"
        ]
      },
      "[SEP]": {
        "id": "[SEP]",
        "ids": [
          2
        ],
        "tokens": [
          "[SEP]"
        ]
      }
    }
  },
  "decoder": {
    "type": "Metaspace",
    "replacement": "▁",
    "add_prefix_space": true,
    "prepend_scheme": "always"
  },
  "model": {
    "type": "Unigram",
    "unk_id": 6,
    "vocab": [
      [
        "[PAD]",
        0.0
      ],
      [
        "[BOS]",
        0.0
      ],
      [
        "[EOS]",
        0.0
      ],
      [
        "[MASK]",
        0.0
      ],
      [
        "[CLS]",
        0.0
      ],
      [
        "[SEP]",
        0.0
      ],
      [
        "[UNK]",
        0.0
      ],
      [
        "▁",
        -1.7953171441209328
      ],
      [
        "ৰ",
        -3.251136285158074
      ],
      [
        "।",
        -3.4521257592354946
      ],
      [
        ",",
        -4.0657194072684515
      ],
      [
        "▁আৰু",
        -4.224733418205824
      ],
      [
        "ত",
        -4.283063807817067
      ],
      [
        "ক",
        -4.700170340199371
      ],
      [
        "'",
        -4.873832664663674
      ],
      [
        "ে",
        -4.946499981824379
      ],
      [
        "-",
        -4.953047678458358
      ],
      [
        "▁কৰা",
        -5.129222825209389
      ],
      [
        "▁হয়",
        -5.1636815070342035
      ],
      [
        "ই",
        -5.261109981845685
      ],
      [
        "▁কৰে",
        -5.2997101236907636
      ],
      [
        "▁এই",
        -5.371575584451614
      ],
      [
        "(",
        -5.4436471926411905
      ],
      [
        "▁তেওঁ",
        -5.551487314720319
      ],
      [
        "▁)",
        -5.553492209034173
      ],
      [
        "▁পৰা",
        -5.625835487363668
      ],
      [
        "▁বাবে",
        -5.751667845808738
      ],
      [
        "▁কৰিছিল",
        -5.80065497120367
      ],
      [
        "▁বা",
        -5.82575657919393
      ],
      [
        "▁চনত",
        -5.84097958959064
      ],
      [
        "▁’",
        -5.8604419029759764
      ],
      [
        "ন",
        -5.878534484176912
      ],
      [
        "লৈ",
        -5.880830634174616
      ],
      [
        "▁আছিল",
        -5.900614758032356
      ],
      [
        "▁কৰি",
        -5.927125948462294
      ],
      [
        "▁\"",
        -5.933223169210434
      ],
      [
        "ী",
        -5.960615052217008
      ],
      [
        "▁হৈছিল",
        -6.044747258717356
      ],
      [
        "▁হ",
        -6.060295052482061
      ],
      [
        "▁হৈছে",
        -6.105670449742902
      ],
      [
        "▁তেওঁৰ",
        -6.109929849309458
      ],
      [
        "ও",
        -6.203165641671532
      ],
      [
        "া",
        -6.219631018794136
      ],
      [
        "ম",
        -6.2210646902380695
      ],
      [
        "▁এক",
        -6.230497507581241
      ],
      [
        "ল",
        -6.235420277387334
      ],
      [
        "▁চনৰ",
        -6.240185261221461
      ],
      [
        "ো",
        -6.2802837633291
      ],
      [
        "িত",
        -6.287398649579298
      ],
      [
        "▁ল",
        -6.311967601112517
      ],
      [
        "▁হিচাপে",
        -6.330743123710514
      ],
      [
        "ি",
        -6.332634012612553
      ],
      [
        "য়ে",
        -6.348143150419263
      ],
      [
        "▁এটা",
        -6.348645278751201
      ],
      [
        "▁ইয়াৰ",
        -6.381911815087905
      ],
      [
        "▁বুলি",
        -6.456751919510552
      ],
      [
        "ছ",
        -6.460869830339371
      ],
      [
        "▁হৈ",
        -6.473371313344883
      ],
      [
        "▁.",
        -6.482184292445611
      ],
      [
        "▁:",
        -6.521186174047598
      ],
      [
        "▁অ",
        -6.527857490244713
      ],
      [
        "ৰে",
        -6.550716666133031
      ],
      [
        "▁লাভ",
        -6.583966182979584
      ],
      [
        "▁ব",
        -6.608975913438652
      ],
      [
        "ব",
        -6.6099189280547535
      ],
      [
        "▁আছে",
        -6.611842422260539
      ],
      [
        "▁সৈতে",
        -6.623435651974752
      ],
      [
        "▁৷",
        -6.624006357644033
      ],
      [
        "▁যে",
        -6.638798565311623
      ],
      [
        "▁যায়",
        -6.641960693896104
      ],
      [
        "টো",
        -6.679355190787154
      ],
      [
        "চ",
        -6.726150903067195
      ],
      [
        "▁কৰিবলৈ",
        -6.767783859911956
      ],
      [
        "▁হোৱা",
        -6.782719732864434
      ],
      [
        "৫",
        -6.786565244206715
      ],
      [
        "▁পিছত",
        -6.8010750143137795
      ],
      [
        "▁প্ৰথম",
        -6.816808686011729
      ],
      [
        "▁থকা",
        -6.823669342290392
      ],
      [
        "ট",
        -6.852159005642411
      ],
      [
        "তা",
        -6.852833745308088
      ],
      [
        "▁আ",
        -6.855750163080634
      ],
      [
        "▁সেই",
        -6.858367393762364
      ],
      [
        "০",
        -6.870107527393955
      ],
      [
        "▁ভাৰতীয়",
        -6.872228307021331
      ],
      [
        "▁কৰিব",
        -6.884588449037295
      ],
      [
        "▁বঁটা",
        -6.886930989305286
      ],
      [
        "ভাৱে",
        -6.890322899640182
      ],
      [
        "য়",
        -6.9042819839389935
      ],
      [
        "২",
        -6.906632154475375
      ],
      [
        "কৈ",
        -6.910993889188363
      ],
      [
        "▁এ",
        -6.912517786222466
      ],
      [
        "হ",
        -6.922549198714108
      ],
      [
        "৩",
        -6.929145926067282
      ],
      [
        "▁ব্যৱহাৰ",
        -6.940289461653855
      ],
      [
        "৮",
        -6.964250396484253
      ],
      [
        "▁আদি",
        -6.973736653682868
      ],
      [
        "▁বিভিন্ন",
        -6.979113984200081
      ],
      [
        "সমূহ",
        -6.993602904483614
      ],
      [
        "জ",
        -6.994997920316706
      ],
      [
        "প",
        -7.003382681859188
      ],
      [
        "▁দিয়া",
        -7.004647707491857
      ],
      [
        "▁কৰাৰ",
        -7.006188703994438
      ],
      [
        "সকলৰ",
        -7.0104500248281365
      ],
      [
        "▁নাম",
        -7.019483615212014
      ],
      [
        "হে",
        -7.025163433832082
      ],
      [
        "▁কোনো",
        -7.033064918700077
      ],
      [
        "▁আন",
        -7.034885116062817
      ],
      [
        "৭",
        -7.050296309339801
      ],
      [
        "সকলে",
        -7.052617429928526
      ],
      [
        "৯",
        -7.071957357739743
      ],
      [
        "▁সময়ত",
        -7.082453023645176
      ],
      [
        "▁অসমীয়া",
        -7.090833243541983
      ],
      [
        "▁এখন",
        -7.09256539099551
      ],
      [
        "▁দ্বাৰা",
        -7.101156103209776
      ],
      [
        "৬",
        -7.11241347380914
      ],
      [
        "না",
        -7.122343418386999
      ],
      [
        "▁এজন",
        -7.136332849768825
      ],
      [
        "▁কৰিছে",
        -7.143889859660524
      ],
      [
        "লি",
        -7.145283747208314
      ],
      [
        "▁ওপৰত",
        -7.147340346533781
      ],
      [
        "১",
        -7.150551421683591
      ],
      [
        "▁কিন্তু",
        -7.151344838948946
      ],
      [
        "৪",
        -7.153391879623015
      ],
      [
        "▁লগত",
        -7.156598626873837
      ],
      [
        "▁ভিতৰত",
        -7.1572084575483395
      ],
      [
        "▁কাম",
        -7.171747057824582
      ],
      [
        "্",
        -7.189915705618267
      ],
      [
        "▁আৰম্ভ",
        -7.189950635099139
      ],
      [
        "▁ভাৰতৰ",
        -7.206118034563854
      ],
      [
        "▁নামৰ",
        -7.220948373120628
      ],
      [
        "▁অসম",
        -7.235393371751439
      ],
      [
        "নি",
        -7.237343476363673
      ],
      [
        "▁বি",
        -7.240455824593736
      ],
      [
        "েই",
        -7.240539918946743
      ],
      [
        "▁জন্ম",
        -7.245249187955736
      ],
      [
        "▁পোৱা",
        -7.246468330239924
      ],
      [
        "কে",
        -7.247737876724289
      ],
      [
        "▁প্ৰকাশ",
        -7.251125974212416
      ],
      [
        "▁কথা",
        -7.251737000466299
      ],
      [
        "ু",
        -7.270483381568935
      ],
      [
        "বোৰ",
        -7.27163965240587
      ],
      [
        "▁তেওঁক",
        -7.27315157824561
      ],
      [
        "িক",
        -7.274057604784119
      ],
      [
        "শ",
        -7.274210588593004
      ],
      [
        "▁তেওঁলোকৰ",
        -7.2815896811955625
      ],
      [
        "লা",
        -7.283355981861861
      ],
      [
        "▁মাজত",
        -7.283983229809314
      ],
      [
        "গ",
        -7.294856357362926
      ],
      [
        "তে",
        -7.307161422258815
      ],
      [
        "▁নিজৰ",
        -7.333517393000866
      ],
      [
        "▁প্ৰায়",
        -7.334501386572189
      ],
      [
        "▁পাৰে",
        -7.335889145497065
      ],
      [
        "▁প্ৰতি",
        -7.338436176436472
      ],
      [
        "ণ",
        -7.339287603103754
      ],
      [
        "ং",
        -7.344090238060195
      ],
      [
        "▁বিশেষ",
        -7.345593579893432
      ],
      [
        "▁লগতে",
        -7.347578617234618
      ],
      [
        "▁প্ৰদান",
        -7.350046211196963
      ],
      [
        "▁দিয়ে",
        -7.360136848036802
      ],
      [
        "ৰা",
        -7.360279779217722
      ],
      [
        "▁২০০",
        -7.362927906423849
      ],
      [
        "▁‘",
        -7.363541910250149
      ],
      [
        "▁১৯৯",
        -7.365583719478838
      ],
      [
        "তকৈ",
        -7.3695331297184765
      ],
      [
        "▁এগৰাকী",
        -7.372763958457282
      ],
      [
        "্য",
        -7.383207301668891
      ],
      [
        "ীয়া",
        -7.389565847786004
      ],
      [
        "টি",
        -7.3902696205165075
      ],
      [
        "লে",
        -7.3954809833915345
      ],
      [
        "▁),",
        -7.396123923310517
      ],
      [
        "▁বছৰ",
        -7.401064392449118
      ],
      [
        "▁দেখা",
        -7.403516275972843
      ],
      [
        "কা",
        -7.413566335305649
      ],
      [
        "▁চলচ্চিত্ৰ",
        -7.418263529600807
      ],
      [
        "দ",
        -7.419207663731656
      ],
      [
        "▁সকলো",
        -7.420284169748511
      ],
      [
        "েৰে",
        -7.421622458709695
      ],
      [
        "▁সাহিত্য",
        -7.432742340131499
      ],
      [
        "স",
        -7.441872460392288
      ],
      [
        "▁থাকে",
        -7.442841101358951
      ],
      [
        "▁অসমৰ",
        -7.444617575205546
      ],
      [
        "ীয়",
        -7.452378761492987
      ],
      [
        "ৱ",
        -7.459536022445075
      ],
      [
        "চি",
        -7.462685029602735
      ],
      [
        "▁যদিও",
        -7.463155926199073
      ],
      [
        "▁তাৰ",
        -7.465752631017212
      ],
      [
        "▁যি",
        -7.4690963769093734
      ],
      [
        "▁শিক্ষা",
        -7.473652120567058
      ],
      [
        "ষ্ট",
        -7.475275976277091
      ],
      [
        "মা",
        -7.475949232597765
      ],
      [
        "খন",
        -7.478596980845264
      ],
      [
        "াৰ",
        -7.4913985050395056
      ],
      [
        "বলৈ",
        -7.49152316836302
      ],
      [
        "▁উত্তৰ",
        -7.49187827186554
      ],
      [
        "ড",
        -7.4953709800128205
      ],
      [
        "▁গ্ৰহণ",
        -7.498219323971182
      ],
      [
        "ছিল",
        -7.500301407233838
      ],
      [
        "▁;",
        -7.507902217641386
      ],
      [
        "▁মূল",
        -7.527779332937366
      ],
      [
        "ভ",
        -7.538335310248911
      ],
      [
        "সমূহৰ",
        -7.543232634173047
      ],
      [
        "▁সৃষ্টি",
        -7.547799311367639
      ],
      [
        "ৰি",
        -7.5507609760902845
      ],
      [
        "▁ছবি",
        -7.553781064216231
      ],
      [
        "▁দৰে",
        -7.569250989092091
      ],
      [
        "বি",
        -7.576774531742623
      ],
      [
        "▁ইয়াক",
        -7.581665824607054
      ],
      [
        "▁অধিক",
        -7.609129900278705
      ],
      [
        "▁অভিনয়",
        -7.61276880523981
      ],
      [
        "▁বহু",
        -7.6204810317267215
      ],
      [
        "▁প্ৰ",
        -7.623147673074815
      ],
      [
        "বা",
        -7.624840765769125
      ],
      [
        "▁কোৱা",
        -7.626814445314879
      ],
      [
        "▁স",
        -7.631157464399741
      ],
      [
        "▁জীৱন",
        -7.638671553875833
      ],
      [
        "▁গ",
        -7.639764036879665
      ],
      [
        "▁চি",
        -7.646171753238971
      ],
      [
        "▁কিছুমান",
        -7.646649691956553
      ],
      [
        "▁পাছত",
        -7.647268537362617
      ],
      [
        "▁তেখেতে",
        -7.658221374714333
      ],
      [
        "▁ভাষা",
        -7.663563784724953
      ],
      [
        "▁১৯৭",
        -7.664819752379879
      ],
      [
        "▁দি",
        -7.672488799487815
      ],
      [
        "▁হোৱাৰ",
        -7.674046995317179
      ],
      [
        "▁মহিলা",
        -7.681893609391378
      ],
      [
        "▁ক্ষেত্ৰত",
        -7.696129375709723
      ],
      [
        "▁প",
        -7.698133641674186
      ],
      [
        "▁ভাৰত",
        -7.698444001225328
      ],
      [
        "▁মতে",
        -7.707983252774698
      ],
      [
        "▁নহয়",
        -7.713402669007731
      ],
      [
        "▁ৰাষ্ট্ৰীয়",
        -7.714784348059045
      ],
      [
        "ছে",
        -7.716063365814792
      ],
      [
        "টা",
        -7.723806739735277
      ],
      [
        "ঁ",
        -7.736169389109993
      ],
      [
        "▁য",
        -7.74185803343015
      ],
      [
        "▁ফলত",
        -7.747051936870949
      ],
      [
        "▁১৯৫",
        -7.7560711603813175
      ],
      [
        "কো",
        -7.773661871579139
      ],
      [
        "▁নতুন",
        -7.780601184891188
      ],
      [
        "▁এনে",
        -7.784600636293818
      ],
      [
        "▁লে",
        -7.788521812576555
      ],
      [
        "▁তেওঁলোকে",
        -7.792513508555911
      ],
      [
        "▁১৯৬",
        -7.792622866406968
      ],
      [
        "▁আই",
        -7.796275770709174
      ],
      [
        "▁কৰিলে",
        -7.797045419296436
      ],
      [
        "▁অংশ",
        -7.800932415503695
      ],
      [
        "▁উল্লেখ",
        -7.802365740167517
      ],
      [
        "▁তথা",
        -7.802826261150425
      ],
      [
        "▁যেনে",
        -7.807504600816381
      ],
      [
        "▁উপ",
        -7.80805439109853
      ],
      [
        "▁মৃত্যু",
        -7.812600399559636
      ],
      [
        "▁১৯৮",
        -7.817419404532204
      ],
      [
        "ফ",
        -7.817476223137562
      ],
      [
        "▁নিৰ্মাণ",
        -7.822431982237197
      ],
      [
        "▁ম",
        -7.8338640998620965
      ],
      [
        "▁ধৰি",
        -7.834355522635984
      ],
      [
        "ৰো",
        -7.834362628872129
      ],
      [
        "খ",
        -7.842129577585156
      ],
      [
        "▁মে",
        -7.8444100913296735
      ],
      [
        "নে",
        -7.850551263613772
      ],
      [
        "▁টা",
        -7.851926348594856
      ],
      [
        "▁সাধাৰণতে",
        -7.852899257482472
      ],
      [
        "▁ইয়াত",
        -7.854181573503339
      ],
      [
        "▁লোক",
        -7.854754403845127
      ],
      [
        "▁জন",
        -7.856087683038558
      ],
      [
        "▁উচ্চ",
        -7.861479320955103
      ],
      [
        "লৈকে",
        -7.865526666416117
      ],
      [
        "▁অনুসৰি",
        -7.866232567685369
      ],
      [
        "▁বিষয়ে",
        -7.8716621732828065
      ],
      [
        "▁দক্ষিণ",
        -7.8778983002133165
      ],
      [
        "▁নাই",
        -7.881300664957626
      ],
      [
        "▁কম",
        -7.882307387269656
      ],
      [
        "▁সু",
        -7.888280589820507
      ],
      [
        "থ",
        -7.890662407796372
      ],
      [
        "াই",
        -7.894220486244629
      ],
      [
        "▁প্ৰধান",
        -7.897501895287342
      ],
      [
        "হি",
        -7.900498869965209
      ],
      [
        "সকলক",
        -7.900854229234007
      ],
      [
        "▁পাৰি",
        -7.903363874464731
      ],
      [
        "▁দ্বিতীয়",
        -7.90730995639686
      ],
      [
        "তি",
        -7.910577925404958
      ],
      [
        "টোৰ",
        -7.911029623544649
      ],
      [
        "মান",
        -7.914631749609318
      ],
      [
        "▁ডি",
        -7.917688510079301
      ],
      [
        "য়া",
        -7.91796253928017
      ],
      [
        "▁অৱ",
        -7.922889632208411
      ],
      [
        "▁ড",
        -7.923646423429992
      ],
      [
        "▁দ্য",
        -7.926468463813028
      ],
      [
        "▁ৰূপ",
        -7.9268609790305655
      ],
      [
        "▁১৯৪",
        -7.928763895764608
      ],
      [
        "▁লয়",
        -7.929147982411797
      ],
      [
        "▁যাৰ",
        -7.929443063912531
      ],
      [
        "▁ধৰ্ম",
        -7.929607955413266
      ],
      [
        "▁দুটা",
        -7.936864045098184
      ],
      [
        "▁বৰ্তমান",
        -7.9424177436507115
      ],
      [
        "▁জড়িত",
        -7.946014765632537
      ],
      [
        "ৰী",
        -7.948439005403586
      ],
      [
        "▁স্থান",
        -7.951141612734616
      ],
      [
        "জন",
        -7.951523616697058
      ],
      [
        "▁ৰচনা",
        -7.957569299006385
      ],
      [
        "কাৰী",
        -7.9576148521280015
      ],
      [
        "▁নাছিল",
        -7.959141850253782
      ],
      [
        "▁পায়",
        -7.9599083490741664
      ],
      [
        "তাৰ",
        -7.961058721638315
      ],
      [
        "▁গীত",
        -7.962819808198086
      ],
      [
        "▁পৰে",
        -7.963346758623663
      ],
      [
        "তো",
        -7.964953483973019
      ],
      [
        "▁লগে",
        -7.9659297717904956
      ],
      [
        "▁তেখেতৰ",
        -7.9679133939383995
      ],
      [
        "ঃ",
        -7.9688526944370475
      ],
      [
        "▁বিজ্ঞান",
        -7.975046017359033
      ],
      [
        "▁১",
        -7.978059096034158
      ],
      [
        "▁হিন্দু",
        -7.979086591494852
      ],
      [
        "▁সৰু",
        -7.984016925541102
      ],
      [
        "মি",
        -7.986249459533013
      ],
      [
        "▁সংগীত",
        -7.986350688077872
      ],
      [
        "▁পুনৰ",
        -7.988146875424881
      ],
      [
        "▁বিশ্বাস",
        -7.991085789185704
      ],
      [
        "▁গ্ৰন্থ",
        -7.998463887694286
      ],
      [
        "▁দিছিল",
        -8.000200557793743
      ],
      [
        "▁কিছু",
        -8.001060044954212
      ],
      [
        "▁অতি",
        -8.008802115555564
      ],
      [
        "সকল",
        -8.010726851355017
      ],
      [
        "▁অন্যান্য",
        -8.011891054166998
      ],
      [
        "▁ৰজা",
        -8.013071056974312
      ],
      [
        "▁“",
        -8.018602864774472
      ],
      [
        "িং",
        -8.019285440744824
      ],
      [
        "▁১৯৩",
        -8.022775084864811
      ],
      [
        "হা",
        -8.029560707532927
      ],
      [
        "▁সদস্য",
        -8.037420776598427
      ],
      [
        "▁ভাষাৰ",
        -8.045046912230156
      ],
      [
        "▁অনুষ্ঠ",
        -8.047464266779304
      ],
      [
        "নৰ",
        -8.048461262698524
      ],
      [
        "উ",
        -8.051271229727114
      ],
      [
        "▁বৰ",
        -8.053279550978267
      ],
      [
        "▁১০",
        -8.05523001943941
      ],
      [
        "ৱে",
        -8.055323625132873
      ],
      [
        "ৰু",
        -8.057083112232895
      ],
      [
        "জি",
        -8.058842408058245
      ],
      [
        "দা",
        -8.067180117089178
      ],
      [
        "▁স্থাপন",
        -8.069579163917519
      ],
      [
        "▁কাৰণ",
        -8.081181907969995
      ],
      [
        "▁সংখ্যা",
        -8.08134116105787
      ],
      [
        "▁পুত্ৰ",
        -8.08473077125759
      ],
      [
        "▁বে",
        -8.085868548236942
      ],
      [
        "▁সাধাৰণ",
        -8.087731770230416
      ],
      [
        "▁উ",
        -8.089360418500789
      ],
      [
        "▁আইন",
        -8.094110621197402
      ],
      [
        "▁অৱস্থিত",
        -8.095626792238361
      ],
      [
        "▁সময়",
        -8.101462410877676
      ],
      [
        "লী",
        -8.101665514092513
      ],
      [
        "▁নামেৰে",
        -8.101963106914496
      ],
      [
        "▁নি",
        -8.102537628653666
      ],
      [
        "চা",
        -8.103182096454889
      ],
      [
        "▁মুখ্য",
        -8.107768965938437
      ],
      [
        "▁পিতৃ",
        -8.113200223195474
      ],
      [
        "কাৰ",
        -8.113863326082221
      ],
      [
        "নী",
        -8.121162921911335
      ],
      [
        "▁অৰ্থ",
        -8.125872095169274
      ],
      [
        "▁কা",
        -8.131312638558745
      ],
      [
        "▁ব্ৰিটিছ",
        -8.13888161534637
      ],
      [
        "পা",
        -8.139461426721372
      ],
      [
        "▁কে",
        -8.139528284605738
      ],
      [
        "▁মাহত",
        -8.142978294435387
      ],
      [
        "▁সন্মান",
        -8.143422722723876
      ],
      [
        "▁কু",
        -8.158375317273595
      ],
      [
        "▁সামাজিক",
        -8.166476629124553
      ],
      [
        "▁%",
        -8.167919156893106
      ],
      [
        "পি",
        -8.172170873981678
      ],
      [
        "▁ব্যৱস্থা",
        -8.172207166309246
      ],
      [
        "▁জনা",
        -8.173290363280532
      ],
      [
        "জা",
        -8.173669176414398
      ],
      [
        "▁বহুতো",
        -8.174882971878864
      ],
      [
        "▁পি",
        -8.177488193091426
      ],
      [
        "▁জিলাৰ",
        -8.178557657907962
      ],
      [
        "▁তেতিয়া",
        -8.178901845539318
      ],
      [
        "▁শ্ৰেষ্ঠ",
        -8.179384754587247
      ],
      [
        "ৰাম",
        -8.180932308602607
      ],
      [
        "▁ব্যক্তি",
        -8.1818753885873
      ],
      [
        "▁এটি",
        -8.183974285269116
      ],
      [
        "▁গুৱাহাটী",
        -8.18775960006257
      ],
      [
        "▁বিশ্ব",
        -8.18779385368309
      ],
      [
        "▁পালন",
        -8.18909172076738
      ],
      [
        "▁কি",
        -8.195804029398241
      ],
      [
        "▁গঠন",
        -8.198544146273818
      ],
      [
        "▁শিশু",
        -8.200359794466582
      ],
      [
        "প্ৰ",
        -8.205042657220586
      ],
      [
        "▁বিশ্ববিদ্যালয়ৰ",
        -8.208852129536204
      ],
      [
        "▁ইংৰাজী",
        -8.210142123951336
      ],
      [
        "▁ডিগ্ৰী",
        -8.212284121135575
      ],
      [
        "▁প্ৰতিষ্ঠা",
        -8.213408353586804
      ],
      [
        "▁কয়",
        -8.217696781419324
      ],
      [
        "ধ",
        -8.220341757614865
      ],
      [
        "▁কেৱল",
        -8.223956395996407
      ],
      [
        "▁উল্লেখযোগ্য",
        -8.226160866074284
      ],
      [
        "▁সহায়",
        -8.226239143290034
      ],
      [
        "মূলক",
        -8.231045090925388
      ],
      [
        "▁তাৰিখে",
        -8.234109171386645
      ],
      [
        "▁দেৱী",
        -8.239874577541336
      ],
      [
        "▁চন্দ্ৰ",
        -8.246024102537202
      ],
      [
        "▁জনপ্ৰিয়",
        -8.247245642135047
      ],
      [
        "▁মুক্তি",
        -8.249274535026167
      ],
      [
        "▁মাতৃ",
        -8.254107297363419
      ],
      [
        "▁অৱশ্যে",
        -8.254238191058986
      ],
      [
        "▁অন্তৰ্ভুক্ত",
        -8.254958793282107
      ],
      [
        "▁আটাই",
        -8.25970616898379
      ],
      [
        "পুৰ",
        -8.260912131948531
      ],
      [
        "▁বৰুৱা",
        -8.263697882511838
      ],
      [
        "▁১৫",
        -8.268728486022386
      ],
      [
        "▁নৃত্য",
        -8.271766424592368
      ],
      [
        "ভি",
        -8.272604162619345
      ],
      [
        "▁মানুহৰ",
        -8.276652963298371
      ],
      [
        "চন",
        -8.27785581147257
      ],
      [
        "▁চে",
        -8.278885378778039
      ],
      [
        "বাৰ",
        -8.279471167872202
      ],
      [
        "▁কবিতা",
        -8.279826155458453
      ],
      [
        "▁লোৱা",
        -8.280019495311691
      ],
      [
        "▁বেছি",
        -8.280284709454182
      ],
      [
        "▁/",
        -8.28242903528972
      ],
      [
        "▁পৰি",
        -8.284111596867135
      ],
      [
        "▁বিৰুদ্ধে",
        -8.284730948172442
      ],
      [
        "▁অধ্যয়ন",
        -8.288281547945918
      ],
      [
        "▁ৰাজ্য",
        -8.28893081418671
      ],
      [
        "▁অন্যতম",
        -8.291539033977354
      ],
      [
        "▁কাহিনী",
        -8.293826361963742
      ],
      [
        "▁শব্দ",
        -8.296793739253458
      ],
      [
        "▁পূব",
        -8.297170503439052
      ],
      [
        "▁গৱেষণা",
        -8.297788044384856
      ],
      [
        "▁বৰ্ণনা",
        -8.298623876918594
      ],
      [
        "▁দেশ",
        -8.298788647696007
      ],
      [
        "▁মি",
        -8.3010592949371
      ],
      [
        "▁আহোম",
        -8.303463689189615
      ],
      [
        "▁আহিছে",
        -8.30370521785784
      ],
      [
        "▁আহে",
        -8.306570026044497
      ],
      [
        "▁অৰ্থাৎ",
        -8.309392484023846
      ],
      [
        "▁বৃদ্ধি",
        -8.310668973866223
      ],
      [
        "▁কলা",
        -8.31303632138614
      ],
      [
        "▁জৰিয়তে",
        -8.313902423707455
      ],
      [
        "▁বিবাহ",
        -8.316572498817134
      ],
      [
        "▁তথ্য",
        -8.317027376830655
      ],
      [
        "অ",
        -8.317292581052556
      ],
      [
        "▁চৰকাৰে",
        -8.317648383449484
      ],
      [
        "▁লাগে",
        -8.319677679016085
      ],
      [
        "▁পশ্চিম",
        -8.323622079091347
      ],
      [
        "▁ডাঙৰ",
        -8.324781570855045
      ],
      [
        "েল",
        -8.326491963812263
      ],
      [
        "▁শক্তি",
        -8.329405555180493
      ],
      [
        "▁শেষ",
        -8.331063727931983
      ],
      [
        "গত",
        -8.331298371596397
      ],
      [
        "ৌ",
        -8.331550299854584
      ],
      [
        "▁ভাষাত",
        -8.342331524616915
      ],
      [
        "িয়া",
        -8.345688428139542
      ],
      [
        "▁সম্পূৰ্ণ",
        -8.346748830015056
      ],
      [
        "▁অধিকাৰ",
        -8.347664325724063
      ],
      [
        "▁অঞ্চল",
        -8.34778614827902
      ],
      [
        "▁জ",
        -8.349593091351885
      ],
      [
        "▁মু",
        -8.35275301743513
      ],
      [
        "ৱা",
        -8.358662105622606
      ],
      [
        "▁চিকিৎসা",
        -8.3593189294857
      ],
      [
        "▁যেতিয়া",
        -8.359764667408811
      ],
      [
        "▁চিত্ৰ",
        -8.360080178767449
      ],
      [
        "▁শতিকাৰ",
        -8.364067717749283
      ],
      [
        "ক্ষ",
        -8.364208765327035
      ],
      [
        "▁উপৰিও",
        -8.365240999042355
      ],
      [
        "▁যোগ",
        -8.36885071500248
      ],
      [
        "▁জে",
        -8.373382248737222
      ],
      [
        "▁চ",
        -8.387213144202905
      ],
      [
        "গা",
        -8.387302490964869
      ],
      [
        "▁ৰাজ",
        -8.394061089014041
      ],
      [
        "▁গুৰুত্বপূৰ্ণ",
        -8.395413551606236
      ],
      [
        "▁এণ্ড",
        -8.395540300484155
      ],
      [
        "সমূহত",
        -8.399855184229502
      ],
      [
        "▁দল",
        -8.40370130140272
      ],
      [
        "▁পুৰুষ",
        -8.4050844802186
      ],
      [
        "▁প্ৰভাৱ",
        -8.407960066140614
      ],
      [
        "কি",
        -8.40944629274765
      ],
      [
        "▁পানী",
        -8.409979428230706
      ],
      [
        "ৰপৰা",
        -8.41255888896234
      ],
      [
        "▁মহা",
        -8.414467148999922
      ],
      [
        "▁গৈছিল",
        -8.416535881472797
      ],
      [
        "▁সমাজ",
        -8.416691714124749
      ],
      [
        "▁ভাগ",
        -8.416783874231706
      ],
      [
        "ণ্ড",
        -8.418437604488162
      ],
      [
        "▁একে",
        -8.422863820909175
      ],
      [
        "▁১২",
        -8.427367836252788
      ],
      [
        "▁শ",
        -8.428621978111034
      ],
      [
        "▁১৯২",
        -8.430098142551923
      ],
      [
        "▁এছ",
        -8.430232686370621
      ],
      [
        "ায়",
        -8.431254744510497
      ],
      [
        "▁লিখা",
        -8.433188032766962
      ],
      [
        "▁তেখেত",
        -8.433614024365042
      ],
      [
        "▁সন্তান",
        -8.433729648699773
      ],
      [
        "ঙ",
        -8.43423045435954
      ],
      [
        "▁ৰাজনৈতিক",
        -8.435644622257191
      ],
      [
        "▁চৰকাৰৰ",
        -8.4380375552653
      ],
      [
        "▁স্বাধীনতা",
        -8.439905049758853
      ],
      [
        "▁পূজা",
        -8.440482541038634
      ],
      [
        "▁মুঠ",
        -8.440762826279943
      ],
      [
        "▁পৰিচালক",
        -8.442512943225154
      ],
      [
        "▁জিলা",
        -8.442840922159682
      ],
      [
        "▁মন",
        -8.445319274111302
      ],
      [
        "▁এম",
        -8.446052654189312
      ],
      [
        "▁কবি",
        -8.448663679942605
      ],
      [
        "▁বিদ্যালয়",
        -8.452040427845425
      ],
      [
        "▁আনহাতে",
        -8.452053732433408
      ],
      [
        "▁সময়ৰ",
        -8.452562451470383
      ],
      [
        "ডি",
        -8.452828042203059
      ],
      [
        "োৱা",
        -8.454137635432748
      ],
      [
        "ভা",
        -8.454654352908022
      ],
      [
        "▁চৰকাৰী",
        -8.455817462160171
      ],
      [
        "▁ৰখা",
        -8.457336610031573
      ],
      [
        "▁”",
        -8.461670847361372
      ],
      [
        "ৃত",
        -8.461766071078822
      ],
      [
        "্যা",
        -8.463435871207306
      ],
      [
        "▁কুমাৰ",
        -8.464646479765408
      ],
      [
        "▁গণ্য",
        -8.464682151747171
      ],
      [
        "বৰ",
        -8.465512991949936
      ],
      [
        "▁১৪",
        -8.466982713579213
      ],
      [
        "▁যোৱা",
        -8.467891882087963
      ],
      [
        "▁ৰাম",
        -8.46900019502619
      ],
      [
        "▁প্ৰদৰ্শন",
        -8.4702396267691
      ],
      [
        "▁অঞ্চলত",
        -8.47042586889377
      ],
      [
        "▁পথ",
        -8.470709283662844
      ],
      [
        "▁১১",
        -8.47230273002176
      ],
      [
        "▁অন্য",
        -8.478239042693811
      ],
      [
        "▁আমেৰিকা",
        -8.479576142299026
      ],
      [
        "▁অফ",
        -8.479593696898778
      ],
      [
        "▁শ্ৰী",
        -8.481411479076787
      ],
      [
        "িকা",
        -8.482269586745604
      ],
      [
        "▁২০১১",
        -8.483548017964708
      ],
      [
        "▁মহিলাৰ",
        -8.485127288053025
      ],
      [
        "▁ঘোষণা",
        -8.485744028856395
      ],
      [
        "▁জীৱনৰ",
        -8.486775797757668
      ],
      [
        "▁আধুনিক",
        -8.487533236792112
      ],
      [
        "নাথ",
        -8.487950588747335
      ],
      [
        "তঃ",
        -8.488600031469014
      ],
      [
        "▁পা",
        -8.488643701545449
      ],
      [
        "▁যৌন",
        -8.488689219444847
      ],
      [
        "▁মহাবিদ্যালয়",
        -8.488741992402645
      ],
      [
        "▁জি",
        -8.48899253833429
      ],
      [
        "টোৱে",
        -8.492349705914783
      ],
      [
        "▁পৰৱৰ্তী",
        -8.494734719555744
      ],
      [
        "▁কেন্দ্ৰ",
        -8.494911355094562
      ],
      [
        "েন",
        -8.495461586417372
      ],
      [
        "খা",
        -8.495856350382422
      ],
      [
        "▁এতিয়া",
        -8.4975450185222
      ],
      [
        "▁১৬",
        -8.497649038263505
      ],
      [
        "▁আহি",
        -8.498594698999453
      ],
      [
        "▁অনুষ্ঠান",
        -8.49941098782092
      ],
      [
        "ঠ",
        -8.499663232745952
      ],
      [
        "যুক্ত",
        -8.50024857778476
      ],
      [
        "▁দুই",
        -8.50306995180727
      ],
      [
        "▁ৰাজ্যৰ",
        -8.504916103987366
      ],
      [
        "▁ভূমিকা",
        -8.510957432327123
      ],
      [
        "▁২০",
        -8.51271837193502
      ],
      [
        "▁চা",
        -8.512907312860579
      ],
      [
        "▁প্ৰকাশিত",
        -8.5152458982488
      ],
      [
        "▁গা",
        -8.516092519288886
      ],
      [
        "▁মানৱ",
        -8.519064312160454
      ],
      [
        "ষ",
        -8.521300674588865
      ],
      [
        "▁ভাল",
        -8.525343511962678
      ],
      [
        "▁জাতীয়",
        -8.525477778386723
      ],
      [
        "▁খাদ্য",
        -8.525667911276368
      ],
      [
        "▁দেৱ",
        -8.526123251601401
      ],
      [
        "▁ছাত্ৰ",
        -8.52716830413599
      ],
      [
        "▁ধৰণৰ",
        -8.52798980079105
      ],
      [
        "▁ৰা",
        -8.530130308304834
      ],
      [
        "▁সেৱা",
        -8.533024851491815
      ],
      [
        "বোৰৰ",
        -8.534075755138494
      ],
      [
        "এ",
        -8.535951236304943
      ],
      [
        "▁২০১২",
        -8.537273491728293
      ],
      [
        "▁খন",
        -8.538156662829325
      ],
      [
        "▁সক্ষম",
        -8.538471462461677
      ],
      [
        "▁নিৰ্বাচিত",
        -8.542546854527178
      ],
      [
        "▁না",
        -8.542765080386804
      ],
      [
        "▁তিনি",
        -8.543560120579192
      ],
      [
        "▁পৰিচালনা",
        -8.543875597691306
      ],
      [
        "▁তৃতীয়",
        -8.546061633578883
      ],
      [
        "চে",
        -8.549040119427946
      ],
      [
        "▁পে",
        -8.549793515412002
      ],
      [
        "▁চৰিত্ৰ",
        -8.554210418169797
      ],
      [
        "▁পিছলৈ",
        -8.554653542028433
      ],
      [
        "▁জানুৱাৰী",
        -8.555720194195983
      ],
      [
        "মে",
        -8.555950965516413
      ],
      [
        "▁প্ৰাচীন",
        -8.557935287530258
      ],
      [
        "▁এল",
        -8.561439254539776
      ],
      [
        "▁সৰ্ব",
        -8.563678829330646
      ],
      [
        "▁দেশৰ",
        -8.565072982958013
      ],
      [
        "ুৱা",
        -8.565447556493782
      ],
      [
        "▁ভাৰতত",
        -8.56611246772704
      ],
      [
        "▁যিয়ে",
        -8.567111818236217
      ],
      [
        "▁ঠাইত",
        -8.569689704783993
      ],
      [
        "▁সমগ্ৰ",
        -8.570612805190915
      ],
      [
        "▁নিয়ম",
        -8.57285269874847
      ],
      [
        "▁আক্ৰমণ",
        -8.573455322764282
      ],
      [
        "ছা",
        -8.574438354161153
      ],
      [
        "▁লগ",
        -8.575194480153435
      ],
      [
        "▁নীতি",
        -8.577298981770046
      ],
      [
        "▁মৃত্যুৰ",
        -8.58097898866162
      ],
      [
        "▁হাতত",
        -8.584090428949235
      ],
      [
        "▁স্থানীয়",
        -8.584306654847808
      ],
      [
        "▁মা",
        -8.585613932623911
      ],
      [
        "▁অনা",
        -8.58577106814541
      ],
      [
        "্ব",
        -8.587347233648188
      ],
      [
        "▁সলনি",
        -8.588143751037915
      ],
      [
        "জী",
        -8.590994741677232
      ],
      [
        "▁অহা",
        -8.591031529035515
      ],
      [
        "▁ফুল",
        -8.591482345566764
      ],
      [
        "বাদ",
        -8.593030710161798
      ],
      [
        "▁ধাৰণা",
        -8.594609806111219
      ],
      [
        "▁উৎসৱ",
        -8.599307354791044
      ],
      [
        "▁বিয়া",
        -8.599795601849184
      ],
      [
        "▁নাৰী",
        -8.600578267656132
      ],
      [
        "▁কৰ্ম",
        -8.602264381389467
      ],
      [
        "▁ৰোগ",
        -8.60383517860654
      ],
      [
        "▁সম্পৰ্ক",
        -8.604965975553554
      ],
      [
        "জে",
        -8.60518165640319
      ],
      [
        "ূ",
        -8.607173670583055
      ],
      [
        "▁লেখক",
        -8.608009296639583
      ],
      [
        "কু",
        -8.609612847821559
      ],
      [
        "▁উপন্যাস",
        -8.612191177113168
      ],
      [
        "হু",
        -8.612632080711794
      ],
      [
        "ক্স",
        -8.613477019709842
      ],
      [
        "▁এন",
        -8.617086925291613
      ],
      [
        "▁প্ৰস্তুত",
        -8.617661247050547
      ],
      [
        "ন্ত",
        -8.620971845612315
      ],
      [
        "▁গৈছে",
        -8.621039306663187
      ],
      [
        "▁গুৰু",
        -8.622146914447212
      ],
      [
        "▁পৰাই",
        -8.622317685175378
      ],
      [
        "▁যুদ্ধ",
        -8.624303287209532
      ],
      [
        "▁সম্পাদক",
        -8.627859835393053
      ],
      [
        "▁১৩",
        -8.628359467067273
      ],
      [
        "▁১৯১",
        -8.629703752139921
      ],
      [
        "▁যোগদান",
        -8.630073046040893
      ],
      [
        "▁২০১০",
        -8.634915129358639
      ],
      [
        "▁লক্ষ্য",
        -8.637256023650242
      ],
      [
        "▁দিব",
        -8.640178558545006
      ],
      [
        "ৈ",
        -8.64373510617752
      ],
      [
        "আ",
        -8.644760004940952
      ],
      [
        "▁ধৰা",
        -8.64600839588598
      ],
      [
        "▁আল",
        -8.646723078510565
      ],
      [
        "▁দা",
        -8.648322945529888
      ],
      [
        "▁জয়",
        -8.650319575972578
      ],
      [
        "▁তৈয়াৰ",
        -8.65041659079271
      ],
      [
        "িয়ান",
        -8.652803293445743
      ],
      [
        "েশ্বৰ",
        -8.654251279329333
      ],
      [
        "▁লা",
        -8.65469114454926
      ],
      [
        "▁সিদ্ধান্ত",
        -8.655248330515107
      ],
      [
        "▁চাহ",
        -8.655622562679905
      ],
      [
        "▁বিষয়",
        -8.65648172426208
      ],
      [
        "▁যথেষ্ট",
        -8.657408318420169
      ],
      [
        "▁পাইছিল",
        -8.659009473105186
      ],
      [
        "▁লৈছিল",
        -8.65994914080441
      ],
      [
        "▁অংশগ্ৰহণ",
        -8.66029850785521
      ],
      [
        "▁অভিনেতা",
        -8.6649016822971
      ],
      [
        "▁হিন্দী",
        -8.665945557843076
      ],
      [
        "▁খ",
        -8.666443462197972
      ],
      [
        "▁হা",
        -8.667210219336496
      ],
      [
        "▁প্ৰতিষ্ঠান",
        -8.66817184241511
      ],
      [
        "▁বিশ্ববিদ্যালয়",
        -8.668576119413128
      ],
      [
        "ঘৰ",
        -8.674311954600377
      ],
      [
        "▁জ্ঞান",
        -8.676347709140138
      ],
      [
        "▁পত্নী",
        -8.679426423921552
      ],
      [
        "▁তিনিটা",
        -8.681733714338028
      ],
      [
        "▁অৰ্জন",
        -8.682367595240654
      ],
      [
        "▁যিটো",
        -8.683769936240303
      ],
      [
        "▁দায়িত্ব",
        -8.684323454865797
      ],
      [
        "▁হত্যা",
        -8.685608887979587
      ],
      [
        "বে",
        -8.686692272086784
      ],
      [
        "▁পদ",
        -8.687936775565959
      ],
      [
        "▁ঘৰ",
        -8.690239077883316
      ],
      [
        "ত্ব",
        -8.69122456656305
      ],
      [
        "ফা",
        -8.69190592987369
      ],
      [
        "▁পুৰণি",
        -8.693366084376784
      ],
      [
        "▁চু",
        -8.696162419039887
      ],
      [
        "▁দিন",
        -8.696655718211913
      ],
      [
        "▁ইণ্ডিয়া",
        -8.69753529263577
      ],
      [
        "▁দু",
        -8.697726183920835
      ],
      [
        "▁পদ্ধতি",
        -8.699320604803816
      ],
      [
        "▁আৰ",
        -8.701218033377788
      ],
      [
        "▁গুৰুত্ব",
        -8.701253849801471
      ],
      [
        "▁মূল্য",
        -8.701506584001269
      ],
      [
        "দি",
        -8.703020658678028
      ],
      [
        "▁স্বীকৃতি",
        -8.703858687196874
      ],
      [
        "▁নে",
        -8.704080096132298
      ],
      [
        "▁মান",
        -8.705584953720312
      ],
      [
        "▁প্ৰয়োগ",
        -8.705611102234194
      ],
      [
        "ঞ্চ",
        -8.706398363267418
      ],
      [
        "▁সাহিত্যিক",
        -8.706499560154676
      ],
      [
        "িন",
        -8.706613924586186
      ],
      [
        "▁প্ৰচলিত",
        -8.70673479113629
      ],
      [
        "▁সেয়ে",
        -8.708137269622133
      ],
      [
        "▁ফ",
        -8.709330590932613
      ],
      [
        "ভাৰ",
        -8.709434028706752
      ],
      [
        "▁প্ৰাথমিক",
        -8.711241210150497
      ],
      [
        "▁ইত্যাদি",
        -8.71124121333456
      ],
      [
        "▁অভিনেত্ৰী",
        -8.713291241110849
      ],
      [
        "▁কাৰণে",
        -8.713383348908543
      ],
      [
        "স্ত",
        -8.716211263715868
      ],
      [
        "ীয়ে",
        -8.71623508799113
      ],
      [
        "▁পদাৰ্থ",
        -8.71653288654285
      ],
      [
        "▁আগতে",
        -8.71773105191851
      ],
      [
        "▁পৃথক",
        -8.718041269959313
      ],
      [
        "▁।\"",
        -8.718867357752757
      ],
      [
        "▁পাৰ",
        -8.719887060408833
      ],
      [
        "▁চাৰি",
        -8.721423233849746
      ],
      [
        "▁এৰি",
        -8.722057452966782
      ],
      [
        "▁মানুহ",
        -8.722561969548288
      ],
      [
        "▁২০১৩",
        -8.724568982739422
      ],
      [
        "ৰাজ",
        -8.726758055303659
      ],
      [
        "▁নাটক",
        -8.728170361369958
      ],
      [
        "▁ব্যক্তিগত",
        -8.728925962082265
      ],
      [
        "▁কাৰ্য",
        -8.729325409931207
      ],
      [
        "▁অনুবাদ",
        -8.72995300760776
      ],
      [
        "▁শিল্পী",
        -8.731265193496169
      ],
      [
        "▁অসমত",
        -8.734673937736094
      ],
      [
        "▁পদক",
        -8.735519634103229
      ],
      [
        "▁অধীনত",
        -8.735630078612786
      ],
      [
        "▁কন্যা",
        -8.740118721997248
      ],
      [
        "▁অঞ্চলৰ",
        -8.74013676000796
      ],
      [
        "মু",
        -8.742129396347536
      ],
      [
        "▁কেন্দ্ৰীয়",
        -8.744147669479986
      ],
      [
        "ভাবে",
        -8.744336991173524
      ],
      [
        "▁যাব",
        -8.744554872075277
      ],
      [
        "▁ধৰ্মীয়",
        -8.745257947683463
      ],
      [
        "▁মন্দিৰ",
        -8.748238246468105
      ],
      [
        "▁স্কুল",
        -8.748835618244325
      ],
      [
        "ৃ",
        -8.749917842408951
      ],
      [
        "ছৰ",
        -8.75055872317333
      ],
      [
        "▁২০১৮",
        -8.752390693330579
      ],
      [
        "বাদী",
        -8.753010336865836
      ],
      [
        "▁সাংস্কৃতিক",
        -8.755102822584407
      ],
      [
        "▁বাস",
        -8.75585583721373
      ],
      [
        "▁',",
        -8.755917130329472
      ],
      [
        "▁গল্প",
        -8.756774987991058
      ],
      [
        "▁ছোৱালী",
        -8.756977757781806
      ],
      [
        "▁যদি",
        -8.757456558650455
      ],
      [
        "▁তাত",
        -8.757675522528881
      ],
      [
        "চাৰ",
        -8.758098281178508
      ],
      [
        "▁ঠাই",
        -8.75906944545792
      ],
      [
        "▁০০০",
        -8.761657214430294
      ],
      [
        "▁নদী",
        -8.761733745914672
      ],
      [
        "▁উৎপাদন",
        -8.761991273864222
      ],
      [
        "▁দাবী",
        -8.762532861220807
      ],
      [
        "▁সংস্কৃত",
        -8.76285193767194
      ],
      [
        "▁৩০",
        -8.763883176236245
      ],
      [
        "সা",
        -8.763912192583454
      ],
      [
        "▁২০১৯",
        -8.76407307512239
      ],
      [
        "▁আদিৰ",
        -8.764438686926272
      ],
      [
        "▁বিজয়ী",
        -8.765148900118746
      ],
      [
        "খনৰ",
        -8.768096769196518
      ],
      [
        "▁স্বাস্থ্য",
        -8.768707885868022
      ],
      [
        "▁পৰীক্ষা",
        -8.769575957573705
      ],
      [
        "▁বোলা",
        -8.770130813206897
      ],
      [
        "ঙ্গ",
        -8.77104466703959
      ],
      [
        "▁কৃষি",
        -8.771760004849517
      ],
      [
        "গৰাকী",
        -8.773615668405277
      ],
      [
        "▁বিকাশ",
        -8.774010603933299
      ],
      [
        "▁প্ৰবন্ধ",
        -8.77429959749717
      ],
      [
        "▁সহ",
        -8.775187487228074
      ],
      [
        "▁সত্য",
        -8.775212570651545
      ],
      [
        "▁মুকলি",
        -8.775378301502254
      ],
      [
        "ম্ব",
        -8.775691934950931
      ],
      [
        "▁কাল",
        -8.776673218102626
      ],
      [
        "▁বছৰৰ",
        -8.776732335708235
      ],
      [
        "▁সংযোগ",
        -8.777634843127576
      ],
      [
        "▁পৰিয়ালৰ",
        -8.777656297189019
      ],
      [
        "▁১৯০",
        -8.777718884650344
      ],
      [
        "▁আলোচনা",
        -8.777854354890838
      ],
      [
        "▁বঙালী",
        -8.780494129539793
      ],
      [
        "কৰণ",
        -8.782426517543241
      ],
      [
        "▁তেওঁলোকক",
        -8.783064067361437
      ],
      [
        "▁প্ৰয়োজন",
        -8.78318949924153
      ],
      [
        "▁সা",
        -8.783295416755092
      ],
      [
        "▁গৈ",
        -8.783365533216184
      ],
      [
        "▁কেইবাটাও",
        -8.78626858489051
      ],
      [
        "▁প্ৰশিক্ষণ",
        -8.787530183323813
      ],
      [
        "▁যোৰহাট",
        -8.787993823926762
      ],
      [
        "▁ভ্ৰমণ",
        -8.788986729180541
      ],
      [
        "ৰূপে",
        -8.789286729974368
      ],
      [
        "▁পৰম্পৰাগত",
        -8.789669789098717
      ],
      [
        "▁চেষ্টা",
        -8.790201567539
      ],
      [
        "দ্",
        -8.790301342461234
      ],
      [
        "▁প্ৰৱেশ",
        -8.790889268898859
      ],
      [
        "▁–",
        -8.790996356056782
      ],
      [
        "▁আগবঢ়োৱা",
        -8.792366744936896
      ],
      [
        "খিনি",
        -8.79448636744596
      ],
      [
        "কৌ",
        -8.794837223368097
      ],
      [
        "ংগ",
        -8.795470684890216
      ],
      [
        "▁ক্ষমতা",
        -8.795835883863269
      ],
      [
        "▁গোট",
        -8.795919526492973
      ],
      [
        "▁সুবিধা",
        -8.796262554075216
      ],
      [
        "▁শিৱ",
        -8.796527916071504
      ],
      [
        "ঞ্জ",
        -8.797726228806885
      ],
      [
        "▁সভাপতি",
        -8.798361338162477
      ],
      [
        "▁খেল",
        -8.800789455542493
      ],
      [
        "▁ওচৰত",
        -8.801150915979642
      ],
      [
        "▁ইতিহাস",
        -8.802774563448196
      ],
      [
        "▁ৰূপত",
        -8.803395155022564
      ],
      [
        "▁ইন",
        -8.806179424011944
      ],
      [
        "▁মধ্য",
        -8.806310099610407
      ],
      [
        "▁বিহু",
        -8.809635372214991
      ],
      [
        "▁ধন",
        -8.810754921771284
      ],
      [
        "▁বিষয়া",
        -8.811251120007835
      ],
      [
        "▁পাই",
        -8.811877066663225
      ],
      [
        "▁গছ",
        -8.812532677285699
      ],
      [
        "▁সংগ্ৰহ",
        -8.8134779370518
      ],
      [
        "নাম",
        -8.813834497278771
      ],
      [
        "ান",
        -8.817227972029414
      ],
      [
        "▁চলচ্চিত্ৰৰ",
        -8.817446316811012
      ],
      [
        "▁প্ৰথমে",
        -8.817782553181075
      ],
      [
        "▁দেৱতা",
        -8.817988374673
      ],
      [
        "▁মাৰ্চ",
        -8.818839388103019
      ],
      [
        "▁সুৰ",
        -8.818856860053984
      ],
      [
        "▁গুণ",
        -8.819655326845112
      ],
      [
        "জু",
        -8.819958831617434
      ],
      [
        "▁ভূ",
        -8.821137681713916
      ],
      [
        "▁দিয়াৰ",
        -8.822299480851596
      ],
      [
        "▁বস্তু",
        -8.823419319667465
      ],
      [
        "▁অধ্যাপক",
        -8.823463869818069
      ],
      [
        "পূৰ্ণ",
        -8.824124695625558
      ],
      [
        "▁নৱেম্বৰ",
        -8.824728030432304
      ],
      [
        "▁মাহ",
        -8.824878005463862
      ],
      [
        "▁মাত্ৰ",
        -8.824923756347795
      ],
      [
        "▁আমি",
        -8.825253430963354
      ],
      [
        "ড়",
        -8.826040107873201
      ],
      [
        "▁প্ৰায়ে",
        -8.826048961680986
      ],
      [
        "▁আন্তঃৰাষ্ট্ৰীয়",
        -8.827272561035116
      ],
      [
        "▁২০০৯",
        -8.829686039207207
      ],
      [
        "▁শিক্ষক",
        -8.831850087902822
      ],
      [
        "▁জা",
        -8.832908504742772
      ],
      [
        "তম",
        -8.83299149143346
      ],
      [
        "▁১৯",
        -8.83315943722971
      ],
      [
        "▁সম্পৰ্কে",
        -8.835187870652678
      ],
      [
        "▁তেওঁলোক",
        -8.83739813405089
      ],
      [
        "▁অৱস্থাত",
        -8.83826330261065
      ],
      [
        "▁দিবলৈ",
        -8.838325907538728
      ],
      [
        "▁স্ব",
        -8.838722990672176
      ],
      [
        "থা",
        -8.839537300560737
      ],
      [
        "লো",
        -8.840066677432413
      ],
      [
        "▁ঘটনা",
        -8.84234273533673
      ],
      [
        "িল",
        -8.842592657532437
      ],
      [
        "▁স্নাতক",
        -8.845141765802616
      ],
      [
        "▁দিনা",
        -8.847060656207672
      ],
      [
        "স্ক",
        -8.847076711569926
      ],
      [
        "য",
        -8.848213044162499
      ],
      [
        "টে",
        -8.8483866694008
      ],
      [
        "▁পৃথিৱীৰ",
        -8.84905129204943
      ],
      [
        "▁ছা",
        -8.850254509831787
      ],
      [
        "▁যিকোনো",
        -8.851652894934421
      ],
      [
        "▁বিশ্বৰ",
        -8.853480883220097
      ],
      [
        "▁ভি",
        -8.853552879131339
      ],
      [
        "▁বয়সত",
        -8.8543796784518
      ],
      [
        "▁নগৰ",
        -8.854387146289746
      ],
      [
        "▁সমস্যা",
        -8.858761768002736
      ],
      [
        "ব্ৰ",
        -8.859967745288582
      ],
      [
        "▁দত্ত",
        -8.860668223575717
      ],
      [
        "িষ্ট",
        -8.863487479309342
      ],
      [
        "▁সাহিত্যৰ",
        -8.863725489978332
      ],
      [
        "▁কেতিয়াবা",
        -8.864773374151367
      ],
      [
        "▁তদুপৰ",
        -8.864822378971914
      ],
      [
        "জনক",
        -8.864990405604125
      ],
      [
        "েট",
        -8.865289047427702
      ],
      [
        "▁লোকৰ",
        -8.866305588166803
      ],
      [
        "▁১৭",
        -8.869942604760958
      ],
      [
        "▁গু",
        -8.870462559159389
      ],
      [
        "▁২০১৪",
        -8.870779358111836
      ],
      [
        "থি",
        -8.873871501950372
      ],
      [
        "▁সভাৰ",
        -8.874248942315221
      ],
      [
        "▁২০১৫",
        -8.875102143045972
      ],
      [
        "▁হাৰ",
        -8.87608554573497
      ],
      [
        "▁লিংগ",
        -8.877287742204656
      ],
      [
        "▁ৰূপে",
        -8.87791327552629
      ],
      [
        "▁আমেৰিকান",
        -8.879220074027831
      ],
      [
        "টোক",
        -8.880642295639717
      ],
      [
        "▁সত্ৰ",
        -8.882342024282188
      ],
      [
        "▁ধৰ্মৰ",
        -8.88290409217772
      ],
      [
        "▁গান",
        -8.884049883532722
      ],
      [
        "লাৰ",
        -8.884328513159666
      ],
      [
        "▁পুথি",
        -8.88448909741831
      ],
      [
        "ণ্ট",
        -8.88465419524308
      ],
      [
        "▁প্ৰাৰম্ভিক",
        -8.88468079315479
      ],
      [
        "▁ভ",
        -8.884762848756143
      ],
      [
        "▁খেলুৱৈ",
        -8.886024890407045
      ],
      [
        "শি",
        -8.886783828931705
      ],
      [
        "▁দলৰ",
        -8.888985937530965
      ],
      [
        "সমূহে",
        -8.890264813099005
      ],
      [
        "▁শাসন",
        -8.892334411465587
      ],
      [
        "▁পৰিচয়",
        -8.894132685600251
      ],
      [
        "▁২৫",
        -8.894476049088714
      ],
      [
        "▁১৮",
        -8.894976040153637
      ],
      [
        "▁২০১",
        -8.89507496650794
      ],
      [
        "▁বৈশিষ্ট্য",
        -8.895525484859741
      ],
      [
        "▁পৰিচিত",
        -8.895534436943588
      ],
      [
        "▁পৰিয়াল",
        -8.89884125643057
      ],
      [
        "▁নিজে",
        -8.89954850288585
      ],
      [
        "▁ডে",
        -8.901588891491237
      ],
      [
        "▁ছবিৰ",
        -8.902274335550679
      ],
      [
        "▁পৰিছিল",
        -8.903402834935104
      ],
      [
        "\"",
        -8.903895544308783
      ],
      [
        "▁ইউ",
        -8.904091505400624
      ],
      [
        "▁উদ্দেশ্য",
        -8.905182568537072
      ],
      [
        "ছি",
        -8.905900611392159
      ],
      [
        "মন",
        -8.90763380490749
      ],
      [
        "মেন",
        -8.907646559841833
      ],
      [
        "▁যাত্ৰা",
        -8.907690350705103
      ],
      [
        "াম",
        -8.907839118384796
      ],
      [
        "▁বৃহৎ",
        -8.908197299286506
      ],
      [
        "▁গৰাকী",
        -8.909483888931282
      ],
      [
        "▁দাস",
        -8.909930185697725
      ],
      [
        "▁নিৰ্দিষ্ট",
        -8.911912020948858
      ],
      [
        "ধৰ",
        -8.912244464211991
      ],
      [
        "▁বিখ্যাত",
        -8.912557660933349
      ],
      [
        "▁বন্ধ",
        -8.913550253818286
      ],
      [
        "ন্দ",
        -8.915137610698245
      ],
      [
        "▁হাত",
        -8.91681044349884
      ],
      [
        "াছ",
        -8.917244038340055
      ],
      [
        "ৰ্থ",
        -8.917776358807364
      ],
      [
        "▁ফা",
        -8.918636151596512
      ],
      [
        "▁প্ৰতীক",
        -8.918645476399957
      ],
      [
        "▁কৃষ্ণ",
        -8.919548015928122
      ],
      [
        "ঘ",
        -8.920332753767042
      ],
      [
        "▁ছি",
        -8.92219734878561
      ],
      [
        "▁সি",
        -8.92383979331045
      ],
      [
        "▁উদাহৰণ",
        -8.924390892257328
      ],
      [
        "▁চিন্তা",
        -8.92470729628728
      ],
      [
        "▁মানুহে",
        -8.92666692097453
      ],
      [
        "▁বৌদ্ধ",
        -8.927718850469478
      ],
      [
        "▁খণ্ড",
        -8.927850594650575
      ],
      [
        "▁২০১৬",
        -8.928055784947842
      ],
      [
        "কাল",
        -8.92890784132167
      ],
      [
        "চু",
        -8.930105701760459
      ],
      [
        "▁জুন",
        -8.93143924395913
      ],
      [
        "▁সময়তে",
        -8.931849408396307
      ],
      [
        "▁টি",
        -8.931888875030445
      ],
      [
        "▁দুখন",
        -8.932374525237595
      ],
      [
        "▁বিভাগৰ",
        -8.93305055885708
      ],
      [
        "ভাগ",
        -8.933279711624532
      ],
      [
        "বিদ",
        -8.933439593044328
      ],
      [
        "▁সম",
        -8.933809932995814
      ],
      [
        "▁পাঁচ",
        -8.934478662875561
      ],
      [
        "পাল",
        -8.934811842418853
      ],
      [
        "▁কামৰূপ",
        -8.935116697267606
      ],
      [
        "য়াৰ",
        -8.935233441387915
      ],
      [
        "▁দখল",
        -8.935657911984684
      ],
      [
        "▁মিটাৰ",
        -8.93649796787989
      ],
      [
        "দৰ",
        -8.938511210139783
      ],
      [
        "ৰণ",
        -8.938816548888072
      ],
      [
        "▁প্ৰেম",
        -8.94129694367994
      ],
      [
        "▁চলি",
        -8.943539271175528
      ],
      [
        "▁তলত",
        -8.943610241770731
      ],
      [
        "শা",
        -8.94457683520142
      ],
      [
        "▁আন্দোলন",
        -8.944834918645775
      ],
      [
        "▁দ",
        -8.945899971455479
      ],
      [
        "▁যাক",
        -8.945925762068299
      ],
      [
        "▁নাট",
        -8.94800360838988
      ],
      [
        "▁খা",
        -8.949884098445406
      ],
      [
        "▁দীঘল",
        -8.952411159789717
      ],
      [
        "▁সংস্কৃতি",
        -8.955252176866697
      ],
      [
        "▁বিপৰীতে",
        -8.955813412493304
      ],
      [
        "▁বেছিভাগ",
        -8.955897737781303
      ],
      [
        "▁মাধ্যমিক",
        -8.955975622058407
      ],
      [
        "▁সংকলন",
        -8.95708580982025
      ],
      [
        "▁মই",
        -8.95783111020849
      ],
      [
        "ছন",
        -8.958522215212753
      ],
      [
        "▁লোকে",
        -8.959490549554866
      ],
      [
        "বদ্ধ",
        -8.959643605943702
      ],
      [
        "▁অৰ্থনৈতিক",
        -8.960005183922434
      ],
      [
        "▁চৰিত্ৰত",
        -8.960259676759158
      ],
      [
        "▁নিজ",
        -8.960316737847482
      ],
      [
        "▁প্ৰচাৰ",
        -8.961900881783453
      ],
      [
        "নাৰ",
        -8.963371324344108
      ],
      [
        "▁পৰম্পৰা",
        -8.96409435477824
      ],
      [
        "িয়ে",
        -8.96497793592031
      ],
      [
        "▁প্ৰমাণ",
        -8.966960515267726
      ],
      [
        "▁প্ৰকাশন",
        -8.967273672828924
      ],
      [
        "▁কিতাপ",
        -8.967629095479186
      ],
      [
        "▁২১",
        -8.968264855441184
      ],
      [
        "▁ৰাজধানী",
        -8.968705468396504
      ],
      [
        "ৎ",
        -8.969078401666724
      ],
      [
        "য়েই",
        -8.971200649236684
      ],
      [
        "▁কলেজ",
        -8.972007183438294
      ],
      [
        "▁তেনে",
        -8.972544510896935
      ],
      [
        "▁বল",
        -8.974933491377449
      ],
      [
        "▁কৈছিল",
        -8.975298712297176
      ],
      [
        "▁সম্পৰ্কীয়",
        -8.975501213010244
      ],
      [
        "বু",
        -8.976217849462135
      ],
      [
        "জান",
        -8.976476788177173
      ],
      [
        "াব",
        -8.977038069400729
      ],
      [
        "▁নিৰ্মিত",
        -8.977516431955626
      ],
      [
        "▁চুক্তি",
        -8.979051846039736
      ],
      [
        "নিক",
        -8.97933370534242
      ],
      [
        "▁বৈ",
        -8.979396757887951
      ],
      [
        "▁পু",
        -8.980786366465496
      ],
      [
        "▁ৰক্ষা",
        -8.980941484649168
      ],
      [
        "▁পৰিৱৰ্তন",
        -8.981060357706369
      ],
      [
        "▁জল",
        -8.9820818717434
      ],
      [
        "▁শৰ্মা",
        -8.982423485049424
      ],
      [
        "▁থাকিব",
        -8.982542902769207
      ],
      [
        "াল",
        -8.983019679025828
      ],
      [
        "পাৰ",
        -8.98370491875836
      ],
      [
        "▁একমাত্ৰ",
        -8.98394964035656
      ],
      [
        "▁লগা",
        -8.984441264456777
      ],
      [
        "▁মাহৰ",
        -8.98620563734492
      ],
      [
        "লু",
        -8.987001668827705
      ],
      [
        "▁জীৱ",
        -8.987350327724261
      ],
      [
        "▁সং",
        -8.987657304433998
      ],
      [
        "▁বিজ্ঞানৰ",
        -8.989108644795412
      ],
      [
        "▁ঐতিহাসিক",
        -8.990862461742768
      ],
      [
        "▁জনাজাত",
        -8.990986649892765
      ],
      [
        "▁পৰামৰ্শ",
        -8.99233086429286
      ],
      [
        "▁বিষ",
        -8.995900367383395
      ],
      [
        "▁প্ৰস্তাৱ",
        -8.996855284139485
      ],
      [
        "▁বেলেগ",
        -8.996865281440943
      ],
      [
        "▁১৮৮",
        -9.000921164209728
      ],
      [
        "▁মোৰ",
        -9.001878781734938
      ],
      [
        "▁ৰাষ্ট্ৰপতি",
        -9.002490778933531
      ],
      [
        "▁অনু",
        -9.002725675527191
      ],
      [
        "▁স্বামী",
        -9.00280072778112
      ],
      [
        "▁২০০৪",
        -9.003916172343477
      ],
      [
        "▁অভি",
        -9.004370429700248
      ],
      [
        "▁কালত",
        -9.006346491869525
      ],
      [
        "ৰ্ট",
        -9.007568020603028
      ],
      [
        "বিজ্ঞান",
        -9.00806109086948
      ],
      [
        "▁মন্ত্ৰী",
        -9.008322962492942
      ],
      [
        "▁লাগিব",
        -9.00832761718039
      ],
      [
        "লিয়া",
        -9.008638092303267
      ],
      [
        "ব্য",
        -9.01084814073527
      ],
      [
        "▁তুলি",
        -9.011366240995667
      ],
      [
        "▁কোম্পানী",
        -9.01153390699594
      ],
      [
        "▁২০০৭",
        -9.011956892479226
      ],
      [
        "▁চহৰ",
        -9.01218273604282
      ],
      [
        "ৰচিত",
        -9.013434062862794
      ],
      [
        "▁সমৰ্থন",
        -9.014213364057783
      ],
      [
        "▁১৮৯",
        -9.015060809966267
      ],
      [
        "▁চন",
        -9.015313867807615
      ],
      [
        "ৰ্ণ",
        -9.016919742071273
      ],
      [
        "ন্",
        -9.01701383859784
      ],
      [
        "▁মুছলমান",
        -9.017193284557896
      ],
      [
        "▁দুয়ো",
        -9.017263495884631
      ],
      [
        "▁নিয়ন্ত্ৰণ",
        -9.018116226861551
      ],
      [
        "▁সৰ্বোচ্চ",
        -9.019652459247677
      ],
      [
        "▁মুদ্ৰা",
        -9.01965522422536
      ],
      [
        "▁যুদ্ধৰ",
        -9.02252604277978
      ],
      [
        "ৰূপ",
        -9.022672581936394
      ],
      [
        "্ম",
        -9.023012256150027
      ],
      [
        "▁বৰ্তমানৰ",
        -9.024150985475325
      ],
      [
        "েও",
        -9.024703795398818
      ],
      [
        "▁২০২০",
        -9.024718696090392
      ],
      [
        "▁আন্দোলনৰ",
        -9.025465199998482
      ],
      [
        "▁গান্ধী",
        -9.027261020429457
      ],
      [
        "▁২৪",
        -9.028452114919048
      ],
      [
        "▁সামগ্ৰী",
        -9.029479160703563
      ],
      [
        "▁ডিচেম্বৰ",
        -9.030762165436489
      ],
      [
        "▁গো",
        -9.030892410810525
      ],
      [
        "▁আগষ্ট",
        -9.031169175311554
      ],
      [
        "স্",
        -9.033108226823925
      ],
      [
        "▁ৰাজহুৱা",
        -9.033670615787074
      ],
      [
        "▁শ্ৰেণী",
        -9.034098325801374
      ],
      [
        "▁প্ৰথা",
        -9.035781450382107
      ],
      [
        "▁গাঁৱৰ",
        -9.036189085216524
      ],
      [
        "▁টকা",
        -9.036290677888882
      ],
      [
        "পাত",
        -9.03664286351501
      ],
      [
        "▁নহ",
        -9.037295623141791
      ],
      [
        "▁পৰিৱেশ",
        -9.037461234275938
      ],
      [
        "▁মাছ",
        -9.037799147427924
      ],
      [
        "▁কোৰআন",
        -9.038271980690372
      ],
      [
        "▁উদ্যোগ",
        -9.039781522636073
      ],
      [
        "▁ফল",
        -9.03983873360286
      ],
      [
        "▁°",
        -9.039839346907325
      ],
      [
        "▁অধ্যক্ষ",
        -9.039947814632129
      ],
      [
        "▁সংস্থা",
        -9.041182229686784
      ],
      [
        "▁অথবা",
        -9.041411416753988
      ],
      [
        "▁দিলে",
        -9.041425816930497
      ],
      [
        "▁ডা",
        -9.041717366888106
      ],
      [
        "▁শান্তি",
        -9.04222127111082
      ],
      [
        "▁সভা",
        -9.042906830053862
      ],
      [
        "▁প্ৰাকৃতিক",
        -9.043051556432289
      ],
      [
        "বোৰে",
        -9.043410486750984
      ],
      [
        "▁বিচাৰি",
        -9.043711581914234
      ],
      [
        "পে",
        -9.044041117994809
      ],
      [
        "ফি",
        -9.04653869568753
      ],
      [
        "তু",
        -9.047831038557185
      ],
      [
        "▁ৰং",
        -9.04806161100295
      ],
      [
        "▁এপ্ৰিল",
        -9.048252868922312
      ],
      [
        "কী",
        -9.048256975242463
      ],
      [
        "▁জুলাই",
        -9.048442222958492
      ],
      [
        "▁প্ৰকৃত",
        -9.048464418386214
      ],
      [
        "ংক",
        -9.049235494062913
      ],
      [
        "পৰা",
        -9.049725949311158
      ],
      [
        "িনী",
        -9.050274909225333
      ],
      [
        "দাৰ",
        -9.050332153231622
      ],
      [
        "বিধ",
        -9.050756927040903
      ],
      [
        "▁চতুৰ্থ",
        -9.051002476758374
      ],
      [
        "▁নং",
        -9.051123666720887
      ],
      [
        "▁এইটো",
        -9.051483573745713
      ],
      [
        "▁বন",
        -9.052676288587685
      ],
      [
        "লেও",
        -9.053467006379194
      ],
      [
        "▁শব্দৰ",
        -9.053844016789089
      ],
      [
        "য়ো",
        -9.053895408386147
      ],
      [
        "▁আয়",
        -9.055233425275325
      ],
      [
        "▁ব্যাখ্যা",
        -9.055655599237882
      ],
      [
        "▁ছেপ্টেম্বৰ",
        -9.057244839341607
      ],
      [
        "▁সৰ্বাধিক",
        -9.057531145361043
      ],
      [
        "▁মাজৰ",
        -9.058213413573458
      ],
      [
        "▁মাটি",
        -9.05829070916146
      ],
      [
        "▁সম্ভৱ",
        -9.05886122868645
      ],
      [
        "▁উপস্থিত",
        -9.060650645293636
      ],
      [
        "▁কাপোৰ",
        -9.06368597561167
      ],
      [
        "▁গতি",
        -9.063862448093841
      ],
      [
        "ক্ট",
        -9.065551732607632
      ],
      [
        "▁কৰাত",
        -9.066242888167176
      ],
      [
        "▁অক্টোবৰ",
        -9.071787373065497
      ],
      [
        "▁চৰকাৰ",
        -9.072509447205274
      ],
      [
        "▁বেল",
        -9.073494982967262
      ],
      [
        "0",
        -9.074999760095558
      ],
      [
        "▁গঠিত",
        -9.076563936024277
      ],
      [
        "▁ঘূৰি",
        -9.076605324698319
      ],
      [
        "▁প্ৰকাৰৰ",
        -9.077303146836204
      ],
      [
        "প্ৰাপ্ত",
        -9.082208083629611
      ],
      [
        "▁নেতা",
        -9.082267386065332
      ],
      [
        "পু",
        -9.083199966931492
      ],
      [
        "▁আনন্দ",
        -9.083526462500846
      ],
      [
        "তেই",
        -9.084495801255116
      ],
      [
        "▁দিল্লী",
        -9.084622470818179
      ],
      [
        "▁প্ৰদেশ",
        -9.085197002313254
      ],
      [
        "▁জাতি",
        -9.085737553486702
      ],
      [
        "ধা",
        -9.086041516804878
      ],
      [
        "স্থ",
        -9.086355051076804
      ],
      [
        "▁ব্যক্তিৰ",
        -9.086629681672953
      ],
      [
        "পৰ",
        -9.087277808533301
      ],
      [
        "▁২৬",
        -9.087594589364318
      ],
      [
        "বাৰী",
        -9.089040374048766
      ],
      [
        "▁শ্ৰেণীৰ",
        -9.090159168644325
      ],
      [
        "▁ৰাণী",
        -9.090192775349621
      ],
      [
        "▁সমাজৰ",
        -9.091259813948316
      ],
      [
        "▁থকাৰ",
        -9.091414071909195
      ],
      [
        "▁অন্তৰ্গত",
        -9.091418749281319
      ],
      [
        "▁বাহিৰে",
        -9.09231273907741
      ],
      [
        "ঙা",
        -9.093088636658438
      ],
      [
        "▁ব্যৱহ",
        -9.093756182552767
      ],
      [
        "▁বৰুৱাৰ",
        -9.094688293887492
      ],
      [
        "▁জাপান",
        -9.094985743596716
      ],
      [
        "▁মানসিক",
        -9.09656357767391
      ],
      [
        "▁পূৰ্বৰ",
        -9.097029370012518
      ],
      [
        "▁উঠি",
        -9.097417777324521
      ],
      [
        "▁ফে",
        -9.098352220197281
      ],
      [
        "▁আহিছিল",
        -9.098991308675828
      ],
      [
        "▁নদীৰ",
        -9.10152349564785
      ],
      [
        "▁ৰেল",
        -9.102947126461116
      ],
      [
        "▁পুৰস্কাৰ",
        -9.102979131984135
      ],
      [
        "▁সংগঠন",
        -9.104044814525272
      ],
      [
        "ল্ড",
        -9.104107831543356
      ],
      [
        "সমূহক",
        -9.105795634055934
      ],
      [
        "▁নিজকে",
        -9.107289091972586
      ],
      [
        "▁যুক্তি",
        -9.1075946760465
      ],
      [
        "▁সাত",
        -9.107862901125866
      ],
      [
        "িয়াৰ",
        -9.108605318157327
      ],
      [
        "চন্দ্ৰ",
        -9.110008505133813
      ],
      [
        "▁শিক্ষাৰ",
        -9.110512180435046
      ],
      [
        "▁আল্লাহ",
        -9.110567455277334
      ],
      [
        "াত",
        -9.11074211138876
      ],
      [
        "▁উৎস",
        -9.111375949881204
      ],
      [
        "▁’’",
        -9.11194642536162
      ],
      [
        "▁বয়স",
        -9.112134463708497
      ],
      [
        "▁পুৰুষৰ",
        -9.112248010589916
      ],
      [
        "▁ফি",
        -9.113749193160576
      ],
      [
        "▁বিষয়ত",
        -9.113996096628252
      ],
      [
        "▁ছবিখন",
        -9.114593748965763
      ],
      [
        "লাই",
        -9.11492610871735
      ],
      [
        "▁২০০১",
        -9.11588405129412
      ],
      [
        "বোৰত",
        -9.116417503174882
      ],
      [
        "▁ডিব্ৰুগড়",
        -9.116431004360408
      ],
      [
        "নো",
        -9.116547146642054
      ],
      [
        "▁পৰীক্ষাত",
        -9.117700373743167
      ],
      [
        "▁অপ",
        -9.117728803809365
      ],
      [
        "িম",
        -9.118708180881349
      ],
      [
        "▁তত্ত্ব",
        -9.119445868902492
      ],
      [
        "▁সংস্কৰণ",
        -9.119519726979679
      ],
      [
        "▁ডেকা",
        -9.119787544031944
      ],
      [
        "▁সৈন্য",
        -9.119801619967657
      ],
      [
        "বুলিও",
        -9.120015415862675
      ],
      [
        "▁আৱিষ্কাৰ",
        -9.12162081755362
      ],
      [
        "▁সূত্ৰ",
        -9.122915594361846
      ],
      [
        "▁বুৰঞ্জী",
        -9.12308857719511
      ],
      [
        "▁২০০০",
        -9.123166867452317
      ],
      [
        "▁মুখ",
        -9.12325025164569
      ],
      [
        "▁ফালে",
        -9.124781659684198
      ],
      [
        "াক",
        -9.125200783319052
      ],
      [
        "ভাৰতীয়",
        -9.125951289992003
      ],
      [
        "▁বিক্ৰী",
        -9.126640618658998
      ],
      [
        "ত্ৰ",
        -9.126777137145197
      ],
      [
        "▁বাতৰি",
        -9.126909258118747
      ],
      [
        "বিলাক",
        -9.12733167667615
      ],
      [
        "▁শব্দটো",
        -9.127593161933179
      ],
      [
        "▁বেংক",
        -9.128518704284186
      ],
      [
        "▁প্ৰণালী",
        -9.130178106289424
      ],
      [
        "ষ্ট্ৰ",
        -9.131207127247954
      ],
      [
        "ঙৰ",
        -9.133099480642212
      ],
      [
        "▁ভে",
        -9.134010575216825
      ],
      [
        "▁হল",
        -9.136076548034515
      ],
      [
        "াং",
        -9.13624041280056
      ],
      [
        "ৰিয়া",
        -9.138393860490016
      ],
      [
        "ণি",
        -9.139073400984227
      ],
      [
        "পতি",
        -9.139910566539305
      ],
      [
        "ডা",
        -9.139944287878341
      ],
      [
        "টাৰ",
        -9.140343521709395
      ],
      [
        "▁ইছলাম",
        -9.141450305444103
      ],
      [
        "▁দেখি",
        -9.14213999001834
      ],
      [
        "▁হেৰী",
        -9.143113547942995
      ],
      [
        "▁টু",
        -9.143184545193428
      ],
      [
        "▁ছবিখনৰ",
        -9.143243741531986
      ],
      [
        "▁উৎপত্তি",
        -9.143893496791112
      ],
      [
        "▁বোলে",
        -9.144867028398147
      ],
      [
        "▁গোৱা",
        -9.145523931419115
      ],
      [
        "▁ঘৰত",
        -9.145856176575307
      ],
      [
        "কেইটা",
        -9.146581499823673
      ],
      [
        "গি",
        -9.147674670487389
      ],
      [
        "▁গঢ়ি",
        -9.147788590443643
      ],
      [
        "▁]",
        -9.147866088745051
      ],
      [
        "▁আত্ম",
        -9.148018685639933
      ],
      [
        "▁ত্যাগ",
        -9.149379347997774
      ],
      [
        "▁ক্ষেত্ৰ",
        -9.149642963518232
      ],
      [
        "▁পৰিকল্পনা",
        -9.15088061688271
      ],
      [
        "▁প্ৰতিনিধিত্ব",
        -9.150995977313212
      ],
      [
        "▁মনো",
        -9.151341152884008
      ],
      [
        "ৱান",
        -9.151674173655625
      ],
      [
        "বী",
        -9.151730977906261
      ],
      [
        "▁সম্পাদনা",
        -9.151979029231466
      ],
      [
        "▁আয়োজন",
        -9.153251867754797
      ],
      [
        "▁কাব্য",
        -9.154842474476695
      ],
      [
        "▁বিষ্ণু",
        -9.155477962057578
      ],
      [
        "▁সেয়েহে",
        -9.155799465367291
      ],
      [
        "ম্",
        -9.156066208182494
      ],
      [
        "▁ছবিত",
        -9.157355812466637
      ],
      [
        "মুখ",
        -9.158078967115408
      ],
      [
        "হাৰ",
        -9.158555545031497
      ],
      [
        "মতে",
        -9.158692341095271
      ],
      [
        "▁আকাৰ",
        -9.158913803262449
      ],
      [
        "▁সমালোচনা",
        -9.15966849021024
      ],
      [
        "▁গৃহ",
        -9.160716528335778
      ],
      [
        "▁আৰ্হি",
        -9.161811577171395
      ],
      [
        "▁ঘটে",
        -9.162040144401264
      ],
      [
        "ন্স",
        -9.162518716409778
      ],
      [
        "▁পৰিচালি",
        -9.163239139843759
      ],
      [
        "▁কংগ্ৰেছ",
        -9.163638527528722
      ],
      [
        "টন",
        -9.164613784060194
      ],
      [
        "▁প্ৰক্ৰিয়া",
        -9.164993620797967
      ],
      [
        "▁পৰিগণ",
        -9.165140803992838
      ],
      [
        "টোত",
        -9.165458374052093
      ],
      [
        "▁নিৰ্দেশ",
        -9.165462461659272
      ],
      [
        "▁শক্তিশালী",
        -9.166861143593877
      ],
      [
        "▁শু",
        -9.168107442079043
      ],
      [
        "দেৱ",
        -9.168620842687604
      ],
      [
        "িছ",
        -9.169352503668986
      ],
      [
        "▁কল",
        -9.169730017347362
      ],
      [
        "▁পিছৰ",
        -9.17039247013583
      ],
      [
        "দী",
        -9.171502945688147
      ],
      [
        "▁তেন্তে",
        -9.172140603861067
      ],
      [
        "▁সংজ্ঞা",
        -9.172622474801212
      ],
      [
        "▁খোৱা",
        -9.172720049442436
      ],
      [
        "▁মূৰ্তি",
        -9.174315374656006
      ],
      [
        "ৰ্ক",
        -9.176202628624516
      ],
      [
        "▁উভতি",
        -9.17752564455153
      ],
      [
        "▁বাধা",
        -9.178836498048598
      ],
      [
        "▁হ্ৰাস",
        -9.182941303873895
      ],
      [
        "▁নাট্য",
        -9.183060606041568
      ],
      [
        "▁শাখা",
        -9.184463210677787
      ],
      [
        "ত্ত",
        -9.185792552028216
      ],
      [
        "▁চাই",
        -9.186870414345712
      ],
      [
        "ম্প",
        -9.18711653862694
      ],
      [
        "দান",
        -9.18717867795786
      ],
      [
        "▁ধৰে",
        -9.188286015504797
      ],
      [
        "▁অনেক",
        -9.190500876727885
      ],
      [
        "▁দৰ্শন",
        -9.19270389479394
      ],
      [
        "▁বৰ্ণ",
        -9.19276178165751
      ],
      [
        "▁যুগৰ",
        -9.193265705747613
      ],
      [
        "ভে",
        -9.194243003317435
      ],
      [
        "▁চনলৈ",
        -9.195932926943936
      ],
      [
        "জাৰ",
        -9.196707363625912
      ],
      [
        "দ্ধ",
        -9.1970106874539
      ],
      [
        "▁স্থানত",
        -9.197798711005808
      ],
      [
        "▁বিভাগ",
        -9.19794609031839
      ],
      [
        "দিন",
        -9.199439634349915
      ],
      [
        "ক্ত",
        -9.200697348116034
      ],
      [
        "▁গুৱাহাটীৰ",
        -9.202994912519472
      ],
      [
        "▁মাক",
        -9.203833967596847
      ],
      [
        "▁চক্ৰ",
        -9.204242685174066
      ],
      [
        "বল",
        -9.204728720750662
      ],
      [
        "▁পদত",
        -9.204830406143858
      ],
      [
        "▁ধ্বংস",
        -9.205721464387757
      ],
      [
        "নু",
        -9.205846405864252
      ],
      [
        "লাল",
        -9.206866067232735
      ],
      [
        "▁চৰাই",
        -9.207031943343225
      ],
      [
        "িউ",
        -9.207386125275015
      ],
      [
        "▁বুক",
        -9.207889984998147
      ],
      [
        "▁দিৱস",
        -9.20860768046316
      ],
      [
        "ফে",
        -9.208836948556169
      ],
      [
        "▁অৱস্থা",
        -9.2091024243516
      ],
      [
        "▁চীনা",
        -9.209132282437473
      ],
      [
        "▁বিজ্ঞানী",
        -9.209914286579632
      ],
      [
        "▁একক",
        -9.210311286331287
      ],
      [
        "▁সফল",
        -9.211642062886213
      ],
      [
        "॰",
        -9.212327013001198
      ],
      [
        "▁আম",
        -9.212330662719829
      ],
      [
        "▁লাখ",
        -9.212347761162384
      ],
      [
        "▁ফেব্ৰুৱাৰী",
        -9.215955520611079
      ],
      [
        "▁মাজেৰে",
        -9.217390007542111
      ],
      [
        "▁বাকী",
        -9.218311182155013
      ],
      [
        "▁সহায়ত",
        -9.218378434569292
      ],
      [
        "▁আগ",
        -9.22061427658959
      ],
      [
        "▁২২",
        -9.220694842876293
      ],
      [
        "▁প্ৰতিটো",
        -9.221114134339835
      ],
      [
        "▁ঘৰৰ",
        -9.222919112393017
      ],
      [
        "ডু",
        -9.224306124108972
      ],
      [
        "▁স্নাতকোত্তৰ",
        -9.225510994005827
      ],
      [
        "▁লিখিছিল",
        -9.225893247638503
      ],
      [
        "বোধ",
        -9.226970451767198
      ],
      [
        "▁ছে",
        -9.227261765646137
      ],
      [
        "▁নিম্ন",
        -9.227312453609862
      ],
      [
        "োঁ",
        -9.227759709478546
      ],
      [
        "শীল",
        -9.228390580778544
      ],
      [
        "▁থিয়েটাৰ",
        -9.229598287032628
      ],
      [
        "▁সমাজত",
        -9.229639127570454
      ],
      [
        "▁টাই",
        -9.22967840208617
      ],
      [
        "▁সীমা",
        -9.229911106361339
      ],
      [
        "যাতে",
        -9.230200590168511
      ],
      [
        "▁ঔষধ",
        -9.231550339018739
      ],
      [
        "▁পাতি",
        -9.231932624773567
      ],
      [
        "▁গে",
        -9.232516626717626
      ],
      [
        "▁বন্ধু",
        -9.232758094263144
      ],
      [
        "▁মাৰি",
        -9.232959353327345
      ],
      [
        "▁তাক",
        -9.233334673107638
      ],
      [
        "▁সূৰ্য",
        -9.234312903560923
      ],
      [
        "▁ব্যৱসায়",
        -9.234365576678165
      ],
      [
        "▁বৰ্গ",
        -9.236518882065116
      ],
      [
        "▁আৰ্",
        -9.23666418452056
      ],
      [
        "দু",
        -9.236735897463081
      ],
      [
        "▁সম্প্ৰদায়ৰ",
        -9.23817566776214
      ],
      [
        "▁ৰাখি",
        -9.239021429541786
      ],
      [
        "▁আলোচনী",
        -9.239454657255632
      ],
      [
        "▁যুগ",
        -9.2395807082078
      ],
      [
        "▁ৰাষ্ট্ৰ",
        -9.239841939726002
      ],
      [
        "গু",
        -9.239980224681197
      ],
      [
        "▁নৱ",
        -9.240412861394743
      ],
      [
        "▁পূৰ্বে",
        -9.24068272686412
      ],
      [
        "পৰি",
        -9.240728901971387
      ],
      [
        "ময়",
        -9.241020360437629
      ],
      [
        "▁শীৰ্ষক",
        -9.241597471015293
      ],
      [
        "▁ভূমি",
        -9.242916743202812
      ],
      [
        "▁২০২১",
        -9.24301958871343
      ],
      [
        "▁যুদ্ধত",
        -9.24339022634555
      ],
      [
        "▁উপাদান",
        -9.247458062375433
      ],
      [
        "▁বিচাৰ",
        -9.24773117078728
      ],
      [
        "পক্ষ",
        -9.24930043551883
      ],
      [
        "কুল",
        -9.249362028690701
      ],
      [
        "▁আগৰ",
        -9.250736015866051
      ],
      [
        "▁অৱশেষ",
        -9.252360860802627
      ],
      [
        "▁আমাৰ",
        -9.25275965635256
      ],
      [
        "ঠা",
        -9.253267626002767
      ],
      [
        "▁বিশিষ্ট",
        -9.253552686206605
      ],
      [
        "▁দহ",
        -9.253647012838737
      ],
      [
        "▁২৩",
        -9.253955418397588
      ],
      [
        "▁একাডেমী",
        -9.253980438514766
      ],
      [
        "গৈ",
        -9.254845008517009
      ],
      [
        "জনে",
        -9.255981796205642
      ],
      [
        "▁বৰুৱাই",
        -9.25677968517854
      ],
      [
        "▁ৰঙা",
        -9.257302612730586
      ],
      [
        "▁শিল্প",
        -9.257393778950876
      ],
      [
        "▁নিউ",
        -9.257582005569263
      ],
      [
        "▁একেলগে",
        -9.25871426080362
      ],
      [
        "▁2",
        -9.260333953992024
      ],
      [
        "▁অভিযান",
        -9.261181454673295
      ],
      [
        "▁বৰা",
        -9.262644757656819
      ],
      [
        "িয়",
        -9.262831193681262
      ],
      [
        "▁সিংহ",
        -9.263189683588092
      ],
      [
        "▁বড়ো",
        -9.265861021054743
      ],
      [
        "▁প্ৰচলন",
        -9.265930555529447
      ],
      [
        "▁পঢ়া",
        -9.266387016963144
      ],
      [
        "▁পণ্ডিত",
        -9.266722769824186
      ],
      [
        "▁প্ৰত্যেক",
        -9.267117911338158
      ],
      [
        "▁আশা",
        -9.267871780277554
      ],
      [
        "▁দিশত",
        -9.268482206120618
      ],
      [
        "▁বজাৰ",
        -9.268990896580565
      ],
      [
        "▁মুক্ত",
        -9.269174647823334
      ],
      [
        "ৰাই",
        -9.269620258303643
      ],
      [
        "▁অন",
        -9.270889607119475
      ],
      [
        "▁শেষৰ",
        -9.272108483354288
      ],
      [
        "▁সংখ্যক",
        -9.27217045996865
      ],
      [
        "▁লিপি",
        -9.274118721886605
      ],
      [
        "▁নিৰ্",
        -9.274183847258161
      ],
      [
        "▁১০০",
        -9.274492430886422
      ],
      [
        "▁হাতী",
        -9.274592842725632
      ],
      [
        "▁সংস্কৃতিৰ",
        -9.275054402044727
      ],
      [
        "▁অৱদান",
        -9.275126017549958
      ],
      [
        "▁থাকি",
        -9.27521279985337
      ],
      [
        "▁প্ৰাণী",
        -9.275413148191884
      ],
      [
        "▁ফুকন",
        -9.275828094685577
      ],
      [
        "▁নোৱাৰে",
        -9.275879781350506
      ],
      [
        "▁কিলোমিটাৰ",
        -9.277797931745871
      ],
      [
        "▁নিশ্চিত",
        -9.27779810773618
      ],
      [
        "নিয়া",
        -9.278472619056902
      ],
      [
        "▁৫০",
        -9.278983865130238
      ],
      [
        "ৰ্ড",
        -9.279045861261368
      ],
      [
        "সং",
        -9.281502489924943
      ],
      [
        "▁যোৱাৰ",
        -9.283104502515563
      ],
      [
        "▁সেয়া",
        -9.283819116756966
      ],
      [
        "▁কাৰ্য্য",
        -9.285598577800446
      ],
      [
        "▁সময়ছোৱাত",
        -9.285650854954921
      ],
      [
        "▁আধাৰ",
        -9.289146669450687
      ],
      [
        "চল",
        -9.28967864933836
      ],
      [
        "▁আন্তৰ্জাতিক",
        -9.289810067419813
      ],
      [
        "▁অনুভৱ",
        -9.289847652062605
      ],
      [
        "সামৰিক",
        -9.290698184519599
      ],
      [
        "▁ইন্দ্ৰ",
        -9.291766120941432
      ],
      [
        "▁কিয়নো",
        -9.291867917489025
      ],
      [
        "▁দুয়োটা",
        -9.291888191508729
      ],
      [
        "▁অংগ",
        -9.292376049318857
      ],
      [
        "েন্স",
        -9.292585119462789
      ],
      [
        "▁চৌধুৰী",
        -9.292665827442221
      ],
      [
        "▁নিৰ্বাচন",
        -9.293855477874622
      ],
      [
        "▁পৰিমাণ",
        -9.294919060256436
      ],
      [
        "▁তেল",
        -9.295355591918165
      ],
      [
        "▁বিজয়",
        -9.295562962107809
      ],
      [
        "▁সক্ৰিয়",
        -9.29587100602373
      ],
      [
        "▁ক্ৰমে",
        -9.295936041848258
      ],
      [
        "▁পূৰ্ব",
        -9.296499843236184
      ],
      [
        "▁গড়",
        -9.297380124587837
      ],
      [
        "▁অলিম্পিক",
        -9.297489446692772
      ],
      [
        "▁পতাকা",
        -9.298268436527964
      ],
      [
        "▁যিবোৰ",
        -9.2989140615181
      ],
      [
        "▁মাতৃৰ",
        -9.300506417332276
      ],
      [
        "▁দুজন",
        -9.301126347218558
      ],
      [
        "▁এনেদৰে",
        -9.30210093474058
      ],
      [
        "▁তেজ",
        -9.302361679332375
      ],
      [
        "▁হৰি",
        -9.302434388195497
      ],
      [
        "▁ইয়াৰে",
        -9.303019250880341
      ],
      [
        "বলগীয়া",
        -9.303415987235914
      ],
      [
        "▁ভিন্ন",
        -9.303996389700067
      ],
      [
        "▁চীন",
        -9.304760231331453
      ],
      [
        "▁পাহাৰ",
        -9.304791622214399
      ],
      [
        "▁ঘ",
        -9.305652687117462
      ],
      [
        "▁শতিকাত",
        -9.305780206457051
      ],
      [
        "▁দশকৰ",
        -9.306043382620345
      ],
      [
        "▁পৰ্যন্ত",
        -9.306054171619387
      ],
      [
        "▁সংৰক্ষণ",
        -9.306056867942232
      ],
      [
        "▁শিৱসাগৰ",
        -9.30610553134904
      ],
      [
        "▁তামিল",
        -9.306211999821684
      ],
      [
        "িচ",
        -9.306352557138577
      ],
      [
        "হী",
        -9.306851389743855
      ],
      [
        "▁কটা",
        -9.30828850164571
      ],
      [
        "▁নিযুক্তি",
        -9.309741101715357
      ],
      [
        "▁আনুষ্ঠানিক",
        -9.310156698867553
      ],
      [
        "▁পৰাস্ত",
        -9.310278767282636
      ],
      [
        "▁দেশত",
        -9.311881570345108
      ],
      [
        "▁চাকৰি",
        -9.312807928593347
      ],
      [
        "▁পৰিল",
        -9.31397021675293
      ],
      [
        "শক্তি",
        -9.314026481041466
      ],
      [
        "ন্ন",
        -9.314732953988365
      ],
      [
        "▁উদ্ভিদ",
        -9.31542068181994
      ],
      [
        "বাস",
        -9.316194066911223
      ],
      [
        "পদ",
        -9.316211385221504
      ],
      [
        "গ্ৰা",
        -9.318790291332597
      ],
      [
        "ফু",
        -9.319261235121209
      ],
      [
        "স্প",
        -9.319314825338388
      ],
      [
        "▁২৮",
        -9.320165130499547
      ],
      [
        "গো",
        -9.321955478343936
      ],
      [
        "ডাল",
        -9.325089684050514
      ],
      [
        "▁আৰম্ভণি",
        -9.325260757060136
      ],
      [
        "খনত",
        -9.32640652163591
      ],
      [
        "▁এইখন",
        -9.328083337507765
      ],
      [
        "▁শেষত",
        -9.328991957518891
      ],
      [
        "▁গৰু",
        -9.329077604735879
      ],
      [
        "মো",
        -9.329733870593593
      ],
      [
        "▁দূৰ",
        -9.330272194742992
      ],
      [
        "▁কৌশল",
        -9.330927222550208
      ],
      [
        "▁উত্তীৰ্ণ",
        -9.330948028318279
      ],
      [
        "▁ধাৰা",
        -9.332258085422362
      ],
      [
        "▁এবিধ",
        -9.332262680497394
      ],
      [
        "স্থান",
        -9.33279310522875
      ],
      [
        "▁সিং",
        -9.333693445195859
      ],
      [
        "হীন",
        -9.334028487450146
      ],
      [
        "▁প্ৰথমবাৰ",
        -9.336386241915104
      ],
      [
        "▁স্বৰূপে",
        -9.336631303215919
      ],
      [
        "▁ইচ্ছা",
        -9.337363507194931
      ],
      [
        "ডে",
        -9.33823925476839
      ],
      [
        "েজ",
        -9.339764624309035
      ],
      [
        "লোক",
        -9.33979190113699
      ],
      [
        "▁ৰীতি",
        -9.339810454689735
      ],
      [
        "▁গান্ধীয়ে",
        -9.33984050896153
      ],
      [
        "▁প্ৰথমখন",
        -9.340443528187755
      ],
      [
        "▁লাহে",
        -9.3406283341688
      ],
      [
        "▁খু",
        -9.341295110859875
      ],
      [
        "▁চাৰিটা",
        -9.3423347947444
      ],
      [
        "▁আসন",
        -9.342986186584593
      ],
      [
        "▁মূৰ",
        -9.343082169848602
      ],
      [
        "▁ৰাজ্যিক",
        -9.343554165602576
      ],
      [
        "▁থাকোঁতে",
        -9.343597755189581
      ],
      [
        "▁বিস্তৃত",
        -9.34359790463619
      ],
      [
        "▁নাৰায়ণ",
        -9.34396966965264
      ],
      [
        "▁ৰোগৰ",
        -9.345247041545045
      ],
      [
        "▁গোটেই",
        -9.347065448242624
      ],
      [
        "▁চনলৈকে",
        -9.34739607117683
      ],
      [
        "▁খেতি",
        -9.347419541652801
      ],
      [
        "▁সংবিধান",
        -9.347857514781982
      ],
      [
        "▁ৰাখে",
        -9.348056102913903
      ],
      [
        "▁লক্ষ্মী",
        -9.348723322306942
      ],
      [
        "▁আনি",
        -9.350375776877229
      ],
      [
        "▁দশকত",
        -9.351232786130634
      ],
      [
        "▁সংগীতৰ",
        -9.351519149737683
      ],
      [
        "কৃত",
        -9.351778627318001
      ],
      [
        "▁স্পষ্ট",
        -9.352230977592203
      ],
      [
        "▁দৃষ্টি",
        -9.35240435467958
      ],
      [
        "▁আগত",
        -9.352578129143428
      ],
      [
        "▁বিল",
        -9.352722789743805
      ],
      [
        "▁ত্ৰি",
        -9.355393494679756
      ],
      [
        "▁ভিত্তি",
        -9.358055491490003
      ],
      [
        "বোৰক",
        -9.359507387465808
      ],
      [
        "▁ৰজাৰ",
        -9.359723267114266
      ],
      [
        "▁বাস্তৱ",
        -9.360769884189754
      ],
      [
        "▁মাটিৰ",
        -9.36125110411692
      ],
      [
        "▁গাঁৱত",
        -9.361565102216833
      ],
      [
        "▁এবাৰ",
        -9.36203698163111
      ],
      [
        "▁পূৰ্ণ",
        -9.363404685033766
      ],
      [
        "▁১৮৭",
        -9.364306127888963
      ],
      [
        "▁প্ৰশ্ন",
        -9.365080888753749
      ],
      [
        "▁মহ",
        -9.365913061196057
      ],
      [
        "▁দিশ",
        -9.36829777382405
      ],
      [
        "▁ৰাতি",
        -9.368427542596272
      ],
      [
        "▁শ্বে",
        -9.369384820591595
      ],
      [
        "▁সেনা",
        -9.36950708435247
      ],
      [
        "▁তালিকা",
        -9.370231970293379
      ],
      [
        "মেণ্ট",
        -9.370355361314157
      ],
      [
        "▁উপৰি",
        -9.370712197218921
      ],
      [
        "কান্ত",
        -9.371006856370705
      ],
      [
        "▁ভাতৃ",
        -9.371759748412618
      ],
      [
        "2",
        -9.37338681675891
      ],
      [
        "▁সাধু",
        -9.373915336113072
      ],
      [
        "াপ",
        -9.374416457251796
      ],
      [
        "▁স্ক",
        -9.374534650128702
      ],
      [
        "▁দেউতাক",
        -9.375193722139757
      ],
      [
        "▁নামে",
        -9.37754901789393
      ],
      [
        "▁চকু",
        -9.37774810031894
      ],
      [
        "▁অভাৱ",
        -9.378544168094617
      ],
      [
        "▁লোকসকলৰ",
        -9.379172861670702
      ],
      [
        "▁কলেজৰ",
        -9.379311877163222
      ],
      [
        "ৱৰ",
        -9.379424234383759
      ],
      [
        "▁বিমান",
        -9.379723318751108
      ],
      [
        "▁সমান",
        -9.380291152332745
      ],
      [
        "▁ক্ৰীড়া",
        -9.380398460559217
      ],
      [
        "▁আক্ৰান্ত",
        -9.380665223129176
      ],
      [
        "▁জাৰ্মান",
        -9.380688434417017
      ],
      [
        "▁কাকত",
        -9.380837973412108
      ],
      [
        "▁বৈজ্ঞানিক",
        -9.380944293297262
      ],
      [
        "বান",
        -9.381466493459106
      ],
      [
        "▁অধ্যায়",
        -9.382311971574843
      ],
      [
        "▁পৰিষদ",
        -9.384149160474205
      ],
      [
        "▁১৯৯৬",
        -9.384328875397447
      ],
      [
        "▁উদ্ধাৰ",
        -9.384850481403953
      ],
      [
        "▁জো",
        -9.38580833791741
      ],
      [
        "মূ",
        -9.386364332152326
      ],
      [
        "▁দে",
        -9.386511087817755
      ],
      [
        "বছৰ",
        -9.38657668493903
      ],
      [
        "▁যন্ত্ৰ",
        -9.387183614378422
      ],
      [
        "▁ভাগত",
        -9.388808948844545
      ],
      [
        "5",
        -9.389153809782393
      ],
      [
        "মী",
        -9.390473937674415
      ],
      [
        "▁বিদ্যালয়ত",
        -9.39104781186845
      ],
      [
        "▁লেখা",
        -9.39142022494344
      ],
      [
        "▁উপাধি",
        -9.391963113533404
      ],
      [
        "শ্ব",
        -9.392233734049267
      ],
      [
        "াৰ্ছ",
        -9.392395598688616
      ],
      [
        "▁চিকিৎসক",
        -9.393716989578188
      ],
      [
        "ণী",
        -9.394190220305724
      ],
      [
        "স্ব",
        -9.394275475609255
      ],
      [
        "▁বু",
        -9.394947980206663
      ],
      [
        "▁বুজা",
        -9.395245484364882
      ],
      [
        "▁যাদু",
        -9.395609289061088
      ],
      [
        "▁অৱসৰ",
        -9.39605206377664
      ],
      [
        "▁কলিকতা",
        -9.396288527876543
      ],
      [
        "সী",
        -9.39677093748242
      ],
      [
        "েণ্ট",
        -9.397295648766095
      ],
      [
        "ক্ৰ",
        -9.397429255428754
      ],
      [
        "▁উন্নয়ন",
        -9.398096521683993
      ],
      [
        "6",
        -9.39816269107227
      ],
      [
        "▁চিনেমা",
        -9.398210600418977
      ],
      [
        "▁পুখুৰী",
        -9.398621905520818
      ],
      [
        "▁সুযোগ",
        -9.398885265775885
      ],
      [
        "ৱতী",
        -9.399032875101703
      ],
      [
        "মত",
        -9.400523467119072
      ],
      [
        "▁প্ৰধানমন্ত্ৰী",
        -9.400573275697532
      ],
      [
        "▁সংবাদ",
        -9.400830280180156
      ],
      [
        "▁মঞ্চ",
        -9.400941183585182
      ],
      [
        "▁অনুমতি",
        -9.402697467643506
      ],
      [
        "সহ",
        -9.403137469984001
      ],
      [
        "▁হাজাৰ",
        -9.40316119904547
      ],
      [
        "টিক",
        -9.404075929180298
      ],
      [
        "মাৰ",
        -9.404191070099124
      ],
      [
        "▁সুৰক্ষা",
        -9.404251375271675
      ],
      [
        "▁শ্ৰমিক",
        -9.405351093234575
      ],
      [
        "▁কলেজত",
        -9.405958061282519
      ],
      [
        "▁আদৰ্শ",
        -9.406068775726471
      ],
      [
        "▁ঠিক",
        -9.406230982320753
      ],
      [
        "▁আৰম্ভণিতে",
        -9.406382134627467
      ],
      [
        "▁অনুষ্ঠানত",
        -9.406576056355384
      ],
      [
        "▁অভিযোগ",
        -9.407248644435434
      ],
      [
        "োপ",
        -9.408066242854495
      ],
      [
        "▁লক্ষণ",
        -9.408800403992874
      ],
      [
        "▁মো",
        -9.410066114902957
      ],
      [
        "▁প্ৰশংসা",
        -9.410416200468433
      ],
      [
        "▁প্ৰদেশৰ",
        -9.410985237145674
      ],
      [
        "▁পত্ৰ",
        -9.411905245912108
      ],
      [
        "▁হাজৰিকা",
        -9.413050320528875
      ],
      [
        "▁যোগান",
        -9.414030040527587
      ],
      [
        "▁পাৰ্থক্য",
        -9.414033697214489
      ],
      [
        "▁সংযুক্ত",
        -9.41437907309249
      ],
      [
        "▁২৭",
        -9.415803796703543
      ],
      [
        "▁নেতৃত্ব",
        -9.417260432373446
      ],
      [
        "▁আজি",
        -9.418428805190741
      ],
      [
        "▁বালি",
        -9.41898156797997
      ],
      [
        "ৱাৰ",
        -9.419464847416558
      ],
      [
        "▁ফৰ",
        -9.421348419981754
      ],
      [
        "▁১৯৬০",
        -9.421608030505169
      ],
      [
        "▁দিনৰ",
        -9.421624062169005
      ],
      [
        "▁ছয়",
        -9.422424838945197
      ],
      [
        "▁খ্ৰীষ্টপূৰ্ব",
        -9.423203152277907
      ],
      [
        "▁ধাৰাবাহিক",
        -9.42323194664342
      ],
      [
        "▁বিশ্ববিদ্যালয়ত",
        -9.423239101831737
      ],
      [
        "লিন",
        -9.424352168824203
      ],
      [
        "গুৰি",
        -9.425059389671983
      ],
      [
        "▁সৰল",
        -9.425263446217585
      ],
      [
        "▁আলি",
        -9.425298955147326
      ],
      [
        "▁গছৰ",
        -9.425386795410734
      ],
      [
        "▁উঠে",
        -9.425507802455225
      ],
      [
        "▁ৰায়",
        -9.425554143322683
      ],
      [
        "▁সেইবোৰ",
        -9.425944192898744
      ],
      [
        "যোগ্য",
        -9.426030375758701
      ],
      [
        "▁ফুট",
        -9.42624124940357
      ],
      [
        "▁বিদ্ৰোহ",
        -9.426881866179274
      ],
      [
        "▁এয়া",
        -9.427271662276329
      ],
      [
        "▁অব",
        -9.42762088335369
      ],
      [
        "8",
        -9.427707735099286
      ],
      [
        "▁কণ্ঠশিল্পী",
        -9.427835129340444
      ],
      [
        "িজ",
        -9.427921729452194
      ],
      [
        "অসমীয়া",
        -9.428651732093845
      ],
      [
        "▁কৰাটো",
        -9.428707020710242
      ],
      [
        "▁ফিল্মফেয়াৰ",
        -9.428826027202842
      ],
      [
        "▁মানি",
        -9.429513309864834
      ],
      [
        "▁সম্পদ",
        -9.430206967077183
      ],
      [
        "▁ভিতৰতে",
        -9.430653631375051
      ],
      [
        "▁উদ্যান",
        -9.431502123026831
      ],
      [
        "▁জু",
        -9.431874171184411
      ],
      [
        "▁বগা",
        -9.432269303494007
      ],
      [
        "▁কছাৰী",
        -9.432452977026696
      ],
      [
        "▁ঘৰুৱা",
        -9.432905875404742
      ],
      [
        "ধি",
        -9.433270291386062
      ],
      [
        "▁ক্ৰিয়া",
        -9.433648432359274
      ],
      [
        "ল্লা",
        -9.433874293078022
      ],
      [
        "পত্ৰ",
        -9.434228229863326
      ],
      [
        "▁বৰপেটা",
        -9.434772358154616
      ],
      [
        "▁সঙ্গীত",
        -9.435564085909768
      ],
      [
        "ষ্টাৰ",
        -9.43563428027944
      ],
      [
        "▁গতিকে",
        -9.43606846687884
      ],
      [
        "▁গান্ধীৰ",
        -9.43616071293022
      ],
      [
        "▁কাঠ",
        -9.436309411369068
      ],
      [
        "▁দেৱীৰ",
        -9.439227870447938
      ],
      [
        "▁আনকি",
        -9.439797381181524
      ],
      [
        "▁কাজ",
        -9.439977480075994
      ],
      [
        "আই",
        -9.440170592691654
      ],
      [
        "ধ্য",
        -9.441275523585574
      ],
      [
        "িয়েল",
        -9.441502557029594
      ],
      [
        "▁কাৰ্যনিৰ্বাহ",
        -9.441850298628683
      ],
      [
        "▁গাঁও",
        -9.442228126515094
      ],
      [
        "টু",
        -9.442242380903124
      ],
      [
        "▁সুন্দৰ",
        -9.442478641058749
      ],
      [
        "সু",
        -9.44266467935968
      ],
      [
        "▁বিদ্যালয়ৰ",
        -9.443338374211887
      ],
      [
        "▁ধান",
        -9.443430786694746
      ],
      [
        "▁সমিতি",
        -9.443818965114186
      ],
      [
        "ীন",
        -9.4440079231938
      ],
      [
        "▁ভগৱান",
        -9.444185621965092
      ],
      [
        "▁হাই",
        -9.445948980036267
      ],
      [
        "ণা",
        -9.446118572017408
      ],
      [
        "▁বলি",
        -9.447490089979603
      ],
      [
        "গী",
        -9.448200757232637
      ],
      [
        "▁গণিত",
        -9.448284667005005
      ],
      [
        "▁যা",
        -9.448366150940043
      ],
      [
        "▁খান",
        -9.450269826083321
      ],
      [
        "▁চো",
        -9.45038713581351
      ],
      [
        "▁জনসংখ্যা",
        -9.450985208070101
      ],
      [
        "▁দিনত",
        -9.451144574272686
      ],
      [
        "▁তাৰপিছত",
        -9.451204123115165
      ],
      [
        "▁কৰ্মী",
        -9.451947149207335
      ],
      [
        "▁ভৰ",
        -9.452085880402146
      ],
      [
        "▁নাযায়",
        -9.45357418675852
      ],
      [
        "▁একাধিক",
        -9.454033103745738
      ],
      [
        "▁যুঁজ",
        -9.454365593534206
      ],
      [
        "▁মত",
        -9.454934427026792
      ],
      [
        "▁বিভাগত",
        -9.455076286341532
      ],
      [
        "▁শইকীয়া",
        -9.455949140716351
      ],
      [
        "▁পাৰ্",
        -9.456107472372386
      ],
      [
        "▁মহাভাৰত",
        -9.456224415087062
      ],
      [
        "▁চাল",
        -9.457019952119094
      ],
      [
        "েন্দ্ৰ",
        -9.45718785615881
      ],
      [
        "▁হিচাবে",
        -9.458330009100358
      ],
      [
        "▁নিৰ্ণয়",
        -9.458332390850526
      ],
      [
        "▁ভূঞা",
        -9.458373035049469
      ],
      [
        "▁পাব",
        -9.45867705144557
      ],
      [
        "▁চহৰৰ",
        -9.459472404662124
      ],
      [
        "▁১৯৯৩",
        -9.46152599514329
      ],
      [
        "দল",
        -9.461923947397448
      ],
      [
        "▁ৱা",
        -9.462373649357566
      ],
      [
        "▁প্ৰাক্তন",
        -9.463109204991047
      ],
      [
        "▁কাৰ্যসূচী",
        -9.46315608917848
      ],
      [
        "▁অপৰাধ",
        -9.463860281104875
      ],
      [
        "জনী",
        -9.463860897352204
      ],
      [
        "▁শক্তিৰ",
        -9.465102533794495
      ],
      [
        "ভূমি",
        -9.46614375937784
      ],
      [
        "▁মুহাম্মাদ",
        -9.467910864576773
      ],
      [
        "▁চৰ্চা",
        -9.467914666407616
      ],
      [
        "▁বিভক্ত",
        -9.468447093097222
      ],
      [
        "▁প্ৰচেষ্টা",
        -9.469506508112055
      ],
      [
        "9",
        -9.470217300292454
      ],
      [
        "▁অগ্নি",
        -9.470585828452343
      ],
      [
        "▁প্ৰভাৱিত",
        -9.47099348477181
      ],
      [
        "▁গোস্বামী",
        -9.471102336284765
      ],
      [
        "▁আৰক্ষী",
        -9.471125756025597
      ],
      [
        "▁১৮৬",
        -9.47177984862699
      ],
      [
        "▁২৯",
        -9.472152679955302
      ],
      [
        "▁সাজ",
        -9.472529466313377
      ],
      [
        "▁সংসদ",
        -9.472739082950575
      ],
      [
        "▁কেৰিয়াৰ",
        -9.472783889304626
      ],
      [
        "▁মৌলিক",
        -9.47307134588827
      ],
      [
        "▁নকৰে",
        -9.473320850602391
      ],
      [
        "▁এক্স",
        -9.473919517595421
      ],
      [
        "▁টে",
        -9.473956178273056
      ],
      [
        "▁উন্নত",
        -9.474323985649658
      ],
      [
        "ৰ্ম",
        -9.474505772089167
      ],
      [
        "ধু",
        -9.475772502396346
      ],
      [
        "▁পৰ্বত",
        -9.476010392377571
      ],
      [
        "▁ব্ৰাহ্মণ",
        -9.476196571973393
      ],
      [
        "▁জুই",
        -9.477518352895597
      ],
      [
        "▁সংঘটিত",
        -9.47759263282567
      ],
      [
        "▁তোলা",
        -9.478030928549057
      ],
      [
        "▁পাত",
        -9.479016879168796
      ],
      [
        "ইড",
        -9.47945925376948
      ],
      [
        "▁কম্পিউটাৰ",
        -9.479743522401584
      ],
      [
        "▁শৰীৰ",
        -9.479830432739645
      ],
      [
        "▁)-",
        -9.479841059591074
      ],
      [
        "▁লিখি",
        -9.480107922836526
      ],
      [
        "▁মহিলাসকলে",
        -9.480243214784329
      ],
      [
        "লেণ্ড",
        -9.48077919679018
      ],
      [
        "নীত",
        -9.481835610517276
      ],
      [
        "▁বৰষুণ",
        -9.482456568567784
      ],
      [
        "দৈ",
        -9.484897615733086
      ],
      [
        "▁পেলাই",
        -9.485279744512553
      ],
      [
        "ভিত্তিক",
        -9.486289308150099
      ],
      [
        "▁হু",
        -9.487586868800978
      ],
      [
        "▁কমি",
        -9.488569646146509
      ],
      [
        "▁নেতৃত্বত",
        -9.488794938109743
      ],
      [
        "▁সম্পন্ন",
        -9.488887320251772
      ],
      [
        "ফালে",
        -9.489272075950797
      ],
      [
        "▁গণ",
        -9.489487473678121
      ],
      [
        "▁অভিহিত",
        -9.489820593518065
      ],
      [
        "▁যুক্তৰাষ্ট্ৰৰ",
        -9.489830692156804
      ],
      [
        "▁বীৰ",
        -9.490111830150049
      ],
      [
        "▁ভৰি",
        -9.490957001577815
      ],
      [
        "▁জনায়",
        -9.491200438267818
      ],
      [
        "ীকৰণ",
        -9.492978457037703
      ],
      [
        "জনৰ",
        -9.493330855080508
      ],
      [
        "▁প্ৰতিযোগিতা",
        -9.494067100962898
      ],
      [
        "ুল",
        -9.494352534600031
      ],
      [
        "▁অকাডেমি",
        -9.49474172907122
      ],
      [
        "▁প্ৰকাৰ",
        -9.495221428606659
      ],
      [
        "▁গঢ়",
        -9.49543121263767
      ],
      [
        "ষ্টা",
        -9.495795643553311
      ],
      [
        "▁[",
        -9.495905697119676
      ],
      [
        "টী",
        -9.496016519319305
      ],
      [
        "▁কেইবাখনো",
        -9.497217881331604
      ],
      [
        "ন্দা",
        -9.497323423265929
      ],
      [
        "▁থৈ",
        -9.497361197766757
      ],
      [
        "▁উচ্চতৰ",
        -9.49746077175707
      ],
      [
        "▁আমেৰিকাৰ",
        -9.497503400479408
      ],
      [
        "▁পাছলৈ",
        -9.497685796732783
      ],
      [
        "▁মানে",
        -9.497798782227507
      ],
      [
        "▁প্ৰতিবাদ",
        -9.498961213285384
      ],
      [
        "▁বায়ু",
        -9.500087769506447
      ],
      [
        "ীক",
        -9.501959195957449
      ],
      [
        "▁মোগল",
        -9.50228102023342
      ],
      [
        "▁কাটি",
        -9.502571627145525
      ],
      [
        "ফ্ৰ",
        -9.503332389446353
      ],
      [
        "▁কটন",
        -9.504333878410492
      ],
      [
        "▁ওলাই",
        -9.505212174347424
      ],
      [
        "▁চিহ্ন",
        -9.505411847400621
      ],
      [
        "নিৰ",
        -9.507779640867408
      ],
      [
        "▁স্মৃতি",
        -9.508054883740122
      ],
      [
        "ল্ল",
        -9.508489275730234
      ],
      [
        "▁কাৰক",
        -9.508871940831312
      ],
      [
        "▁এইদৰে",
        -9.508995451394716
      ],
      [
        "▁শ্ব",
        -9.50930880719942
      ],
      [
        "▁জ্যেষ্ঠ",
        -9.509685987248908
      ],
      [
        "▁লাগি",
        -9.510683082942375
      ],
      [
        "্তি",
        -9.510918170127049
      ],
      [
        "িতা",
        -9.5110246803115
      ],
      [
        "কালীন",
        -9.512039269325271
      ],
      [
        "▁ব্ৰহ্মপুত্ৰ",
        -9.512581744979258
      ],
      [
        "ুক",
        -9.512774800568465
      ],
      [
        "▁দৃশ্য",
        -9.514503000901865
      ],
      [
        "▁লোকসভা",
        -9.514887202169412
      ],
      [
        "▁প্ৰাপ্ত",
        -9.516123284820381
      ],
      [
        "▁গণেশ",
        -9.517132602898055
      ],
      [
        "▁গভীৰ",
        -9.51725456458728
      ],
      [
        "▁কিতাপখন",
        -9.517545210605304
      ],
      [
        "বাই",
        -9.517948848350047
      ],
      [
        "▁দুৰ্গা",
        -9.519976446277076
      ],
      [
        "▁অনুমান",
        -9.52044638001146
      ],
      [
        "ণ্ডাৰ",
        -9.520803347098969
      ],
      [
        "▁৩১",
        -9.52150845333584
      ],
      [
        "▁সন্মুখীন",
        -9.52233323620024
      ],
      [
        "▁পাঠ্যক্ৰম",
        -9.522333897548238
      ],
      [
        "▁স্বৰ্গ",
        -9.522452242588244
      ],
      [
        "▁আগবঢ়ায়",
        -9.522505986946008
      ],
      [
        "▁প্ৰসাৰ",
        -9.522824928199798
      ],
      [
        "▁ডলাৰ",
        -9.52336129277046
      ],
      [
        "াৰী",
        -9.523642202926265
      ],
      [
        "▁পাঠ",
        -9.52444568632703
      ],
      [
        "্ৰ",
        -9.5267691203499
      ],
      [
        "▁সঠিক",
        -9.527409057031107
      ],
      [
        "লাম",
        -9.528056132795477
      ],
      [
        "চ্ছ",
        -9.528633560197168
      ],
      [
        "▁ভিত্তিত",
        -9.52915116786416
      ],
      [
        "▁অনুৰোধ",
        -9.5299897112646
      ],
      [
        "▁গীতৰ",
        -9.52999283659597
      ],
      [
        "▁অৰণ্য",
        -9.529995633480555
      ],
      [
        "▁কেইটামান",
        -9.530055775839116
      ],
      [
        "▁আৰোপ",
        -9.53023814147793
      ],
      [
        "শ্যন",
        -9.53147487266528
      ],
      [
        "▁ট্ৰে",
        -9.531650326348146
      ],
      [
        "▁মাল",
        -9.531705187644564
      ],
      [
        "▁প্ৰাণ",
        -9.532278151165212
      ],
      [
        "▁প্ৰেৰণ",
        -9.532909143171777
      ],
      [
        "▁সোণৰ",
        -9.532909372837501
      ],
      [
        "▁চুটি",
        -9.534397141086348
      ],
      [
        "▁ষ্টে",
        -9.534461741172596
      ],
      [
        "▁ধ",
        -9.534781890145801
      ],
      [
        "▁মাংস",
        -9.535106345393075
      ],
      [
        "▁এইচ",
        -9.535574398718765
      ],
      [
        "পো",
        -9.536239919062309
      ],
      [
        "▁কংগ্ৰেছৰ",
        -9.537096592894581
      ],
      [
        "▁প্ৰয়োজনীয়",
        -9.5376258542432
      ],
      [
        "নন্দ",
        -9.537945019017656
      ],
      [
        "▁পাইছে",
        -9.538622721619015
      ],
      [
        "▁ইষ্ট",
        -9.538837699497968
      ],
      [
        "নাই",
        -9.54003967822048
      ],
      [
        "ওঁ",
        -9.540082472658582
      ],
      [
        "▁শাৰীৰিক",
        -9.5402864451146
      ],
      [
        "▁উপস্থাপন",
        -9.54289928378861
      ],
      [
        "▁আত্মা",
        -9.54348642363566
      ],
      [
        "ধন",
        -9.543660014750122
      ],
      [
        "ৱদ্ধ",
        -9.543916193670013
      ],
      [
        "▁নোহোৱা",
        -9.544286309691808
      ],
      [
        "গাৰ",
        -9.545019995714679
      ],
      [
        "▁কঠিন",
        -9.545450382305411
      ],
      [
        "▁বহল",
        -9.54580344643432
      ],
      [
        "িট",
        -9.546243257756423
      ],
      [
        "▁শীৰ্ষ",
        -9.54673419723414
      ],
      [
        "▁অভিনয়ৰ",
        -9.547107551035019
      ],
      [
        "▁বাংলাদেশ",
        -9.547250011543248
      ],
      [
        "ক্ৰমে",
        -9.547312415845724
      ],
      [
        "ষ্টি",
        -9.547683044294073
      ],
      [
        "বাসী",
        -9.548281631516655
      ],
      [
        "▁কোষ",
        -9.548317566407663
      ],
      [
        "▁নগাঁও",
        -9.548483711229451
      ],
      [
        "▁নু",
        -9.549824084187325
      ],
      [
        "▁জিলাত",
        -9.549836158636086
      ],
      [
        "▁কৰ",
        -9.550132221402379
      ],
      [
        "ড়া",
        -9.550369975663124
      ],
      [
        "▁নাগৰিক",
        -9.550392695147165
      ],
      [
        "▁৪০",
        -9.551654232973934
      ],
      [
        "লেট",
        -9.551895804411874
      ],
      [
        "তত্ত্ব",
        -9.55237051051301
      ],
      [
        "▁শতাংশ",
        -9.553323118952914
      ],
      [
        "ন্য",
        -9.554305677733645
      ],
      [
        "▁যোগেদি",
        -9.55608184046111
      ],
      [
        "▁মিলি",
        -9.556187738821539
      ],
      [
        "▁মুম্বাই",
        -9.556306483021451
      ],
      [
        "ষ্ঠ",
        -9.556375718132047
      ],
      [
        "▁বাধ্য",
        -9.556645141234325
      ],
      [
        "▁কামত",
        -9.557009015753716
      ],
      [
        "▁হোৱাত",
        -9.558444082783463
      ],
      [
        "স্থল",
        -9.55844569289538
      ],
      [
        "▁যিহেতু",
        -9.558539737934973
      ],
      [
        "▁অল",
        -9.559742396311275
      ],
      [
        "িব",
        -9.55975878895203
      ],
      [
        "মালা",
        -9.559775151616286
      ],
      [
        "▁পৰিমাণে",
        -9.561143279092542
      ],
      [
        "▁গ্ৰন্থখন",
        -9.56180426709609
      ],
      [
        "▁এড",
        -9.561821991831728
      ],
      [
        "▁দ্বীপ",
        -9.562055980723219
      ],
      [
        "▁তেতিয়াৰ",
        -9.562340541167266
      ],
      [
        "▁প্ৰথমটো",
        -9.563167928073515
      ],
      [
        "▁শিল",
        -9.563175966943245
      ],
      [
        "▁নিজা",
        -9.563589961351159
      ],
      [
        "▁পানীৰ",
        -9.564759783174544
      ],
      [
        "▁কৈছে",
        -9.564888809506773
      ],
      [
        "▁ভয়",
        -9.56529199892217
      ],
      [
        "▁আঠ",
        -9.56530241162194
      ],
      [
        "▁আকৰ্ষণ",
        -9.56633057559708
      ],
      [
        "▁মহাত্মা",
        -9.566475415540268
      ],
      [
        "▁ছূৰা",
        -9.566476398651357
      ],
      [
        "▁বসবাস",
        -9.56647646076696
      ],
      [
        "▁সম্ৰাট",
        -9.566476635267957
      ],
      [
        "▁গ্ৰীক",
        -9.567322887530604
      ],
      [
        "▁ক্লাব",
        -9.567500130317562
      ],
      [
        "বন",
        -9.56847791451505
      ],
      [
        "▁জনগোষ্ঠীৰ",
        -9.56899732701965
      ],
      [
        "▁নামকৰণ",
        -9.569811233184073
      ],
      [
        "▁বান্ধি",
        -9.570275205039968
      ],
      [
        "▁নানা",
        -9.57075189158827
      ],
      [
        "▁আধাৰত",
        -9.571014247561816
      ],
      [
        "▁ভগ্নী",
        -9.571802994381187
      ],
      [
        "▁আনে",
        -9.571936984885184
      ],
      [
        "▁সহযোগী",
        -9.572600739971936
      ],
      [
        "▁পোহৰ",
        -9.572653827696394
      ],
      [
        "▁অৱদানৰ",
        -9.573258846973914
      ],
      [
        "▁নাচ",
        -9.573661507773458
      ],
      [
        "▁লোকসকলে",
        -9.573794041999195
      ],
      [
        "▁পিতৃৰ",
        -9.574189910153692
      ],
      [
        "▁ইতিমধ্যে",
        -9.574475416640468
      ],
      [
        "▁সম্ভাৱনা",
        -9.574475459052223
      ],
      [
        "▁কাৰ্যালয়",
        -9.574555929534373
      ],
      [
        "▁সম্প্ৰদায়",
        -9.57530552214652
      ],
      [
        "ল্ট",
        -9.57542672032412
      ],
      [
        "▁বহি",
        -9.575507882127145
      ],
      [
        "▁আইনৰ",
        -9.576927275443378
      ],
      [
        "▁লু",
        -9.577312074844475
      ],
      [
        "▁বাৰ্ষিক",
        -9.57781553834847
      ],
      [
        "▁কৰোৱা",
        -9.577999351823792
      ],
      [
        "▁সমিতিৰ",
        -9.578013350645524
      ],
      [
        "▁ৰাভা",
        -9.578331739252526
      ],
      [
        "এছ",
        -9.578410114920302
      ],
      [
        "▁কৰ্মৰ",
        -9.578766292697765
      ],
      [
        "▁পিছতে",
        -9.579049100613595
      ],
      [
        "▁ছাল",
        -9.57934860599165
      ],
      [
        "▁প্ৰতিষ্ঠাপক",
        -9.579880179782664
      ],
      [
        "ৱাল",
        -9.581151831390645
      ],
      [
        "▁থা",
        -9.581164388575313
      ],
      [
        "▁শ্",
        -9.581166113537323
      ],
      [
        "▁বিষয়ক",
        -9.581841119162542
      ],
      [
        "▁খাই",
        -9.581926230332382
      ],
      [
        "▁তাই",
        -9.582096093998116
      ],
      [
        "▁চুতীয়া",
        -9.582665270783567
      ],
      [
        "▁মহাবিদ্যালয়ৰ",
        -9.582913129963726
      ],
      [
        "▁এদিন",
        -9.583320453440674
      ],
      [
        "▁ইংৰাজ",
        -9.58490464246939
      ],
      [
        "▁শুনা",
        -9.584952881942076
      ],
      [
        "▁প্ৰতিভা",
        -9.586250378774762
      ],
      [
        "▁উক্ত",
        -9.587155649261977
      ],
      [
        "▁বিশ্বযুদ্ধ",
        -9.5880786212991
      ],
      [
        "াৰে",
        -9.588090389093564
      ],
      [
        "▁সমালোচক",
        -9.5881058588622
      ],
      [
        "▁আখ্যা",
        -9.588195118838662
      ],
      [
        "▁এফ",
        -9.588333355913669
      ],
      [
        "ড়ি",
        -9.588349539526124
      ],
      [
        "▁ইণ্ডিয়ান",
        -9.588622126755704
      ],
      [
        "ৰ্চ",
        -9.588947258842845
      ],
      [
        "▁শৈলী",
        -9.589942071963538
      ],
      [
        "▁আপ",
        -9.590564571838945
      ],
      [
        "▁যুৱ",
        -9.591833482175524
      ],
      [
        "ুন",
        -9.593107382661062
      ],
      [
        "▁সোম",
        -9.593214182785685
      ],
      [
        "▁চৰ্ত",
        -9.593956907525872
      ],
      [
        "তিৰ",
        -9.594409616950863
      ],
      [
        "▁লোৱাৰ",
        -9.594564143157037
      ],
      [
        "চী",
        -9.595309968729037
      ],
      [
        "▁অলপ",
        -9.596130404342261
      ],
      [
        "▁জানিব",
        -9.596268758818098
      ],
      [
        "▁প্ৰসাদ",
        -9.59683837245953
      ],
      [
        "▁পৰিয়ালত",
        -9.597845152223137
      ],
      [
        "4",
        -9.598203612597112
      ],
      [
        "▁অনুসৰণ",
        -9.598867012051041
      ],
      [
        "▁নামটো",
        -9.599289217448959
      ],
      [
        "▁নৈ",
        -9.59988307744743
      ],
      [
        "▁নামঘৰ",
        -9.60109650120608
      ],
      [
        "শ্ৰী",
        -9.601541568196396
      ],
      [
        "▁এইবোৰ",
        -9.603715145556983
      ],
      [
        "▁ফিল্ম",
        -9.604421837812183
      ],
      [
        "▁পো",
        -9.604577092851144
      ],
      [
        "▁থাকিবলৈ",
        -9.604850527698058
      ],
      [
        "ফল",
        -9.6050664242372
      ],
      [
        "▁পৰ্যায়ত",
        -9.605194208753343
      ],
      [
        "▁ৰাখিছিল",
        -9.605229917237933
      ],
      [
        "▁বংশ",
        -9.605591381173681
      ],
      [
        "মণি",
        -9.605812237914106
      ],
      [
        "▁পঞ্চম",
        -9.606950288259181
      ],
      [
        "গাঁও",
        -9.607125882401562
      ],
      [
        "▁খ্ৰীষ্টান",
        -9.607176979705933
      ],
      [
        "▁ক্ষতি",
        -9.608018237903991
      ],
      [
        "েচন",
        -9.609245685114368
      ],
      [
        "গ্ৰ",
        -9.609726396441303
      ],
      [
        "▁বিশ্লেষণ",
        -9.609842960919448
      ],
      [
        "▁বিৱৰণ",
        -9.609909428943935
      ],
      [
        "▁কন",
        -9.610110423544068
      ],
      [
        "▁মাত",
        -9.610275745881658
      ],
      [
        "▁ছাত্ৰী",
        -9.610624310747014
      ],
      [
        "কল",
        -9.612469576903251
      ],
      [
        "▁আহৰণ",
        -9.612777626891507
      ],
      [
        "েড",
        -9.612920838336048
      ],
      [
        "মিন",
        -9.61328014545833
      ],
      [
        "পথ",
        -9.614368176166288
      ],
      [
        "চাই",
        -9.61439065154109
      ],
      [
        "▁ভক্তি",
        -9.614916329500934
      ],
      [
        "▁বন্দী",
        -9.614968571830477
      ],
      [
        "▁বিদেশী",
        -9.615323498818274
      ],
      [
        "▁জিন",
        -9.615402540714449
      ],
      [
        "▁প্ৰতিবেদন",
        -9.615466946908812
      ],
      [
        "▁উলিয়াই",
        -9.615493992857122
      ],
      [
        "▁বছৰীয়া",
        -9.615692944382525
      ],
      [
        "লতা",
        -9.61719820076759
      ],
      [
        "ুৱে",
        -9.617982413952808
      ],
      [
        "▁জলবায়ু",
        -9.61825807668976
      ],
      [
        "গল",
        -9.619235654024106
      ],
      [
        "▁আদেশ",
        -9.619263307654485
      ],
      [
        "▁তেজপুৰ",
        -9.619395071020236
      ],
      [
        "▁সম্",
        -9.61960674054179
      ],
      [
        "▁তেখেতক",
        -9.619926695481233
      ],
      [
        "লীয়া",
        -9.62050493314838
      ],
      [
        "1",
        -9.62078206200547
      ],
      [
        "▁মিলিয়ন",
        -9.621149560101408
      ],
      [
        "▁হো",
        -9.621181705589006
      ],
      [
        "▁১৯৮৮",
        -9.621204379577911
      ],
      [
        "াৱলী",
        -9.621360528896746
      ],
      [
        "▁ৰস",
        -9.62177609472532
      ],
      [
        "দেৱী",
        -9.621802736924135
      ],
      [
        "▁নাগ",
        -9.621879334961651
      ],
      [
        "▁আচৰণ",
        -9.622815241081504
      ],
      [
        "িয়াম",
        -9.623207150377613
      ],
      [
        "▁দৈনিক",
        -9.623893499663449
      ],
      [
        "▁ক্ৰম",
        -9.623982114632165
      ],
      [
        "▁আঘাত",
        -9.624204122425056
      ],
      [
        "▁অন্ত",
        -9.624566061508864
      ],
      [
        "▁নিৰ্ভৰ",
        -9.624697407194951
      ],
      [
        "প্ত",
        -9.626450422727
      ],
      [
        "▁পাকিস্তান",
        -9.627205734869783
      ],
      [
        "▁শিৱৰ",
        -9.628006376891847
      ],
      [
        "▁ফুটবল",
        -9.629669124423117
      ],
      [
        "▁শিশুৰ",
        -9.629691692096115
      ],
      [
        "▁পৰিৱেশন",
        -9.630162900389092
      ],
      [
        "▁থান",
        -9.630191790655221
      ],
      [
        "▁উচ্চতা",
        -9.630746280836966
      ],
      [
        "▁তাৰিখ",
        -9.630752912683342
      ],
      [
        "▁অংশত",
        -9.631497532670448
      ],
      [
        "▁কাহিনীৰ",
        -9.631772683210656
      ],
      [
        "দাস",
        -9.631844307557659
      ],
      [
        "মল",
        -9.631924699088952
      ],
      [
        "বিদ্যা",
        -9.632279171885084
      ],
      [
        "জগত",
        -9.632289565545733
      ],
      [
        "ৰ্য্য",
        -9.632293122965782
      ],
      [
        "▁ফৰাচী",
        -9.632343330034349
      ],
      [
        "▁প্ৰজাতি",
        -9.632422932576105
      ],
      [
        "▁ৰূপৰ",
        -9.632872232308431
      ],
      [
        "▁ভাত",
        -9.633542985775772
      ],
      [
        "▁বিবাহৰ",
        -9.633654335396002
      ],
      [
        "▁দ্বি",
        -9.634765228465554
      ],
      [
        "▁পালে",
        -9.634818842315115
      ],
      [
        "▁বিষয়বস্তু",
        -9.63523965573879
      ],
      [
        "▁১৯৮২",
        -9.63567877530523
      ],
      [
        "দে",
        -9.636102454176925
      ],
      [
        "▁মনত",
        -9.63626985431036
      ],
      [
        "▁ঠাকুৰ",
        -9.63699251768956
      ],
      [
        "▁পাছ",
        -9.637044825528012
      ],
      [
        "▁নিৰ্বাচনত",
        -9.637167907503583
      ],
      [
        "স্থিত",
        -9.637688277224544
      ],
      [
        "▁ভা",
        -9.638971805138702
      ],
      [
        "▁যেন",
        -9.639432793960227
      ],
      [
        "ৱাই",
        -9.639954194302502
      ],
      [
        "▁পৰম",
        -9.640162324865123
      ],
      [
        "্যু",
        -9.640329593646284
      ],
      [
        "ডাৰ",
        -9.64123591244728
      ],
      [
        "▁প্ৰযুক্তি",
        -9.642349207455737
      ],
      [
        "দেশ",
        -9.642593371753108
      ],
      [
        "▁ছবিখনত",
        -9.642739646311654
      ],
      [
        "▁চলচ্চিত্ৰত",
        -9.643066794113714
      ],
      [
        "▁চাৰ্",
        -9.643070218577915
      ],
      [
        "▁মাজ",
        -9.643094856649036
      ],
      [
        "3",
        -9.64347502107982
      ],
      [
        "7",
        -9.643721666966151
      ],
      [
        "▁এলবাম",
        -9.643760136076306
      ],
      [
        "▁তীব্ৰ",
        -9.643770936342406
      ],
      [
        "▁পাকিস্তানৰ",
        -9.643856347734792
      ],
      [
        "▁ওচৰৰ",
        -9.644061690773352
      ],
      [
        "ীত",
        -9.647875360269982
      ],
      [
        "ফাৰ",
        -9.648031616075613
      ],
      [
        "▁সাগৰ",
        -9.649370881316106
      ],
      [
        "নগৰ",
        -9.65039383006349
      ],
      [
        "▁ভট্টাচাৰ্য",
        -9.651775898081876
      ],
      [
        "▁ঘটা",
        -9.652017057965935
      ],
      [
        "াংগ",
        -9.652383536151174
      ],
      [
        "▁দেখুওৱা",
        -9.65240072758938
      ],
      [
        "▁ক্ৰিকেট",
        -9.652409628528726
      ],
      [
        "▁নিৰ্ধাৰণ",
        -9.652431189788054
      ],
      [
        "▁জনগোষ্ঠী",
        -9.6536123941294
      ],
      [
        "▁বাণিজ্য",
        -9.65457493491703
      ],
      [
        "▁১৯৮৭",
        -9.654961151302128
      ],
      [
        "▁বাণিজ্যিক",
        -9.65602430530047
      ],
      [
        "▁প্ৰতিৰোধ",
        -9.656660818278937
      ],
      [
        "দ্য",
        -9.657364648273381
      ],
      [
        "▁ভুল",
        -9.658145458301902
      ],
      [
        "▁গঙ্গা",
        -9.658593067833898
      ],
      [
        "▁বাঘ",
        -9.659273379438961
      ],
      [
        "▁পৰিণত",
        -9.659316024457283
      ],
      [
        "▁উপযুক্ত",
        -9.659504888585538
      ],
      [
        "▁১৯৭২",
        -9.65975688580405
      ],
      [
        "▁অৱস্থান",
        -9.660278933517082
      ],
      [
        "▁জৈৱ",
        -9.660417169345056
      ],
      [
        "▁ডিচেম্বৰত",
        -9.660576004653027
      ],
      [
        "▁প্ৰিয়",
        -9.661100712046581
      ],
      [
        "▁উদযাপন",
        -9.66160059057811
      ],
      [
        "শ্বা",
        -9.662018925892465
      ],
      [
        "▁পৃথিৱী",
        -9.662446825012276
      ],
      [
        "▁ক্ৰ",
        -9.66366551972839
      ],
      [
        "▁ৰজাই",
        -9.663786360366695
      ],
      [
        "▁অৰ্থনীতি",
        -9.663805200682102
      ],
      [
        "▁গ্ৰন্থৰ",
        -9.663932108577136
      ],
      [
        "▁উদ্ভৱ",
        -9.664068321202613
      ],
      [
        "কান",
        -9.664211298215168
      ],
      [
        "▁এছিয়াৰ",
        -9.664458178763262
      ],
      [
        "▁পঢ়ি",
        -9.664550041101462
      ],
      [
        "▁বিৰোধী",
        -9.664931854935682
      ],
      [
        "▁শ্বাহ",
        -9.665593193423112
      ],
      [
        "▁মেলা",
        -9.666214166467011
      ],
      [
        "▁চাউল",
        -9.666259715988975
      ],
      [
        "▁পদ্ম",
        -9.666429387176931
      ],
      [
        "▁বৈষ্ণৱ",
        -9.666978345911541
      ],
      [
        "▁বিধানসভা",
        -9.667003710669126
      ],
      [
        "▁জীয়া",
        -9.667011220410402
      ],
      [
        "ন্না",
        -9.667048572017215
      ],
      [
        "তাই",
        -9.667617519631175
      ],
      [
        "▁১৮৫",
        -9.668564806554622
      ],
      [
        "▁নোৱাৰি",
        -9.669285420393619
      ],
      [
        "▁বাংলাদেশৰ",
        -9.669373578114387
      ],
      [
        "▁ফ্ৰান্স",
        -9.669510602251401
      ],
      [
        "▁জনপ্ৰিয়তা",
        -9.669525656586902
      ],
      [
        "▁মহন্ত",
        -9.67016564802629
      ],
      [
        "▁বহুল",
        -9.670202115559785
      ],
      [
        "▁সংস্কাৰ",
        -9.670753213248823
      ],
      [
        "▁স্কুলত",
        -9.67143378992897
      ],
      [
        "▁প্ৰা",
        -9.671932588119112
      ],
      [
        "কুমাৰ",
        -9.671939421564094
      ],
      [
        "▁শৃংখলা",
        -9.672097500555978
      ],
      [
        "▁সম্পৰ্কিত",
        -9.672574131702875
      ],
      [
        "▁মন্দিৰৰ",
        -9.672957995413388
      ],
      [
        "▁কৰ্মজীৱন",
        -9.673034372796781
      ],
      [
        "▁ব্ৰহ্ম",
        -9.67315336651771
      ],
      [
        "▁বাঁহ",
        -9.67333705019982
      ],
      [
        "কেইখন",
        -9.675599876963037
      ],
      [
        "সূ",
        -9.676059333484599
      ],
      [
        "▁নাথাক",
        -9.67621051423143
      ],
      [
        "▁তোলে",
        -9.676418535255316
      ],
      [
        "▁একোটা",
        -9.676475747912523
      ],
      [
        "▁দান",
        -9.678037642223998
      ],
      [
        "উল",
        -9.678299864572693
      ],
      [
        "▁চিনাক্ত",
        -9.678402489225736
      ],
      [
        "▁জাহাজ",
        -9.67857155471317
      ],
      [
        "▁দৈৰ্ঘ্য",
        -9.678795204969045
      ],
      [
        "▁মৰ্যাদা",
        -9.678795290893412
      ],
      [
        "▁ঋষি",
        -9.6787970961956
      ],
      [
        "▁শাস্তি",
        -9.678831787310095
      ],
      [
        "▁বৃ",
        -9.67895009870818
      ],
      [
        "▁সীমান্ত",
        -9.679090952422047
      ],
      [
        "▁চাপ",
        -9.679395128383463
      ],
      [
        "▁দেখিবলৈ",
        -9.679751870830763
      ],
      [
        "▁উপন্যাসখন",
        -9.6801611215179
      ],
      [
        "টিৰ",
        -9.680742216149717
      ],
      [
        "▁দলে",
        -9.680892132136904
      ],
      [
        "▁মায়া",
        -9.681278542245385
      ],
      [
        "▁গাই",
        -9.68169218757058
      ],
      [
        "▁নিষিদ্ধ",
        -9.681771419291064
      ],
      [
        "▁সহজ",
        -9.682237307980277
      ],
      [
        "▁ভাইৰাছ",
        -9.68262639828188
      ],
      [
        "নাৰায়ণ",
        -9.682896943059495
      ],
      [
        "পৃষ্ঠ",
        -9.68330517687371
      ],
      [
        "▁পূ",
        -9.683508226316931
      ],
      [
        "▁আইনী",
        -9.683631264461585
      ],
      [
        "▁তালিকাত",
        -9.68427767976347
      ],
      [
        "▁ঘৰলৈ",
        -9.684378827669038
      ],
      [
        "▁নীল",
        -9.684531731393546
      ],
      [
        "▁শত্ৰু",
        -9.684798646674409
      ],
      [
        "▁আগষ্টত",
        -9.684962885811938
      ],
      [
        "▁বিবেচনা",
        -9.68520202750651
      ],
      [
        "জ্ঞ",
        -9.685459668933525
      ],
      [
        "▁ফলস্বৰূপে",
        -9.687795890855284
      ],
      [
        "বাহ",
        -9.688138900076453
      ],
      [
        "গে",
        -9.688952214083315
      ],
      [
        "▁কালৰ",
        -9.690767078786656
      ],
      [
        "▁চুলি",
        -9.690785238431431
      ],
      [
        "বৃত্ত",
        -9.690930009128163
      ],
      [
        "▁ঐতিহ্য",
        -9.693765531200667
      ],
      [
        "▁আহ্বান",
        -9.6937656720905
      ],
      [
        "▁বিতৰণ",
        -9.693826542762265
      ],
      [
        "▁অনুযায়ী",
        -9.693840022225118
      ],
      [
        "▁গ্ৰে",
        -9.694531563818778
      ],
      [
        "▁অৰ্ধ",
        -9.694667221459092
      ],
      [
        "লিক",
        -9.695927488163875
      ],
      [
        "▁নামভৰ্তি",
        -9.696786702890432
      ],
      [
        "▁বৰদলৈ",
        -9.69680426743863
      ],
      [
        "▁অৱতাৰ",
        -9.696978460783777
      ],
      [
        "▁কেইবা",
        -9.69723682324981
      ],
      [
        "▁কোটি",
        -9.697746739811942
      ],
      [
        "মাহ",
        -9.697912158040985
      ],
      [
        "▁স্থিতি",
        -9.69835817909361
      ],
      [
        "▁ৰোমান",
        -9.698408304338841
      ],
      [
        "▁পৰিৱৰ্ত",
        -9.69884582281531
      ],
      [
        "▁বৈষম্য",
        -9.69981698266507
      ],
      [
        "▁লিখিছে",
        -9.700378464399783
      ],
      [
        "▁ভাই",
        -9.700928503053664
      ],
      [
        "▁গেছ",
        -9.702189947863694
      ],
      [
        "▁ৰেকৰ্ড",
        -9.702518771379587
      ],
      [
        "▁উদ্দেশ্যে",
        -9.702527296531695
      ],
      [
        "ঙে",
        -9.702853687374704
      ],
      [
        "▁স্তৰ",
        -9.70310599899353
      ],
      [
        "কালত",
        -9.70346897709847
      ],
      [
        "▁প্ৰকৃতি",
        -9.704012085102029
      ],
      [
        "▁ঘটি",
        -9.704164173638802
      ],
      [
        "▁শাখাত",
        -9.704579093081485
      ],
      [
        "ুৰী",
        -9.70482326928519
      ],
      [
        "েশ",
        -9.704904286873163
      ],
      [
        "▁অস্তিত্ব",
        -9.7059057821772
      ],
      [
        "▁ভিডিঅ",
        -9.705983661482735
      ],
      [
        "▁নিশা",
        -9.70686117329581
      ],
      [
        "গিৰি",
        -9.707958104131421
      ],
      [
        "▁চাম",
        -9.70829538637179
      ],
      [
        "ড়ী",
        -9.708622344278602
      ],
      [
        "▁নিয়া",
        -9.708904664597174
      ],
      [
        "▁ধৰ্ষণ",
        -9.708963444973044
      ],
      [
        "▁গোচৰ",
        -9.709065269881732
      ],
      [
        "ঘাট",
        -9.709283680566852
      ],
      [
        "▁তাৰে",
        -9.709580267225391
      ],
      [
        "▁বাঢ়ি",
        -9.709974971504662
      ],
      [
        "▁চিন",
        -9.71001553990497
      ],
      [
        "াউ",
        -9.710463034888093
      ],
      [
        "▁মহাৰাষ্ট্ৰ",
        -9.710520589645203
      ],
      [
        "নেল",
        -9.710726649936285
      ],
      [
        "দেৱে",
        -9.711437877738849
      ],
      [
        "▁ভাস্কৰ",
        -9.711566860623922
      ],
      [
        "ধান",
        -9.711652808913925
      ],
      [
        "▁এচ",
        -9.711660979824543
      ],
      [
        "কোষ",
        -9.711776622594506
      ],
      [
        "▁ভৱন",
        -9.712417286141608
      ],
      [
        "ঢ়",
        -9.713888876592216
      ],
      [
        "▁দেহ",
        -9.714790436330821
      ],
      [
        "▁বহন",
        -9.715177757986552
      ],
      [
        "▁উঠা",
        -9.71518037308114
      ],
      [
        "▁অধিকাংশ",
        -9.715533978288443
      ],
      [
        "▁কৰোঁতে",
        -9.715562983223819
      ],
      [
        "▁স্ত্ৰী",
        -9.715626536592415
      ],
      [
        "▁ছাই",
        -9.715731133819851
      ],
      [
        "▁উভয়",
        -9.716197937957915
      ],
      [
        "▁কল্যাণ",
        -9.716646224774028
      ],
      [
        "▁সাহিত্যত",
        -9.71777704761785
      ],
      [
        "প্ল",
        -9.71778555364166
      ],
      [
        "▁হব",
        -9.71781025566747
      ],
      [
        "▁সঞ্চালক",
        -9.718194223512445
      ],
      [
        "▁আকাশ",
        -9.718209388035525
      ],
      [
        "▁তাইৰ",
        -9.718602242236535
      ],
      [
        "▁কিছুদিন",
        -9.718740101433937
      ],
      [
        "▁সাংবাদিক",
        -9.71904995665177
      ],
      [
        "▁পৃষ্ঠা",
        -9.719111111304638
      ],
      [
        "▁উপলব্ধ",
        -9.71957398130153
      ],
      [
        "▁মন্ত্ৰ",
        -9.720029214816552
      ],
      [
        "▁1",
        -9.72033125219368
      ],
      [
        "▁জাপানী",
        -9.720770729998343
      ],
      [
        "▁থিয়",
        -9.72096307534255
      ],
      [
        "▁একত্ৰিত",
        -9.721297262418956
      ],
      [
        "▁পৰিষদৰ",
        -9.72222997186498
      ],
      [
        "▁শৰীৰৰ",
        -9.722601480636747
      ],
      [
        "▁নাৰীৰ",
        -9.722719202582063
      ],
      [
        "▁নিৰ্মাণৰ",
        -9.723278589542396
      ],
      [
        "▁বেজবৰুৱা",
        -9.723487441099739
      ],
      [
        "▁শাস্ত্ৰীয়",
        -9.72375013760096
      ],
      [
        "▁চিহ্নিত",
        -9.723780436747674
      ],
      [
        "▁তলৰ",
        -9.724128388392602
      ],
      [
        "▁অংক",
        -9.72426065231797
      ],
      [
        "▁অব্যাহত",
        -9.724395785462809
      ],
      [
        "▁বিকশি",
        -9.724427587169647
      ],
      [
        "▁প্ৰতিনিধি",
        -9.724430748507304
      ],
      [
        "▁জন্মগ্ৰহণ",
        -9.72467991295005
      ],
      [
        "▁৬০",
        -9.725705230175656
      ],
      [
        "▁ব্যাপক",
        -9.72751613375355
      ],
      [
        "▁গৰ্ভ",
        -9.728880321021105
      ],
      [
        "▁উপায়",
        -9.729327449410452
      ],
      [
        "▁ভৰ্তি",
        -9.730747564854614
      ],
      [
        "▁সফলতা",
        -9.731255533315085
      ],
      [
        "▁জটিল",
        -9.732162885928961
      ],
      [
        "মুখী",
        -9.732239765047616
      ],
      [
        "▁নৃত্যৰ",
        -9.732695609360796
      ],
      [
        "▁মাধ্যম",
        -9.734015791148197
      ],
      [
        "▁সামৰিক",
        -9.734973961832095
      ],
      [
        "স্তা",
        -9.736028058657656
      ],
      [
        "▁জনসাধাৰণ",
        -9.736915512261831
      ],
      [
        "পট",
        -9.736951997643153
      ],
      [
        "▁নম্বৰ",
        -9.736966962469548
      ],
      [
        "▁শস্য",
        -9.737134319026211
      ],
      [
        "▁জনতা",
        -9.737941684777722
      ],
      [
        "ান্ত",
        -9.739565598568895
      ],
      [
        "▁মিশ্ৰ",
        -9.739568977741083
      ],
      [
        "▁?",
        -9.739606544374553
      ],
      [
        "▁দিল্লীৰ",
        -9.739713215185468
      ],
      [
        "▁আধ্যাত্মিক",
        -9.740070062298425
      ],
      [
        "▁প্ৰত্যক্ষ",
        -9.740197968103924
      ],
      [
        "▁অন্তিম",
        -9.740203733455877
      ],
      [
        "▁আখৰ",
        -9.74068581278308
      ],
      [
        "▁—",
        -9.740963438917689
      ],
      [
        "▁দুখ",
        -9.741629519196877
      ],
      [
        "▁পূৱ",
        -9.741842561497425
      ],
      [
        "▁আদালত",
        -9.74325380071451
      ],
      [
        "▁শিখ",
        -9.7438342026736
      ],
      [
        "▁চলা",
        -9.745049145956468
      ],
      [
        "▁দেউতাকৰ",
        -9.745227914294802
      ],
      [
        "▁মাই",
        -9.746247176729433
      ],
      [
        "▁ব্যৱসায়িক",
        -9.747611753914468
      ],
      [
        "▁পটাৰ",
        -9.7478198957321
      ],
      [
        "গড়",
        -9.747924267357028
      ],
      [
        "▁বাংলা",
        -9.749484997034164
      ],
      [
        "▁প্ৰযোজক",
        -9.749529058147292
      ],
      [
        "▁নেহৰু",
        -9.749600870074723
      ],
      [
        "ন্দ্ৰ",
        -9.749968222413091
      ],
      [
        "থে",
        -9.74997515184523
      ],
      [
        "ণ্ডা",
        -9.749983213858252
      ],
      [
        "নীৰ",
        -9.750205839016896
      ],
      [
        "▁ভাৱ",
        -9.75073410465206
      ],
      [
        "াত্মক",
        -9.751170340896918
      ],
      [
        "▁সদায়",
        -9.751310485306757
      ],
      [
        "▁চলাই",
        -9.7520110696303
      ],
      [
        "▁বাট",
        -9.752512563634633
      ],
      [
        "ত্ৰী",
        -9.75303633011255
      ],
      [
        "▁ৰাজ্যখন",
        -9.753328227301012
      ],
      [
        "▁ভক্ত",
        -9.753982167437623
      ],
      [
        "▁মালা",
        -9.754066805681042
      ],
      [
        "▁বাহ্যিক",
        -9.75430944688895
      ],
      [
        "ভূত",
        -9.75466271721023
      ],
      [
        "▁সংৰক্ষিত",
        -9.755998445590805
      ],
      [
        "▁নথকা",
        -9.755999970244844
      ],
      [
        "▁সমাধান",
        -9.756034285349676
      ],
      [
        "▁মালিক",
        -9.756109835481116
      ],
      [
        "▁একো",
        -9.756166601688633
      ],
      [
        "▁কাপুৰ",
        -9.756178536053564
      ],
      [
        "▁চলোৱা",
        -9.756368963361414
      ],
      [
        "▁মিচিং",
        -9.756370826193535
      ],
      [
        "▁কণ্ঠ",
        -9.756504559518014
      ],
      [
        "▁ৰক্ত",
        -9.757037869365934
      ],
      [
        "▁বংগ",
        -9.757688145365746
      ],
      [
        "শাল",
        -9.757738568869497
      ],
      [
        "▁সংঘ",
        -9.758769539048593
      ],
      [
        "▁সামৰি",
        -9.759866426691595
      ],
      [
        "▁কাৰ্বি",
        -9.760106197246811
      ],
      [
        "▁ঈশ্বৰ",
        -9.760466395218824
      ],
      [
        "▁সতী",
        -9.760665401613647
      ],
      [
        "মাই",
        -9.760929749778953
      ],
      [
        "▁মাত্ৰা",
        -9.761309187795401
      ],
      [
        "▁ছবিখনে",
        -9.761547600216026
      ],
      [
        "▁সাম্ৰাজ্য",
        -9.76247561627537
      ],
      [
        "▁অধিষ্ঠ",
        -9.762477549479256
      ],
      [
        "▁ৰাৱণ",
        -9.762575587247593
      ],
      [
        "▁তাতে",
        -9.76385774723994
      ],
      [
        "▁সন্তানৰ",
        -9.763885752005695
      ],
      [
        "▁সেন",
        -9.764458952925551
      ],
      [
        "বাদৰ",
        -9.76457871917653
      ],
      [
        "▁পবিত্ৰ",
        -9.765672766274275
      ],
      [
        "▁অনুসন্ধান",
        -9.765713911985436
      ],
      [
        "▁১৯৭৬",
        -9.76587093185082
      ],
      [
        "হাল",
        -9.76602474608724
      ],
      [
        "জোৰা",
        -9.767131437158632
      ],
      [
        "▁১৯৮৪",
        -9.767939129905848
      ],
      [
        "▁আঞ্চলিক",
        -9.768918413756644
      ],
      [
        "▁স্বাধীন",
        -9.769074923641847
      ],
      [
        "▁আধা",
        -9.769378144262529
      ],
      [
        "▁কৰিবলগীয়া",
        -9.769916473856668
      ],
      [
        "ভেল",
        -9.770239108621471
      ],
      [
        "▁এবছৰ",
        -9.770365788396546
      ],
      [
        "▁পৰ্যায়ৰ",
        -9.77055525360138
      ],
      [
        "ানু",
        -9.770684085968048
      ],
      [
        "ঙ্ক",
        -9.770823518168951
      ],
      [
        "্ৰে",
        -9.771753854872388
      ],
      [
        "▁২০২২",
        -9.773080934752418
      ],
      [
        "▁গৱেষণাৰ",
        -9.773120120142298
      ],
      [
        "▁বছৰে",
        -9.773481767981362
      ],
      [
        "▁প্ৰকল্প",
        -9.774682940077032
      ],
      [
        "▁শৈক্ষিক",
        -9.775443494949553
      ],
      [
        "▁তামোল",
        -9.775460937386228
      ],
      [
        "▁মুখ্যমন্ত্ৰী",
        -9.77559460182408
      ],
      [
        "▁জনোৱা",
        -9.776056460532642
      ],
      [
        "▁আখ্যান",
        -9.77649557901523
      ],
      [
        "▁কাষ",
        -9.776658125560747
      ],
      [
        "▁নিয়োগ",
        -9.777049055164557
      ],
      [
        "▁ৰঙৰ",
        -9.777400839454502
      ],
      [
        "বৈ",
        -9.777639628684746
      ],
      [
        "ছু",
        -9.778029262935556
      ],
      [
        "নীয়",
        -9.778429949862767
      ],
      [
        "▁লেখিকা",
        -9.778753064817966
      ],
      [
        "▁আঁচনি",
        -9.77894941542525
      ],
      [
        "▁সাৰ",
        -9.779083599574436
      ],
      [
        "তাত্ত্বিক",
        -9.779909235762517
      ],
      [
        "ক্ষেত্ৰ",
        -9.780594929651954
      ],
      [
        "িটি",
        -9.781437888870146
      ],
      [
        "▁সঁজুলি",
        -9.782011722941856
      ],
      [
        "যান",
        -9.782047013469088
      ],
      [
        "▁দূৰদৰ্শন",
        -9.782048535311976
      ],
      [
        "িয়াই",
        -9.782278095799684
      ],
      [
        "▁বিশাল",
        -9.783750740097496
      ],
      [
        "বীৰ",
        -9.784040004191414
      ],
      [
        "শ্ৰেষ্ঠ",
        -9.784127721502216
      ],
      [
        "▁খুব",
        -9.784609891076904
      ],
      [
        "▁সম্পত্তি",
        -9.784835457050503
      ],
      [
        "▁সন্মানিত",
        -9.785232356178613
      ],
      [
        "▁উৎসাহ",
        -9.78534813697574
      ],
      [
        "▁অস্ত্ৰ",
        -9.786158643508363
      ],
      [
        "▁শাৰী",
        -9.786401124526762
      ],
      [
        "▁ক্ষুদ্ৰ",
        -9.788623248961983
      ],
      [
        "▁কেতিয়াও",
        -9.789162099209864
      ],
      [
        "পী",
        -9.791895206224542
      ],
      [
        "▁পুঁজি",
        -9.791946229790156
      ],
      [
        "▁জগতত",
        -9.792524490610589
      ],
      [
        "▁স্থায়ী",
        -9.793486413616835
      ],
      [
        "▁পৰিবৰ্তন",
        -9.793608002389824
      ],
      [
        "▁বক্তৃতা",
        -9.79527886727089
      ],
      [
        "▁প্ৰখ্যাত",
        -9.795281543828558
      ],
      [
        "▁ষষ্ঠ",
        -9.795320787995184
      ],
      [
        "▁ধাৰণ",
        -9.79604221579886
      ],
      [
        "▁আঁতৰা",
        -9.796058019529703
      ],
      [
        "তন্ত্ৰ",
        -9.796187871057175
      ],
      [
        "▁প্ৰাক",
        -9.796778071491687
      ],
      [
        "▁অভিজ্ঞতা",
        -9.797203958371117
      ],
      [
        "▁নামত",
        -9.79737551260315
      ],
      [
        "▁সপ্তাহ",
        -9.797867782345822
      ],
      [
        "▁ৰামায়ণ",
        -9.798336686093894
      ],
      [
        "▁অস্বীকাৰ",
        -9.79862332162428
      ],
      [
        "জ্",
        -9.798719348518041
      ],
      [
        "▁\",",
        -9.799210139583122
      ],
      [
        "▁মণি",
        -9.799923735132573
      ],
      [
        "▁পাবলৈ",
        -9.800430419098994
      ],
      [
        "▁নিযুক্ত",
        -9.800821061382141
      ],
      [
        "চিত্ৰ",
        -9.801028498141239
      ],
      [
        "িয়াল",
        -9.801108979828667
      ],
      [
        "শী",
        -9.801139868553102
      ],
      [
        "▁চিকাৰ",
        -9.801211940321124
      ],
      [
        "▁বিচাৰে",
        -9.801353738011436
      ],
      [
        "পন",
        -9.80170283803619
      ],
      [
        "▁উপাসনা",
        -9.801979063683454
      ],
      [
        "ক্ষী",
        -9.802131127012611
      ],
      [
        "▁গ্ৰন্থত",
        -9.802187967066303
      ],
      [
        "▁ষ্টেচন",
        -9.802424275146878
      ],
      [
        "▁ভিন",
        -9.802570290564121
      ],
      [
        "নীতি",
        -9.80269592104758
      ],
      [
        "▁মহান",
        -9.803358675186985
      ],
      [
        "▁মৌ",
        -9.803595938542198
      ],
      [
        "▁কবিতাৰ",
        -9.803601253381903
      ],
      [
        "▁পদ্মশ্ৰী",
        -9.803612748137255
      ],
      [
        "▁কোচ",
        -9.803926700571939
      ],
      [
        "▁ভাগৱত",
        -9.804343671971731
      ],
      [
        "▁দাৰ্শনিক",
        -9.80534602747377
      ],
      [
        "▁জৈন",
        -9.805352720899629
      ],
      [
        "▁ৰেডিঅ",
        -9.805471941900876
      ],
      [
        "▁মহিলাসকলৰ",
        -9.805935472905539
      ],
      [
        "নীয়া",
        -9.80663386434789
      ],
      [
        "টিং",
        -9.806705185590015
      ],
      [
        "ুৰি",
        -9.807385634573233
      ],
      [
        "▁ফালৰ",
        -9.807574596132127
      ],
      [
        "ষা",
        -9.808465931476903
      ],
      [
        "▁লখিমপুৰ",
        -9.808724406568082
      ],
      [
        "▁পাত্ৰ",
        -9.809010543230784
      ],
      [
        "ম্বা",
        -9.809209279988405
      ],
      [
        "▁আৰ্থিক",
        -9.80922208737976
      ],
      [
        "ইছিল",
        -9.80929323202977
      ],
      [
        "ভেদ",
        -9.809557317186957
      ],
      [
        "▁বসু",
        -9.809678398280369
      ],
      [
        "▁পাৰত",
        -9.809881146867006
      ],
      [
        "▁সোণ",
        -9.810033219841472
      ],
      [
        "▁আদিত",
        -9.810437535969449
      ],
      [
        "▁অহাৰ",
        -9.81059053759428
      ],
      [
        "▁বৃত্তি",
        -9.810800350032592
      ],
      [
        "্বা",
        -9.811764883180397
      ],
      [
        "▁বৰ্ষৰ",
        -9.81190922013948
      ],
      [
        "▁মন্তব্য",
        -9.812114534488396
      ],
      [
        "জীৱন",
        -9.812154934734396
      ],
      [
        "▁গুপ্ত",
        -9.81259369436238
      ],
      [
        "▁নাথ",
        -9.813392229944082
      ],
      [
        "মণ্ডল",
        -9.814818261224694
      ],
      [
        "াচ",
        -9.814965276040159
      ],
      [
        "▁ঘাই",
        -9.815093846821648
      ],
      [
        "▁ভাৰতবৰ্ষ",
        -9.815778853628007
      ],
      [
        "▁দৰা",
        -9.816981229576042
      ],
      [
        "▁বেয়া",
        -9.816991642016696
      ],
      [
        "▁এছিয়া",
        -9.817641726660723
      ],
      [
        "▁দশম",
        -9.81872210530582
      ],
      [
        "▁ঢ",
        -9.818943373223203
      ],
      [
        "▁অৰুণাচল",
        -9.818947104412377
      ],
      [
        "▁কোঠা",
        -9.819061529362198
      ],
      [
        "সাৰ",
        -9.81956456724647
      ],
      [
        "▁জীৱনী",
        -9.819883543073082
      ],
      [
        "▁তম",
        -9.819950521635587
      ],
      [
        "য়াল",
        -9.820188228242749
      ],
      [
        "বুল",
        -9.8206514740237
      ],
      [
        "▁সাজি",
        -9.820884806067788
      ],
      [
        "▁শংকৰদেৱ",
        -9.821145509916944
      ],
      [
        "ালি",
        -9.821453472437348
      ],
      [
        "▁পুৰাণ",
        -9.822790103324605
      ],
      [
        "▁আগবঢ়াইছিল",
        -9.822906897857717
      ],
      [
        "▁সংগ্ৰাম",
        -9.823168927511206
      ],
      [
        "▁পৌৰাণিক",
        -9.825789650564946
      ],
      [
        "▁ৰূপায়ণ",
        -9.825894277069025
      ],
      [
        "▁গ্ৰাম্য",
        -9.826461177540754
      ],
      [
        "▁সজা",
        -9.826702958812525
      ],
      [
        "▁শুনি",
        -9.827103208337865
      ],
      [
        "▁বুদ্ধ",
        -9.827490818631565
      ],
      [
        "গ্ন",
        -9.827801926130029
      ],
      [
        "▁জেন",
        -9.82839211010884
      ],
      [
        "▁প্লে",
        -9.828838239241104
      ],
      [
        "▁সন্মানীয়",
        -9.828939782754365
      ],
      [
        "▁দেখুৱা",
        -9.828940916762843
      ],
      [
        "▁বিবাহপাশত",
        -9.829237939812844
      ],
      [
        "▁ৰসায়ন",
        -9.829306060363582
      ],
      [
        "▁ভূমিকাত",
        -9.829948742018953
      ],
      [
        "▁চীনৰ",
        -9.830531767864105
      ],
      [
        "▁ৰোগত",
        -9.831387422705369
      ],
      [
        "▁খোলা",
        -9.831435293149035
      ],
      [
        "▁ৰাখিব",
        -9.831628804736804
      ],
      [
        "্ৰা",
        -9.831705834022394
      ],
      [
        "▁পঞ্চ",
        -9.831868001102507
      ],
      [
        "▁ধৰিলে",
        -9.83231138755114
      ],
      [
        "ঞ্জা",
        -9.83253998667021
      ],
      [
        "▁কঢ়িয়াই",
        -9.832698229278272
      ],
      [
        "▁মহাকাব্য",
        -9.83269845516842
      ],
      [
        "▁উদ্ভাৱন",
        -9.832698597302947
      ],
      [
        "▁প্ৰতিষ্ঠ",
        -9.832803087326864
      ],
      [
        "▁ৰাজনীতি",
        -9.834023314066581
      ],
      [
        "▁ভোট",
        -9.834064275761595
      ],
      [
        "▁ব্যয়",
        -9.834192158162718
      ],
      [
        "▁সকলোৱে",
        -9.835105587817427
      ],
      [
        "▁গ্ল",
        -9.835328153437175
      ],
      [
        "▁প্ৰতিষ্ঠানৰ",
        -9.835869133301733
      ],
      [
        "▁শাস্ত্ৰ",
        -9.835879585459871
      ],
      [
        "▁কিঃমিঃ",
        -9.836170355733575
      ],
      [
        "▁শৈশৱ",
        -9.836170357106816
      ],
      [
        "▁সমুদ্ৰ",
        -9.836170500840547
      ],
      [
        "▁ফলাফল",
        -9.83617087761586
      ],
      [
        "▁পৰাজিত",
        -9.836192646557187
      ],
      [
        "▁উচিত",
        -9.836233321373037
      ],
      [
        "▁দিছ",
        -9.83626396284082
      ],
      [
        "▁মহাপুৰুষ",
        -9.836313318652646
      ],
      [
        "মিল",
        -9.83759529469909
      ],
      [
        "▁অনুষ্ঠানৰ",
        -9.838880764732226
      ],
      [
        "▁বয়সতে",
        -9.839247487804911
      ],
      [
        "▁পোন",
        -9.839271704096081
      ],
      [
        "▁কৰ্ণাটক",
        -9.83965470531176
      ],
      [
        "▁আন্তঃ",
        -9.83981301065078
      ],
      [
        "▁ৰত্ন",
        -9.840665543594596
      ],
      [
        "▁লাক্সেমবাৰ্গ",
        -9.843151179554726
      ],
      [
        "▁উপস্থিতি",
        -9.843197186998419
      ],
      [
        "▁প্ৰতিক্ৰিয়া",
        -9.843422122682155
      ],
      [
        "▁মাৰ্চত",
        -9.84375332170179
      ],
      [
        "▁কেই",
        -9.844839669595114
      ],
      [
        "এম",
        -9.846487971215208
      ],
      [
        "▁প্ৰতিযোগিতাত",
        -9.84659481298002
      ],
      [
        "▁গৱেষক",
        -9.846659967751702
      ],
      [
        "▁পৰিবহণ",
        -9.846660307165884
      ],
      [
        "▁কাৰ্যকৰী",
        -9.846689076902784
      ],
      [
        "ধৰ্মী",
        -9.847067331570443
      ],
      [
        "▁এছিয়ান",
        -9.847620447698208
      ],
      [
        "ুৰা",
        -9.84775374457633
      ],
      [
        "ক্ৰম",
        -9.849415340626763
      ],
      [
        "েৰী",
        -9.84968367728127
      ],
      [
        "বো",
        -9.849845026286086
      ],
      [
        "▁পেন",
        -9.85026319403146
      ],
      [
        "▁ওচৰ",
        -9.851537630338086
      ],
      [
        "বাহী",
        -9.852138634378637
      ],
      [
        "▁বাই",
        -9.852287020064288
      ],
      [
        "খণ্ড",
        -9.852335198842825
      ],
      [
        "▁শাসক",
        -9.852782635622727
      ],
      [
        "▁বিষয়ৰ",
        -9.852878506754525
      ],
      [
        "▁বৰণ",
        -9.853042696199902
      ],
      [
        "▁কলকাতা",
        -9.853361731821174
      ],
      [
        "▁চিত্ৰনাট্য",
        -9.85344042784864
      ],
      [
        "▁ন্যায়াধীশ",
        -9.853714647204262
      ],
      [
        "▁বাগিচা",
        -9.853726885053117
      ],
      [
        "▁প্ৰজাতিৰ",
        -9.853974190164692
      ],
      [
        "▁3",
        -9.854060325898407
      ],
      [
        "▁বাক্য",
        -9.854233598968023
      ],
      [
        ")",
        -9.854998894735346
      ],
      [
        "▁মিছ",
        -9.855050187604844
      ],
      [
        "কথা",
        -9.85622791646547
      ],
      [
        "▁প্ৰশাসন",
        -9.85669675346671
      ],
      [
        "▁বিপৰীত",
        -9.856839845765894
      ],
      [
        "ুম",
        -9.85786499110146
      ],
      [
        "▁ইউৰোপীয়",
        -9.858098251304732
      ],
      [
        "▁মাৰ্",
        -9.85843051266047
      ],
      [
        "▁লোকক",
        -9.858862621572966
      ],
      [
        "▁বিদ্যা",
        -9.859679484466067
      ],
      [
        "সন",
        -9.859994953122861
      ],
      [
        "▁ৰামৰ",
        -9.860482810096737
      ],
      [
        "▁প্ৰাৰ্থনা",
        -9.860820277327289
      ],
      [
        "▁মহম্মদ",
        -9.860829889918078
      ],
      [
        "গণ",
        -9.860904924701053
      ],
      [
        "▁ফেব্ৰুৱাৰীত",
        -9.86102209755397
      ],
      [
        "▁আগবঢ়াই",
        -9.861231046870211
      ],
      [
        "▁বিচাৰিছিল",
        -9.862093375429282
      ],
      [
        "িড",
        -9.862254586890554
      ],
      [
        "▁শংকৰ",
        -9.862920818029979
      ],
      [
        "▁তন্ত্ৰ",
        -9.863558274442653
      ],
      [
        "কালৰ",
        -9.863761274001122
      ],
      [
        "▁নকৰা",
        -9.864316687786545
      ],
      [
        "▁ক্ল",
        -9.864334662836312
      ],
      [
        "▁উষ্ণতা",
        -9.864391542752571
      ],
      [
        "▁পাট",
        -9.865039804975577
      ],
      [
        "▁বাবেই",
        -9.865287215589078
      ],
      [
        "ৰ্গ",
        -9.865473677267918
      ],
      [
        "াইড",
        -9.865788879240839
      ],
      [
        "▁ওচৰলৈ",
        -9.865999618530694
      ],
      [
        "▁এপ্ৰিলত",
        -9.866751881182038
      ],
      [
        "▁তুলনাত",
        -9.866853711176393
      ],
      [
        "াংশ",
        -9.866873674874935
      ],
      [
        "ৰোগ",
        -9.866965589212422
      ],
      [
        "▁অক্টোবৰত",
        -9.867813660531407
      ],
      [
        "▁পানীত",
        -9.867936676369528
      ],
      [
        "▁শ্ৰীমন্ত",
        -9.867976616028304
      ],
      [
        "▁বসন্ত",
        -9.867978290050164
      ],
      [
        "▁কৃষক",
        -9.868185252461926
      ],
      [
        "েৰি",
        -9.868521535407485
      ],
      [
        "োন",
        -9.868673235519982
      ],
      [
        "▁বিধান",
        -9.869076236063153
      ],
      [
        "▁পাৰ্বতী",
        -9.869548169943156
      ],
      [
        "▁জৈৱিক",
        -9.870588056072677
      ],
      [
        "▁নগা",
        -9.87145142200649
      ],
      [
        "▁সন্ধান",
        -9.87164940932195
      ],
      [
        "▁সংঘাত",
        -9.871812011345073
      ],
      [
        "▁প্ৰযোজনা",
        -9.871884680323886
      ],
      [
        "▁গদ্য",
        -9.872310331997351
      ],
      [
        "▁সপ্তম",
        -9.872848670459017
      ],
      [
        "চিয়া",
        -9.873099587945442
      ],
      [
        "▁৮০",
        -9.8736900138078
      ],
      [
        "▁দুৰ্গ",
        -9.873807835819708
      ],
      [
        "▁আন্দোলনত",
        -9.87433397878691
      ],
      [
        "▁আব",
        -9.874719513954318
      ],
      [
        "ছ্",
        -9.874810865422383
      ],
      [
        "১৯৫২",
        -9.874831739722367
      ],
      [
        "▁অতিৰিক্ত",
        -9.875182735024188
      ],
      [
        "▁পৰিধান",
        -9.875503798144806
      ],
      [
        "▁ঢোল",
        -9.875545719469738
      ],
      [
        "▁অনি",
        -9.875644182569264
      ],
      [
        "▁বিকাশৰ",
        -9.875656074420913
      ],
      [
        "▁এৱাৰ্ড",
        -9.875685056324855
      ],
      [
        "▁সেৱাৰ",
        -9.875852042145734
      ],
      [
        "▁শত",
        -9.875954298587365
      ],
      [
        "ট্ৰ",
        -9.876417608785008
      ],
      [
        "▁উন্নতি",
        -9.876435406197833
      ],
      [
        "▁জীৱনত",
        -9.876548427210867
      ],
      [
        "▁দূৰত্ব",
        -9.878204483610615
      ],
      [
        "বাৰ্গ",
        -9.878455896040649
      ],
      [
        "▁কেৰালা",
        -9.878817305750527
      ],
      [
        "▁উদাহৰণস্বৰূপে",
        -9.878860509019894
      ],
      [
        "▁মাইল",
        -9.879568274914003
      ],
      [
        "▁খণ্ডৰ",
        -9.879711561380349
      ],
      [
        "ংগা",
        -9.879731338248826
      ],
      [
        "▁২০২",
        -9.879911199773591
      ],
      [
        "ধৰ্ম",
        -9.880170561792466
      ],
      [
        "▁নাও",
        -9.880475987066415
      ],
      [
        "ভেন",
        -9.88124214315918
      ],
      [
        "▁ছোৱালীৰ",
        -9.881502565113443
      ],
      [
        "▁কইনা",
        -9.881716715872336
      ],
      [
        "▁৩৫",
        -9.882400071465582
      ],
      [
        "িলে",
        -9.882853773089813
      ],
      [
        "▁আয়াত",
        -9.882894754893714
      ],
      [
        "▁ৰোগী",
        -9.882992760817771
      ],
      [
        "্ৰি",
        -9.883067693275141
      ],
      [
        "▁ধাৰণাটো",
        -9.88344366664142
      ],
      [
        "▁বাহিনী",
        -9.883496108241335
      ],
      [
        "▁কমলা",
        -9.883835865779748
      ],
      [
        "▁মানুহক",
        -9.885000000351734
      ],
      [
        "▁বাঁহৰ",
        -9.885360279047912
      ],
      [
        "▁পতা",
        -9.885597387756011
      ],
      [
        "▁ছু",
        -9.885659582635746
      ],
      [
        "▁ৰাসায়নিক",
        -9.886091574263038
      ],
      [
        "▁প্ৰজনন",
        -9.886109574633174
      ],
      [
        "▁যুগত",
        -9.886339678187547
      ],
      [
        "চেন",
        -9.886460245090438
      ],
      [
        "▁কেনেকৈ",
        -9.886532887484254
      ],
      [
        "▁মিল",
        -9.887786913777646
      ],
      [
        "▁অৰ্জুন",
        -9.887950204105838
      ],
      [
        "▁লীগ",
        -9.889071599662683
      ],
      [
        "▁উদ্",
        -9.889101530700168
      ],
      [
        "▁অষ্ট্ৰেলিয়া",
        -9.8897545623719
      ],
      [
        "▁ইঞ্জিন",
        -9.889767383410042
      ],
      [
        "▁ভাওনা",
        -9.889776003569233
      ],
      [
        "▁জ্যোতিপ্ৰসাদ",
        -9.889806730994641
      ],
      [
        "▁ইনষ্টিটিউট",
        -9.889882130234321
      ],
      [
        "▁চহৰত",
        -9.891922430077264
      ],
      [
        "▁৯০",
        -9.892260277422041
      ],
      [
        "▁চৰ",
        -9.892751068802607
      ],
      [
        "▁ভূপেন",
        -9.893237159630248
      ],
      [
        "কেই",
        -9.893261530600597
      ],
      [
        "▁মাজুলী",
        -9.893432632514049
      ],
      [
        "▁আত্মপ্ৰকাশ",
        -9.893475062907665
      ],
      [
        "কল্প",
        -9.89356222056703
      ],
      [
        "জনিত",
        -9.893581879574299
      ],
      [
        "▁প্ৰশাসনিক",
        -9.894162628120434
      ],
      [
        "▁বিশেষজ্ঞ",
        -9.894235075626716
      ],
      [
        "▁ভাবে",
        -9.894835874936899
      ],
      [
        "▁শতিকা",
        -9.896142746391693
      ],
      [
        "োৱাৰ",
        -9.89693065394101
      ],
      [
        "▁অসুৰ",
        -9.897246478879355
      ],
      [
        "▁মাজে",
        -9.897713817709729
      ],
      [
        "খে",
        -9.897941552956532
      ],
      [
        "▁ইতিহাসৰ",
        -9.898426920953906
      ],
      [
        "▁জন্তু",
        -9.898891151978368
      ],
      [
        "▁নল",
        -9.899005121893001
      ],
      [
        "▁উপত্যকা",
        -9.899473205220811
      ],
      [
        "▁পৰিছে",
        -9.899539058118762
      ],
      [
        "▁গ্ৰাম",
        -9.899776759088908
      ],
      [
        "▁যোগাযোগ",
        -9.900824961602787
      ],
      [
        "▁আবেদন",
        -9.900828255039652
      ],
      [
        "খোৱা",
        -9.901040222118585
      ],
      [
        "গৃহ",
        -9.901574173298698
      ],
      [
        "▁ৰেখা",
        -9.90280972752349
      ],
      [
        "সেৱা",
        -9.90302226334543
      ],
      [
        "▁ৰেলৱে",
        -9.90309631932087
      ],
      [
        "▁বহুত",
        -9.903394238514355
      ],
      [
        "▁কঠোৰ",
        -9.90454267955009
      ],
      [
        "▁চলচ্চিত্ৰখন",
        -9.904727558897763
      ],
      [
        "▁বেগ",
        -9.904881435101604
      ],
      [
        "▁জৰ্জ",
        -9.904905553238848
      ],
      [
        "▁খৰচ",
        -9.905894745246961
      ],
      [
        "▁শ্ৰেণীত",
        -9.90596821580457
      ],
      [
        "▁সাধন",
        -9.90667224899999
      ],
      [
        "গ্ৰাম",
        -9.907159154755389
      ],
      [
        "দেৱৰ",
        -9.907407853421901
      ],
      [
        "▁মেক",
        -9.90757893343308
      ],
      [
        "▁কাৰণত",
        -9.907671854699226
      ],
      [
        "▁পাঠক",
        -9.908401684428767
      ],
      [
        "▁বাছনি",
        -9.908913988771527
      ],
      [
        "প্ৰসাদ",
        -9.91088779381839
      ],
      [
        "▁সন্দেহ",
        -9.912018972967793
      ],
      [
        "▁ইয়াৰোপৰি",
        -9.912027345147251
      ],
      [
        "▁অতিক্ৰম",
        -9.912365461855234
      ],
      [
        "জাই",
        -9.912378522997301
      ],
      [
        "▁খাৰ",
        -9.912528831443282
      ],
      [
        "▁ধৰণে",
        -9.913074373471744
      ],
      [
        "▁তথাপিও",
        -9.913848436327475
      ],
      [
        "শাস্ত্ৰ",
        -9.91421432878618
      ],
      [
        "▁আগবাঢ়ি",
        -9.914586497455074
      ],
      [
        "▁ধ্ৰুপদী",
        -9.915778288145258
      ],
      [
        "▁ৰাষ্ট্ৰসংঘ",
        -9.915805492031955
      ],
      [
        "▁মনোনীত",
        -9.915955192413989
      ],
      [
        "▁সুকীয়া",
        -9.915981889949556
      ],
      [
        "কৰণৰ",
        -9.916070841308843
      ],
      [
        "▁দৰ্শক",
        -9.91609966438735
      ],
      [
        "খনে",
        -9.916174330742717
      ],
      [
        "▁ৰ্ড",
        -9.916439105065555
      ],
      [
        "▁পিন্ধা",
        -9.916614287944881
      ],
      [
        "চৰণ",
        -9.917594723185186
      ],
      [
        "গান",
        -9.917870144866285
      ],
      [
        "প্ৰভা",
        -9.918240096043348
      ],
      [
        "▁ভবা",
        -9.918355336777564
      ],
      [
        "▁উদ",
        -9.918964768322807
      ],
      [
        "েশ্বৰী",
        -9.919333453760629
      ],
      [
        "▁খোজ",
        -9.91945736043137
      ],
      [
        "জিত",
        -9.919830674624954
      ],
      [
        "▁স্বৰ্ণ",
        -9.92012865716157
      ],
      [
        "▁বধ",
        -9.92061319741914
      ],
      [
        "▁মহাবিদ্যালয়ত",
        -9.921367671595899
      ],
      [
        "▁জাতিৰ",
        -9.921512644375419
      ],
      [
        "বৰ্ত",
        -9.922530674726929
      ],
      [
        "▁কাশ্মীৰ",
        -9.923339751894773
      ],
      [
        "▁চিঠি",
        -9.923381312032966
      ],
      [
        "য়ান",
        -9.923725069639474
      ],
      [
        "▁নিয়মীয়া",
        -9.923853736891505
      ],
      [
        "▁ভাস্কৰ্য",
        -9.92412089166941
      ],
      [
        "▁কমল",
        -9.924194406194287
      ],
      [
        "আৰ",
        -9.924217487041695
      ],
      [
        "ক্ষিত",
        -9.924604459223517
      ],
      [
        "▁আৰ্ট",
        -9.92491665042132
      ],
      [
        "▁ডাই",
        -9.9256083862755
      ],
      [
        "▁ভোগ",
        -9.925783897947674
      ],
      [
        "▁বয়সৰ",
        -9.925877404204883
      ],
      [
        "▁১৯৬৪",
        -9.926158392873804
      ],
      [
        "জো",
        -9.927129387799237
      ],
      [
        "▁জীয়ৰী",
        -9.927144830109427
      ],
      [
        "▁ৰুদ্ৰ",
        -9.927258695240518
      ],
      [
        "▁আহিল",
        -9.927476262798038
      ],
      [
        "▁পৰিবেশন",
        -9.927710066994972
      ],
      [
        "▁শিক্ষাবিদ",
        -9.927873257329832
      ],
      [
        "▁দেশখন",
        -9.928146176300448
      ],
      [
        "▁এপ",
        -9.928243150177657
      ],
      [
        "িঅ",
        -9.929902744746212
      ],
      [
        "▁৪৫",
        -9.930153429981925
      ],
      [
        "ানন্দ",
        -9.930530663772902
      ],
      [
        "▁তাৰা",
        -9.930569638766023
      ],
      [
        "থু",
        -9.930741219711473
      ],
      [
        "▁বিচৰা",
        -9.931343796225988
      ],
      [
        "▁হেম",
        -9.9315626007162
      ],
      [
        "▁দক্ষতা",
        -9.931626037292043
      ],
      [
        "▁মেচ",
        -9.93270019667262
      ],
      [
        "ঝ",
        -9.932961469945369
      ],
      [
        "▁গোপাল",
        -9.933028923125802
      ],
      [
        "▁ৰূপান্তৰ",
        -9.933130925189403
      ],
      [
        "▁ছপা",
        -9.933229277765076
      ],
      [
        "▁পাৰ্টি",
        -9.933347616502303
      ],
      [
        "ডিয়া",
        -9.933495701143404
      ],
      [
        "▁ঘণ্টা",
        -9.93365231526273
      ],
      [
        "▁চাব",
        -9.933765324045153
      ],
      [
        "▁মহিলাই",
        -9.934358879688098
      ],
      [
        "▁গোৱালপাৰা",
        -9.934790444641731
      ],
      [
        "▁নেপথ্য",
        -9.934790454387448
      ],
      [
        "▁উৎপাদক",
        -9.934791495289115
      ],
      [
        "▁অনুশীলন",
        -9.934793478842504
      ],
      [
        "গন",
        -9.934835973176556
      ],
      [
        "▁পূৰণ",
        -9.935255690572975
      ],
      [
        "জাত",
        -9.935296717827338
      ],
      [
        "▁বুঢ়া",
        -9.935387293901798
      ],
      [
        "▁পিঠা",
        -9.935434546887862
      ],
      [
        "▁গুটি",
        -9.935478076625076
      ],
      [
        "দৰ্শ",
        -9.935618557269695
      ],
      [
        "াৰ্চ",
        -9.936077559807956
      ],
      [
        "▁সহকাৰী",
        -9.936109281401102
      ],
      [
        "▁গায়ক",
        -9.938120735343254
      ],
      [
        "াইট",
        -9.938233472216947
      ],
      [
        "হো",
        -9.93831547610142
      ],
      [
        "▁খেলৰ",
        -9.938536579505133
      ],
      [
        "▁বৈদিক",
        -9.938641924500224
      ],
      [
        "▁ঘূৰাই",
        -9.938644457651122
      ],
      [
        "▁পিছে",
        -9.93886468819921
      ],
      [
        "▁দীঘলীয়া",
        -9.938920225022333
      ],
      [
        "দেউ",
        -9.939113005345689
      ],
      [
        "▁অভিনেত্ৰীৰ",
        -9.939355622591568
      ],
      [
        "োৰা",
        -9.939521643387428
      ],
      [
        "▁পাঁচটা",
        -9.940115843009487
      ],
      [
        "▁বংশৰ",
        -9.940757369027786
      ],
      [
        "▁তিনিখন",
        -9.941170540093426
      ],
      [
        "ৱেল",
        -9.941606934401774
      ],
      [
        "হাই",
        -9.94179153626536
      ],
      [
        "▁ঘটনাৰ",
        -9.94201033020811
      ],
      [
        "▁মোহন",
        -9.942264880806905
      ],
      [
        "▁বসতি",
        -9.94250672678548
      ],
      [
        "▁এলেকা",
        -9.942595649536457
      ],
      [
        "▁চিৰ",
        -9.943687006941143
      ],
      [
        "▁মহিলাসকলক",
        -9.944283788002775
      ],
      [
        "▁জ্যোতি",
        -9.944470005064042
      ],
      [
        "লাইন",
        -9.944707117338716
      ],
      [
        "▁সমষ্টি",
        -9.945510071825057
      ],
      [
        "▁ব্যক্তিত্ব",
        -9.945569832315645
      ],
      [
        "▁স্বৰ্গদেউ",
        -9.946446888833117
      ],
      [
        "চ্",
        -9.947477193232695
      ],
      [
        "▁হাড়",
        -9.948170254999408
      ],
      [
        "▁বৰ্ষ",
        -9.94852914749212
      ],
      [
        "▁বাদ",
        -9.949737210722361
      ],
      [
        "▁নগৰৰ",
        -9.950141311787377
      ],
      [
        "▁কামৰ",
        -9.950185764619196
      ],
      [
        "▁শাসনৰ",
        -9.950236639751061
      ],
      [
        "▁গাভৰু",
        -9.950268770283401
      ],
      [
        "জেন",
        -9.950881499792281
      ],
      [
        "▁কোৰিয়া",
        -9.950963805928271
      ],
      [
        "▁সত্ৰৰ",
        -9.951216071170915
      ],
      [
        "ানা",
        -9.951839894338537
      ],
      [
        "ায়ন",
        -9.952159828605566
      ],
      [
        "কেট",
        -9.952604045214352
      ],
      [
        "▁জগতৰ",
        -9.953512708153482
      ],
      [
        "▁ভাঙি",
        -9.954255460111444
      ],
      [
        "▁কোন",
        -9.954615408331996
      ],
      [
        "▁ফ্ৰে",
        -9.95467732822597
      ],
      [
        "▁আগ্ৰহ",
        -9.956048383207989
      ],
      [
        "▁ঠাইৰ",
        -9.956140566302166
      ],
      [
        "লেখ",
        -9.956888462491293
      ],
      [
        "সন্মত",
        -9.95702842451817
      ],
      [
        "▁উপাৰ্জন",
        -9.957738462672598
      ],
      [
        "ত্বৰ",
        -9.957940001641434
      ],
      [
        "▁ইন্দিৰা",
        -9.95809290144042
      ],
      [
        "▁তেলেগু",
        -9.958093810195336
      ],
      [
        "▁পেলায়",
        -9.958097803344302
      ],
      [
        "▁বিত্তীয়",
        -9.958388098230069
      ],
      [
        "▁থোৱা",
        -9.958518464793604
      ],
      [
        "▁বস্ত্ৰ",
        -9.959154371546504
      ],
      [
        "▁মুম্বাইৰ",
        -9.959931140203253
      ],
      [
        "▁পৰিমাণৰ",
        -9.960472454213468
      ],
      [
        "▁পূৰ্বতে",
        -9.960521332078782
      ],
      [
        "ক্ষণ",
        -9.960903119947059
      ],
      [
        "▁ব্যৱস্থাৰ",
        -9.96138568433231
      ],
      [
        "▁ভাব",
        -9.961822718207046
      ],
      [
        "▁ব্যক্তিয়ে",
        -9.961956042017139
      ],
      [
        "▁ষ্টুডিঅ",
        -9.96202927500515
      ],
      [
        "▁বিৰোধিতা",
        -9.962066823935789
      ],
      [
        "▁মিত্ৰ",
        -9.962196194053934
      ],
      [
        "▁মহকুমা",
        -9.962964745481369
      ],
      [
        "▁ব্ৰহ্মা",
        -9.96329781513467
      ],
      [
        "▁কালি",
        -9.963315693931925
      ],
      [
        "ভোজ",
        -9.964338402867472
      ],
      [
        "▁কিংবদন্তি",
        -9.96598181759136
      ],
      [
        "▁ঋতু",
        -9.965996114855027
      ],
      [
        "▁পেলোৱা",
        -9.96613289522124
      ],
      [
        "▁দুৰ্বল",
        -9.966435508338233
      ],
      [
        "▁গ্ৰহ",
        -9.966730396290671
      ],
      [
        "▁পদ্ধতিৰ",
        -9.967286633011973
      ],
      [
        "ট্ৰি",
        -9.968784720464603
      ],
      [
        "▁দুৰ্ঘটনা",
        -9.969950105919587
      ],
      [
        "▁সপোন",
        -9.969954968983561
      ],
      [
        "▁বাহিৰত",
        -9.970838117215452
      ],
      [
        "▁তুলনা",
        -9.971169006782546
      ],
      [
        "▁মেলি",
        -9.971272667488588
      ],
      [
        "বৰ্ণ",
        -9.971922659514135
      ],
      [
        "▁চৌ",
        -9.972073885355233
      ],
      [
        "কাৰ্য",
        -9.972176311155572
      ],
      [
        "▁পল",
        -9.972487633891967
      ],
      [
        "▁জগ",
        -9.972898964335544
      ],
      [
        "▁অৰ্থনীতিৰ",
        -9.973095028926686
      ],
      [
        "▁ন্যায়",
        -9.973304521226726
      ],
      [
        "▁মাতি",
        -9.973315886733591
      ],
      [
        "▁বোলছবি",
        -9.973822341949251
      ],
      [
        "▁মহাকাশ",
        -9.973918927679293
      ],
      [
        "▁টেলিভিছন",
        -9.973934147020548
      ],
      [
        "ডেন",
        -9.974096411699158
      ],
      [
        "▁সুখ",
        -9.974558435181786
      ],
      [
        "▁কৰ্মচাৰী",
        -9.974916648615665
      ],
      [
        "▁কৰায়",
        -9.975027181680366
      ],
      [
        "▁প্ৰকৃততে",
        -9.97606603201974
      ],
      [
        "▁মৰা",
        -9.97716251460609
      ],
      [
        "▁ডাক",
        -9.977284159247281
      ],
      [
        "▁ৰাজ্যত",
        -9.977302605505752
      ],
      [
        "▁গ্ৰেপ্তাৰ",
        -9.97793420394818
      ],
      [
        "▁প্ৰথমতে",
        -9.97870087584846
      ],
      [
        "▁কনিষ্ঠ",
        -9.978809942313323
      ],
      [
        "হান",
        -9.979585349205141
      ],
      [
        "ৱি",
        -9.980511148680385
      ],
      [
        "▁স্থানান্তৰ",
        -9.980653842408518
      ],
      [
        "োলা",
        -9.980761764082562
      ],
      [
        "▁দশক",
        -9.9807964830113
      ],
      [
        "▁১৮৩",
        -9.980850829500376
      ],
      [
        "জীৱ",
        -9.98090642824786
      ],
      [
        "▁আহাৰ",
        -9.981214477760517
      ],
      [
        "টিভ",
        -9.981533345277121
      ],
      [
        "▁দৌল",
        -9.981728130233218
      ],
      [
        "▁অষ্টম",
        -9.98180083642787
      ],
      [
        "▁অভিযান্ত্ৰিক",
        -9.981950199700812
      ],
      [
        "▁স্থাপত্য",
        -9.981950199860833
      ],
      [
        "য়ু",
        -9.982010391221682
      ],
      [
        "▁প্ৰৱৰ্তন",
        -9.982112153486597
      ],
      [
        "▁ওপৰৰ",
        -9.982405673525568
      ],
      [
        "িকেল",
        -9.982475730759088
      ],
      [
        "▁দো",
        -9.982909491302294
      ],
      [
        "▁চাৰিওফালে",
        -9.98346346344437
      ],
      [
        "▁বাবেও",
        -9.983887720350342
      ],
      [
        "▁কাহিনীটো",
        -9.984059533256808
      ],
      [
        "▁দণ্ড",
        -9.984208162446976
      ],
      [
        "▁দীৰ্ঘ",
        -9.98446528418463
      ],
      [
        "▁উই",
        -9.98468448510139
      ],
      [
        "িঙৰ",
        -9.98481368049137
      ],
      [
        "▁স্পৰ্শ",
        -9.985526102869642
      ],
      [
        "▁পাছৰ",
        -9.985541467464465
      ],
      [
        "▁সঁহাৰি",
        -9.985982461802447
      ],
      [
        "▁সূচনা",
        -9.985982856646661
      ],
      [
        "▁নিযুত",
        -9.9859871808395
      ],
      [
        "▁জেনেৰেল",
        -9.985992066322071
      ],
      [
        "▁নলবাৰী",
        -9.986116612258783
      ],
      [
        "▁জনসংখ্যাৰ",
        -9.986459558106976
      ],
      [
        "▁খবৰ",
        -9.987333746229258
      ],
      [
        "▁১৮৪",
        -9.98833116170555
      ],
      [
        "▁গগৈ",
        -9.989195338581112
      ],
      [
        "▁পৰিবেশ",
        -9.989641809075515
      ],
      [
        "ন্দু",
        -9.98991022490823
      ],
      [
        "▁ৰহস্য",
        -9.990036136443411
      ],
      [
        "▁মিনিট",
        -9.990057774651024
      ],
      [
        "▁সহযোগিতা",
        -9.990066471343479
      ],
      [
        "▁দুবছৰ",
        -9.99035383391919
      ],
      [
        "▁বিষ্ণুৰ",
        -9.992715283974203
      ],
      [
        "▁একেটা",
        -9.992725889428728
      ],
      [
        "▁শিষ্য",
        -9.99284106204787
      ],
      [
        "▁পৰিস্থিতি",
        -9.992949292415432
      ],
      [
        "▁অঞ্চলটো",
        -9.99306069410827
      ],
      [
        "▁আশ্ৰয়",
        -9.994096137071477
      ],
      [
        "▁নাইবা",
        -9.994105603790093
      ],
      [
        "▁ওখ",
        -9.994655421013075
      ],
      [
        "ক্ল",
        -9.995327541882599
      ],
      [
        "বালা",
        -9.995354626329805
      ],
      [
        "চোৱা",
        -9.995447403581556
      ],
      [
        "▁পাতনি",
        -9.996247261520445
      ],
      [
        "মাল",
        -9.996823542936305
      ],
      [
        "▁ক্ৰয়",
        -9.997060163102214
      ],
      [
        "য়ন",
        -9.997065429836557
      ],
      [
        "▁নিৰ্দেশনা",
        -9.99725076431646
      ],
      [
        "▁স্থাপিত",
        -9.998177787279577
      ],
      [
        "▁গাখীৰ",
        -9.998177922339295
      ],
      [
        "▁নিউয়ৰ্ক",
        -9.998177928777526
      ],
      [
        "▁কাৰ্যকলাপ",
        -9.99817818030622
      ],
      [
        "▁স্বীকাৰ",
        -9.998186269025986
      ],
      [
        "▁প্ৰদৰ্শি",
        -9.998256003424341
      ],
      [
        "▁গোটৰ",
        -9.99835325152032
      ],
      [
        "▁এজনী",
        -9.999924558649798
      ],
      [
        "ম্মা",
        -10.00003383918444
      ],
      [
        "▁দেহৰ",
        -10.000870234994961
      ],
      [
        "▁গৰম",
        -10.000940622763014
      ],
      [
        "▁১৮২",
        -10.001222475383628
      ],
      [
        "উট",
        -10.002026231750836
      ],
      [
        "▁প্ৰকৃতিৰ",
        -10.002241902065755
      ],
      [
        "▁সৰস্বতী",
        -10.002276081417168
      ],
      [
        "▁ষ্টেডিয়াম",
        -10.002276576024292
      ],
      [
        "দূত",
        -10.0026966591003
      ],
      [
        "▁সংঘৰ",
        -10.003938346647827
      ],
      [
        "গুণ",
        -10.004020957513745
      ],
      [
        "▁খায়",
        -10.004313388684075
      ],
      [
        "▁বিস্তাৰ",
        -10.00452233283244
      ],
      [
        "▁লাও",
        -10.004558234456116
      ],
      [
        "▁কণী",
        -10.005218086654901
      ],
      [
        "পাদ",
        -10.005868126855454
      ],
      [
        "▁দ্ৰুত",
        -10.006410693814171
      ],
      [
        "▁সত্যজিৎ",
        -10.006514316192291
      ],
      [
        "▁সব",
        -10.006595483456682
      ],
      [
        "▁মহানগৰ",
        -10.006770122544602
      ],
      [
        "▁দুৱাৰ",
        -10.006820995875884
      ],
      [
        "ভু",
        -10.00776379362696
      ],
      [
        "▁খেলা",
        -10.01015164976047
      ],
      [
        "স্ম",
        -10.010756598271708
      ],
      [
        "চ্চ",
        -10.010920100161584
      ],
      [
        "▁প্ৰসিদ্ধ",
        -10.011017068176153
      ],
      [
        "▁কাঠৰ",
        -10.01123597670033
      ],
      [
        "▁পাছতে",
        -10.011665031643556
      ],
      [
        "▁মাটিত",
        -10.012069918673154
      ],
      [
        "▁গীতটো",
        -10.01243040508026
      ],
      [
        "▁হৃদয়",
        -10.012596320892413
      ],
      [
        "▁অত্য",
        -10.012628920344019
      ],
      [
        "▁লো",
        -10.013319733772041
      ],
      [
        "▁তৰা",
        -10.013325018976046
      ],
      [
        "▁সেনাৰ",
        -10.013332786919324
      ],
      [
        "ৰ্জ",
        -10.013580310724448
      ],
      [
        "ওঁতে",
        -10.01457787867172
      ],
      [
        "▁স্বাভাৱিক",
        -10.014672910158493
      ],
      [
        "ছী",
        -10.01479993777733
      ],
      [
        "▁জনজাতীয়",
        -10.015071218530025
      ],
      [
        "▁কল্পনা",
        -10.015348151564158
      ],
      [
        "▁বস্তুৰ",
        -10.01555829150502
      ],
      [
        "▁অলিম্পিকত",
        -10.016068295866436
      ],
      [
        "পুত্ৰ",
        -10.01614257388978
      ],
      [
        "পাৰা",
        -10.016785538787687
      ],
      [
        "▁পুনৰ্",
        -10.017995429066989
      ],
      [
        "ৰ্ছ",
        -10.018415037878537
      ],
      [
        "▁পোৱাৰ",
        -10.018674260756963
      ],
      [
        "▁সেইসময়ত",
        -10.018707711150096
      ],
      [
        "▁সুৰক্ষিত",
        -10.019021886663868
      ],
      [
        "▁জাল",
        -10.019547421906665
      ],
      [
        "▁চৰাইৰ",
        -10.020248760544048
      ],
      [
        "▁বিপদ",
        -10.020440948654946
      ],
      [
        "▁ৰাগ",
        -10.020988848496987
      ],
      [
        "▁কাষত",
        -10.021521224441635
      ],
      [
        "▁জুলাইত",
        -10.021592721515358
      ],
      [
        "দম",
        -10.021612596411606
      ],
      [
        "▁তাল",
        -10.021689700878907
      ],
      [
        "▁অধ্যয়নৰ",
        -10.022467358611003
      ],
      [
        "▁সমসাময়িক",
        -10.023023677108466
      ],
      [
        "▁পোছাক",
        -10.023027908324579
      ],
      [
        "ওৱা",
        -10.023306204974801
      ],
      [
        "▁ৰাখিবলৈ",
        -10.023450015341055
      ],
      [
        "▁বিন",
        -10.024102199271603
      ],
      [
        "িঙ",
        -10.024221509262613
      ],
      [
        "▁ন্যায়ালয়ৰ",
        -10.02478080823536
      ],
      [
        "লয়",
        -10.025658465240664
      ],
      [
        "াধিকাৰ",
        -10.025778104400633
      ],
      [
        "▁বাহন",
        -10.026167882887894
      ],
      [
        "ছিয়া",
        -10.026699826040831
      ],
      [
        "▁শতাব্দী",
        -10.027225457090832
      ],
      [
        "▁গৌৰী",
        -10.027228697082652
      ],
      [
        "▁সংঘৰ্ষ",
        -10.027284543756652
      ],
      [
        "▁আশ্ৰম",
        -10.027586683106591
      ],
      [
        "▁প্ৰকাশক",
        -10.027854287465349
      ],
      [
        "অসমৰ",
        -10.028055564592696
      ],
      [
        "▁শৰ্মাৰ",
        -10.028066645556411
      ],
      [
        ".",
        -10.028624252231355
      ],
      [
        "ুৱাই",
        -10.029006776177653
      ],
      [
        "▁ইংলেণ্ড",
        -10.029052601306123
      ],
      [
        "কাম",
        -10.029102283287157
      ],
      [
        "টাই",
        -10.03042543363335
      ],
      [
        "ৱন",
        -10.030522034792867
      ],
      [
        "▁কোম্পানীৰ",
        -10.031206588315314
      ],
      [
        "▁সমাপ্ত",
        -10.03142377771111
      ],
      [
        "▁ইহুদী",
        -10.031445120619
      ],
      [
        "▁বিয়পি",
        -10.031450891306475
      ],
      [
        "▁পছন্দ",
        -10.03145343429247
      ],
      [
        "▁স্বাক্ষৰ",
        -10.031488796927238
      ],
      [
        "▁জীয়েক",
        -10.031494767847324
      ],
      [
        "▁বনাঞ্চল",
        -10.03152819925125
      ],
      [
        "▁সিংহৰ",
        -10.03173970693295
      ],
      [
        "▁আগৰৱালা",
        -10.03188611382836
      ],
      [
        "▁বছৰতে",
        -10.032379699788404
      ],
      [
        "কৰ্তা",
        -10.033932810477529
      ],
      [
        "▁দিশৰ",
        -10.034226955103449
      ],
      [
        "▁উৎসৱৰ",
        -10.03438901807445
      ],
      [
        "ঝা",
        -10.034555134819051
      ],
      [
        "▁স্বামীৰ",
        -10.034692726232748
      ],
      [
        "▁ৰাক্ষস",
        -10.035692417824876
      ],
      [
        "▁মূৰত",
        -10.036216007561578
      ],
      [
        "কৃতি",
        -10.036335160619304
      ],
      [
        "▁নাতি",
        -10.036573027238017
      ],
      [
        "▁এডাল",
        -10.036683763026833
      ],
      [
        "ত্যন্ত",
        -10.036862070487278
      ],
      [
        "▁ক্ষেত্ৰখন",
        -10.037120594482072
      ],
      [
        "▁সকলোবোৰ",
        -10.037139266294457
      ],
      [
        "▁গজ",
        -10.037202007606451
      ],
      [
        "ৰাজ্য",
        -10.037557176894765
      ],
      [
        "▁সমল",
        -10.037851740897489
      ],
      [
        "▁কমিটি",
        -10.038448512329179
      ],
      [
        "▁জোখ",
        -10.039144639875683
      ],
      [
        "স্তি",
        -10.039654800557653
      ],
      [
        "▁মণিপুৰ",
        -10.039656985194226
      ],
      [
        "▁জনাই",
        -10.039685596460806
      ],
      [
        "▁মুৰব্বী",
        -10.039937401538907
      ],
      [
        "▁প্ৰব্ৰজন",
        -10.03993868675245
      ],
      [
        "েণ্ড",
        -10.04018887202837
      ],
      [
        "ভাৰতৰ",
        -10.04032237163741
      ],
      [
        "▁খণ্ডত",
        -10.041242825871507
      ],
      [
        "▁হাইস্কুল",
        -10.041490910469605
      ],
      [
        "▁তৰুণ",
        -10.04153248307015
      ],
      [
        "▁জুনত",
        -10.041571537955317
      ],
      [
        "▁শাক",
        -10.041706434922943
      ],
      [
        "▁সাধনা",
        -10.042087060085382
      ],
      [
        "▁গাওঁ",
        -10.042136770453045
      ],
      [
        "ডো",
        -10.042206105913682
      ],
      [
        "▁বছৰত",
        -10.042494649883558
      ],
      [
        "▁আকৃতিৰ",
        -10.04259448963737
      ],
      [
        "ধী",
        -10.042689154766274
      ],
      [
        "▁নায়ক",
        -10.042755932160258
      ],
      [
        "▁চৰিত",
        -10.042859223103186
      ],
      [
        "কৰ্ম",
        -10.04314945754513
      ],
      [
        "▁ইমান",
        -10.043785093578048
      ],
      [
        "▁সাম্ৰাজ্যৰ",
        -10.0441573237208
      ],
      [
        "▁আত্মজীৱনী",
        -10.044211401125175
      ],
      [
        "▁খিতাপ",
        -10.0442126143356
      ],
      [
        "▁পৰিসৰ",
        -10.044360382688874
      ],
      [
        "▁...",
        -10.044472680845175
      ],
      [
        "▁বিভাজন",
        -10.044798179297588
      ],
      [
        "▁বিন্দু",
        -10.045038396628492
      ],
      [
        "গঠিত",
        -10.045062701671096
      ],
      [
        "▁চিকিৎসাৰ",
        -10.045528277018283
      ],
      [
        "▁শ্ৰম",
        -10.045730932245746
      ],
      [
        "দ্বাৰ",
        -10.045800771666102
      ],
      [
        "▁শৰ্মাই",
        -10.046460030886607
      ],
      [
        "যা",
        -10.04725734716693
      ],
      [
        "নেট",
        -10.047437636629216
      ],
      [
        "▁ৰাইজৰ",
        -10.048060431225561
      ],
      [
        "▁তিনিজন",
        -10.048132962366335
      ],
      [
        "▁ৱৰ্ল্ড",
        -10.048502758208656
      ],
      [
        "▁সোনকালে",
        -10.048505570376822
      ],
      [
        "▁বাৰ্তা",
        -10.048525486969226
      ],
      [
        "▁১৯৪০",
        -10.048574318927312
      ],
      [
        "▁আব্দুল",
        -10.048606056495363
      ],
      [
        "▁উপহাৰ",
        -10.049643462718247
      ],
      [
        "মূল",
        -10.05012321617138
      ],
      [
        "ৰ্ষ",
        -10.05039441448925
      ],
      [
        "▁বক্স",
        -10.050491550827154
      ],
      [
        "লাভ",
        -10.050545519922796
      ],
      [
        "▁ঈশ্বৰৰ",
        -10.051135010726238
      ],
      [
        "দূৰ",
        -10.051311807886346
      ],
      [
        "▁সহায়ক",
        -10.051419319775114
      ],
      [
        "▁পাকিস্তানী",
        -10.052423377724093
      ],
      [
        "▁কিশোৰ",
        -10.052426560025843
      ],
      [
        "▁সমান্তৰাল",
        -10.052813084167017
      ],
      [
        "▁উৎপন্ন",
        -10.05284330396976
      ],
      [
        "▁ইউনিয়ন",
        -10.0528477171919
      ],
      [
        "▁পাপ",
        -10.053309284938276
      ],
      [
        "▁পাণ",
        -10.05333314776399
      ],
      [
        "▁চিকিৎসালয়",
        -10.053673078573222
      ],
      [
        "▁গ্ৰন্থখনৰ",
        -10.053968803081862
      ],
      [
        "▁ইছলামিক",
        -10.054567900135247
      ],
      [
        "▁নেপাল",
        -10.0546257627929
      ],
      [
        "্স",
        -10.056999905109665
      ],
      [
        "▁বৈদ্যুতিক",
        -10.057142076605594
      ],
      [
        "▁গৌৰৱ",
        -10.057142273107228
      ],
      [
        "▁সিংহাসন",
        -10.057142387867213
      ],
      [
        "▁কেঁচা",
        -10.057150534685526
      ],
      [
        "প্ৰা",
        -10.057264141648789
      ],
      [
        "▁পদুম",
        -10.057416816278781
      ],
      [
        "▁বজাৰত",
        -10.058074048650798
      ],
      [
        "ৰাগ",
        -10.058278837815092
      ],
      [
        "এন",
        -10.058623580757583
      ],
      [
        "াইন",
        -10.059682186557339
      ],
      [
        "▁চৰিত্ৰৰ",
        -10.059724342704921
      ],
      [
        "▁অন্তত",
        -10.059800113153226
      ],
      [
        "▁যুক্তৰাষ্ট্ৰ",
        -10.060431705327957
      ],
      [
        "▁সমন্বয়",
        -10.061489906650962
      ],
      [
        "▁অবিহনে",
        -10.061489908399155
      ],
      [
        "▁পদক্ষেপ",
        -10.061600133480386
      ],
      [
        "▁নৃত্যশিল্পী",
        -10.061689039876242
      ],
      [
        "▁দাঙি",
        -10.06171785037018
      ],
      [
        "▁লুই",
        -10.061994450959613
      ],
      [
        "▁মাকৰ",
        -10.063329950070056
      ],
      [
        "কেন্দ্ৰ",
        -10.063695995268727
      ],
      [
        "▁কলিতা",
        -10.063967121366776
      ],
      [
        "▁লিখিত",
        -10.064238656460585
      ],
      [
        "চিন",
        -10.06467490096014
      ],
      [
        "▁আক্ৰমণৰ",
        -10.065047070805324
      ],
      [
        "▁ইটালী",
        -10.065084314822826
      ],
      [
        "ৱেই",
        -10.065356265992929
      ],
      [
        "ছাৰ",
        -10.06542329784056
      ],
      [
        "▁সংস্থাৰ",
        -10.065584294447518
      ],
      [
        "▁সৈনিক",
        -10.06585702949246
      ],
      [
        "▁ঘোঁৰা",
        -10.065857088648945
      ],
      [
        "▁ভায়েক",
        -10.065904497313626
      ],
      [
        "জুৰি",
        -10.066039853997161
      ],
      [
        "▁শঙ্কৰদেৱ",
        -10.066829402481066
      ],
      [
        "▁অতিথি",
        -10.066964958905317
      ],
      [
        "▁মাধ্যমত",
        -10.067388671696717
      ],
      [
        "▁সম্পূৰ্ণৰূপ",
        -10.06797583020354
      ],
      [
        "▁৭০",
        -10.068337963756594
      ],
      [
        "▁উৎ",
        -10.068529693071698
      ],
      [
        "▁ইটা",
        -10.068581743113093
      ],
      [
        "▁অসুবিধা",
        -10.070242679297937
      ],
      [
        "▁গ্ৰুপ",
        -10.070256278390033
      ],
      [
        "▁নিৰ্মাতা",
        -10.07030249258097
      ],
      [
        "▁বৰ্ষত",
        -10.070902756418175
      ],
      [
        "জিয়া",
        -10.070964803020352
      ],
      [
        "▁দেৱালয়",
        -10.071954454517492
      ],
      [
        "িয়াছ",
        -10.072124551315017
      ],
      [
        "মণ্ড",
        -10.073000095293628
      ],
      [
        "▁দিনটো",
        -10.073185348177715
      ],
      [
        "ঙি",
        -10.073437990789744
      ],
      [
[...]
